{
  "version": "1.0",
  "truncation": null,
  "padding": null,
  "added_tokens": [
    {
      "id": 0,
      "content": "<s>",
      "single_word": false,
      "lstrip": false,
      "rstrip": false,
      "normalized": false,
      "special": true
    },
    {
      "id": 1,
      "content": "<pad>",
      "single_word": false,
      "lstrip": false,
      "rstrip": false,
      "normalized": false,
      "special": true
    },
    {
      "id": 2,
      "content": "</s>",
      "single_word": false,
      "lstrip": false,
      "rstrip": false,
      "normalized": false,
      "special": true
    },
    {
      "id": 3,
      "content": "<unk>",
      "single_word": false,
      "lstrip": false,
      "rstrip": false,
      "normalized": false,
      "special": true
    },
    {
      "id": 4,
      "content": "<mask>",
      "single_word": false,
      "lstrip": false,
      "rstrip": false,
      "normalized": false,
      "special": true
    }
  ],
  "normalizer": null,
  "pre_tokenizer": {
    "type": "ByteLevel",
    "add_prefix_space": true,
    "trim_offsets": true,
    "use_regex": true
  },
  "post_processor": {
    "type": "TemplateProcessing",
    "single": [
      {
        "SpecialToken": {
          "id": "<s>",
          "type_id": 0
        }
      },
      {
        "Sequence": {
          "id": "A",
          "type_id": 0
        }
      },
      {
        "SpecialToken": {
          "id": "</s>",
          "type_id": 0
        }
      }
    ],
    "pair": [
      {
        "SpecialToken": {
          "id": "<s>",
          "type_id": 0
        }
      },
      {
        "Sequence": {
          "id": "A",
          "type_id": 0
        }
      },
      {
        "SpecialToken": {
          "id": "</s>",
          "type_id": 0
        }
      },
      {
        "SpecialToken": {
          "id": "</s>",
          "type_id": 0
        }
      },
      {
        "Sequence": {
          "id": "B",
          "type_id": 0
        }
      },
      {
        "SpecialToken": {
          "id": "</s>",
          "type_id": 0
        }
      }
    ],
    "special_tokens": {
      "</s>": {
        "id": "</s>",
        "ids": [
          2
        ],
        "tokens": [
          "</s>"
        ]
      },
      "<s>": {
        "id": "<s>",
        "ids": [
          0
        ],
        "tokens": [
          "<s>"
        ]
      }
    }
  },
  "decoder": {
    "type": "ByteLevel",
    "add_prefix_space": true,
    "trim_offsets": true,
    "use_regex": true
  },
  "model": {
    "type": "BPE",
    "dropout": null,
    "unk_token": "<unk>",
    "continuing_subword_prefix": null,
    "end_of_word_suffix": null,
    "fuse_unk": false,
    "byte_fallback": false,
    "ignore_merges": false,
    "vocab": {
      "<s>": 0,
      "<pad>": 1,
      "</s>": 2,
      "<unk>": 3,
      "<mask>": 4,
      "!": 5,
      "\"": 6,
      "#": 7,
      "$": 8,
      "%": 9,
      "&": 10,
      "'": 11,
      "(": 12,
      ")": 13,
      "*": 14,
      "+": 15,
      ",": 16,
      "-": 17,
      ".": 18,
      "/": 19,
      "0": 20,
      "1": 21,
      "2": 22,
      "3": 23,
      "4": 24,
      "5": 25,
      "6": 26,
      "7": 27,
      "8": 28,
      "9": 29,
      ":": 30,
      ";": 31,
      "<": 32,
      "=": 33,
      ">": 34,
      "?": 35,
      "@": 36,
      "A": 37,
      "B": 38,
      "C": 39,
      "D": 40,
      "E": 41,
      "F": 42,
      "G": 43,
      "H": 44,
      "I": 45,
      "J": 46,
      "K": 47,
      "L": 48,
      "M": 49,
      "N": 50,
      "O": 51,
      "P": 52,
      "Q": 53,
      "R": 54,
      "S": 55,
      "T": 56,
      "U": 57,
      "V": 58,
      "W": 59,
      "X": 60,
      "Y": 61,
      "Z": 62,
      "[": 63,
      "\\": 64,
      "]": 65,
      "^": 66,
      "_": 67,
      "`": 68,
      "a": 69,
      "b": 70,
      "c": 71,
      "d": 72,
      "e": 73,
      "f": 74,
      "g": 75,
      "h": 76,
      "i": 77,
      "j": 78,
      "k": 79,
      "l": 80,
      "m": 81,
      "n": 82,
      "o": 83,
      "p": 84,
      "q": 85,
      "r": 86,
      "s": 87,
      "t": 88,
      "u": 89,
      "v": 90,
      "w": 91,
      "x": 92,
      "y": 93,
      "z": 94,
      "{": 95,
      "|": 96,
      "}": 97,
      "~": 98,
      "¡": 99,
      "¢": 100,
      "£": 101,
      "¤": 102,
      "¥": 103,
      "¦": 104,
      "§": 105,
      "¨": 106,
      "©": 107,
      "ª": 108,
      "«": 109,
      "¬": 110,
      "®": 111,
      "¯": 112,
      "°": 113,
      "±": 114,
      "²": 115,
      "³": 116,
      "´": 117,
      "µ": 118,
      "¶": 119,
      "·": 120,
      "¸": 121,
      "¹": 122,
      "º": 123,
      "»": 124,
      "¼": 125,
      "½": 126,
      "¾": 127,
      "¿": 128,
      "À": 129,
      "Á": 130,
      "Â": 131,
      "Ã": 132,
      "Ä": 133,
      "Å": 134,
      "Æ": 135,
      "Ç": 136,
      "È": 137,
      "É": 138,
      "Ê": 139,
      "Ë": 140,
      "Ì": 141,
      "Í": 142,
      "Î": 143,
      "Ï": 144,
      "Ð": 145,
      "Ñ": 146,
      "Ò": 147,
      "Ó": 148,
      "Ô": 149,
      "Õ": 150,
      "Ö": 151,
      "×": 152,
      "Ø": 153,
      "Ù": 154,
      "Ú": 155,
      "Û": 156,
      "Ü": 157,
      "Ý": 158,
      "Þ": 159,
      "ß": 160,
      "à": 161,
      "á": 162,
      "â": 163,
      "ã": 164,
      "ä": 165,
      "å": 166,
      "æ": 167,
      "ç": 168,
      "è": 169,
      "é": 170,
      "ê": 171,
      "ë": 172,
      "ì": 173,
      "í": 174,
      "î": 175,
      "ï": 176,
      "ð": 177,
      "ñ": 178,
      "ò": 179,
      "ó": 180,
      "ô": 181,
      "õ": 182,
      "ö": 183,
      "÷": 184,
      "ø": 185,
      "ù": 186,
      "ú": 187,
      "û": 188,
      "ü": 189,
      "ý": 190,
      "þ": 191,
      "ÿ": 192,
      "Ā": 193,
      "ā": 194,
      "Ă": 195,
      "ă": 196,
      "Ą": 197,
      "ą": 198,
      "Ć": 199,
      "ć": 200,
      "Ĉ": 201,
      "ĉ": 202,
      "Ċ": 203,
      "ċ": 204,
      "Č": 205,
      "č": 206,
      "Ď": 207,
      "ď": 208,
      "Đ": 209,
      "đ": 210,
      "Ē": 211,
      "ē": 212,
      "Ĕ": 213,
      "ĕ": 214,
      "Ė": 215,
      "ė": 216,
      "Ę": 217,
      "ę": 218,
      "Ě": 219,
      "ě": 220,
      "Ĝ": 221,
      "ĝ": 222,
      "Ğ": 223,
      "ğ": 224,
      "Ġ": 225,
      "ġ": 226,
      "Ģ": 227,
      "ģ": 228,
      "Ĥ": 229,
      "ĥ": 230,
      "Ħ": 231,
      "ħ": 232,
      "Ĩ": 233,
      "ĩ": 234,
      "Ī": 235,
      "ī": 236,
      "Ĭ": 237,
      "ĭ": 238,
      "Į": 239,
      "į": 240,
      "İ": 241,
      "ı": 242,
      "Ĳ": 243,
      "ĳ": 244,
      "Ĵ": 245,
      "ĵ": 246,
      "Ķ": 247,
      "ķ": 248,
      "ĸ": 249,
      "Ĺ": 250,
      "ĺ": 251,
      "Ļ": 252,
      "ļ": 253,
      "Ľ": 254,
      "ľ": 255,
      "Ŀ": 256,
      "ŀ": 257,
      "Ł": 258,
      "ł": 259,
      "Ń": 260,
      "á»": 261,
      "á»į": 262,
      "áº": 263,
      "áº¹": 264,
      "Ġa": 265,
      "ti": 266,
      "Ġi": 267,
      "Ġn": 268,
      "wá»į": 269,
      "Ġo": 270,
      "wá»įn": 271,
      "á¹": 272,
      "á¹£": 273,
      "Ġni": 274,
      "Ġti": 275,
      "Ġl": 276,
      "gb": 277,
      "an": 278,
      "un": 279,
      "Ġawá»įn": 280,
      "Ġk": 281,
      "ri": 282,
      "Ġp": 283,
      "si": 284,
      "Ġf": 285,
      "Ġt": 286,
      "Ġá¹£": 287,
      "ra": 288,
      "Ġá»į": 289,
      "Ġla": 290,
      "Ġb": 291,
      "Ġati": 292,
      "in": 293,
      "Ġd": 294,
      "Ġj": 295,
      "Ġm": 296,
      "Ġw": 297,
      "Ġsi": 298,
      "Ġy": 299,
      "ÃŃ": 300,
      "Ġe": 301,
      "gba": 302,
      "lu": 303,
      "Ġlati": 304,
      "le": 305,
      "Ġá¹£e": 306,
      "ráº¹": 307,
      "Ãł": 308,
      "pa": 309,
      "ĠA": 310,
      "láº¹": 311,
      "gbo": 312,
      "ye": 313,
      "Ġáº¹": 314,
      "Ġs": 315,
      "ju": 316,
      "la": 317,
      "lo": 318,
      "wo": 319,
      "Ġwa": 320,
      "ro": 321,
      "ko": 322,
      "á¹£áº¹": 323,
      "re": 324,
      "Ġfun": 325,
      "Ġjáº¹": 326,
      "bi": 327,
      "ni": 328,
      "ara": 329,
      "pá»į": 330,
      "Ã¡": 331,
      "nu": 332,
      "aa": 333,
      "lá»į": 334,
      "yi": 335,
      "Ã¬": 336,
      "Ġpe": 337,
      "ta": 338,
      "ká»į": 339,
      "ii": 340,
      "Ġráº¹": 341,
      "to": 342,
      "Ġlo": 343,
      "Ġwá»įn": 344,
      "Ìģ": 345,
      "má»į": 346,
      "gbe": 347,
      "oo": 348,
      "da": 349,
      "ran": 350,
      "de": 351,
      "Ġle": 352,
      "ÌĢ": 353,
      "ĠI": 354,
      "kan": 355,
      "rá»į": 356,
      "hun": 357,
      "rin": 358,
      "Ġkan": 359,
      "di": 360,
      "Ġpáº¹": 361,
      "ĠO": 362,
      "na": 363,
      "ba": 364,
      "á¹£e": 365,
      "Ãº": 366,
      "Ġki": 367,
      "Ã³": 368,
      "ja": 369,
      "Ġko": 370,
      "Ġba": 371,
      "Ġpáº¹lu": 372,
      "Ġfi": 373,
      "wa": 374,
      "Ġdi": 375,
      "ki": 376,
      "Ġpa": 377,
      "Ġohun": 378,
      "já»į": 379,
      "Ġta": 380,
      "ĠN": 381,
      "Ġyoo": 382,
      "po": 383,
      "Ã©": 384,
      "fi": 385,
      "ke": 386,
      "ya": 387,
      "se": 388,
      "ru": 389,
      "Ġg": 390,
      "ĠÃł": 391,
      "Ġto": 392,
      "gbogbo": 393,
      "mi": 394,
      "Ġninu": 395,
      "ĠM": 396,
      "Ġnaa": 397,
      "Ã²": 398,
      "Ġala": 399,
      "yan": 400,
      "Ġju": 401,
      "ĠS": 402,
      "mu": 403,
      "Ġnipa": 404,
      "sáº¹": 405,
      "gbá»į": 406,
      "ka": 407,
      "Ġlori": 408,
      "we": 409,
      "pe": 410,
      "tá»į": 411,
      "Ã¨": 412,
      "so": 413,
      "run": 414,
      "Ġtabi": 415,
      "Ġbi": 416,
      "Ġtun": 417,
      "Ġlá»į": 418,
      "ĠT": 419,
      "ĠB": 420,
      "bo": 421,
      "Ġiá¹£áº¹": 422,
      "Ġile": 423,
      "iá¹£áº¹": 424,
      "on": 425,
      "Ġeyi": 426,
      "Ġyii": 427,
      "Ġgbogbo": 428,
      "te": 429,
      "Ġgba": 430,
      "ji": 431,
      "li": 432,
      "kun": 433,
      "Ġda": 434,
      "ĠÃ¬": 435,
      "ĠL": 436,
      "âĢ": 437,
      "tun": 438,
      "ĠAwá»įn": 439,
      "ĠE": 440,
      "ĠP": 441,
      "Ġdara": 442,
      "Ġiá¹£": 443,
      "á»Į": 444,
      "ani": 445,
      "ĠK": 446,
      "do": 447,
      "Ġdiáº¹": 448,
      "fáº¹": 449,
      "báº¹": 450,
      "ĠG": 451,
      "Ġaa": 452,
      "ĠnÃŃ": 453,
      "Ġjulá»į": 454,
      "ee": 455,
      "Ã¹": 456,
      "ĠNi": 457,
      "Ġara": 458,
      "Ġolu": 459,
      "tu": 460,
      "Ġsá»į": 461,
      "dun": 462,
      "gbáº¹": 463,
      "uro": 464,
      "páº¹": 465,
      "Ġako": 466,
      "ĠC": 467,
      "Ġagba": 468,
      "gbá»įn": 469,
      "Ġká»į": 470,
      "han": 471,
      "Ġmi": 472,
      "ĠF": 473,
      "hin": 474,
      "Ġori": 475,
      "Ġ1": 476,
      "bu": 477,
      "Ġmá»į": 478,
      "Ġri": 479,
      "lá»įpá»į": 480,
      "Ġmu": 481,
      "Ġnigba": 482,
      "Ġgb": 483,
      "pin": 484,
      "Ġke": 485,
      "jáº¹": 486,
      "Ġfáº¹": 487,
      "Ġaá¹£": 488,
      "Ġtáº¹": 489,
      "Ġá»Į": 490,
      "ku": 491,
      "yin": 492,
      "ĠW": 493,
      "gun": 494,
      "Ġnipasáº¹": 495,
      "ĠtÃŃ": 496,
      "Ġláº¹": 497,
      "táº¹": 498,
      "Ġ2": 499,
      "Ġidi": 500,
      "ini": 501,
      "ĠD": 502,
      "Ġaye": 503,
      "Ġelo": 504,
      "Ġigba": 505,
      "sá»į": 506,
      "er": 507,
      "Ġá¹£a": 508,
      "Ġpu": 509,
      "ga": 510,
      "Ãºn": 511,
      "á¹¢": 512,
      "à¤": 513,
      "Awá»įn": 514,
      "rÃŃ": 515,
      "tan": 516,
      "Ġpata": 517,
      "yáº¹": 518,
      "owo": 519,
      "Ġsii": 520,
      "Ġnito": 521,
      "Ġoju": 522,
      "Ġipa": 523,
      "ugbá»įn": 524,
      "Ġá»įna": 525,
      "Ġá»įmá»į": 526,
      "pá»įlá»įpá»į": 527,
      "en": 528,
      "Ġáº¹rá»į": 529,
      "Ġbáº¹": 530,
      "ha": 531,
      "jo": 532,
      "Ġaká»į": 533,
      "mo": 534,
      "káº¹": 535,
      "Ġpupá»į": 536,
      "waju": 537,
      "Ġeni": 538,
      "Ġawo": 539,
      "Ġme": 540,
      "Ġid": 541,
      "ĠJ": 542,
      "á¹£i": 543,
      "iiran": 544,
      "Ġpataki": 545,
      "Ġ(": 546,
      "ĠÃłwá»įn": 547,
      "ĠR": 548,
      "es": 549,
      "Ġwá»į": 550,
      "Ġoni": 551,
      "Ġan": 552,
      "Ãłn": 553,
      "Ġyi": 554,
      "Ni": 555,
      "ĠÃ": 556,
      "Ġso": 557,
      "Ġgi": 558,
      "wu": 559,
      "Ġá¹£i": 560,
      "lan": 561,
      "Ġmiiran": 562,
      "Ġeniyan": 563,
      "Ġakoko": 564,
      "Ġli": 565,
      "dá»į": 566,
      "Ġc": 567,
      "Ġagbara": 568,
      "Ġigbe": 569,
      "Ġagbe": 570,
      "Ġá»įja": 571,
      "Ġá»įpá»įlá»įpá»į": 572,
      "Ġif": 573,
      "ĠMo": 574,
      "Ġib": 575,
      "Ġáº¹ni": 576,
      "sa": 577,
      "Ġgbe": 578,
      "Ġlaa": 579,
      "he": 580,
      "ma": 581,
      "Ġá»įjá»į": 582,
      "Ġgbi": 583,
      "Ġyáº¹": 584,
      "gi": 585,
      "Ġeyiti": 586,
      "Ġowo": 587,
      "ĠÅ": 588,
      "Ġida": 589,
      "Ġtuntun": 590,
      "Ġá¹£ugbá»įn": 591,
      "san": 592,
      "je": 593,
      "Ġipo": 594,
      "Ġimá»į": 595,
      "ai": 596,
      "Ġai": 597,
      "Ġde": 598,
      "Ġapáº¹": 599,
      "dara": 600,
      "yá»į": 601,
      "Ġwi": 602,
      "Ġiá¹£e": 603,
      "Ġibi": 604,
      "áº¸": 605,
      "ĠÅĦ": 606,
      "Ġá¹£iá¹£áº¹": 607,
      "Ġifi": 608,
      "Ġeto": 609,
      "Ġ-": 610,
      "Ġbo": 611,
      "me": 612,
      "ĠÃ³": 613,
      "ho": 614,
      "Ġáº¹gbáº¹": 615,
      "go": 616,
      "Ġá¹¢": 617,
      "ĠlÃ¡": 618,
      "ĠH": 619,
      "Ġá»įdun": 620,
      "Ġaaye": 621,
      "ĠTi": 622,
      "ĠâĢ": 623,
      "Ġiba": 624,
      "00": 625,
      "Ġka": 626,
      "du": 627,
      "ĠsÃŃ": 628,
      "or": 629,
      "Ġnitori": 630,
      "fin": 631,
      "ar": 632,
      "Ġrii": 633,
      "Ġnla": 634,
      "lá»įwá»į": 635,
      "Ġaá¹£a": 636,
      "Ġiya": 637,
      "ge": 638,
      "Ġiru": 639,
      "lana": 640,
      "áĪ": 641,
      "Ġapa": 642,
      "ĠY": 643,
      "Ġaká»įká»į": 644,
      "Ġlai": 645,
      "pi": 646,
      "Ġmo": 647,
      "Ġá»įkan": 648,
      "Ġá¹£áº¹": 649,
      "Ġiran": 650,
      "Ġma": 651,
      "Ġafi": 652,
      "Ġtá»į": 653,
      "pada": 654,
      "Ġoun": 655,
      "Ġáº¹ya": 656,
      "Ġere": 657,
      "rá»įrun": 658,
      "á¹£u": 659,
      "ati": 660,
      "sun": 661,
      "paa": 662,
      "gáº¹": 663,
      "Ġá»įrá»į": 664,
      "Ġnilo": 665,
      "ĠÃ¨": 666,
      "Ġkii": 667,
      "ĠtÃ³": 668,
      "fani": 669,
      "áº¹áº¹": 670,
      "Ġre": 671,
      "siláº¹": 672,
      "Ġolo": 673,
      "Ġalaye": 674,
      "ĠpÃ©": 675,
      "ĠsÃ¬": 676,
      "Ġirin": 677,
      "Ġnkan": 678,
      "Ġwá»įnyi": 679,
      "koso": 680,
      "Ġiwe": 681,
      "Ġja": 682,
      "Ġse": 683,
      "Ġmáº¹": 684,
      "Ġanfani": 685,
      "Ġitá»į": 686,
      "Ġagbegbe": 687,
      "ĠÃ²": 688,
      "ce": 689,
      "Ġilana": 690,
      "Ã¡Ãł": 691,
      "eere": 692,
      "Ġá¹£iá¹£e": 693,
      "siwaju": 694,
      "Ġpaa": 695,
      "Ġpi": 696,
      "hi": 697,
      "Ġlilo": 698,
      "Ã¹n": 699,
      "Ã¬n": 700,
      "Ġiá¹£owo": 701,
      "ĠÃłti": 702,
      "co": 703,
      "ĠU": 704,
      "bara": 705,
      "Ġfa": 706,
      "Ġwo": 707,
      "Ġláº¹hin": 708,
      "á»įwá»į": 709,
      "Ġgbá»į": 710,
      "dan": 711,
      "ĠfÃºn": 712,
      "Ġapáº¹ráº¹": 713,
      "Ġbii": 714,
      "keyi": 715,
      "Ġá»įká»į": 716,
      "âĢĿ": 717,
      "be": 718,
      "Ġipe": 719,
      "Ġiwá»įn": 720,
      "kere": 721,
      "Ġimu": 722,
      "Ġ20": 723,
      "oju": 724,
      "Ġya": 725,
      "koko": 726,
      "Ġin": 727,
      "al": 728,
      "Ġeyikeyi": 729,
      "Ġnikan": 730,
      "sin": 731,
      "ch": 732,
      "Ġ3": 733,
      "áº¹gáº¹": 734,
      "Ġro": 735,
      "Ġnigbati": 736,
      "jade": 737,
      "ĠâĢľ": 738,
      "Ġlaarin": 739,
      "Ġilu": 740,
      "fun": 741,
      "bá»į": 742,
      "Ġipin": 743,
      "Ġtu": 744,
      "wi": 745,
      "Ġga": 746,
      "Ġita": 747,
      "ede": 748,
      "Ġomi": 749,
      "inu": 750,
      "st": 751,
      "Ġmeji": 752,
      "ruká»į": 753,
      "ĠnÃ¡Ãł": 754,
      "luj": 755,
      "fa": 756,
      "Ġbáº¹ráº¹": 757,
      "Ġpá»į": 758,
      "rinaa": 759,
      "Ġkekere": 760,
      "mulo": 761,
      "Ġiranlá»įwá»į": 762,
      "raná¹£áº¹": 763,
      "Ġiwá»į": 764,
      "Ġpese": 765,
      "Ġinu": 766,
      "pu": 767,
      "Ġiwa": 768,
      "Ġpin": 769,
      "Ġnibi": 770,
      "lujara": 771,
      "th": 772,
      "oro": 773,
      "á»įkan": 774,
      "ÃŃn": 775,
      "Ġáº¸": 776,
      "Ġbu": 777,
      "pp": 778,
      "ou": 779,
      "jÃº": 780,
      "Ġá¹£ee": 781,
      "ĠMa": 782,
      "ĠlÃ¡ti": 783,
      "áĬ": 784,
      "lÃ©": 785,
      "yáº¹n": 786,
      "Ġbá»į": 787,
      "Ġyan": 788,
      "Ġiye": 789,
      "lÃº": 790,
      "ĠkÃŃ": 791,
      "Ġwon": 792,
      "Ġitan": 793,
      "Ġayelujara": 794,
      "Ġiro": 795,
      "Ġoo": 796,
      "dio": 797,
      "á»įn": 798,
      "mba": 799,
      "áĭ": 800,
      "Ġee": 801,
      "Ġnigbagbogbo": 802,
      "ĠmÃ¡": 803,
      "Ã¬ÃŃ": 804,
      "gbÃł": 805,
      "duro": 806,
      "Ġawá»į": 807,
      "Ġrá»įrun": 808,
      "ing": 809,
      "Ġsa": 810,
      "Ġiá¹£a": 811,
      "Ġiláº¹": 812,
      "gbara": 813,
      "soke": 814,
      "Ti": 815,
      "ter": 816,
      "ĠbÃ¡": 817,
      "piláº¹": 818,
      "Ġon": 819,
      "Ġolumulo": 820,
      "ria": 821,
      "..": 822,
      "já»įba": 823,
      "Ġlá»įwá»į": 824,
      "ĠlÃ³": 825,
      "Ġpaapaa": 826,
      "Ġpada": 827,
      "Ġsiláº¹": 828,
      "fu": 829,
      "ve": 830,
      "yipada": 831,
      "su": 832,
      "ĠV": 833,
      "Ġku": 834,
      "Ġopo": 835,
      "Ġra": 836,
      "áī": 837,
      "Ġawon": 838,
      "Ġero": 839,
      "ĠSi": 840,
      "Ġà¤": 841,
      "Ġoriá¹£i": 842,
      "Ġaworan": 843,
      "áº¹ráº¹": 844,
      "nÃº": 845,
      "Ġsinu": 846,
      "Ġina": 847,
      "ĠBi": 848,
      "Ġalabara": 849,
      "Ġji": 850,
      "yele": 851,
      "yara": 852,
      "Ġhan": 853,
      "Ġaabo": 854,
      "Ġiri": 855,
      "aaju": 856,
      "Ġafikun": 857,
      "id": 858,
      "Ġtáº¹láº¹": 859,
      "Ġidiyele": 860,
      "Ġada": 861,
      "Ġatun": 862,
      "ere": 863,
      "lÃ¡": 864,
      "onu": 865,
      "yesi": 866,
      "om": 867,
      "Ġmaa": 868,
      "Ġá»įlá»į": 869,
      "Ġgiga": 870,
      "iwe": 871,
      "Ġ5": 872,
      "ĠAn": 873,
      "Ġdaju": 874,
      "yáº¹wo": 875,
      "áº¹gáº¹bi": 876,
      "Ġokun": 877,
      "á»įmba": 878,
      "Ġdaradara": 879,
      "ĠBa": 880,
      "Ġlaaye": 881,
      "ĠkÃ²": 882,
      "Ġagbaye": 883,
      "ne": 884,
      "ĠbÃŃ": 885,
      "Ġatiláº¹": 886,
      "á¹£iá¹£áº¹": 887,
      "sopá»į": 888,
      "ĠIn": 889,
      "Ġgbo": 890,
      "Ġkuro": 891,
      "boju": 892,
      "Ġigb": 893,
      "Ġkáº¹": 894,
      "gbasoke": 895,
      "Ġbayi": 896,
      "eede": 897,
      "áº¹áº¹bu": 898,
      "yanju": 899,
      "Ġofin": 900,
      "Ġthe": 901,
      "Ġgbá»įdá»į": 902,
      "ĠmÃ¡a": 903,
      "Ġfidio": 904,
      "Ġdeede": 905,
      "Ġimá»įran": 906,
      "ĠEyi": 907,
      "dia": 908,
      "Ġwáº¹áº¹bu": 909,
      "am": 910,
      "áº¹rá»į": 911,
      "Ġfá»į": 912,
      "Ġibeere": 913,
      "âĢĻ": 914,
      "Ġ4": 915,
      "Ġjade": 916,
      "oonu": 917,
      "bin": 918,
      "ll": 919,
      "riá¹£i": 920,
      "ry": 921,
      "Ã¡n": 922,
      "Ġdata": 923,
      "Ġlaisi": 924,
      "à¥": 925,
      "Ġaki": 926,
      "Ġipiláº¹": 927,
      "Ġduro": 928,
      "doju": 929,
      "Ġoriá¹£iriá¹£i": 930,
      "won": 931,
      "||": 932,
      "vi": 933,
      "laye": 934,
      "Ġigbesi": 935,
      "kunrin": 936,
      "Ġiwu": 937,
      "ĠwÃł": 938,
      "Ġá»Įlá»į": 939,
      "Ġgbigbe": 940,
      "Ġoriláº¹": 941,
      "Ġá¹£afi": 942,
      "ori": 943,
      "ĠÃĮ": 944,
      "Ġtita": 945,
      "Ġatáº¹": 946,
      "Ġdidara": 947,
      "ck": 948,
      "ts": 949,
      "Ġaba": 950,
      "Ġitu": 951,
      "Ġaá¹£ayan": 952,
      "Ġidani": 953,
      "one": 954,
      "máº¹": 955,
      "á¹£á»į": 956,
      "á¹£a": 957,
      "Ġá¹£áº¹da": 958,
      "binrin": 959,
      "titá»į": 960,
      "Ġá»įwá»į": 961,
      "ĠIlu": 962,
      "áº¹lu": 963,
      "Ġoke": 964,
      "Ġipele": 965,
      "ĠIle": 966,
      "dro": 967,
      "Ġami": 968,
      "Ġá»įdá»į": 969,
      "Ġilá»į": 970,
      "Ġiriri": 971,
      "ĠNito": 972,
      "Ã³Ã²": 973,
      "Ġnitorinaa": 974,
      "Ġoá¹£u": 975,
      "Ġof": 976,
      "Ġakiyesi": 977,
      "pple": 978,
      "ĠnÃŃnÃº": 979,
      "anwo": 980,
      "Ġkanna": 981,
      "áº¹hin": 982,
      "ĠÃĢ": 983,
      "us": 984,
      "ina": 985,
      "Ġfoonu": 986,
      "yá»įri": 987,
      "ĠLa": 988,
      "yÃłn": 989,
      "lara": 990,
      "Ġiá¹£oro": 991,
      "ci": 992,
      "Ġatiláº¹yin": 993,
      "Ġkere": 994,
      "ĠwÃ¡": 995,
      "Ġsori": 996,
      "Ġ201": 997,
      "fe": 998,
      "á¹£in": 999,
      "ca": 1000,
      "Ġisa": 1001,
      "ĠiP": 1002,
      "Ġpari": 1003,
      "rÃ²": 1004,
      "Ġlakoko": 1005,
      "Ġh": 1006,
      "el": 1007,
      "ĠDi": 1008,
      "Ġalai": 1009,
      "Ġilá»įsiwaju": 1010,
      "Ġká»įja": 1011,
      "gan": 1012,
      "Ġapakan": 1013,
      "á¹£eyá»įri": 1014,
      "Ġyá»į": 1015,
      "Ġapáº¹áº¹ráº¹": 1016,
      "Ġiá¹£elá»įpá»į": 1017,
      "Ġasopá»į": 1018,
      "Ġounjáº¹": 1019,
      "Ġifáº¹": 1020,
      "Ġapo": 1021,
      "sibáº¹": 1022,
      "ĠKo": 1023,
      "Ġitá»įju": 1024,
      "ur": 1025,
      "Ġ/": 1026,
      "ol": 1027,
      "Ġá»įfáº¹": 1028,
      "ĠAti": 1029,
      "Ġgbigba": 1030,
      "báº¹sibáº¹": 1031,
      "Ġá»įran": 1032,
      "ĠOlu": 1033,
      "Ġ\"": 1034,
      "Ġotitá»į": 1035,
      "bÃŃ": 1036,
      "Ġfifi": 1037,
      "inku": 1038,
      "Ġidagbasoke": 1039,
      "ĠFa": 1040,
      "qu": 1041,
      "Ġáº¹ká»į": 1042,
      "Ø§": 1043,
      "Ġná»įmba": 1044,
      "sá»įrá»į": 1045,
      "fo": 1046,
      "Ġaami": 1047,
      "Ġá¹¢e": 1048,
      "sá»įna": 1049,
      "gle": 1050,
      "ĠX": 1051,
      "Ġorin": 1052,
      "Ġboya": 1053,
      "tion": 1054,
      "ĠWa": 1055,
      "Ġafáº¹": 1056,
      "Ġoye": 1057,
      "aili": 1058,
      "yo": 1059,
      "yika": 1060,
      "tini": 1061,
      "lowo": 1062,
      "Ġsiwaju": 1063,
      "droid": 1064,
      "Ġiroyin": 1065,
      "ĠlÃ¨": 1066,
      "Ġakoonu": 1067,
      "ĠApple": 1068,
      "Ġláº¹hinna": 1069,
      "Ġwu": 1070,
      "Ġu": 1071,
      "yÃŃ": 1072,
      "kiri": 1073,
      "iwá»įn": 1074,
      "tiláº¹": 1075,
      "ĠLati": 1076,
      "ĠFun": 1077,
      "Ġbe": 1078,
      "Ġibamu": 1079,
      "Ġaá¹£á»į": 1080,
      "Ġija": 1081,
      "Ġdu": 1082,
      "ĠPa": 1083,
      "rÃº": 1084,
      "ine": 1085,
      "Ġiá¹£akoso": 1086,
      "ris": 1087,
      "Ġpipe": 1088,
      "Ġtiti": 1089,
      "Ġibara": 1090,
      "Ġtitáº¹": 1091,
      "Ġorisun": 1092,
      "Ġaja": 1093,
      "Ġijá»įba": 1094,
      "ĠAndroid": 1095,
      "Ġká»įá»įkan": 1096,
      "bogbo": 1097,
      "Ġ6": 1098,
      "20": 1099,
      "ĠMi": 1100,
      "Ġkikun": 1101,
      "risi": 1102,
      "yÃ©": 1103,
      "Ġisaláº¹": 1104,
      "ĠNigba": 1105,
      "Ġje": 1106,
      "wá»įle": 1107,
      "danu": 1108,
      "bun": 1109,
      "ĠWá»įn": 1110,
      "anu": 1111,
      "Ġkaa": 1112,
      "jee": 1113,
      "Ġiboju": 1114,
      "ajo": 1115,
      "Ġgidi": 1116,
      "áº¹ni": 1117,
      "Ġiá¹£áº¹láº¹": 1118,
      "dojuiwá»įn": 1119,
      "Ġise": 1120,
      "Ġun": 1121,
      "Ġá¹£aaju": 1122,
      "ĠyÃ¬ÃŃ": 1123,
      "pamá»į": 1124,
      "á»įláº¹": 1125,
      "ĠOá¹£u": 1126,
      "Ġáº¹láº¹": 1127,
      "Ġiyipada": 1128,
      "Ġoruká»į": 1129,
      "ng": 1130,
      "Ġlagbara": 1131,
      "ĠyÃ³Ã²": 1132,
      "Ġaá¹£áº¹": 1133,
      "jeeji": 1134,
      "oogle": 1135,
      "Ġigbi": 1136,
      "Ġigbasiláº¹": 1137,
      "hone": 1138,
      "Ġsu": 1139,
      "Ġirá»įrun": 1140,
      "Ġ10": 1141,
      ").": 1142,
      "ty": 1143,
      "báº¹ráº¹": 1144,
      "Ġyáº¹n": 1145,
      "Ġbeere": 1146,
      "Ġiyara": 1147,
      "doko": 1148,
      "jin": 1149,
      "kaláº¹": 1150,
      "ver": 1151,
      "Ġgáº¹gáº¹bi": 1152,
      "Ġalaba": 1153,
      "Ġiyáº¹n": 1154,
      "láº¹nu": 1155,
      "Ġkun": 1156,
      "Ġsá»įrá»į": 1157,
      "tiláº¹jáº¹": 1158,
      "Ġfihan": 1159,
      "ĠLi": 1160,
      "ÌĢ,": 1161,
      "Ġibu": 1162,
      "tiláº¹jáº¹pe": 1163,
      "Ġgan": 1164,
      "yÃ¬n": 1165,
      "Ġbá»įtini": 1166,
      "Ġ7": 1167,
      "iá¹£e": 1168,
      "tÃŃ": 1169,
      "Ġim": 1170,
      "Ġidanwo": 1171,
      "Ġrá»į": 1172,
      "Ġale": 1173,
      "Ġmejeeji": 1174,
      "mini": 1175,
      "Ġdabi": 1176,
      "Ġmáº¹ta": 1177,
      "Ġayika": 1178,
      "ĠSa": 1179,
      "Ġr": 1180,
      "ĠAla": 1181,
      "Ġafihan": 1182,
      "Ġna": 1183,
      "Ùİ": 1184,
      "Ġitaja": 1185,
      "ĠOhun": 1186,
      "Ġran": 1187,
      "Ġimudojuiwá»įn": 1188,
      "Ġá¹£áº¹láº¹": 1189,
      "Ġá¹£eto": 1190,
      "Ġape": 1191,
      "reti": 1192,
      "lÃ¹": 1193,
      "kÃłn": 1194,
      "Ġ8": 1195,
      "Ġilera": 1196,
      "ĠGoogle": 1197,
      "Ġsun": 1198,
      "ad": 1199,
      "Ġyara": 1200,
      "Ġigbo": 1201,
      "nÃ¬": 1202,
      "sh": 1203,
      "Ġeeyan": 1204,
      "Ġ19": 1205,
      "Ġawa": 1206,
      "ĠiPhone": 1207,
      "ly": 1208,
      "Ġipinnu": 1209,
      "Ġayá»į": 1210,
      "ĠFi": 1211,
      "já»įpá»į": 1212,
      "Ġá¹¢ugbá»įn": 1213,
      "Nigba": 1214,
      "ana": 1215,
      "Ġkeji": 1216,
      "rika": 1217,
      "sÃŃ": 1218,
      "et": 1219,
      "gbon": 1220,
      "Ġwaye": 1221,
      "kiki": 1222,
      "Ġpinnu": 1223,
      "Ġibatan": 1224,
      "ĠdÃ¡": 1225,
      "ĠPáº¹lu": 1226,
      "Ġfo": 1227,
      "á¹£owo": 1228,
      "Ġtumá»į": 1229,
      "Ġwiwa": 1230,
      "Ġha": 1231,
      "Ġopin": 1232,
      "Ġtáº¹le": 1233,
      "ĠEmi": 1234,
      "à¸": 1235,
      "ĠNai": 1236,
      "Ġpo": 1237,
      "Ġoá¹£iá¹£áº¹": 1238,
      "dÃ¨": 1239,
      "ĠrÃŃ": 1240,
      "Ġgbiyanju": 1241,
      "á¹¢e": 1242,
      "Ġjo": 1243,
      "ĠØ": 1244,
      "Ġiká»į": 1245,
      "Ġiwaju": 1246,
      "ĠRe": 1247,
      "gbin": 1248,
      "Ġand": 1249,
      "tutu": 1250,
      "Ġwá»įle": 1251,
      "Ġele": 1252,
      "Ġiá¹£eduro": 1253,
      "Ġiko": 1254,
      "Ġabajade": 1255,
      "Ġnibiti": 1256,
      "dÃ¡": 1257,
      "Ġpato": 1258,
      "á¹£epá»į": 1259,
      "loju": 1260,
      "Ġatuná¹£e": 1261,
      "ÃĢ": 1262,
      "Ġawoá¹£e": 1263,
      "ÃłÃ¡": 1264,
      "ĠmÃº": 1265,
      "ĠBu": 1266,
      "Ġadaá¹£e": 1267,
      "kita": 1268,
      "Ġjá»į": 1269,
      "Ġdo": 1270,
      "Ġlu": 1271,
      "Ġdinku": 1272,
      "Ġyatá»į": 1273,
      "Ġtan": 1274,
      "rÃ¡": 1275,
      "fÃł": 1276,
      "Ġipari": 1277,
      "Ç¹": 1278,
      "Ġolokiki": 1279,
      "il": 1280,
      "Ġtáº¹siwaju": 1281,
      "ÌĢ.": 1282,
      "Ġfaili": 1283,
      "Ġitáº¹": 1284,
      "sta": 1285,
      "jumá»į": 1286,
      "Ġfara": 1287,
      "ĠCa": 1288,
      "...": 1289,
      "dii": 1290,
      "káº¹le": 1291,
      "fá»įwá»į": 1292,
      "torÃŃ": 1293,
      "Ġiá¹£i": 1294,
      "Ġifihan": 1295,
      "Ġalagbe": 1296,
      "lori": 1297,
      "Ba": 1298,
      "ree": 1299,
      "ĠBo": 1300,
      "men": 1301,
      "eeli": 1302,
      "Ġiyaláº¹nu": 1303,
      "Ġkini": 1304,
      "ĠKa": 1305,
      "kÃ¹n": 1306,
      "jiria": 1307,
      "Ġá»įkunrin": 1308,
      "gra": 1309,
      "Ġá»įmá»įde": 1310,
      "Ġnifáº¹": 1311,
      "sá»įtá»į": 1312,
      "Ġawu": 1313,
      "Ġá»įráº¹": 1314,
      "pese": 1315,
      "fá»į": 1316,
      "áº¹ti": 1317,
      "gbáº¹káº¹le": 1318,
      "com": 1319,
      "Ġte": 1320,
      "gá»į": 1321,
      "nÃł": 1322,
      "hu": 1323,
      "Ġsan": 1324,
      "Ġtobi": 1325,
      "Ġá¹£alaye": 1326,
      "tá»įju": 1327,
      "Ġobinrin": 1328,
      "ĠNaijiria": 1329,
      "Ġ9": 1330,
      "aye": 1331,
      "una": 1332,
      "Ġatáº¹le": 1333,
      "tÃł": 1334,
      "bÃ¡": 1335,
      "ĠTa": 1336,
      "ĠLo": 1337,
      "),": 1338,
      "rs": 1339,
      "jÃ¬": 1340,
      "Ġotutu": 1341,
      "ĠkÃ¡": 1342,
      "Ġáº¹da": 1343,
      "Mo": 1344,
      "ĠZ": 1345,
      "Ġkiká»į": 1346,
      "Ġiyasá»įtá»į": 1347,
      "ĠÙ": 1348,
      "rina": 1349,
      "ĠDa": 1350,
      "Ġiwo": 1351,
      "Ġlabáº¹": 1352,
      "Ġigbesáº¹": 1353,
      "káº¹ká»į": 1354,
      "yÃł": 1355,
      "wia": 1356,
      "á»įrá»į": 1357,
      "gu": 1358,
      "OS": 1359,
      "000": 1360,
      "lÃ³": 1361,
      "va": 1362,
      "wÃ³": 1363,
      "Ġyipada": 1364,
      "Ġtá»įju": 1365,
      "Ġkika": 1366,
      "ĠilÃ©": 1367,
      "ĠkÃ³": 1368,
      "tiri": 1369,
      "daju": 1370,
      "Ġtaara": 1371,
      "áº¹tiwá»į": 1372,
      "puta": 1373,
      "tic": 1374,
      "Ġá¹£afikun": 1375,
      "Ġiriná¹£áº¹": 1376,
      "ft": 1377,
      "Ġaá¹£eyá»įri": 1378,
      "Ġfá»įto": 1379,
      "Ġ.": 1380,
      "wÃ©": 1381,
      "Ġpro": 1382,
      "Ġá»įsáº¹": 1383,
      "Ġ'": 1384,
      "dÃŃ": 1385,
      "ber": 1386,
      "ĠMu": 1387,
      "Ġ...": 1388,
      "fiti": 1389,
      "Ġifiwe": 1390,
      "áĮ": 1391,
      "Ġiduro": 1392,
      "Lati": 1393,
      "Ġalagbeka": 1394,
      "Ġepo": 1395,
      "káº¹láº¹": 1396,
      "Ġade": 1397,
      "ĠnÃŃpa": 1398,
      "ĠAde": 1399,
      "Ġwipe": 1400,
      "fitiwia": 1401,
      "Ġayá»įkáº¹láº¹": 1402,
      "ĠKáº¹": 1403,
      "wÃ¡": 1404,
      "Ġaká»įá»įláº¹": 1405,
      "Ġwiwo": 1406,
      "Ġmimu": 1407,
      "Ġabu": 1408,
      "wáº¹": 1409,
      ".âĢĿ": 1410,
      "Ġbáº¹áº¹": 1411,
      "Ġmimá»į": 1412,
      "woran": 1413,
      "Ġyiyan": 1414,
      "Ġidaniloju": 1415,
      "Ġajo": 1416,
      "ir": 1417,
      "ss": 1418,
      "ĠGbogbo": 1419,
      "Ġasá»į": 1420,
      "áº¹nisá»įrá»į": 1421,
      "dÃł": 1422,
      "rÃłn": 1423,
      "Ġpade": 1424,
      "ĠlÃ³rÃŃ": 1425,
      "ĠMe": 1426,
      "funni": 1427,
      "ĠPro": 1428,
      "Ġapoti": 1429,
      "á»įki": 1430,
      "Ġari": 1431,
      "Ġnibáº¹": 1432,
      "ĠgbÃ©": 1433,
      "Å¡": 1434,
      "Ġá¹£akoso": 1435,
      "um": 1436,
      "dÃºn": 1437,
      "Ġiyan": 1438,
      "ĠLe": 1439,
      "Ġiyatá»į": 1440,
      "Ìģ,": 1441,
      "rt": 1442,
      "siko": 1443,
      "Ġirun": 1444,
      "ĠRo": 1445,
      "Ġira": 1446,
      "Ġajá»į": 1447,
      "Ġidara": 1448,
      "Ġ&": 1449,
      "Ġoá¹£e": 1450,
      "Ohun": 1451,
      "Ġá¹£afihan": 1452,
      "Ġipinláº¹": 1453,
      "Ġigbadun": 1454,
      "Ġalu": 1455,
      "no": 1456,
      "gbÃ©": 1457,
      "Ġal": 1458,
      "Ġidaraya": 1459,
      "pto": 1460,
      "Ġbaa": 1461,
      "ĠJa": 1462,
      "Bi": 1463,
      "son": 1464,
      "bobo": 1465,
      "kuro": 1466,
      "kati": 1467,
      "Ġitá»įsá»įna": 1468,
      "lasi": 1469,
      "ĠmÃŃ": 1470,
      "Ġtitun": 1471,
      "Ġá¹£ii": 1472,
      "Ġafáº¹fáº¹": 1473,
      "dow": 1474,
      "Ġaje": 1475,
      "Ġiwulo": 1476,
      "gh": 1477,
      "Ġgigun": 1478,
      "Ġá»Įjá»į": 1479,
      "juwe": 1480,
      "Ġdaa": 1481,
      "ĠyÃŃn": 1482,
      "lá»įláº¹": 1483,
      "ĠáĬ": 1484,
      "Ġibáº¹ráº¹": 1485,
      "Eyi": 1486,
      "á¹£an": 1487,
      "ĠNitorinaa": 1488,
      "lÃ¬": 1489,
      "Ġbatiri": 1490,
      "Ġodo": 1491,
      "Ġiá¹£iro": 1492,
      "ĠAa": 1493,
      "tt": 1494,
      "Ġimeeli": 1495,
      "Ġnáº¹tiwá»į": 1496,
      "Ġlá»įwá»įlá»įwá»į": 1497,
      "Ġadi": 1498,
      "din": 1499,
      "--": 1500,
      "âĢ¦": 1501,
      "Ġdagba": 1502,
      "ĠCo": 1503,
      "Ġipese": 1504,
      "ĠSibáº¹sibáº¹": 1505,
      "Ġpadanu": 1506,
      "tch": 1507,
      "hÃ³": 1508,
      "Ġbaba": 1509,
      "ook": 1510,
      "Ġapapá»į": 1511,
      "Ġkoo": 1512,
      "Ġigi": 1513,
      "Ġawujá»į": 1514,
      "Ġwulo": 1515,
      "UN": 1516,
      "Ġv": 1517,
      "Ġipamá»į": 1518,
      "Ġoorun": 1519,
      "man": 1520,
      "Ġwakati": 1521,
      "sia": 1522,
      "ted": 1523,
      "Ġgbadun": 1524,
      "ĠalÃ¡": 1525,
      "ĠNinu": 1526,
      "Ġláº¹áº¹": 1527,
      "Ġogun": 1528,
      "ĠWi": 1529,
      "Ġibaraáº¹nisá»įrá»į": 1530,
      "ĠSe": 1531,
      "Ġfáº¹ran": 1532,
      "Ġila": 1533,
      "Ġilo": 1534,
      "ĠorÃŃ": 1535,
      "Ġato": 1536,
      "wari": 1537,
      "kÃº": 1538,
      "der": 1539,
      "Ġkede": 1540,
      "ĠOlo": 1541,
      "áį": 1542,
      "Ġfoju": 1543,
      "indow": 1544,
      "Ġloni": 1545,
      "Ġadehun": 1546,
      "Ġojo": 1547,
      "Ġolupese": 1548,
      "ĠNÃŃ": 1549,
      "Ġkoko": 1550,
      "Ġit": 1551,
      "ren": 1552,
      "Ġáº¹ran": 1553,
      "Ġsá»įfitiwia": 1554,
      "kuru": 1555,
      "ld": 1556,
      "Ġyou": 1557,
      "Ġosi": 1558,
      "Ġláº¹sáº¹": 1559,
      "ble": 1560,
      "ĠtÃł": 1561,
      "Ġabáº¹": 1562,
      "Ġede": 1563,
      "Ã¨hÃ³": 1564,
      "Ġobi": 1565,
      "rypto": 1566,
      "kÃ²": 1567,
      "Ġifowo": 1568,
      "Ġmedia": 1569,
      "Ġaá¹£oju": 1570,
      "Ġáº¹tá»į": 1571,
      "ruba": 1572,
      "áĬķ": 1573,
      "Ġá»įgbá»įn": 1574,
      "os": 1575,
      "Ġijo": 1576,
      "Ġipolowo": 1577,
      "angba": 1578,
      "Ġatijá»į": 1579,
      "Ġtá»įka": 1580,
      "Ġrere": 1581,
      "Ã¨hÃ³fÃł": 1582,
      "ĠRa": 1583,
      "Ninu": 1584,
      "Ġifilá»įláº¹": 1585,
      "Ġtiráº¹": 1586,
      "Ġaile": 1587,
      "ĠLáº¹hin": 1588,
      "kÃ³": 1589,
      "meji": 1590,
      "Ġaya": 1591,
      "Nito": 1592,
      "Ġmáº¹rin": 1593,
      "ĠgbÃł": 1594,
      "ĠAgba": 1595,
      "Kini": 1596,
      "kia": 1597,
      "Ġpipa": 1598,
      "rÃ¹n": 1599,
      "áº¹ká»į": 1600,
      "à¤¾": 1601,
      "ric": 1602,
      "ĠYo": 1603,
      "Ġibiti": 1604,
      "dani": 1605,
      "Ġeti": 1606,
      "Ġifa": 1607,
      "Ġitanna": 1608,
      "Ġge": 1609,
      "hat": 1610,
      "ĠJÃ¨hÃ³fÃł": 1611,
      "ron": 1612,
      "pani": 1613,
      "Ġgáº¹gáº¹": 1614,
      "Ġisin": 1615,
      "Ġbotiláº¹jáº¹pe": 1616,
      "rÃ¨": 1617,
      "La": 1618,
      "ruká»įsiláº¹": 1619,
      "á¹£iá¹£e": 1620,
      "wÃ²": 1621,
      "ĠáĪ": 1622,
      "ĠNigbati": 1623,
      "Ġgige": 1624,
      "Fun": 1625,
      "Ġifiweraná¹£áº¹": 1626,
      "lÃł": 1627,
      "ĠÃ¨yÃŃ": 1628,
      "ĠGa": 1629,
      "Ø§Ù": 1630,
      "fihan": 1631,
      "keji": 1632,
      "à¥ĩ": 1633,
      "ĠVi": 1634,
      "omi": 1635,
      "ps": 1636,
      "Ġomo": 1637,
      "Ġnira": 1638,
      "ds": 1639,
      "sÃ¬": 1640,
      "âĢľ": 1641,
      "Ġgbangba": 1642,
      "Ġkete": 1643,
      "Ġisá»į": 1644,
      "Ġfunni": 1645,
      "omina": 1646,
      "Ġjin": 1647,
      "tra": 1648,
      "Ġiá¹£an": 1649,
      "Ġá¹£ayáº¹wo": 1650,
      "Ġkaadi": 1651,
      "ĠTo": 1652,
      "coin": 1653,
      "Ġá»įpá»į": 1654,
      "Ġá»įlá»įpaa": 1655,
      "Ġiwadii": 1656,
      "Ġdun": 1657,
      "lus": 1658,
      "pata": 1659,
      "mÃŃ": 1660,
      "ĠJo": 1661,
      "Ġimo": 1662,
      "ÃĮ": 1663,
      "Ġdan": 1664,
      "Ġrira": 1665,
      "ĠwÃŃ": 1666,
      "tor": 1667,
      "Ġiwadi": 1668,
      "Ġtabili": 1669,
      "Ġidanimá»į": 1670,
      "nÃ¬yÃłn": 1671,
      "Ġáĭ": 1672,
      "joo": 1673,
      "ĠkÃº": 1674,
      "per": 1675,
      "ĠNe": 1676,
      "ĠBit": 1677,
      "Ġá¹£á»į": 1678,
      "Ġgbogbogbo": 1679,
      "Ġnlo": 1680,
      "RI": 1681,
      "ĠNI": 1682,
      "Ġifá»įwá»į": 1683,
      "Ġen": 1684,
      "Ġifo": 1685,
      "Ġeroja": 1686,
      "ĠDu": 1687,
      "á»įmu": 1688,
      "Ġlile": 1689,
      "Ġatoká»į": 1690,
      "Ġisan": 1691,
      "Ġwá»įpá»į": 1692,
      "AN": 1693,
      "Ġifara": 1694,
      "ĠDe": 1695,
      "Ġigbimá»į": 1696,
      "GB": 1697,
      "ed": 1698,
      "ste": 1699,
      "Ġáº¹nikáº¹": 1700,
      "Ġho": 1701,
      "bute": 1702,
      "rÃ³": 1703,
      "Ġáº¹sáº¹": 1704,
      "Ġá»įba": 1705,
      "Ġronu": 1706,
      "Ġpipáº¹": 1707,
      "kÃ¹nrin": 1708,
      "10": 1709,
      "táº¹láº¹": 1710,
      "Ġigbáº¹káº¹le": 1711,
      "za": 1712,
      "line": 1713,
      "ĠAmáº¹": 1714,
      "eni": 1715,
      "Ġá»įpa": 1716,
      "Ġibo": 1717,
      "opu": 1718,
      "ĠIá¹£áº¹": 1719,
      "ĠtÃłbÃŃ": 1720,
      "les": 1721,
      "ĠAl": 1722,
      "ĠKris": 1723,
      "NÃŃ": 1724,
      "Ġakan": 1725,
      "ĠPi": 1726,
      "Ġiwuwo": 1727,
      "Ġáº¹nikan": 1728,
      "Ġrin": 1729,
      "Ġayan": 1730,
      "láº¹gbáº¹": 1731,
      "Ġfe": 1732,
      "nÃŃ": 1733,
      "Ġsoke": 1734,
      "Páº¹lu": 1735,
      "ul": 1736,
      "iimu": 1737,
      "á¹£akoso": 1738,
      "uroopu": 1739,
      "ĠSo": 1740,
      "ĠÃ¨nÃ¬yÃłn": 1741,
      "Ġno": 1742,
      "fá»įwá»įyi": 1743,
      "Ġiá¹£áº¹ju": 1744,
      "Ġooru": 1745,
      "Ġebute": 1746,
      "ĠnÃŃgbÃł": 1747,
      "Ġoogun": 1748,
      "Ġsáº¹": 1749,
      "kohun": 1750,
      "Ġido": 1751,
      "Ġkia": 1752,
      "Ġá»įhun": 1753,
      "Ġáº¹mi": 1754,
      "Ġ12": 1755,
      "Ġrara": 1756,
      "Ġpáº¹páº¹": 1757,
      "Ġnáº¹tiwá»įá»įki": 1758,
      "Ġ15": 1759,
      "Ġfunra": 1760,
      "Ġyago": 1761,
      "pÃ¡": 1762,
      "tÃ²": 1763,
      "Ġaá¹£iá¹£e": 1764,
      "ĠChin": 1765,
      "Ġikáº¹ká»į": 1766,
      "áº¹li": 1767,
      "ĠlÃ©": 1768,
      "nkan": 1769,
      "á»įlu": 1770,
      "Ìģ.": 1771,
      "Ġiho": 1772,
      "hari": 1773,
      "Ã¨yÃłn": 1774,
      "dari": 1775,
      "tuná¹£e": 1776,
      "ON": 1777,
      "Ġmuna": 1778,
      "Ġá»įdÃºn": 1779,
      "Ġidiwá»į": 1780,
      "Ġodi": 1781,
      "tes": 1782,
      "Ġakaná¹£e": 1783,
      "Ġkiri": 1784,
      "Ġáº¹nu": 1785,
      "ĠAmáº¹rika": 1786,
      "Ġáº¹bun": 1787,
      "Ġdudu": 1788,
      "joojumá»į": 1789,
      "Ġfiraná¹£áº¹": 1790,
      "Ġkoodu": 1791,
      "Ġtitaja": 1792,
      "ĠÃ¬gbÃł": 1793,
      "ĠEto": 1794,
      "cro": 1795,
      "Ġpatapata": 1796,
      "Ġ$": 1797,
      "Ġnireti": 1798,
      "awá»įn": 1799,
      "Ġewe": 1800,
      "á¹£iná¹£in": 1801,
      "jÃł": 1802,
      "bÃ©": 1803,
      "kanna": 1804,
      "ĠYoruba": 1805,
      "rÃ©": 1806,
      "Nigbati": 1807,
      "Ġá»Įlá»įrun": 1808,
      "Ġayáº¹wo": 1809,
      "Ġaká»įle": 1810,
      "Ġigbagbogbo": 1811,
      "Ġaarin": 1812,
      "ĠÃ²un": 1813,
      "Fi": 1814,
      "jinláº¹": 1815,
      "Ġlawá»įn": 1816,
      "minira": 1817,
      "uni": 1818,
      "Ġisinmi": 1819,
      "wÃł": 1820,
      "ĠSu": 1821,
      "Ġoku": 1822,
      "Ġohunkohun": 1823,
      "Ġikun": 1824,
      "Ġsin": 1825,
      "ĠKi": 1826,
      "ĠKini": 1827,
      "jÃŃ": 1828,
      "Ġloju": 1829,
      "gbÃ¡": 1830,
      "Ġá»Įmá»į": 1831,
      "ĠPo": 1832,
      "tÃ¬": 1833,
      "ká»įwe": 1834,
      "dÃ©": 1835,
      "Ġfiimu": 1836,
      "kin": 1837,
      "jÃ¡": 1838,
      "Ġhe": 1839,
      "lai": 1840,
      "Ġibajáº¹": 1841,
      "Ġye": 1842,
      "ĠBÃŃ": 1843,
      "Ã¹gbá»į": 1844,
      "ĠIs": 1845,
      "ĠJes": 1846,
      "Ġilee": 1847,
      "gen": 1848,
      "ĠKe": 1849,
      "ĠChina": 1850,
      "Ġfor": 1851,
      "Ġnini": 1852,
      "baláº¹": 1853,
      "Ø±": 1854,
      "ces": 1855,
      "furu": 1856,
      "Ġ202": 1857,
      "Ġkukuru": 1858,
      "Ġyin": 1859,
      "Ġláº¹áº¹kan": 1860,
      "ĠayÃ©": 1861,
      "Ġidun": 1862,
      "rÃł": 1863,
      "ĠÃ¬p": 1864,
      "ura": 1865,
      "Ġá¹£o": 1866,
      "Ġalailáº¹gbáº¹": 1867,
      "Ġcon": 1868,
      "ĠâĢĺ": 1869,
      "ware": 1870,
      "gbÃ¨": 1871,
      "Ġsopá»į": 1872,
      "yÃ¨": 1873,
      "Ġsunmá»į": 1874,
      "ation": 1875,
      "Ġab": 1876,
      "káº¹hin": 1877,
      "ĠÂ": 1878,
      "ĠUS": 1879,
      "ut": 1880,
      "Ġalejo": 1881,
      "gram": 1882,
      "Ġá¹£aá¹£eyá»įri": 1883,
      "ĠMac": 1884,
      "ĠÃŃ": 1885,
      "ĠtÃºn": 1886,
      "ĠQ": 1887,
      "Ġiso": 1888,
      "gbegbe": 1889,
      "ĠBitcoin": 1890,
      "Ġká»įn": 1891,
      "Ġoá¹£ere": 1892,
      "buntu": 1893,
      "Ġfunfun": 1894,
      "lon": 1895,
      "à¤°": 1896,
      "Ġ,": 1897,
      "ĠBuhari": 1898,
      "Ġayanfáº¹": 1899,
      "máº¹ra": 1900,
      "Ġifiraná¹£áº¹": 1901,
      "Ko": 1902,
      "Ġmili": 1903,
      "ona": 1904,
      "Ġáº¹ru": 1905,
      "Ġkamáº¹ra": 1906,
      "Ġbaamu": 1907,
      "Ġáº¹bi": 1908,
      "Ġ200": 1909,
      "Ġigbega": 1910,
      "Ġá¹£iá¹£an": 1911,
      "ĠarÃ¡": 1912,
      "Ġwá»įnyáº¹n": 1913,
      "furufu": 1914,
      "Ġata": 1915,
      "ĠjÃ¡": 1916,
      "fara": 1917,
      "á»įnu": 1918,
      "Ì©": 1919,
      "tter": 1920,
      "ting": 1921,
      "ĠHa": 1922,
      "Ġtutu": 1923,
      "ĠÃĵ": 1924,
      "ĠKan": 1925,
      "Ġipalara": 1926,
      "Ġ100": 1927,
      "ĠÐ": 1928,
      "Ġlilá»į": 1929,
      "ĠnÃŃtorÃŃ": 1930,
      "Ġáī": 1931,
      "ÙĪ": 1932,
      "Ġburu": 1933,
      "Ġonibara": 1934,
      "book": 1935,
      "Ġide": 1936,
      "Ġcrypto": 1937,
      "Ġbáº¹báº¹": 1938,
      "TI": 1939,
      "Ġis": 1940,
      "AR": 1941,
      "ĠAra": 1942,
      "ĠOni": 1943,
      "sÃ¹": 1944,
      "pan": 1945,
      "Ġgun": 1946,
      "Ġpan": 1947,
      "Ġakojá»į": 1948,
      "Ġsisan": 1949,
      "páº¹lu": 1950,
      "Ġqu": 1951,
      "Ġfifa": 1952,
      "Ġnnkan": 1953,
      "Ġaini": 1954,
      "dÃ¬": 1955,
      "hala": 1956,
      "Olu": 1957,
      "Ġca": 1958,
      "ĠÃĴ": 1959,
      "ph": 1960,
      "nti": 1961,
      "papá»į": 1962,
      "Ġdide": 1963,
      "ĠMar": 1964,
      "ĠÃ¡": 1965,
      "ĠKristi": 1966,
      "ĠAye": 1967,
      "sis": 1968,
      "ĠNitori": 1969,
      "Ġijabá»į": 1970,
      "indows": 1971,
      "ham": 1972,
      "Ġikan": 1973,
      "bÃł": 1974,
      "Ġorisi": 1975,
      "ĠTe": 1976,
      "land": 1977,
      "res": 1978,
      "ĠmÃ©": 1979,
      "ĠUni": 1980,
      "ĠÃ¨Ã¨yÃłn": 1981,
      "Ġáº¹ka": 1982,
      "Ġbulá»į": 1983,
      "Ġáº¹hin": 1984,
      "paláº¹": 1985,
      "Ġká»įnputa": 1986,
      "Ġgangan": 1987,
      "káº¹sáº¹": 1988,
      "yawo": 1989,
      "ÙĨ": 1990,
      "ĠojÃº": 1991,
      "gidi": 1992,
      "cu": 1993,
      "á»įgi": 1994,
      "tá»įka": 1995,
      "kÃ¨": 1996,
      "huwa": 1997,
      "ÙĲ": 1998,
      "rea": 1999,
      "ĠÃĢwá»įn": 2000,
      "bikita": 2001,
      "lle": 2002,
      "raráº¹": 2003,
      "ĠNipa": 2004,
      "Ġoro": 2005,
      "Ġailewu": 2006,
      "Ġofurufu": 2007,
      "Ġlaini": 2008,
      "Ġkaakiri": 2009,
      "Di": 2010,
      "mii": 2011,
      "Ġ18": 2012,
      "Ġominira": 2013,
      "omu": 2014,
      "Ġigbani": 2015,
      "ore": 2016,
      "ĠPe": 2017,
      "Ġlara": 2018,
      ".+": 2019,
      "ĠCh": 2020,
      "Ġapejuwe": 2021,
      "kale": 2022,
      "sile": 2023,
      "Ġibudo": 2024,
      "lÃ²": 2025,
      "Ġru": 2026,
      "Si": 2027,
      "Ġ30": 2028,
      "Gbogbo": 2029,
      "Ġiwi": 2030,
      "Ġmarun": 2031,
      "bÃ¬n": 2032,
      "ia": 2033,
      "od": 2034,
      "ĠThe": 2035,
      "Tu": 2036,
      "Ġitumá»į": 2037,
      "kÃł": 2038,
      "ĠSE": 2039,
      "Ġfá»įá»įmu": 2040,
      "Ġfáº¹áº¹": 2041,
      "royin": 2042,
      "Ġeewu": 2043,
      "imá»į": 2044,
      "áº¹áº¹ti": 2045,
      "mp": 2046,
      "Ġsibáº¹sibáº¹": 2047,
      "ĠÃĪ": 2048,
      "Ġalabapin": 2049,
      "den": 2050,
      "tanáº¹áº¹ti": 2051,
      "bojuto": 2052,
      "bÃ¬nrin": 2053,
      "Ile": 2054,
      "Ġá»įjá»įgbá»įn": 2055,
      "ĠYou": 2056,
      "Ġdandan": 2057,
      "19": 2058,
      "ÌĢ-": 2059,
      "Ġfifun": 2060,
      "ĠonÃŃ": 2061,
      "Ġdidan": 2062,
      "Ġá¹¢a": 2063,
      "Ġamá»į": 2064,
      "Ġabuda": 2065,
      "ĠYi": 2066,
      "ĠEko": 2067,
      "mm": 2068,
      "luu": 2069,
      "ton": 2070,
      "Ġá»įrun": 2071,
      "Ġbayii": 2072,
      "ipa": 2073,
      "sung": 2074,
      "ĠpÃł": 2075,
      "Ġirora": 2076,
      "ĠAP": 2077,
      "Ġ16": 2078,
      "Ç¹kan": 2079,
      "ĠdÃ©": 2080,
      "Ġá¹£eeá¹£e": 2081,
      "Ã¨dÃ¨": 2082,
      "amsung": 2083,
      "ĠImá»į": 2084,
      "bra": 2085,
      "50": 2086,
      "Ġjake": 2087,
      "ĠOn": 2088,
      "Ġagbekaláº¹": 2089,
      ",+": 2090,
      "Ġhi": 2091,
      "Ġiduroá¹£iná¹£in": 2092,
      "rd": 2093,
      "Ġihuwa": 2094,
      "Ġgbona": 2095,
      "afáº¹": 2096,
      "Ġidije": 2097,
      "ĠWo": 2098,
      "ct": 2099,
      "cebook": 2100,
      "ĠWindows": 2101,
      "zon": 2102,
      "Bo": 2103,
      "is": 2104,
      "ĠâĢĵ": 2105,
      "Ġdoju": 2106,
      "yáº¹yáº¹": 2107,
      "ĠAr": 2108,
      "Ġarun": 2109,
      "miiran": 2110,
      "IN": 2111,
      "Ġpinpin": 2112,
      "yun": 2113,
      "Ġáº¹já»į": 2114,
      "ua": 2115,
      "Ġáº¹ranko": 2116,
      "kasi": 2117,
      "rus": 2118,
      "ĠDiáº¹": 2119,
      "oni": 2120,
      "Ġbata": 2121,
      "Ġwahala": 2122,
      "wn": 2123,
      "wadi": 2124,
      "Ma": 2125,
      "cy": 2126,
      "Ġibalo": 2127,
      "Ġayipada": 2128,
      "Ġitupaláº¹": 2129,
      "ĠIndia": 2130,
      "Ġipiláº¹á¹£áº¹": 2131,
      "Ġaisan": 2132,
      "KA": 2133,
      "ĠTI": 2134,
      "kÃ¡": 2135,
      "ĠIwá»į": 2136,
      "Ġiyi": 2137,
      "Ġidoko": 2138,
      "for": 2139,
      "Ġoko": 2140,
      "ĠJesu": 2141,
      "Ġosise": 2142,
      "á¹£o": 2143,
      "kÃ¬": 2144,
      "má»įra": 2145,
      "Ġgaan": 2146,
      "ĠkÃ¬": 2147,
      "Ġ11": 2148,
      "ÙĬ": 2149,
      "Ġidile": 2150,
      "Gáº¹gáº¹bi": 2151,
      "Ġfáº¹ráº¹": 2152,
      "Ġnfunni": 2153,
      "Ġiranti": 2154,
      "Ġá¹£iá¹£i": 2155,
      "Ø¯": 2156,
      "Ġoá¹£uwá»įn": 2157,
      "Ġá»įgá»į": 2158,
      "kÃ¹": 2159,
      "LE": 2160,
      "ĠHo": 2161,
      "ĠÃ¬lÃº": 2162,
      "jÃ²": 2163,
      "Ġfunrararáº¹": 2164,
      "Ġikanni": 2165,
      "Ġsise": 2166,
      "ww": 2167,
      "ĠBe": 2168,
      "báº¹wo": 2169,
      "ten": 2170,
      "ĠinÃº": 2171,
      "Ġihuwasi": 2172,
      "Ġoniá¹£owo": 2173,
      "cha": 2174,
      "Ġojutu": 2175,
      "Ġláº¹sáº¹káº¹sáº¹": 2176,
      "dáº¹": 2177,
      "ĠnÃ¬": 2178,
      "ĠOju": 2179,
      "Ġaláº¹": 2180,
      "afáº¹de": 2181,
      "Ġáº¹nikáº¹ni": 2182,
      "ĠRi": 2183,
      "taja": 2184,
      "Ġfifá»į": 2185,
      "Ġkáº¹káº¹": 2186,
      "Ġigbiyanju": 2187,
      "Ġiyawo": 2188,
      "Ġá»Įpá»įlá»įpá»į": 2189,
      "bÃ²": 2190,
      "ĠiOS": 2191,
      "Ġwe": 2192,
      "Ġlodi": 2193,
      "Ġireti": 2194,
      "Ġidaduro": 2195,
      "Ġ13": 2196,
      "pá»įn": 2197,
      "Ġawaká»į": 2198,
      "Ġoru": 2199,
      "min": 2200,
      "ÃĢwá»įn": 2201,
      "ĠAma": 2202,
      "Ġiku": 2203,
      "Ġagbo": 2204,
      "ĠSan": 2205,
      "Ġ+": 2206,
      "Ġbulá»įá»įgi": 2207,
      "Ġsáº¹hin": 2208,
      "Ġ14": 2209,
      "lin": 2210,
      "ná»įmba": 2211,
      "Ġloke": 2212,
      "Ġitun": 2213,
      "tÃłn": 2214,
      "Ġifoju": 2215,
      "kara": 2216,
      "Ġisanwo": 2217,
      "gbani": 2218,
      "Ġmunadoko": 2219,
      "lay": 2220,
      "dojuká»į": 2221,
      "Ġgáº¹": 2222,
      "ĠGba": 2223,
      "daa": 2224,
      "Ġyanju": 2225,
      "Ġamo": 2226,
      "Ġgbagbá»į": 2227,
      "aiye": 2228,
      "Ġá¹£atuná¹£e": 2229,
      "vo": 2230,
      "Ġidahun": 2231,
      "Ġiá¹£aaju": 2232,
      "ĠAfi": 2233,
      "ĠtÃ¡": 2234,
      "Ġáº¹jáº¹": 2235,
      "Ġvi": 2236,
      "Ġodun": 2237,
      "ĠÃ¬wá»į": 2238,
      "Ġisun": 2239,
      "ĠJáº¹": 2240,
      "páº¹ráº¹": 2241,
      "Ġokuta": 2242,
      "Ġsile": 2243,
      "Ġeso": 2244,
      "Ġifun": 2245,
      "Ġranti": 2246,
      "Ġas": 2247,
      "hÃ¹n": 2248,
      "áĭį": 2249,
      "est": 2250,
      "Ġwaa": 2251,
      "Ġalamá»į": 2252,
      "Ġá»įá¹£á»į": 2253,
      "ĠyÃŃ": 2254,
      "longo": 2255,
      "ĠUbuntu": 2256,
      "áĪĿ": 2257,
      "aká»į": 2258,
      "Ġco": 2259,
      "á¹¢ugbá»įn": 2260,
      "lÃºwa": 2261,
      "Ġoludari": 2262,
      "Ġipade": 2263,
      "Ġlá»įpá»įlá»įpá»į": 2264,
      "ĠFacebook": 2265,
      "Ġayáº¹yáº¹": 2266,
      "bai": 2267,
      "pinláº¹": 2268,
      "Ġtito": 2269,
      "Ġbá»įá»įlu": 2270,
      "Ġalawá»į": 2271,
      "kawe": 2272,
      "jado": 2273,
      "Láº¹hin": 2274,
      "ls": 2275,
      "pÃ²": 2276,
      "ráº¹si": 2277,
      "ĠTV": 2278,
      "Ġá¹£awari": 2279,
      "sowo": 2280,
      "Ġjijáº¹": 2281,
      "rÃŃÃł": 2282,
      "á»įna": 2283,
      "Ġpelu": 2284,
      "ĠGe": 2285,
      "Ġidibo": 2286,
      "Wa": 2287,
      "sita": 2288,
      "Ã¨rÃ¨": 2289,
      "ÉĽ": 2290,
      "Ġsugbon": 2291,
      "Ġitunu": 2292,
      "Ġiá¹£eto": 2293,
      "Ġolori": 2294,
      "Ġgbáº¹": 2295,
      "Ġiá¹£á»į": 2296,
      "Ġegbe": 2297,
      "xi": 2298,
      "ese": 2299,
      "Ġolupin": 2300,
      "ĠnÇ¹kan": 2301,
      "lopin": 2302,
      "Ġgomina": 2303,
      "ĠEre": 2304,
      "dura": 2305,
      "Ġá»įtun": 2306,
      "Pa": 2307,
      "cal": 2308,
      "Ġz": 2309,
      "ĠJu": 2310,
      "Ġá¹£etá»įju": 2311,
      "Ġidunnu": 2312,
      "Ati": 2313,
      "Ġalagba": 2314,
      "iisi": 2315,
      "Ùħ": 2316,
      "Ġiji": 2317,
      "ĠDo": 2318,
      "ard": 2319,
      "Ġiraye": 2320,
      "Ġimá»įláº¹": 2321,
      "Ġirisi": 2322,
      "shi": 2323,
      "lia": 2324,
      "wosan": 2325,
      "ĠOgun": 2326,
      "Ġatiláº¹ba": 2327,
      "Ġododo": 2328,
      "Ġne": 2329,
      "Ġemi": 2330,
      "iyara": 2331,
      "Ġabo": 2332,
      "Ġasá»įye": 2333,
      "Wá»įn": 2334,
      "birin": 2335,
      "Ġfipamá»į": 2336,
      "Ġkiakia": 2337,
      "ĠolÃ³": 2338,
      "Ð°": 2339,
      "Ġpapá»į": 2340,
      "ong": 2341,
      "ĠOri": 2342,
      "miniomu": 2343,
      "PA": 2344,
      "Ġatunyáº¹wo": 2345,
      "Ġagbala": 2346,
      "mputa": 2347,
      "Ġokeere": 2348,
      "Ġjakejado": 2349,
      "Ġcom": 2350,
      "Ġibaramu": 2351,
      "dije": 2352,
      "Ġitara": 2353,
      "Ġláº¹áº¹kansi": 2354,
      "ĠIba": 2355,
      "ĠdÃł": 2356,
      "ĠdÃŃ": 2357,
      "ĠBaba": 2358,
      "Ġá¹£etan": 2359,
      "riaye": 2360,
      "pÃ©": 2361,
      "ĠIwá»įn": 2362,
      "Ġibáº¹": 2363,
      "ĠAgbaaiye": 2364,
      "sÃ¬n": 2365,
      "anujáº¹": 2366,
      "iri": 2367,
      "Ġlaipáº¹": 2368,
      "ght": 2369,
      "Ġorisirisi": 2370,
      "mÃº": 2371,
      "mer": 2372,
      "dÃº": 2373,
      "Ġláº¹yin": 2374,
      "aá¹£áº¹": 2375,
      "Ġtoo": 2376,
      "Ġsisá»į": 2377,
      "Ġáº¹wa": 2378,
      "Ġnfun": 2379,
      "giri": 2380,
      "bÃ©lÃ¬": 2381,
      "Ġisáº¹": 2382,
      "Ġkankan": 2383,
      "Ġkoju": 2384,
      "stagram": 2385,
      "Ġbawo": 2386,
      "Ġesi": 2387,
      "che": 2388,
      "12": 2389,
      "ÙĴ": 2390,
      "á¹£Ã¹": 2391,
      "ĠKá»į": 2392,
      "Ġ24": 2393,
      "Ġdipo": 2394,
      "bile": 2395,
      "ment": 2396,
      "Ġfá»įwá»į": 2397,
      "Ġpamá»į": 2398,
      "tal": 2399,
      "tumá»į": 2400,
      "ĠowÃ³": 2401,
      "Ġirá»į": 2402,
      "Ġex": 2403,
      "ĠAM": 2404,
      "Ġdarapá»į": 2405,
      "ĠTáº¹": 2406,
      "ĠEuro": 2407,
      "ĠEle": 2408,
      "ĠBayi": 2409,
      "ĠÃ¬dÃŃ": 2410,
      "Ġáº¹niti": 2411,
      "jiá¹£áº¹": 2412,
      "Ġgbekaláº¹": 2413,
      "Ġá»įpá»įlá»į": 2414,
      "it": 2415,
      "ĠPaa": 2416,
      "Ġiyipo": 2417,
      "Ð¾": 2418,
      "tari": 2419,
      "fiisi": 2420,
      "Ûķ": 2421,
      "ile": 2422,
      "Ġá¹£u": 2423,
      "Bawo": 2424,
      "roro": 2425,
      "áĪŃ": 2426,
      "cke": 2427,
      "ĠIá¹£owo": 2428,
      "win": 2429,
      "Ġdagbasoke": 2430,
      "ĠGáº¹gáº¹bi": 2431,
      "ĠDubai": 2432,
      "Ġidojuká»į": 2433,
      "Ġisi": 2434,
      "Ġá»įkÃłn": 2435,
      "rÃ¡n": 2436,
      "ger": 2437,
      "Ġewu": 2438,
      "áīµ": 2439,
      "ĠNa": 2440,
      "rinrin": 2441,
      "Ġnitorina": 2442,
      "ĠAmazon": 2443,
      "Ġkáº¹ta": 2444,
      "rÃ¹": 2445,
      "ĠÃ¨dÃ¨": 2446,
      "Øª": 2447,
      "wÃ¡jÃº": 2448,
      "ene": 2449,
      "Tube": 2450,
      "Ġike": 2451,
      "Ùĩ": 2452,
      "logun": 2453,
      "Ġpá»įju": 2454,
      "Ġalabaá¹£epá»į": 2455,
      "----": 2456,
      "Ġlaifá»įwá»įyi": 2457,
      "Ġì": 2458,
      "ĠPC": 2459,
      "ER": 2460,
      "Ġfree": 2461,
      "ĠlÃ¡ra": 2462,
      "Ġani": 2463,
      "Ġoluká»į": 2464,
      "Ġaiá¹£e": 2465,
      "Ġá¹£Ãł": 2466,
      "Ġá»Įkan": 2467,
      "Ġidinku": 2468,
      "Bii": 2469,
      "Ġapejá»į": 2470,
      "ÛĮ": 2471,
      "buru": 2472,
      "ven": 2473,
      "pona": 2474,
      "Nipa": 2475,
      "Ġonká»įwe": 2476,
      "ĠAu": 2477,
      "Ġabojuto": 2478,
      "nisá»įna": 2479,
      "Ġgbagbe": 2480,
      "Ġsita": 2481,
      "á»įrun": 2482,
      "Ã³n": 2483,
      "ster": 2484,
      "Ġigun": 2485,
      "ĠPlus": 2486,
      "Ġase": 2487,
      "ĠSamsung": 2488,
      "ĠÃ¬wÃ©": 2489,
      "Ġibere": 2490,
      "ĠMO": 2491,
      "gÃºn": 2492,
      "Ãĵ": 2493,
      "Ġá¹£áº¹á¹£áº¹": 2494,
      "Ġsanwo": 2495,
      "ĠiPad": 2496,
      "Ġ×": 2497,
      "ring": 2498,
      "Ġá»įpáº¹": 2499,
      "Ġkariaye": 2500,
      "ĠPD": 2501,
      "ĠorÃŃláº¹": 2502,
      "sion": 2503,
      "ĠjÃ¹": 2504,
      ".\"": 2505,
      "Ġirawá»į": 2506,
      "ĠNÃł": 2507,
      "oorun": 2508,
      "buláº¹": 2509,
      "ries": 2510,
      "Ġdajudaju": 2511,
      "ED": 2512,
      "ther": 2513,
      "ĠsÃŃláº¹": 2514,
      "lá»įrun": 2515,
      "ĠkÃ©": 2516,
      "ĠJe": 2517,
      "ĠYuroopu": 2518,
      "Ġà¤ķ": 2519,
      "ĠÃ¨mi": 2520,
      "ĠÃ¬já»įba": 2521,
      "Ġar": 2522,
      "Ġá¹£abáº¹wo": 2523,
      "ĠGu": 2524,
      "Ġpaati": 2525,
      "Ġose": 2526,
      "ze": 2527,
      "Ġnile": 2528,
      "Ġtiláº¹": 2529,
      "Ùı": 2530,
      "Ġlasiko": 2531,
      "Ġatáº¹jade": 2532,
      "ff": 2533,
      "Ġmaá¹£e": 2534,
      "ĠkÃºrÃ²": 2535,
      "Ġ0": 2536,
      "Ġasiko": 2537,
      "Ðµ": 2538,
      "á¹£iá¹£áº¹pá»į": 2539,
      "ĠOlÃºwa": 2540,
      "Ġiyanu": 2541,
      "Ġá¹£iá¹£u": 2542,
      "Ġraná¹£áº¹": 2543,
      "ĠHe": 2544,
      "fia": 2545,
      "Ġifojusi": 2546,
      "ĠPu": 2547,
      "ĠIwe": 2548,
      "tuu": 2549,
      "ĠNitorina": 2550,
      "ĠÃłÃ¬": 2551,
      "ĠTun": 2552,
      "aká»įá»įláº¹": 2553,
      "Ġitá»įnisá»įna": 2554,
      "Ãį": 2555,
      "Ġajeji": 2556,
      "ĠjÃ¡de": 2557,
      "Ġakopá»į": 2558,
      "sÃ¨": 2559,
      "tte": 2560,
      "ĠInstagram": 2561,
      "laaye": 2562,
      "Ġjara": 2563,
      "ĠLai": 2564,
      "witter": 2565,
      "Ġifá»įwá»įkan": 2566,
      "ÉĶ": 2567,
      "Ġfáº¹láº¹": 2568,
      "Ġac": 2569,
      "otu": 2570,
      "Ġaso": 2571,
      "ĠYa": 2572,
      "luwe": 2573,
      "Ġinawo": 2574,
      "regbe": 2575,
      "à¤¨": 2576,
      "rica": 2577,
      "xy": 2578,
      "jÃŃrÃŃÃł": 2579,
      "lic": 2580,
      "day": 2581,
      "yÃ¡": 2582,
      "Ġode": 2583,
      "Ġnipinláº¹": 2584,
      "wei": 2585,
      "Ġdahun": 2586,
      "Ġalaisan": 2587,
      "Ġ17": 2588,
      "Ġlá»įjá»į": 2589,
      "ang": 2590,
      "Ġtawá»įn": 2591,
      "Ġká»įmputa": 2592,
      "ĠYor": 2593,
      "Ġfoonuiyara": 2594,
      "ĠÃ¬pÃŃn": 2595,
      "Ġbakanna": 2596,
      "Ġgbooro": 2597,
      "ĠolÃ¹": 2598,
      "Ġadiráº¹si": 2599,
      "ĠÃ¬fáº¹": 2600,
      "ĠIP": 2601,
      "Ġpupa": 2602,
      "lla": 2603,
      "Ġáº¹dun": 2604,
      "ĠirÃº": 2605,
      "Ġaro": 2606,
      "UM": 2607,
      "Ġatu": 2608,
      "ĠAf": 2609,
      "Ġipolongo": 2610,
      "ĠIda": 2611,
      "Ġeru": 2612,
      "Ġigbeyawo": 2613,
      "Ġthat": 2614,
      "11": 2615,
      "Ġisá»įdá»į": 2616,
      "ĠNo": 2617,
      "Ġiwuri": 2618,
      "rÃ¬": 2619,
      "ranse": 2620,
      "ftware": 2621,
      "Ġáº¹ri": 2622,
      "ĠIgba": 2623,
      "Atá»įka": 2624,
      "ĠAká»į": 2625,
      "ves": 2626,
      "yÃ¬ÃŃ": 2627,
      "ĠYouTube": 2628,
      "ser": 2629,
      "ĠIlana": 2630,
      "Ġláº¹wa": 2631,
      "Ġijáº¹": 2632,
      "wewe": 2633,
      "áº¹áº¹si": 2634,
      "Ġonline": 2635,
      "ami": 2636,
      "Ġkáº¹hin": 2637,
      "the": 2638,
      "Ġomiiran": 2639,
      "ĠBÃŃbÃ©lÃ¬": 2640,
      "Ġalaa": 2641,
      "Ġeleyi": 2642,
      "ĠGbi": 2643,
      "ĠsÃ¡": 2644,
      "log": 2645,
      "ĠAfirika": 2646,
      "Ġoyin": 2647,
      "Ġidogo": 2648,
      "gÃ¹n": 2649,
      "Ġmiliá»įnu": 2650,
      "ent": 2651,
      "Ã¶": 2652,
      "Ġ50": 2653,
      "hing": 2654,
      "gbimá»į": 2655,
      "Ġtatuu": 2656,
      "Ġá»įgbin": 2657,
      "Ġá»Įba": 2658,
      "lli": 2659,
      "ÅĦ": 2660,
      "ĠÃłÃł": 2661,
      "ĠKÃŃ": 2662,
      "ĠIbi": 2663,
      "mÃ¹": 2664,
      "Ġá¹£ubu": 2665,
      "TA": 2666,
      "ĠLáº¹hinna": 2667,
      "ĠdÃº": 2668,
      "ĠWatch": 2669,
      "Ġá»įfiisi": 2670,
      "oogun": 2671,
      "ĠGB": 2672,
      "jiji": 2673,
      "Ġitá»įkasi": 2674,
      "basá»įrá»į": 2675,
      "diti": 2676,
      "onal": 2677,
      "Ġiyá»į": 2678,
      "ĠtÃº": 2679,
      "fáº¹láº¹": 2680,
      "áº¹áº¹ni": 2681,
      "Ġrirá»į": 2682,
      "Ġgilasi": 2683,
      "qua": 2684,
      "Li": 2685,
      "15": 2686,
      "Ġpara": 2687,
      "Ġmuláº¹": 2688,
      "tro": 2689,
      "Ġnigbamii": 2690,
      "Ġopopona": 2691,
      "wakiri": 2692,
      "Ġ25": 2693,
      "ĠGáº¹áº¹si": 2694,
      "ĠIyáº¹n": 2695,
      "sowopo": 2696,
      "Ġoniwe": 2697,
      "ID": 2698,
      "chi": 2699,
      "Ġaá¹£e": 2700,
      "Ġban": 2701,
      "ĠNew": 2702,
      "ĠGi": 2703,
      "tar": 2704,
      "AA": 2705,
      "ple": 2706,
      "Ġamu": 2707,
      "Ġigbese": 2708,
      "rere": 2709,
      "à¤¿": 2710,
      "Ġiyo": 2711,
      "//": 2712,
      "ĠAi": 2713,
      "sino": 2714,
      "Ġ2019": 2715,
      "Ġkeke": 2716,
      "ĠJapan": 2717,
      "ÃĪ": 2718,
      "://": 2719,
      "Ġiha": 2720,
      "Ġbori": 2721,
      "á»Įpá»įlá»įpá»į": 2722,
      "Ġonija": 2723,
      "faili": 2724,
      "Ġfaa": 2725,
      "Ġolugbe": 2726,
      "Ġáº¸gbáº¹": 2727,
      "Ġkaláº¹": 2728,
      "ĠÃ¬dÃ¡": 2729,
      "Ġiká»įlu": 2730,
      "Akoko": 2731,
      "ĠWá»į": 2732,
      "uawei": 2733,
      "las": 2734,
      "ĠÃ¨tÃ²": 2735,
      "bÃ¹": 2736,
      "Ġariwo": 2737,
      "lode": 2738,
      "Ġlá»įá»į": 2739,
      "à¤Ĥ": 2740,
      "ĠÅĦlÃ¡": 2741,
      "ĠLakoko": 2742,
      "ĠWe": 2743,
      "Ġagbalagba": 2744,
      "ĠpÃ¨": 2745,
      "à¥į": 2746,
      "Ġire": 2747,
      "á»įla": 2748,
      "Ġnitosi": 2749,
      "ys": 2750,
      "kÃºn": 2751,
      "Ġjá»įwá»į": 2752,
      "rÃŃn": 2753,
      "Ġáº¹ja": 2754,
      "Ġnu": 2755,
      "16": 2756,
      "Ġona": 2757,
      "Ġforuká»įsiláº¹": 2758,
      "Ġajá»įá¹£epá»į": 2759,
      "Ġyo": 2760,
      "kiti": 2761,
      "Ġimudara": 2762,
      "iaomi": 2763,
      "sanma": 2764,
      "Ġawari": 2765,
      "Ġcan": 2766,
      "ony": 2767,
      "30": 2768,
      "Ġlero": 2769,
      "ĠSEO": 2770,
      "Ġolubasá»įrá»į": 2771,
      "Ġgidigidi": 2772,
      "kugba": 2773,
      "YE": 2774,
      "ĠIgbe": 2775,
      "'s": 2776,
      "piláº¹á¹£áº¹": 2777,
      "inux": 2778,
      "Ġaiá¹£ede": 2779,
      "lusan": 2780,
      "Ġá»Įna": 2781,
      "Ġrilara": 2782,
      "TE": 2783,
      "Ġagbáº¹": 2784,
      "Ġitura": 2785,
      "Ġaago": 2786,
      "ĠNibi": 2787,
      "Ġgbáº¹káº¹le": 2788,
      "á»Įkan": 2789,
      "buláº¹ti": 2790,
      "Ġafiwe": 2791,
      "ĠrÃ¡n": 2792,
      "ÙĦ": 2793,
      "popada": 2794,
      "Ġá¹£eun": 2795,
      "Ġife": 2796,
      "ĠLá»į": 2797,
      "Ġikojá»įpá»į": 2798,
      "taya": 2799,
      "Ġyiyá»į": 2800,
      "Ġfere": 2801,
      "ms": 2802,
      "Ġtii": 2803,
      "ĠbÃł": 2804,
      "Ġaluminiomu": 2805,
      "Ġlowo": 2806,
      "Ġosu": 2807,
      "ĠSun": 2808,
      "ĠAbu": 2809,
      "áº¹ri": 2810,
      "ĠNÃłÃ¬": 2811,
      "Ġá¹£iá¹£áº¹da": 2812,
      "ĠAPC": 2813,
      "Igbe": 2814,
      "Ġidapá»į": 2815,
      "Nitorinaa": 2816,
      "bere": 2817,
      "ĠSamu": 2818,
      "dy": 2819,
      "ess": 2820,
      "ĠÃ¬á¹£": 2821,
      "Ġwáº¹": 2822,
      "Ġá»įká»įá»įkan": 2823,
      "Ġmiran": 2824,
      "BC": 2825,
      "hunsa": 2826,
      "Ġâ": 2827,
      "rÃ¬n": 2828,
      "ĠhÃłn": 2829,
      "Ġad": 2830,
      "Ġ[": 2831,
      "Ġeka": 2832,
      "Ġdida": 2833,
      "łáĪ": 2834,
      "Ġsee": 2835,
      "Ġá»įgba": 2836,
      "aasi": 2837,
      "Ġifowosowopo": 2838,
      "Ġaf": 2839,
      "Ġ2020": 2840,
      "Ġojoojumá»į": 2841,
      "Ġgbero": 2842,
      "Ġileeá¹£áº¹": 2843,
      "ĠRáº¹": 2844,
      "Ġikede": 2845,
      "Ġogo": 2846,
      "áº¸RI": 2847,
      "Ġaá¹£awakiri": 2848,
      "soft": 2849,
      "ĠPáº¹lupáº¹lu": 2850,
      "Ġáº¹gbáº¹run": 2851,
      "Ġlapapá»į": 2852,
      "siwewe": 2853,
      "rÃ²yÃ¬n": 2854,
      "Ġdaabobo": 2855,
      "Ġ:": 2856,
      "lar": 2857,
      "á»Įjá»į": 2858,
      "áº¹já»į": 2859,
      "Ġngbe": 2860,
      "as": 2861,
      "áº¸RIKA": 2862,
      "rou": 2863,
      "Ġque": 2864,
      "Ã¥": 2865,
      "pt": 2866,
      "âĢĿ.": 2867,
      "Ġtabuláº¹ti": 2868,
      "Ġá¹£Ã¹gbá»į": 2869,
      "Ġiforuká»įsiláº¹": 2870,
      "Ġdin": 2871,
      "Ġtáº¹táº¹": 2872,
      "Ġáº¸rá»į": 2873,
      "tá»įwá»į": 2874,
      "oolu": 2875,
      "Ġdidun": 2876,
      "Ġiseda": 2877,
      "Ġare": 2878,
      "ord": 2879,
      "Ġloun": 2880,
      "Ġibe": 2881,
      "Ġfarahan": 2882,
      "Ġawá»įsanma": 2883,
      "ĠNÃłÃ¬jÃŃrÃŃÃł": 2884,
      "ĠIya": 2885,
      "ĠâĢĿ": 2886,
      "dra": 2887,
      "Ġjáº¹risi": 2888,
      "fáº¹fáº¹": 2889,
      "Ġigbaniwá»įle": 2890,
      "ĠMicro": 2891,
      "Ġprofaili": 2892,
      "Ġnkankan": 2893,
      "Ġáº¸láº¹": 2894,
      "Ġwith": 2895,
      "Ġiwiregbe": 2896,
      "gbÃ¡ra": 2897,
      "uru": 2898,
      "dodo": 2899,
      "à¹": 2900,
      "Ġoludije": 2901,
      "Ġyiyi": 2902,
      "nsi": 2903,
      "Ġifunni": 2904,
      "sepo": 2905,
      "Ġatupa": 2906,
      "Ġapani": 2907,
      "ĠÃ¬má»į": 2908,
      "Ġá¹£eduro": 2909,
      "Ġáº¹sun": 2910,
      "Ġyika": 2911,
      "Ġitáº¹lá»įrun": 2912,
      "red": 2913,
      "ĠAMáº¸RIKA": 2914,
      "Ġogiri": 2915,
      "LA": 2916,
      "ráº¹diti": 2917,
      "ress": 2918,
      "ĠTra": 2919,
      "Ġiyemeji": 2920,
      "cur": 2921,
      "Ġalakoso": 2922,
      "sho": 2923,
      "Ġoá¹£elu": 2924,
      "Ġlojoojumá»į": 2925,
      "Ġifijiá¹£áº¹": 2926,
      "ĠTwitter": 2927,
      "Ġloye": 2928,
      "ĠEurope": 2929,
      "yeba": 2930,
      "Ġikáº¹hin": 2931,
      "Ġibanujáº¹": 2932,
      "Ġifarada": 2933,
      "peeni": 2934,
      "rg": 2935,
      "laa": 2936,
      "Ġpaá¹£áº¹": 2937,
      "ks": 2938,
      "lagbara": 2939,
      "Ġkopa": 2940,
      "Ġapp": 2941,
      "ĠIpa": 2942,
      "fÃŃ": 2943,
      "kÃ©": 2944,
      "Ġigbáº¹": 2945,
      "à¤¹": 2946,
      "Ġláº¹nu": 2947,
      "ĠAgbara": 2948,
      "biye": 2949,
      "Ġifosiwewe": 2950,
      "daran": 2951,
      "ction": 2952,
      "Ġhy": 2953,
      "tÃºn": 2954,
      "Ġpanáº¹li": 2955,
      "Nitori": 2956,
      "ĠBii": 2957,
      "ĠmÃ©jÃ¬": 2958,
      "Ġbuburu": 2959,
      "Ġniluu": 2960,
      "pen": 2961,
      "âĢĶ": 2962,
      "mon": 2963,
      "Ġmeje": 2964,
      "Ġailopin": 2965,
      "Ġijin": 2966,
      "Ġnlá»į": 2967,
      "páº¹áº¹ráº¹": 2968,
      "à¥Ģ": 2969,
      "á»įjá»į": 2970,
      "ĠAlakoso": 2971,
      "Ġká»įká»į": 2972,
      "ĠLori": 2973,
      "Ġalagbata": 2974,
      "Ġláº¹sáº¹sáº¹": 2975,
      "Ġáº¹láº¹gbáº¹": 2976,
      "Ġowu": 2977,
      "Ġbajáº¹": 2978,
      "Ġonimá»į": 2979,
      "his": 2980,
      "tin": 2981,
      "ká»įtaya": 2982,
      "Ġmáº¹wa": 2983,
      "kÃŃ": 2984,
      "Ġyuroopu": 2985,
      "Ġsolusan": 2986,
      "pÃłÃ¡": 2987,
      "Ġyour": 2988,
      "FA": 2989,
      "wer": 2990,
      "Ġá¹£epá»į": 2991,
      "ĠAme": 2992,
      "Da": 2993,
      "Ġá»įlá»įgbá»įn": 2994,
      "nia": 2995,
      "pejuwe": 2996,
      "mÃ¬": 2997,
      "Ġdaba": 2998,
      "tuntun": 2999,
      "Ġfol": 3000,
      "yinti": 3001,
      "Ø§ÙĦ": 3002,
      "ĠpadÃł": 3003,
      "Ġirugbin": 3004,
      "Ġobirin": 3005,
      "Ġore": 3006,
      "Å¡áº¹": 3007,
      "Ġiwoye": 3008,
      "nic": 3009,
      "ĠLu": 3010,
      "ĠIru": 3011,
      "Ġbee": 3012,
      "ĠÃ¬gbÃ©": 3013,
      "ĠyÃł": 3014,
      "Ġaká»įsiláº¹": 3015,
      "21": 3016,
      "lam": 3017,
      "gs": 3018,
      "Ġá»įkÃ¹nrin": 3019,
      "Ġararáº¹": 3020,
      "Ġibinu": 3021,
      "Ġibalopá»į": 3022,
      "ĠSou": 3023,
      "ranlá»įwá»į": 3024,
      "cto": 3025,
      "Ġakojá»įpá»į": 3026,
      "ĠØ¨": 3027,
      "curren": 3028,
      "Ġaj": 3029,
      "ĠIta": 3030,
      "Ġibile": 3031,
      "18": 3032,
      "ĠAda": 3033,
      "ĠwÃ²": 3034,
      "siti": 3035,
      "Ġifá»įkan": 3036,
      "hoto": 3037,
      "Ġikole": 3038,
      "usu": 3039,
      "ĠbÃ³": 3040,
      "Ġsen": 3041,
      "leti": 3042,
      "niyan": 3043,
      "hen": 3044,
      "jumo": 3045,
      "Ġnga": 3046,
      "Ġ2017": 3047,
      "tele": 3048,
      "Ġ2018": 3049,
      "22": 3050,
      "cka": 3051,
      "rÃºká»į": 3052,
      "Ġá»įmá»įbirin": 3053,
      "wun": 3054,
      "kibi": 3055,
      "ĠÃį": 3056,
      "Ġorile": 3057,
      "Ġapapo": 3058,
      "Ġafá»įwá»į": 3059,
      "ĠÃ¬pÃŃnláº¹": 3060,
      "Ġidajá»į": 3061,
      "Ġjoko": 3062,
      "Ġáº¹á¹£á»į": 3063,
      "Ġná¹£e": 3064,
      "bá»įn": 3065,
      "Ġjinna": 3066,
      "lack": 3067,
      "rÃ¬ÃŃ": 3068,
      "ootá»į": 3069,
      "Ġatáº¹gun": 3070,
      "tisi": 3071,
      "Ġalagbara": 3072,
      "lue": 3073,
      "bá»įde": 3074,
      "ers": 3075,
      "ttps": 3076,
      "Ġaaráº¹": 3077,
      "des": 3078,
      "riko": 3079,
      "ká»įá»įkan": 3080,
      "Ġkiráº¹diti": 3081,
      "ĠSipeeni": 3082,
      "Ġdáº¹": 3083,
      "Ġmura": 3084,
      "laya": 3085,
      "ĠOwo": 3086,
      "ĠImu": 3087,
      "Ġ|": 3088,
      "Ġláº¹ta": 3089,
      "lÃ¨": 3090,
      "Ġoluá¹£e": 3091,
      "Ð¸": 3092,
      "mika": 3093,
      "Ġijoko": 3094,
      "Ġjiya": 3095,
      "ĠCom": 3096,
      "mart": 3097,
      "ĠÃłká»į": 3098,
      "Ġjinláº¹": 3099,
      "Ġolupiláº¹á¹£áº¹": 3100,
      "seku": 3101,
      "rÃºn": 3102,
      "Ġasa": 3103,
      "ĠJi": 3104,
      "mora": 3105,
      "Ġini": 3106,
      "BI": 3107,
      "yida": 3108,
      "Ġdokita": 3109,
      "ĠJÃ©": 3110,
      "Ġwiwá»įn": 3111,
      "ĠRus": 3112,
      "ĠAgbegbe": 3113,
      "Ġidaji": 3114,
      "ĠlÃ²": 3115,
      "Ġtitobi": 3116,
      "kojá»įpá»į": 3117,
      "anti": 3118,
      "SE": 3119,
      "ĠIfi": 3120,
      "Ġamoye": 3121,
      "60": 3122,
      "Iwá»įn": 3123,
      "Ġat": 3124,
      "Ġmini": 3125,
      "Ġogbon": 3126,
      "ĠtÃ¬": 3127,
      "ky": 3128,
      "13": 3129,
      "ĠIrin": 3130,
      "ĠBawo": 3131,
      "miran": 3132,
      "à¥ĭ": 3133,
      "Ġjá»įra": 3134,
      "máº¹nti": 3135,
      "anada": 3136,
      "Ġkin": 3137,
      "songi": 3138,
      "Ġigbona": 3139,
      "lopo": 3140,
      "Ġá»įlá»įrá»į": 3141,
      "ĠBio": 3142,
      "Ġlasan": 3143,
      "Iá¹£áº¹": 3144,
      "ĠÃłkÃ³": 3145,
      "Ġintanáº¹áº¹ti": 3146,
      "ĠLinux": 3147,
      "Ãī": 3148,
      "iye": 3149,
      "Wá»Į": 3150,
      "Ġaá¹£iri": 3151,
      "tunká»į": 3152,
      "Ġigbohunsa": 3153,
      "Ġtá»įká»įtaya": 3154,
      "Ġmáº¹fa": 3155,
      "Ġibugbe": 3156,
      "ĠHi": 3157,
      "Ġileri": 3158,
      "Ġalabaá¹£iá¹£áº¹pá»į": 3159,
      "Ġkuki": 3160,
      "tance": 3161,
      "ĠQu": 3162,
      "14": 3163,
      "Eto": 3164,
      "ĠBar": 3165,
      "ĠEx": 3166,
      "áº¹gbáº¹": 3167,
      "Ġnigbakugba": 3168,
      "Ġpipadanu": 3169,
      "Ġmita": 3170,
      "Ġsoftware": 3171,
      "áĪµ": 3172,
      "Ġipinle": 3173,
      "ĠNÃŃtorÃŃ": 3174,
      "dee": 3175,
      "zi": 3176,
      "Ġyio": 3177,
      "ĠAko": 3178,
      "Ġigboya": 3179,
      "ĠID": 3180,
      "biti": 3181,
      "Ġika": 3182,
      "OM": 3183,
      "Ġisá»įdá»įtun": 3184,
      "táº¹táº¹": 3185,
      "nuba": 3186,
      "Ġgbowo": 3187,
      "ĠTabi": 3188,
      "Ã¤": 3189,
      "Ġ21": 3190,
      "Jáº¹": 3191,
      "har": 3192,
      "Ġdada": 3193,
      "Diáº¹": 3194,
      "ĠkÃºn": 3195,
      "Ġpapa": 3196,
      "Ġayaworan": 3197,
      "ĠSamusongi": 3198,
      "papo": 3199,
      "Ġiá¹£oogun": 3200,
      "Ġsáº¹yin": 3201,
      "tÃ³": 3202,
      "Ġdojuká»į": 3203,
      "WO": 3204,
      "lowa": 3205,
      "ĠHuawei": 3206,
      "Ġjijin": 3207,
      "kele": 3208,
      "siyi": 3209,
      "Ġgaasi": 3210,
      "ood": 3211,
      "Ġijoba": 3212,
      "ĠobÃ¬nrin": 3213,
      "juto": 3214,
      "ĠAwon": 3215,
      "sulu": 3216,
      "misi": 3217,
      "len": 3218,
      "ĠIdi": 3219,
      "Ġá»įti": 3220,
      "Ġasá»įtáº¹láº¹": 3221,
      "Ġor": 3222,
      "Ġarakunrin": 3223,
      "ĠÃłwa": 3224,
      "RA": 3225,
      "ĠOluwa": 3226,
      "ban": 3227,
      "99": 3228,
      "ous": 3229,
      "Ġfifiraná¹£áº¹": 3230,
      "ĠAle": 3231,
      "ĠsÃ³": 3232,
      "Ġgbajumá»į": 3233,
      "ĠMoto": 3234,
      "App": 3235,
      "báº¹áº¹ká»į": 3236,
      "Ġsoo": 3237,
      "Ġáĭ¨": 3238,
      "gbáº¹ni": 3239,
      "à¤®": 3240,
      "Sibáº¹sibáº¹": 3241,
      "randi": 3242,
      "ses": 3243,
      "Å¡e": 3244,
      "Njáº¹": 3245,
      "lÃŃ": 3246,
      "ĠáĬ¥": 3247,
      "Ġitatáº¹táº¹": 3248,
      "Ġniwaju": 3249,
      "Ġë": 3250,
      "Ġrá»įá»įrun": 3251,
      "ĠMicrosoft": 3252,
      "In": 3253,
      "too": 3254,
      "ĠCan": 3255,
      "Ġ2021": 3256,
      "ĠÑ": 3257,
      "Ġá»įlá»įjáº¹": 3258,
      "ĠGbo": 3259,
      "lowaya": 3260,
      "Ġoyinbo": 3261,
      "ĠUSB": 3262,
      "que": 3263,
      "Ġakori": 3264,
      "Alaye": 3265,
      "larada": 3266,
      "inibi": 3267,
      "Ġkilasi": 3268,
      "Ġang": 3269,
      "ĠYoo": 3270,
      "17": 3271,
      "dÃ¹n": 3272,
      "ĠOne": 3273,
      "med": 3274,
      "jiyan": 3275,
      "Ġyiya": 3276,
      "Ġaraa": 3277,
      "bajáº¹": 3278,
      "sing": 3279,
      "ĠGo": 3280,
      "Ġboá¹£e": 3281,
      "ĠFaranse": 3282,
      "ĠAC": 3283,
      "Ġadayeba": 3284,
      "Ġburandi": 3285,
      "Ġwiwá»įle": 3286,
      "ĠLED": 3287,
      "Ġ22": 3288,
      "Ka": 3289,
      "cts": 3290,
      "sistance": 3291,
      "ĠlÃ¡Ãł": 3292,
      "Ġabala": 3293,
      "Ġwindow": 3294,
      "Ġmáº¹nuba": 3295,
      "ĠTu": 3296,
      "ĠBan": 3297,
      "Ġiyáº¹": 3298,
      "DE": 3299,
      "ĠIpo": 3300,
      "Ġabinibi": 3301,
      "ĠÃ²fin": 3302,
      "The": 3303,
      "yanjiyan": 3304,
      "Ġajeseku": 3305,
      "ĠAir": 3306,
      "ĠAkin": 3307,
      "ĠAá¹£a": 3308,
      "ĠChi": 3309,
      "con": 3310,
      "ĠMan": 3311,
      "Ġ40": 3312,
      "ĠXiaomi": 3313,
      "Ġgbejade": 3314,
      "Ġrá»įpo": 3315,
      "Ġiwari": 3316,
      "SS": 3317,
      "tÃ¡": 3318,
      "Ġidaa": 3319,
      "Ġalekun": 3320,
      "Ġniwon": 3321,
      "ĠFran": 3322,
      "tabi": 3323,
      "\".": 3324,
      "Ġwuyi": 3325,
      "ĠGala": 3326,
      "ĠSc": 3327,
      "ĠdÃºrÃ³": 3328,
      "ĠÃ¬wÃł": 3329,
      "ĠIntanáº¹áº¹ti": 3330,
      "ĠLG": 3331,
      "ral": 3332,
      "dÃ¬ÃŃ": 3333,
      "Ġonise": 3334,
      "Ġiká»įká»į": 3335,
      "dÃ³": 3336,
      "Ġoniru": 3337,
      "ĠlÃł": 3338,
      "ckage": 3339,
      "lly": 3340,
      "eli": 3341,
      "Ġege": 3342,
      "ĠAkoko": 3343,
      "ofin": 3344,
      "Ġfojusi": 3345,
      "ĠItan": 3346,
      "Ġá¹¢iá¹£e": 3347,
      "Ġideri": 3348,
      "Ġsoro": 3349,
      "Ġagbejade": 3350,
      "tre": 3351,
      "mail": 3352,
      "Ġchi": 3353,
      "cti": 3354,
      "yÃłwÃ³": 3355,
      "geria": 3356,
      "ire": 3357,
      "kusu": 3358,
      "ling": 3359,
      "Ġfawá»įn": 3360,
      "ĠAdo": 3361,
      "Ġago": 3362,
      "ĠBoya": 3363,
      "á¹£Ãł": 3364,
      "sen": 3365,
      "âĢ¢": 3366,
      "Ġá¹£Ã¨": 3367,
      "Ġijamba": 3368,
      "aarin": 3369,
      "Ġtáº¹li": 3370,
      "á¹£ipaa": 3371,
      "Ġitáº¹we": 3372,
      "ĠBotiláº¹jáº¹pe": 3373,
      "pro": 3374,
      "ud": 3375,
      "Ġkokoro": 3376,
      "Ġgbese": 3377,
      "An": 3378,
      "Gba": 3379,
      "Ø§Ø": 3380,
      "Lakoko": 3381,
      "ĠAgbaye": 3382,
      "dugbo": 3383,
      "tÃŃtá»į": 3384,
      "danwo": 3385,
      "Ġariyanjiyan": 3386,
      "Ġapamá»į": 3387,
      "hats": 3388,
      "Ġhu": 3389,
      "ĠJÃ©sÃ¹": 3390,
      "ĠAlaye": 3391,
      "mikali": 3392,
      "Ġeyin": 3393,
      "phy": 3394,
      "Ġalabá»įde": 3395,
      "Ġcryptocurren": 3396,
      "PS": 3397,
      "Ġao": 3398,
      "ĠAb": 3399,
      "pele": 3400,
      "rid": 3401,
      "Ġidena": 3402,
      "ĠCon": 3403,
      "BÃŃ": 3404,
      "Ã³tá»į": 3405,
      "Ġyá»įkuro": 3406,
      "py": 3407,
      "Yi": 3408,
      "Ġayafi": 3409,
      "Ġiyebiye": 3410,
      "Ġfáº¹láº¹fáº¹láº¹": 3411,
      "hn": 3412,
      "Ġijinláº¹": 3413,
      "Ġologun": 3414,
      "ĠLáº¹": 3415,
      "ÃŃnÃº": 3416,
      "Ġrun": 3417,
      "Ġololu": 3418,
      "lohun": 3419,
      "Ġbere": 3420,
      "Ġáº¹á¹£in": 3421,
      "Loni": 3422,
      "âĢĿ,": 3423,
      "ding": 3424,
      "Ġimuse": 3425,
      "low": 3426,
      "Ġboá¹£ewa": 3427,
      "Ġá»Įja": 3428,
      "Ã¹bÃ¡": 3429,
      "int": 3430,
      "ĠPDP": 3431,
      "ĠLilo": 3432,
      "Ġá»įga": 3433,
      "ĠIye": 3434,
      "ĠBra": 3435,
      "wara": 3436,
      "ĠSouth": 3437,
      "Ġgbigbáº¹": 3438,
      "OR": 3439,
      "Ġresistance": 3440,
      "ĠSta": 3441,
      "gungun": 3442,
      "Ġnpe": 3443,
      "Lai": 3444,
      "Ġnwá»įn": 3445,
      "ĠPaapaa": 3446,
      "Ġpaá¹£ipaa": 3447,
      "ĠUnited": 3448,
      "Ġabáº¹ráº¹": 3449,
      "Ġdapá»į": 3450,
      "tunwá»įn": 3451,
      "ngbo": 3452,
      "Ġkedere": 3453,
      "ĠÃ©": 3454,
      "Ġá»Įrá»į": 3455,
      "reemu": 3456,
      "Lo": 3457,
      "ruko": 3458,
      "à¤¸": 3459,
      "ĠSI": 3460,
      "sÃłn": 3461,
      "rom": 3462,
      "ĠNÃŃgbÃł": 3463,
      "Ġidoti": 3464,
      "BA": 3465,
      "Ġatawá»įn": 3466,
      "tunwá»įnsi": 3467,
      "lette": 3468,
      "resi": 3469,
      "orona": 3470,
      "ìĿ": 3471,
      "NI": 3472,
      "Ġáº¹tan": 3473,
      "Ġyori": 3474,
      "orun": 3475,
      "ĠCu": 3476,
      "gn": 3477,
      "pá»įju": 3478,
      "sc": 3479,
      "Ġaibaláº¹": 3480,
      "gon": 3481,
      "ĠKii": 3482,
      "Ta": 3483,
      "lera": 3484,
      "ĠOS": 3485,
      "Ġtiwá»įn": 3486,
      "Ġel": 3487,
      "Ġimukuro": 3488,
      "Ġkon": 3489,
      "ĠAba": 3490,
      "beere": 3491,
      "ĠCO": 3492,
      "tá»įna": 3493,
      "nyÃŃ": 3494,
      "Ġniye": 3495,
      "dÃ²": 3496,
      "Ġlaibikita": 3497,
      "gile": 3498,
      "Ã£": 3499,
      "Ġailera": 3500,
      "Ġsibáº¹": 3501,
      "olu": 3502,
      "Ġá¹£ÃŃ": 3503,
      "mbo": 3504,
      "Ġx": 3505,
      "ĠfÃŃ": 3506,
      "ĠApp": 3507,
      "koro": 3508,
      "iláº¹": 3509,
      "áĪį": 3510,
      "Ġáº¹láº¹wa": 3511,
      "Ġgbowolori": 3512,
      "ĠAd": 3513,
      "ĠtÃŃtÃŃ": 3514,
      "Ġokan": 3515,
      "láº¹yin": 3516,
      "hatsApp": 3517,
      "ĠOun": 3518,
      "ĠCar": 3519,
      "Ġsisáº¹": 3520,
      "à¤¤": 3521,
      "Ġkuna": 3522,
      "ĠAká»įsiláº¹": 3523,
      "Ġá»įta": 3524,
      "lti": 3525,
      "ĠbÃ¡yÃ¬ÃŃ": 3526,
      "ĠÃ²á¹£": 3527,
      "ĠlÃ³jÃº": 3528,
      "Ġadani": 3529,
      "pinle": 3530,
      "Bayi": 3531,
      "á»įmá»į": 3532,
      "Ġper": 3533,
      "ĠMaá¹£e": 3534,
      "king": 3535,
      "Ġá»įra": 3536,
      "ĠdÃ¬": 3537,
      "fura": 3538,
      "ppo": 3539,
      "ĠPar": 3540,
      "Ġcar": 3541,
      "Ġigo": 3542,
      "gbÃ²": 3543,
      "Ġito": 3544,
      "ĠkÃł": 3545,
      "ler": 3546,
      "ĠKu": 3547,
      "ĠmÃŃmá»į": 3548,
      "ture": 3549,
      "Ġkemikali": 3550,
      "tis": 3551,
      "ĠIlÃ©": 3552,
      "orld": 3553,
      "logbo": 3554,
      "ĠGalaxy": 3555,
      "80": 3556,
      "To": 3557,
      "Ġidasiláº¹": 3558,
      "ĠorÃºká»į": 3559,
      "kufáº¹": 3560,
      "Ġlokan": 3561,
      "ĠÃłjá»į": 3562,
      "rome": 3563,
      "Ġgu": 3564,
      "Ġijáº¹risi": 3565,
      "Ġadun": 3566,
      "Ġijá»į": 3567,
      "ĠÙĪ": 3568,
      "Ġnikáº¹hin": 3569,
      "ĠGomina": 3570,
      "Ġailagbara": 3571,
      "tÃłkÃ¬": 3572,
      "Ġibá»įn": 3573,
      "ĠYorÃ¹bÃ¡": 3574,
      "ĠØ§ÙĦ": 3575,
      "Ġiá¹£afihan": 3576,
      "Ġniwá»įn": 3577,
      "ex": 3578,
      "gin": 3579,
      "sÃ¡": 3580,
      "Ġgo": 3581,
      "ĠFo": 3582,
      "PN": 3583,
      "KÃŃ": 3584,
      "siri": 3585,
      "ĠBlue": 3586,
      "Ġá»įsin": 3587,
      "Ġyarayara": 3588,
      "pÃ³": 3589,
      "Ġman": 3590,
      "táº¹áº¹li": 3591,
      "EC": 3592,
      "Ã¡jÃº": 3593,
      "Ġafe": 3594,
      "UMX": 3595,
      "Ġihamá»į": 3596,
      "shop": 3597,
      "Ġfolda": 3598,
      "bia": 3599,
      "Ġnwa": 3600,
      "ĠNjáº¹": 3601,
      "Ġifowosi": 3602,
      "Ġam": 3603,
      "ono": 3604,
      "lis": 3605,
      "áĪĪ": 3606,
      "Ġagbese": 3607,
      "ĠPhoto": 3608,
      "Ĥ¬": 3609,
      "Ġayo": 3610,
      "Ġsimáº¹nti": 3611,
      "ĠwÃłÃ¡": 3612,
      "Ġidáº¹": 3613,
      "Ġifáº¹kufáº¹": 3614,
      "Ġegbo": 3615,
      "Ġáº¹sin": 3616,
      "ogun": 3617,
      "Ġpaá¹£ipaará»į": 3618,
      "Ġfá»įwá»įsi": 3619,
      "NÃŃgbÃł": 3620,
      "Ġpackage": 3621,
      "NUMX": 3622,
      "ĠPin": 3623,
      "Olo": 3624,
      "Ilana": 3625,
      "virus": 3626,
      "Ġiparun": 3627,
      "Ġáº¹áº¹": 3628,
      "ĠIN": 3629,
      "ĠÃģ": 3630,
      "25": 3631,
      "ĠGod": 3632,
      "Å¡i": 3633,
      "á»Įna": 3634,
      "ĠUn": 3635,
      "stra": 3636,
      "tá»įsá»įna": 3637,
      "Ġiwá»įntunwá»įnsi": 3638,
      "Ġese": 3639,
      "Ġoyun": 3640,
      "Ġisunmá»į": 3641,
      "ĠÃłgbÃł": 3642,
      "Ġpaaráº¹": 3643,
      "Ġerekusu": 3644,
      "at": 3645,
      "Ġaá¹£ofin": 3646,
      "Ġolugbo": 3647,
      "Ġafáº¹yinti": 3648,
      "ĠIá¹£e": 3649,
      "Ġfireemu": 3650,
      "Ġololufáº¹": 3651,
      "Ala": 3652,
      "Tun": 3653,
      "yori": 3654,
      "Ġimularada": 3655,
      "Ġiwifunni": 3656,
      "ges": 3657,
      "Bakan": 3658,
      "lÃłyÃ©": 3659,
      "mada": 3660,
      "Ġabawá»įn": 3661,
      "sco": 3662,
      "AD": 3663,
      "Ġ199": 3664,
      "áį¤": 3665,
      "ond": 3666,
      "jÃ¡de": 3667,
      "sÃŃláº¹": 3668,
      "Ġbanki": 3669,
      "Ġniyanju": 3670,
      "ant": 3671,
      "Ġaraalu": 3672,
      "Ġalaafia": 3673,
      "Ġaiá¹£edeede": 3674,
      "Ġhttps": 3675,
      "ĠbÃŃi": 3676,
      "Ã¬má»į": 3677,
      "Ġsisun": 3678,
      "Báº¹áº¹ni": 3679,
      "naa": 3680,
      "ffi": 3681,
      "Ġleti": 3682,
      "á¹¢a": 3683,
      "ÃĴ": 3684,
      "Ø¨": 3685,
      "ĠVisa": 3686,
      "Ġoriláº¹ede": 3687,
      "Wá»ĮN": 3688,
      "Ġimulo": 3689,
      "Ġipada": 3690,
      "orn": 3691,
      "ĠIgbimá»į": 3692,
      "bÃº": 3693,
      "à¤ķ": 3694,
      "ĠNigeria": 3695,
      "Ġidari": 3696,
      "ĠpÃłtÃłkÃ¬": 3697,
      "iwosan": 3698,
      "Ġifamá»įra": 3699,
      "ĠCB": 3700,
      "pade": 3701,
      "pÃº": 3702,
      "ĠjÃŃ": 3703,
      "Ġtaa": 3704,
      "ĠwÃŃpÃ©": 3705,
      "tani": 3706,
      "Ġloo": 3707,
      "áº¸gbáº¹": 3708,
      "Ġgbolohun": 3709,
      "Ġpre": 3710,
      "Ã¬nÃł": 3711,
      "KI": 3712,
      "Ġifá»įkansi": 3713,
      "Ġojula": 3714,
      "ĠWhatsApp": 3715,
      "nap": 3716,
      "Ġibusun": 3717,
      "Ġká»įlu": 3718,
      "áī¥": 3719,
      "BO": 3720,
      "Ġisopá»į": 3721,
      "ĠSpa": 3722,
      "kanla": 3723,
      "Ġdaadaa": 3724,
      "Ġáº¹yáº¹": 3725,
      "Ġmá»įto": 3726,
      ".,": 3727,
      "Ø§ÙĨ": 3728,
      "Ã³m": 3729,
      "Ġisu": 3730,
      "ĠKanna": 3731,
      "nal": 3732,
      "ĠAI": 3733,
      "ĠInter": 3734,
      "ltra": 3735,
      "Ġpol": 3736,
      "Re": 3737,
      "Ġmá»įláº¹": 3738,
      "Ġidiwá»įn": 3739,
      "mesi": 3740,
      "Ġgaju": 3741,
      "Ġaiyipada": 3742,
      "ĠtorÃŃ": 3743,
      "Ġoluda": 3744,
      "Ġáº¹yin": 3745,
      "Ġfáº¹áº¹ráº¹": 3746,
      "Ġà¤¹": 3747,
      "ĠIsra": 3748,
      "ĠOba": 3749,
      "ĠSá»į": 3750,
      "sulumi": 3751,
      "yeed": 3752,
      "ĠÃ¬bÃ¡": 3753,
      "Ġdukia": 3754,
      "lock": 3755,
      "Ġalaga": 3756,
      "Ġokunfa": 3757,
      "sti": 3758,
      "Ġreti": 3759,
      "Ġiláº¹kun": 3760,
      "gbá»įwá»į": 3761,
      "Ġtitiipa": 3762,
      "Ġcryptocurrency": 3763,
      "Ġá»Įyá»į": 3764,
      "Ġlatá»įna": 3765,
      "à¤¯": 3766,
      "áº¹áº¹li": 3767,
      "áī½": 3768,
      "ker": 3769,
      "ĠLoni": 3770,
      "ES": 3771,
      "Ġalailowaya": 3772,
      "gbun": 3773,
      "Ġipara": 3774,
      "áĭ«": 3775,
      "Ġake": 3776,
      "à¥ģ": 3777,
      "Ġá»įgá»įrun": 3778,
      "áĬĵ": 3779,
      "Ġniláº¹": 3780,
      "Ġtáº¹jade": 3781,
      "ĠGame": 3782,
      "Mi": 3783,
      "elo": 3784,
      "Ġá¹£owo": 3785,
      "ĠAbi": 3786,
      "Ġarin": 3787,
      "Ġgbajumo": 3788,
      "hou": 3789,
      "ino": 3790,
      "ĠgÃŃ": 3791,
      "ub": 3792,
      "Ġjiroro": 3793,
      "AS": 3794,
      "Ġegungun": 3795,
      "Ġsáº¹áº¹li": 3796,
      "ĠAlu": 3797,
      "cs": 3798,
      "Ġadagun": 3799,
      "ĠMuham": 3800,
      "rial": 3801,
      "ĠIá¹£akoso": 3802,
      "Ġlailai": 3803,
      "ĠÙħ": 3804,
      "ĠOlorun": 3805,
      "ĠmÃŃÃ¬": 3806,
      "rans": 3807,
      "thi": 3808,
      "dede": 3809,
      "Ġatupale": 3810,
      "poti": 3811,
      "mal": 3812,
      "Ká»į": 3813,
      "×Ļ": 3814,
      "Ġáº¹yá»į": 3815,
      "Ġfifáº¹": 3816,
      "Ġitá»įwo": 3817,
      "Ġ23": 3818,
      "Ã¡nÃ¬": 3819,
      "Ġalamá»įdaju": 3820,
      "Ġaise": 3821,
      "Ġá¹£iá¹£a": 3822,
      "tri": 3823,
      "yer": 3824,
      "ner": 3825,
      "vid": 3826,
      "Ġnyin": 3827,
      "ley": 3828,
      "ĠPlay": 3829,
      "Ġá¹£áº¹gun": 3830,
      "ulani": 3831,
      "Ġapá»įju": 3832,
      "Ġagbasá»į": 3833,
      "Ġiwá»įle": 3834,
      "Ġisá»įdi": 3835,
      "Ġeefin": 3836,
      "Táº¹": 3837,
      "ĠBlack": 3838,
      "NÃŃtorÃŃ": 3839,
      "pÃ¨": 3840,
      "ĠlÃ¡Ã¬": 3841,
      "Ġáīł": 3842,
      "MS": 3843,
      "Ġiá¹£iá¹£áº¹": 3844,
      "CC": 3845,
      "tako": 3846,
      "ná»į": 3847,
      "ĠEleyi": 3848,
      "Po": 3849,
      "Ġjáº¹un": 3850,
      "ĠBBC": 3851,
      "ĠÃĮtÃłn": 3852,
      "Ġà¤®": 3853,
      "Ġoá¹£Ã¹": 3854,
      "ĠrÃ¨": 3855,
      "Lá»į": 3856,
      "ĠDara": 3857,
      "ĠXNUMX": 3858,
      "our": 3859,
      "koni": 3860,
      "mita": 3861,
      "Ġáº¸ni": 3862,
      "Ġiwosan": 3863,
      "wÃº": 3864,
      "báº¹áº¹": 3865,
      "sisiyi": 3866,
      "40": 3867,
      "cia": 3868,
      "áį¢": 3869,
      "pti": 3870,
      "Gbi": 3871,
      "zer": 3872,
      "ĠKáº¹san": 3873,
      "NC": 3874,
      "lity": 3875,
      "ĠNIPA": 3876,
      "Ãģ": 3877,
      "irin": 3878,
      "Ø³": 3879,
      "ĠApáº¹ráº¹": 3880,
      "Ġfidi": 3881,
      "nileti": 3882,
      "Ġiá¹£á»įkan": 3883,
      "ĠOruká»į": 3884,
      "Ġilosiwaju": 3885,
      "inubu": 3886,
      "LO": 3887,
      "sepá»į": 3888,
      "Ġitusiláº¹": 3889,
      "Vi": 3890,
      "á»įja": 3891,
      "Ġibalopo": 3892,
      "eá¹£e": 3893,
      "Ġayeye": 3894,
      "koo": 3895,
      "Ġkáº¹rin": 3896,
      "ĠIbadan": 3897,
      "Ġironu": 3898,
      "ĠÃ¬já»į": 3899,
      "Ġigbalode": 3900,
      "Ġaramada": 3901,
      "Ġnibikibi": 3902,
      "Ġá»Įdun": 3903,
      "ĠOmo": 3904,
      "Ġoja": 3905,
      "Ġlee": 3906,
      "Ġ60": 3907,
      "Me": 3908,
      "Ġ2015": 3909,
      "Plus": 3910,
      "judaju": 3911,
      "Ġoniroyin": 3912,
      "mar": 3913,
      "ĠSy": 3914,
      "cho": 3915,
      "Ġigbagbá»į": 3916,
      "und": 3917,
      "Ġayewo": 3918,
      "ail": 3919,
      "Ġimotuntun": 3920,
      "Ġolugba": 3921,
      "ĠRussia": 3922,
      "ĠAwo": 3923,
      "já»įro": 3924,
      "Ġorun": 3925,
      "erman": 3926,
      "Ġwill": 3927,
      "www": 3928,
      "US": 3929,
      "ĠKáº¹wa": 3930,
      "Ġmga": 3931,
      "Ġana": 3932,
      "ĠpÃ¡": 3933,
      "riri": 3934,
      "ĠAaráº¹": 3935,
      "ĠMedia": 3936,
      "ĠMini": 3937,
      "Ki": 3938,
      "Ġmeta": 3939,
      "Ġoniwun": 3940,
      "lati": 3941,
      "Ġdie": 3942,
      "koto": 3943,
      "Ġá»Įgbáº¹ni": 3944,
      "Ġá¹¢iá¹£áº¹": 3945,
      "fowo": 3946,
      "ĠPor": 3947,
      "Ġsili": 3948,
      "Ġbio": 3949,
      "pÃºtÃł": 3950,
      "Ori": 3951,
      "Ġgoolu": 3952,
      "Ġalaá¹£áº¹": 3953,
      "Ġakara": 3954,
      "gbaga": 3955,
      "late": 3956,
      "gori": 3957,
      "bl": 3958,
      "ĠEl": 3959,
      "baye": 3960,
      "ĠFor": 3961,
      "ĠHD": 3962,
      "Emi": 3963,
      "Ġibiláº¹": 3964,
      "×ķ": 3965,
      "ĠFe": 3966,
      "gagbaga": 3967,
      "Ġreluwe": 3968,
      "simesi": 3969,
      "Ġpai": 3970,
      "RE": 3971,
      "Ġojiji": 3972,
      "ans": 3973,
      "Bet": 3974,
      "Ġláº¹gbáº¹": 3975,
      "taki": 3976,
      "Ġ2016": 3977,
      "ĠElo": 3978,
      "daka": 3979,
      "Ġigbejade": 3980,
      "gbona": 3981,
      "Ġijiroro": 3982,
      "áĪħ": 3983,
      "Ġtunto": 3984,
      "ĠBá»į": 3985,
      "phi": 3986,
      "Ġoruka": 3987,
      "ĠEng": 3988,
      "Ġná¹£iá¹£áº¹": 3989,
      "ĠsÃŃnÃº": 3990,
      "ÃłnÃŃ": 3991,
      "Ç¹pÃºtÃł": 3992,
      "Wi": 3993,
      "Ġibaá¹£epá»į": 3994,
      "Ġonigbá»įwá»į": 3995,
      "Ġonigun": 3996,
      "ĠOkun": 3997,
      "Ġnáº¹tiwá»įki": 3998,
      "dÃºrÃł": 3999,
      "ĠÅ¡": 4000,
      "cial": 4001,
      "Ġáº¹wá»įn": 4002,
      "ĠEniyan": 4003,
      "zz": 4004,
      "Ġimura": 4005,
      "kiyesi": 4006,
      "Ġiá¹£akojá»įpá»į": 4007,
      "nija": 4008,
      "ĠPhotoshop": 4009,
      "ity": 4010,
      "Ġtiáº¹": 4011,
      "Ġwin": 4012,
      "Ġmicro": 4013,
      "ĠFulani": 4014,
      "ĠKI": 4015,
      "ĠJam": 4016,
      "ĠKannada": 4017,
      "Ã³mÃ¬nÃł": 4018,
      "kulu": 4019,
      "Ġpipade": 4020,
      "Ġth": 4021,
      "áĭŃ": 4022,
      "Aa": 4023,
      "Láº¹": 4024,
      "ĠYan": 4025,
      "Ġoluá¹£akoso": 4026,
      "Ġiá¹£ipopada": 4027,
      "á»įwá»įlá»įwá»į": 4028,
      "Ġij": 4029,
      "siá¹£áº¹": 4030,
      "ĠÃłÃ¡": 4031,
      "ĠSte": 4032,
      "ping": 4033,
      "pron": 4034,
      "Ġtin": 4035,
      "Ġoludoko": 4036,
      "ĠCrypto": 4037,
      "stro": 4038,
      "Ġá»įlá»įpa": 4039,
      "ool": 4040,
      "ÃłnÃł": 4041,
      "Ġipadabá»į": 4042,
      "SP": 4043,
      "cra": 4044,
      "Ġtitan": 4045,
      "dagba": 4046,
      "gbanilaaye": 4047,
      "faani": 4048,
      "Ġbeta": 4049,
      "Ġgbigbá»įn": 4050,
      "Ġver": 4051,
      "áº¹gbáº¹run": 4052,
      ",âĢĿ": 4053,
      "Ġ#": 4054,
      "Ġidana": 4055,
      "dÃ¡n": 4056,
      "raga": 4057,
      "ĠAs": 4058,
      "Ġnot": 4059,
      "Ġá»įmá»įkunrin": 4060,
      "Ġfonu": 4061,
      "ĠAri": 4062,
      "cer": 4063,
      "net": 4064,
      "aje": 4065,
      "Ġibasepá»į": 4066,
      "áĮį": 4067,
      "Ġiyoku": 4068,
      "Ġá¹£oá¹£o": 4069,
      "á»Įja": 4070,
      "Ġiá¹£aro": 4071,
      "Botiláº¹jáº¹pe": 4072,
      "23": 4073,
      "Ġlilu": 4074,
      "nla": 4075,
      "wá»įgba": 4076,
      "Ġoludokoowo": 4077,
      "ĠAja": 4078,
      "ĠCy": 4079,
      "Ġipani": 4080,
      "ĠKere": 4081,
      "Ġoofa": 4082,
      "--------": 4083,
      "tile": 4084,
      "Ġagbari": 4085,
      "Ġfaagun": 4086,
      "Ġlaile": 4087,
      "ĠSuper": 4088,
      "ĠnÃ¬kan": 4089,
      "ĠUK": 4090,
      "Iwe": 4091,
      "yede": 4092,
      "Ùĳ": 4093,
      "láº¹má»į": 4094,
      "sinu": 4095,
      "Ġà¤¸": 4096,
      "Ġtete": 4097,
      "logbolori": 4098,
      "tologbolori": 4099,
      "merce": 4100,
      "lole": 4101,
      "Ġch": 4102,
      "zed": 4103,
      "Ġet": 4104,
      "ĠKáº¹rin": 4105,
      "Ġekeji": 4106,
      "Ġsensá»į": 4107,
      "ĠRed": 4108,
      "Ġfonutologbolori": 4109,
      "ero": 4110,
      "rn": 4111,
      "yewo": 4112,
      "logi": 4113,
      "ars": 4114,
      "Ġatunto": 4115,
      "IP": 4116,
      "Ġiráº¹": 4117,
      "peria": 4118,
      "ĠTinubu": 4119,
      "Ġdes": 4120,
      "Nibi": 4121,
      "kuta": 4122,
      "ĠIá¹£": 4123,
      "Ġngbanilaaye": 4124,
      "Ã¡ra": 4125,
      "Ġredio": 4126,
      "Ġpaapa": 4127,
      "Ġdá»į": 4128,
      "Ġá¹¢i": 4129,
      "Apple": 4130,
      "peye": 4131,
      "Ġpaipu": 4132,
      "áĭ°": 4133,
      "org": 4134,
      "De": 4135,
      "Ġjáº¹ri": 4136,
      "sÃ¹n": 4137,
      "á»įdun": 4138,
      "rotáº¹láº¹": 4139,
      "ĠÃ¬gbÃłgbá»į": 4140,
      "rand": 4141,
      "Ġowurá»į": 4142,
      "fy": 4143,
      "ĠIfihan": 4144,
      "ĠWA": 4145,
      "Ġaibikita": 4146,
      "Imá»į": 4147,
      "Ġidiju": 4148,
      "Ġiw": 4149,
      "Ġifarahan": 4150,
      "Ġisere": 4151,
      "Ġamá»įja": 4152,
      "Ġ27": 4153,
      "Ġolutá»įju": 4154,
      "Ġmuu": 4155,
      "Ġebi": 4156,
      "Ġdaruká»į": 4157,
      "TM": 4158,
      "ĠBÃ¡": 4159,
      "ĠlulÃº": 4160,
      "Ġlá»įna": 4161,
      "morin": 4162,
      "Ġokunkun": 4163,
      "ĠdÃ¡ra": 4164,
      "graphy": 4165,
      "Ġboju": 4166,
      "ĠAp": 4167,
      "yu": 4168,
      "ters": 4169,
      "Ġtra": 4170,
      "ĠIsa": 4171,
      "ĠSony": 4172,
      "á¹£ii": 4173,
      "ruge": 4174,
      "ĠnÃŃbi": 4175,
      "ÑĢ": 4176,
      "Ġ80": 4177,
      "lÃłnÃł": 4178,
      "ĠOlÃ¹": 4179,
      "IS": 4180,
      "ĠIslam": 4181,
      "Apáº¹ráº¹": 4182,
      "Ġeruku": 4183,
      "Oni": 4184,
      "mber": 4185,
      "Ġes": 4186,
      "áį£": 4187,
      "Ġalatako": 4188,
      "ĠVir": 4189,
      "ĠPay": 4190,
      "Ġisise": 4191,
      "ĠWorld": 4192,
      "Ġyinyin": 4193,
      "Ġeya": 4194,
      "ĠATI": 4195,
      "Ġojuse": 4196,
      "Ġiti": 4197,
      "âĢĺ": 4198,
      "Ġakáº¹ká»į": 4199,
      "á¹£un": 4200,
      "sity": 4201,
      "Ġdari": 4202,
      "Ġtori": 4203,
      "à¤µ": 4204,
      "Ġkoja": 4205,
      "ĠÃ¬á¹£áº¹": 4206,
      "Ġ2022": 4207,
      "lebu": 4208,
      "arun": 4209,
      "Ġitáº¹wá»įgba": 4210,
      "Ġitalaya": 4211,
      "ĠJohn": 4212,
      "ĠkÃłn": 4213,
      "Ġkuku": 4214,
      "tÃ©": 4215,
      "Ġaga": 4216,
      "ĠCasino": 4217,
      "Ġá»įla": 4218,
      "Ġà¤ª": 4219,
      "mbÃł": 4220,
      "Ġikoko": 4221,
      "Ġáº¹dá»į": 4222,
      "jagan": 4223,
      "Ġarinrin": 4224,
      "rinmorin": 4225,
      "van": 4226,
      "RO": 4227,
      "ÑĤ": 4228,
      "Ġsare": 4229,
      "zu": 4230,
      "Ġtoun": 4231,
      "ĠWON": 4232,
      "dinlogun": 4233,
      "Ġacid": 4234,
      "ĠBen": 4235,
      "lejo": 4236,
      "Ġsinmi": 4237,
      "Oju": 4238,
      "mes": 4239,
      "ĠPupá»į": 4240,
      "Ġlan": 4241,
      "Ġalemora": 4242,
      "Ġbáº¹áº¹ni": 4243,
      "Ġfaramá»į": 4244,
      "zil": 4245,
      "Ġfifipamá»į": 4246,
      "Ġgbongbo": 4247,
      "ĠOlohun": 4248,
      "Ġtiwa": 4249,
      "Ġibaraeni": 4250,
      "Ġoti": 4251,
      "Ġá¹£ajá»į": 4252,
      "ĠÃ¨rÃ²": 4253,
      "ĠagbÃ¡ra": 4254,
      "ĠikÃº": 4255,
      "siki": 4256,
      "orpi": 4257,
      "Ð¾Ð": 4258,
      "Ġyiyara": 4259,
      "Ġite": 4260,
      "Ġadari": 4261,
      "mati": 4262,
      "Ġ!": 4263,
      "ĠEwe": 4264,
      "oon": 4265,
      "bet": 4266,
      "Ã¼": 4267,
      "ĠÂ£": 4268,
      "Ġoniá¹£áº¹": 4269,
      "Ġabe": 4270,
      "AC": 4271,
      "ĠXperia": 4272,
      "Ġfifu": 4273,
      "box": 4274,
      "Ġiwon": 4275,
      "ĠNigbagbogbo": 4276,
      "ĠáĬł": 4277,
      "kopa": 4278,
      "Ġijinle": 4279,
      "PC": 4280,
      "fee": 4281,
      "bon": 4282,
      "24": 4283,
      "roo": 4284,
      "Ġnká»į": 4285,
      "Ġitutu": 4286,
      "gbÃ¨gbÃ¨": 4287,
      "Ġidii": 4288,
      "Ġiá¹£edede": 4289,
      "ĠOndo": 4290,
      "Ġrobo": 4291,
      "ary": 4292,
      "Ġaipáº¹": 4293,
      "Ġlopin": 4294,
      "iá¹£á»į": 4295,
      "Ġhave": 4296,
      "Ġiá¹£eeá¹£e": 4297,
      "hy": 4298,
      "laruge": 4299,
      "sÃ¬kÃ²": 4300,
      "Ġá»įsan": 4301,
      "daabobo": 4302,
      "by": 4303,
      "ĠCap": 4304,
      "Ġifá»įwá»įsi": 4305,
      "Sa": 4306,
      "Ġmac": 4307,
      "dinwo": 4308,
      "MO": 4309,
      "Ġnbá»į": 4310,
      "ĠFree": 4311,
      "Ġawujo": 4312,
      "Ġgbá»įn": 4313,
      "Ġolutaja": 4314,
      "Ġasia": 4315,
      "rira": 4316,
      "ĠSer": 4317,
      "Ã¡rÃ¡": 4318,
      "ĠNor": 4319,
      "ĠÃĢmá»į": 4320,
      "tions": 4321,
      "á»Įmá»į": 4322,
      "Ġifá»įrá»į": 4323,
      "ĠAc": 4324,
      "loud": 4325,
      "ĠÃ¬rÃ¡n": 4326,
      "otá»į": 4327,
      "ĠAdobe": 4328,
      "vel": 4329,
      "Ġáº¹bá»į": 4330,
      "ĠIgbo": 4331,
      "Ġoluwa": 4332,
      "ĠKarun": 4333,
      "ĠEn": 4334,
      "Ġbáº¹ru": 4335,
      "sini": 4336,
      "ak": 4337,
      "Ġfadaka": 4338,
      "ĠMusulumi": 4339,
      "Le": 4340,
      "cker": 4341,
      "Ġiká»įja": 4342,
      "radi": 4343,
      "finro": 4344,
      "ĠAyebaye": 4345,
      "VID": 4346,
      "Ġaimá»į": 4347,
      "Wo": 4348,
      "Ġbinu": 4349,
      "Ġmáº¹já»į": 4350,
      "Ġá¹£á»įra": 4351,
      "Ġby": 4352,
      "Ġitani": 4353,
      "ĠfÃ¡": 4354,
      "Ġ90": 4355,
      "dÃ¹": 4356,
      "kotan": 4357,
      "Ġolootu": 4358,
      "wan": 4359,
      "ĠdÃ¹n": 4360,
      "ĠIho": 4361,
      "Ġáº¸ya": 4362,
      "hÃłn": 4363,
      "ĠNibáº¹": 4364,
      "Ġsiseto": 4365,
      "AE": 4366,
      "logy": 4367,
      "ĠAsia": 4368,
      "Ġsá»įtá»į": 4369,
      "ĠFore": 4370,
      "xBet": 4371,
      "ĠOfin": 4372,
      "Lilo": 4373,
      "numá»į": 4374,
      "lenu": 4375,
      "bani": 4376,
      "Ġáº¹fá»į": 4377,
      "Ġkakiri": 4378,
      "áĮĪ": 4379,
      "wÃłÃ¡": 4380,
      "ĠSnap": 4381,
      "Idi": 4382,
      "Ġama": 4383,
      "arth": 4384,
      "ĠÃĮjá»įba": 4385,
      "ogi": 4386,
      "Ipa": 4387,
      "ĠGerman": 4388,
      "áī°": 4389,
      "unilori": 4390,
      "WA": 4391,
      "rone": 4392,
      "Ġiwá»įnyi": 4393,
      "laasi": 4394,
      "ÃŃná»į": 4395,
      "waa": 4396,
      "wÃ¹": 4397,
      "Ġá»Įla": 4398,
      "Ġsá»įnu": 4399,
      "ĠKáº¹ta": 4400,
      "Ġnfa": 4401,
      "madu": 4402,
      "usa": 4403,
      "Ġtwe": 4404,
      "Ã¡Ã¡jÃº": 4405,
      "Ġimudarasi": 4406,
      "ĠbÃ©": 4407,
      "Ġeko": 4408,
      "Ġidakeji": 4409,
      "Ġdidi": 4410,
      "ÃŃná»įmbÃł": 4411,
      "WON": 4412,
      "Ġnigbakan": 4413,
      "oronavirus": 4414,
      "can": 4415,
      "por": 4416,
      "ĠGamepron": 4417,
      "Ġall": 4418,
      "Ġapata": 4419,
      "tooth": 4420,
      "Ġagbá»į": 4421,
      "ARA": 4422,
      "04": 4423,
      "Ġalurinmorin": 4424,
      "ĠSyeed": 4425,
      "ĠIwa": 4426,
      "ĠnÃŃbáº¹": 4427,
      "eno": 4428,
      "Ġá¹£ere": 4429,
      "gbÃ¨Ã©": 4430,
      "Ġifilole": 4431,
      "Ġafáº¹sáº¹": 4432,
      "dogun": 4433,
      "Ġiyanrin": 4434,
      "ĠAbuja": 4435,
      "ĠNet": 4436,
      "wÃ¡dÃ¬ÃŃ": 4437,
      "ĠAbdu": 4438,
      "Ġafura": 4439,
      "Ġloriláº¹": 4440,
      "Ġajáº¹": 4441,
      "Ġiá¹£ura": 4442,
      "Ya": 4443,
      "tÃ¹": 4444,
      "rine": 4445,
      "Ġpati": 4446,
      "laraya": 4447,
      "Ġisuna": 4448,
      "Ñģ": 4449,
      "Ġanti": 4450,
      "ĠÃłkÃ³kÃ²": 4451,
      "Ġikuna": 4452,
      "ĠmÃ¬ÃŃ": 4453,
      "ĠÃłpiláº¹": 4454,
      "kaye": 4455,
      "ĠLA": 4456,
      "Ġifigagbaga": 4457,
      "á»įá¹£á»į": 4458,
      "Ġ26": 4459,
      "ĠHar": 4460,
      "ĠbÃº": 4461,
      "ĠChrome": 4462,
      "ĠOriláº¹": 4463,
      "fÃºn": 4464,
      "git": 4465,
      "Ġfrom": 4466,
      "Se": 4467,
      "ĠIpinle": 4468,
      "TO": 4469,
      "tel": 4470,
      "Paa": 4471,
      "Ġalapapo": 4472,
      "Ġagbofinro": 4473,
      "fic": 4474,
      "ØĮ": 4475,
      "Ġnai": 4476,
      "ĠImá»įláº¹": 4477,
      "Ġáº¹lo": 4478,
      "Ġná¹£iá¹£e": 4479,
      "Ġau": 4480,
      "gue": 4481,
      "Ġtayá»į": 4482,
      "á¹¢aaju": 4483,
      "ches": 4484,
      "fefe": 4485,
      "bs": 4486,
      "\",": 4487,
      "wujá»į": 4488,
      "Ġoselu": 4489,
      "Ġagbáº¹já»įro": 4490,
      "Ġiwunilori": 4491,
      "ĠÃ¬h": 4492,
      "ĠAmerica": 4493,
      "Ġibani": 4494,
      "baa": 4495,
      "Ġiwáº¹": 4496,
      "Ġaifá»įwá»įyi": 4497,
      "Gáº¹gáº¹": 4498,
      "ilu": 4499,
      "Ġakoso": 4500,
      "ĠVa": 4501,
      "ĠÃ¬rÃ²yÃ¬n": 4502,
      "Ġáº¹gbáº¹áº¹gbáº¹run": 4503,
      "ĠoÃ²": 4504,
      "Ġigbelaruge": 4505,
      "duru": 4506,
      "Ġlaipe": 4507,
      "Iru": 4508,
      "pha": 4509,
      "ronu": 4510,
      "posi": 4511,
      "Ãºnjáº¹": 4512,
      "Ġmilionu": 4513,
      "Ġmaje": 4514,
      "bre": 4515,
      "ĠâĤ¬": 4516,
      "Ġalumá»į": 4517,
      "Ġoluka": 4518,
      "Ġiyaworan": 4519,
      "Ġmon": 4520,
      "ĠJapanese": 4521,
      "ĠinÃ¡": 4522,
      "ĠMobile": 4523,
      "ĠKeresimesi": 4524,
      "Ġburuku": 4525,
      "dá»įgba": 4526,
      "orpio": 4527,
      "ĠIláº¹": 4528,
      "Ġdibo": 4529,
      "áĭµ": 4530,
      "ije": 4531,
      "ĠShe": 4532,
      "ĠKO": 4533,
      "ÌŁ": 4534,
      "Ġtako": 4535,
      "sed": 4536,
      "Ġkinni": 4537,
      "eá¹£áº¹": 4538,
      "tamin": 4539,
      "DA": 4540,
      "Ġá¹£oju": 4541,
      "ĠIse": 4542,
      "Ġáº¹nÃ¬": 4543,
      "Co": 4544,
      "ĠÃłmá»į": 4545,
      "ĠmÃ¬ÃŃrÃłn": 4546,
      "Ġliti": 4547,
      "ĠipÃ²": 4548,
      "rop": 4549,
      "gal": 4550,
      "Ġasiwaju": 4551,
      "Ġjia": 4552,
      "Ġtele": 4553,
      "wÃ²rÃ¡n": 4554,
      "fisi": 4555,
      "Â»": 4556,
      "Ġáº¹dinwo": 4557,
      "ĠKing": 4558,
      "ĠÃ²kÃ¨": 4559,
      "Ġáº¹láº¹sáº¹": 4560,
      "Ġigbohunsafáº¹fáº¹": 4561,
      "Ġnipá»įn": 4562,
      "ĠAyelujara": 4563,
      "durudu": 4564,
      "ĠwÃ¡yÃ©": 4565,
      "ĠChris": 4566,
      "Ġhotáº¹áº¹li": 4567,
      "Ġilolu": 4568,
      "pon": 4569,
      "Ġ2023": 4570,
      "áº¸ya": 4571,
      "nati": 4572,
      "sto": 4573,
      "ĠfÃł": 4574,
      "ĠKanada": 4575,
      "joba": 4576,
      "loruká»į": 4577,
      "Ġgbin": 4578,
      "unt": 4579,
      "Ãºpá»į": 4580,
      "Ġatunse": 4581,
      "ĠSunday": 4582,
      "ĠEkiti": 4583,
      "tus": 4584,
      "ny": 4585,
      "ĠFUN": 4586,
      "sii": 4587,
      "ĠÃłláº¹má»į": 4588,
      "KO": 4589,
      "Ġirinna": 4590,
      "Ġogorun": 4591,
      "quari": 4592,
      "ĠAh": 4593,
      "Ġsokoto": 4594,
      "ricorn": 4595,
      "AL": 4596,
      "ká»įja": 4597,
      "ĠalÃ¡gbÃ¨Ã©": 4598,
      "ĠMon": 4599,
      "ĠAm": 4600,
      "all": 4601,
      "ĠUniver": 4602,
      "ĠÃłtÃł": 4603,
      "Agbara": 4604,
      "Ġá»įmá»įbinrin": 4605,
      "Ġáº¹áº¹kan": 4606,
      "ĠGbigba": 4607,
      "Lori": 4608,
      "Ġafáº¹sáº¹gba": 4609,
      "Ġafá»įwá»įká»į": 4610,
      "ĠalÃ¡gbÃ¨Ã©kÃ¡": 4611,
      "Ġsta": 4612,
      "rio": 4613,
      "ĠMá»į": 4614,
      "Ġtuná¹£e": 4615,
      "nda": 4616,
      "Ġaá¹£elá»įpá»į": 4617,
      "ence": 4618,
      "tiyan": 4619,
      "los": 4620,
      "Ġ28": 4621,
      "iá¹£owo": 4622,
      "ĠOmi": 4623,
      "Ġsamisi": 4624,
      "Ġonijaja": 4625,
      "ĠIfáº¹": 4626,
      "nÃ¡": 4627,
      "media": 4628,
      "cle": 4629,
      "Ġmaapu": 4630,
      "ĠÃįsÃŃ": 4631,
      "ĠBluetooth": 4632,
      "MI": 4633,
      "Ġol": 4634,
      "gbÃ³": 4635,
      "wor": 4636,
      "cri": 4637,
      "ĠSto": 4638,
      "ĠBer": 4639,
      "ĠLÃ¡": 4640,
      "Ġidan": 4641,
      "Ġipenija": 4642,
      "sts": 4643,
      "Ġakitiyan": 4644,
      "Ġnaira": 4645,
      "Ġisoro": 4646,
      "Ġalumá»įni": 4647,
      "inch": 4648,
      "Nitorina": 4649,
      "ĠIja": 4650,
      "dge": 4651,
      "Ġá»įgbáº¹": 4652,
      "ĠarÃ¡kÃ¹nrin": 4653,
      "ĠÃ¬dÃŃlÃ©": 4654,
      "ĠDokita": 4655,
      "gá»įrun": 4656,
      "ĠPer": 4657,
      "laiti": 4658,
      "lite": 4659,
      "Ġgege": 4660,
      "áĬ¥": 4661,
      "xel": 4662,
      "Ġrudurudu": 4663,
      "ĠAabo": 4664,
      "kidi": 4665,
      "rive": 4666,
      "Ð°Ð": 4667,
      "dÃŃn": 4668,
      "ĠIT": 4669,
      "met": 4670,
      "Ġká»įkanla": 4671,
      "Ġá»įjÃł": 4672,
      "gbi": 4673,
      "loo": 4674,
      "Ġkikan": 4675,
      "Ġpq": 4676,
      "Boya": 4677,
      "Ġiá¹£apeye": 4678,
      "sidee": 4679,
      "Ġoniba": 4680,
      "ĠIwá»įnyi": 4681,
      "ĠÃįsÃŃráº¹": 4682,
      "mas": 4683,
      "Ġerogba": 4684,
      "ĠOrÃŃ": 4685,
      "ĠSpani": 4686,
      "íķ": 4687,
      "ĠOtitá»į": 4688,
      "Ġláº¹gbáº¹áº¹": 4689,
      "Ġitaniji": 4690,
      "TV": 4691,
      "Ä±": 4692,
      "wiri": 4693,
      "Ġisubu": 4694,
      "Ida": 4695,
      "áº¹da": 4696,
      ".âĢĻ": 4697,
      "á¹¢iá¹£e": 4698,
      "ew": 4699,
      "Ġatá»įwá»į": 4700,
      "Ġariwa": 4701,
      "Iba": 4702,
      "Ġriri": 4703,
      "ĠSha": 4704,
      "Ġmobile": 4705,
      "Mu": 4706,
      "ĠAfrica": 4707,
      "Ġ29": 4708,
      "Ġmodu": 4709,
      "ĠRamu": 4710,
      "Ġthis": 4711,
      "Ġkilo": 4712,
      "Ġaru": 4713,
      "Ġarabinrin": 4714,
      "ney": 4715,
      "Ġseese": 4716,
      "ders": 4717,
      "iwo": 4718,
      "ĠMay": 4719,
      "ctor": 4720,
      "Ġfowo": 4721,
      "Ġdá»įla": 4722,
      "ĠIwadi": 4723,
      "Ġlá»įdun": 4724,
      "Ġpupo": 4725,
      "ĠOke": 4726,
      "Ġkutu": 4727,
      "Ġ500": 4728,
      "ĠOnePlus": 4729,
      "Ġê": 4730,
      "ĠCBD": 4731,
      "ĠPan": 4732,
      "Ġgra": 4733,
      "Ġá¹£aja": 4734,
      "Ġbili": 4735,
      "Ġwiwá»į": 4736,
      "bori": 4737,
      "Ġigbáº¹hin": 4738,
      "á¹£oo": 4739,
      "ĠTá»į": 4740,
      "Ġdel": 4741,
      "ĠáĬ¨": 4742,
      "Ġká»įÇ¹pÃºtÃł": 4743,
      "ĠgbÃ¡": 4744,
      "Ġ*": 4745,
      "lat": 4746,
      "ĠSho": 4747,
      "Ca": 4748,
      "sonu": 4749,
      "páº¹ki": 4750,
      "ĠyÃłn": 4751,
      "Ġidapo": 4752,
      "ĠForex": 4753,
      "Imu": 4754,
      "tonileti": 4755,
      "ĠrÃº": 4756,
      "Ġour": 4757,
      "ĠDidara": 4758,
      "ĠAlex": 4759,
      "Ra": 4760,
      "200": 4761,
      "ĠOnline": 4762,
      "ĠTuntun": 4763,
      "100": 4764,
      "ĠAje": 4765,
      "keti": 4766,
      "Ġojuami": 4767,
      "Su": 4768,
      "Ġabi": 4769,
      "kidijagan": 4770,
      "LC": 4771,
      "áĬĲ": 4772,
      "ĠScorpio": 4773,
      "mose": 4774,
      "Ġitumo": 4775,
      "Ùĥ": 4776,
      "ĠapÃ¡": 4777,
      "upá»į": 4778,
      "ĠÂ«": 4779,
      "ĠAá¹£ayan": 4780,
      "Ġdupáº¹": 4781,
      "ÃŃnnÃŃ": 4782,
      "kii": 4783,
      "ĠpÃºpá»į": 4784,
      "Ako": 4785,
      "ÃłdÃ©": 4786,
      "Ġgilaasi": 4787,
      "×Ļ×": 4788,
      "Ġimuna": 4789,
      "Ara": 4790,
      "ĠoÃºnjáº¹": 4791,
      "gbÃ¬má»į": 4792,
      "padÃł": 4793,
      "ĠPE": 4794,
      "dÃ¬bÃ²": 4795,
      "Ġsalaye": 4796,
      "Ġkuru": 4797,
      "ĠKáº¹já»į": 4798,
      "Ã²ro": 4799,
      "áĭļ": 4800,
      "ĠKeje": 4801,
      "ĠIm": 4802,
      "sic": 4803,
      "board": 4804,
      "urus": 4805,
      "Ġva": 4806,
      "Ġap": 4807,
      "rola": 4808,
      "Ġá¹¢Ã¹gbá»į": 4809,
      "Ġakawe": 4810,
      "Ġpáº¹láº¹": 4811,
      "ĠRE": 4812,
      "gede": 4813,
      "ĠTele": 4814,
      "Ġipaniyan": 4815,
      "rian": 4816,
      "Iwá»į": 4817,
      "rá»įsá»į": 4818,
      "kikan": 4819,
      "ĠVPN": 4820,
      "Ġkejila": 4821,
      "Igbesáº¹": 4822,
      "Ġagbá»įn": 4823,
      "Ġohunkan": 4824,
      "Ġlagbegbe": 4825,
      "jawiri": 4826,
      "Ã±": 4827,
      "Ġilowo": 4828,
      "rami": 4829,
      "ĠAaye": 4830,
      "ken": 4831,
      "ĠIf": 4832,
      "ĠIbu": 4833,
      "giga": 4834,
      "Ġnse": 4835,
      "ĠBáº¹áº¹ni": 4836,
      "Ġsaa": 4837,
      "ĠleÃ¨": 4838,
      "ons": 4839,
      "Ġá¹¢Ã©": 4840,
      "Ġmulti": 4841,
      "val": 4842,
      "Ġwaya": 4843,
      "ĠVe": 4844,
      "ĠFu": 4845,
      "Ere": 4846,
      "Ġadugbo": 4847,
      "ĠPri": 4848,
      "gunja": 4849,
      "Ġniyelori": 4850,
      "ĠtÃ²": 4851,
      "Ġniyáº¹n": 4852,
      "tÃºná¹£e": 4853,
      "ĠApe": 4854,
      "Ġbro": 4855,
      "ĠÃ²tÃŃtá»į": 4856,
      "Ġegbin": 4857,
      "Ġgbigbona": 4858,
      "Ġjá»įmá»į": 4859,
      "Ġmojuto": 4860,
      "áº¸rá»į": 4861,
      "Ġdojuko": 4862,
      "fisiá»įnu": 4863,
      "kini": 4864,
      "ëĭ": 4865,
      "Wá»į": 4866,
      "Ġmáº¹áº¹": 4867,
      "ĠÃłtá»įwá»į": 4868,
      "SO": 4869,
      "ĠÃ¬lÃłnÃł": 4870,
      "Ġláº¹áº¹kansii": 4871,
      "Ġaif": 4872,
      "ĠUAE": 4873,
      "gy": 4874,
      "Ã¡a": 4875,
      "Ġfee": 4876,
      "Awon": 4877,
      "Ġfifuye": 4878,
      "lifu": 4879,
      "tics": 4880,
      "ĠÃ²kÃº": 4881,
      "Ġorire": 4882,
      "ĠwÃº": 4883,
      "áĪĭ": 4884,
      "Ġabule": 4885,
      "Ġigbanilaaye": 4886,
      "ĠWiki": 4887,
      "kutu": 4888,
      "ĠRom": 4889,
      "Ġá¹¢aaju": 4890,
      "ĠNkan": 4891,
      "Ġiwaká»į": 4892,
      "Ġafurasi": 4893,
      "ĠAli": 4894,
      "hoho": 4895,
      "Ġáº¸ká»į": 4896,
      "On": 4897,
      "ĠTÃŃ": 4898,
      "So": 4899,
      "Ġnronu": 4900,
      "Ġ2014": 4901,
      "pinnu": 4902,
      "TC": 4903,
      "daraya": 4904,
      "ded": 4905,
      "ĠMad": 4906,
      "gÃ¡": 4907,
      "Ġwor": 4908,
      "ĠAmo": 4909,
      "Ġiá¹£ere": 4910,
      "Ġtaabu": 4911,
      "odia": 4912,
      "ĠIdaabobo": 4913,
      "Ġsisanwo": 4914,
      "Ġoluwadi": 4915,
      "ĠMI": 4916,
      "ĠBA": 4917,
      "Ġoluran": 4918,
      "ĠItá»įsá»įna": 4919,
      "Ġgbigbasiláº¹": 4920,
      "Ġbakan": 4921,
      "jÃ¨": 4922,
      "ĠdÃŃáº¹": 4923,
      "Ġdije": 4924,
      "ĠWil": 4925,
      "Ġorileede": 4926,
      "ĠOye": 4927,
      "ĠCapricorn": 4928,
      "Oruká»į": 4929,
      "lolo": 4930,
      "name": 4931,
      "ĠnÃŃwÃ¡jÃº": 4932,
      "Ġounje": 4933,
      "ĠbÃ¨": 4934,
      "EM": 4935,
      "Ġpáº¹ki": 4936,
      "Ġkootu": 4937,
      "eti": 4938,
      "Ø¹": 4939,
      "ĠAlaa": 4940,
      "ĠáĪĺ": 4941,
      "sive": 4942,
      "Ġiki": 4943,
      "Ġsipo": 4944,
      "Olumulo": 4945,
      "sise": 4946,
      "Ġá»įdaran": 4947,
      "ĠIla": 4948,
      "Ġoluká»įni": 4949,
      "ĠkÃ¹": 4950,
      "Ã²fin": 4951,
      "Ø´": 4952,
      "leko": 4953,
      "ĠGra": 4954,
      "Ġaala": 4955,
      "á¹£ooá¹£u": 4956,
      "tho": 4957,
      "Ġpáº¹kipáº¹ki": 4958,
      "Ġagbelebu": 4959,
      "ĠData": 4960,
      "Ġidaabobo": 4961,
      "load": 4962,
      "Ġfila": 4963,
      "demeji": 4964,
      "Ġolorin": 4965,
      "ĠLea": 4966,
      "PO": 4967,
      "á¹¢Ã¹gbá»į": 4968,
      "ĠÃ¬tÃłn": 4969,
      "ĠFáº¹": 4970,
      "NA": 4971,
      "use": 4972,
      "Ġbra": 4973,
      "ĠJá»įwá»į": 4974,
      "Ġole": 4975,
      "Ġailoruká»į": 4976,
      "jÃ¹": 4977,
      "Ú©": 4978,
      "ĠdÃ¨": 4979,
      "ĠLeo": 4980,
      "ĠrÃ²": 4981,
      "ging": 4982,
      "gbanisiá¹£áº¹": 4983,
      "ĠKÃ²": 4984,
      "Ġalamá»įja": 4985,
      "ĠKwara": 4986,
      "Ġilosoke": 4987,
      "Ġigbekale": 4988,
      "sÃ¡n": 4989,
      "Ġasáº¹": 4990,
      "didi": 4991,
      "pakan": 4992,
      "ĠItá»įju": 4993,
      "thy": 4994,
      "tura": 4995,
      "Ġigberaga": 4996,
      "Ġileewe": 4997,
      "Ġtáº¹lifisiá»įnu": 4998,
      "Ġfin": 4999,
      "ĠPaapa": 5000,
      "Aá¹£a": 5001,
      "hee": 5002,
      "ĠCOVID": 5003,
      "keke": 5004,
      "Iya": 5005,
      "ssa": 5006,
      "Ġminisita": 5007,
      "ĠOloye": 5008,
      "lash": 5009,
      "ilenu": 5010,
      "Ġyato": 5011,
      "gutan": 5012,
      "Ġaseyori": 5013,
      "á»įgá»įrun": 5014,
      "ĠLibra": 5015,
      "Ġlá»įtá»į": 5016,
      "way": 5017,
      "Ġsele": 5018,
      "Ġ32": 5019,
      "ĠUniversity": 5020,
      "mera": 5021,
      "ĠLaisi": 5022,
      "No": 5023,
      "Ġnmu": 5024,
      "Ġpajawiri": 5025,
      "×ķ×": 5026,
      "Ġkutukutu": 5027,
      "á¹£elu": 5028,
      "ĠCha": 5029,
      "Ġimunadoko": 5030,
      "ĠBakan": 5031,
      "Pi": 5032,
      "ful": 5033,
      "Ġaarun": 5034,
      "Ġpipin": 5035,
      "Ġiá¹£awari": 5036,
      "ĠIlá»į": 5037,
      ";+": 5038,
      "zo": 5039,
      "ĠYork": 5040,
      "70": 5041,
      "Ġbara": 5042,
      "ÐµÐ": 5043,
      "ĠAk": 5044,
      "Ç¸": 5045,
      "Ġpeye": 5046,
      "ĠNiwá»įn": 5047,
      "Ifi": 5048,
      "Ġtani": 5049,
      "Ġloruká»į": 5050,
      "ĠÃłá¹£áº¹": 5051,
      "Ġáº¹nikáº¹ta": 5052,
      "El": 5053,
      "Ġifowopamá»į": 5054,
      "daniloju": 5055,
      "ĠKorea": 5056,
      "Ġhomo": 5057,
      "ĠlÃŃ": 5058,
      "Ġigbesoke": 5059,
      "má»įna": 5060,
      "bÃ©Ã¨rÃ¨": 5061,
      "Iye": 5062,
      "Ġá¹£an": 5063,
      "Ġá»įgbá»į": 5064,
      "Ġsini": 5065,
      "ĠÃłtá»įwá»įdÃ¡": 5066,
      "Ġnbo": 5067,
      "ĠLin": 5068,
      "ĠtÃ¡wá»įn": 5069,
      "iyáº¹": 5070,
      "soto": 5071,
      "riali": 5072,
      "ĠÃ¬rÃ¬n": 5073,
      "ĠNá»įmba": 5074,
      "Ġ70": 5075,
      "Ġabáº¹láº¹": 5076,
      "PE": 5077,
      "inigbe": 5078,
      "ĠTur": 5079,
      "ĠBel": 5080,
      "Ġarosá»į": 5081,
      "Jo": 5082,
      "ĠÃ¬yáº¹n": 5083,
      "ĠFire": 5084,
      "Ġibaraenisepo": 5085,
      "pÃŃn": 5086,
      "Ġá»įgá»įá»įgá»įrun": 5087,
      "ĠSile": 5088,
      "Ġabáº¹wo": 5089,
      "Ãłráº¹": 5090,
      "Ġtube": 5091,
      "Ġá¹¢aina": 5092,
      "sÃł": 5093,
      "Ġlá»įra": 5094,
      "Ġiá¹£á»įn": 5095,
      "ĠCor": 5096,
      "ĠgÃŃga": 5097,
      "áĪģ": 5098,
      "hÃ¡": 5099,
      "national": 5100,
      "au": 5101,
      "áĬł": 5102,
      "Ġtitáº¹si": 5103,
      "ĠGemini": 5104,
      "chain": 5105,
      "ĠSmart": 5106,
      "tation": 5107,
      "Ġigberiko": 5108,
      "Ġagá»į": 5109,
      "ĠIgbesi": 5110,
      "Ġká»įjÃ¡": 5111,
      "eyi": 5112,
      "á¹£iro": 5113,
      "odiac": 5114,
      "yemeji": 5115,
      "lio": 5116,
      "Book": 5117,
      "wiwá»įle": 5118,
      "Ġeweko": 5119,
      "ise": 5120,
      "Ġá»įrundun": 5121,
      "Ġdisiki": 5122,
      "Ġolowo": 5123,
      "Ġroba": 5124,
      "Ġiyanilenu": 5125,
      "GBO": 5126,
      "Ġegboogi": 5127,
      "ĠCir": 5128,
      "ĠSugbon": 5129,
      "ĠTags": 5130,
      "Ġipata": 5131,
      "Ġiá¹£esi": 5132,
      "ĠalÃ¡Ã¬": 5133,
      "ĠÃ¬rÃ¡ná¹£áº¹": 5134,
      "Ġadura": 5135,
      "Ġamá»įdaju": 5136,
      "á»įá»į": 5137,
      "Ġpar": 5138,
      "ĠDI": 5139,
      "Ġwas": 5140,
      "Ġus": 5141,
      "á¹£ÃŃ": 5142,
      "dom": 5143,
      "Ġitankale": 5144,
      "llion": 5145,
      "wáº¹si": 5146,
      "ĠFacts": 5147,
      "ĠMuhammadu": 5148,
      "RL": 5149,
      "tiláº¹yin": 5150,
      "Ġiá¹£á»įpá»į": 5151,
      "lelogun": 5152,
      "ĠÃ¬yÃ¡": 5153,
      "Do": 5154,
      "Ġá¹¢ayáº¹wo": 5155,
      "Fa": 5156,
      "ĠAtun": 5157,
      "ĠTru": 5158,
      "ĠrÃ¬n": 5159,
      "ĠBáº¹": 5160,
      "Ġparáº¹": 5161,
      "ĠÃłtÃłwá»įn": 5162,
      "Ġijiya": 5163,
      "ĠdÃ¡jÃº": 5164,
      "Ġsisanra": 5165,
      "Ġijinna": 5166,
      "hÃºn": 5167,
      "Ġnja": 5168,
      "yn": 5169,
      "ration": 5170,
      "Ġlojiji": 5171,
      "ĠAare": 5172,
      "ĠPDF": 5173,
      "diyan": 5174,
      "ĠMáº¹": 5175,
      "Ġtile": 5176,
      "tain": 5177,
      "ĠOnibara": 5178,
      "ning": 5179,
      "gÃ¬": 5180,
      "Ġokunrin": 5181,
      "bulu": 5182,
      "ĠÃłlÃ¹": 5183,
      "ĠWon": 5184,
      "Ġije": 5185,
      "ĠDajudaju": 5186,
      "âĹ": 5187,
      "Ġagbedemeji": 5188,
      "ĠfÃ¬": 5189,
      "cks": 5190,
      "AM": 5191,
      "bá»įá»įlu": 5192,
      "RIN": 5193,
      "loy": 5194,
      "Ġsisopá»į": 5195,
      "ĠOruko": 5196,
      "Ġolopaa": 5197,
      "Ġpariwo": 5198,
      "Ġapamá»įwá»į": 5199,
      "Ge": 5200,
      "ĠSÃŃ": 5201,
      "Ġakáº¹": 5202,
      "Ġeran": 5203,
      "SI": 5204,
      "zing": 5205,
      "Ġonijakidijagan": 5206,
      "ĠIjá»įba": 5207,
      "ying": 5208,
      "Pe": 5209,
      "á»įti": 5210,
      "Ġniá¹£e": 5211,
      "site": 5212,
      "Kii": 5213,
      "ĠRii": 5214,
      "Ġbaagi": 5215,
      "Ġeda": 5216,
      "II": 5217,
      "ĠLE": 5218,
      "rst": 5219,
      "Ġagbanisiá¹£áº¹": 5220,
      "mÃ¡": 5221,
      "ĠHan": 5222,
      "gittari": 5223,
      "CO": 5224,
      "ĠAwá»į": 5225,
      "Ñĥ": 5226,
      "ĠSpain": 5227,
      "igbani": 5228,
      "tors": 5229,
      "ĠFM": 5230,
      "Igba": 5231,
      "lish": 5232,
      "ĠCNC": 5233,
      "á»įkanbaláº¹": 5234,
      "Ġafáº¹ri": 5235,
      "Ġlewu": 5236,
      "Ã¨lÃº": 5237,
      "ĠLO": 5238,
      "ĠáĭĪ": 5239,
      "Maá¹£e": 5240,
      "ala": 5241,
      "Ġitanran": 5242,
      "Ġoore": 5243,
      "Ġáº¹kun": 5244,
      "ĠÃ¬dÃ¬bÃ²": 5245,
      "igbaniwá»įle": 5246,
      "Ġafara": 5247,
      "hai": 5248,
      "rgani": 5249,
      "ĠIb": 5250,
      "weraná¹£áº¹": 5251,
      "ĠGol": 5252,
      "Ġoluwo": 5253,
      "him": 5254,
      "esto": 5255,
      "ĠME": 5256,
      "lix": 5257,
      "Ġmelo": 5258,
      "Ġtáº¹tisi": 5259,
      "than": 5260,
      "Ġehin": 5261,
      "áº¸ni": 5262,
      "Samsung": 5263,
      "yÃłnjÃº": 5264,
      "Ġwuwo": 5265,
      "ĠLá»įgan": 5266,
      "nifo": 5267,
      "ĠFI": 5268,
      "Ġkasino": 5269,
      "td": 5270,
      "Ġoluranlá»įwá»į": 5271,
      "Ġirufáº¹": 5272,
      "okuta": 5273,
      "kulo": 5274,
      "Ġinter": 5275,
      "ĠVirgo": 5276,
      "Ġáº¹wu": 5277,
      "ticle": 5278,
      "ĠKaa": 5279,
      "káº¹jáº¹": 5280,
      "ĠIlera": 5281,
      "Ġiyáº¹wu": 5282,
      "reen": 5283,
      "Ġcho": 5284,
      "ĠáĮ": 5285,
      "má»įle": 5286,
      "ĠtÃ¡n": 5287,
      "Ġakose": 5288,
      "ĠUV": 5289,
      "á»įda": 5290,
      "Ġser": 5291,
      "Ġbaláº¹": 5292,
      "ĠPV": 5293,
      "ogbe": 5294,
      "ĠAt": 5295,
      "Ġidagba": 5296,
      "Ġlaye": 5297,
      "ĠParis": 5298,
      "ÙİÙĳ": 5299,
      "Ġajá»įbi": 5300,
      "Ġanfaani": 5301,
      "stem": 5302,
      "Ġsooro": 5303,
      "LU": 5304,
      "press": 5305,
      "Ġesin": 5306,
      "ffice": 5307,
      "zation": 5308,
      "Ġwara": 5309,
      "ĠPre": 5310,
      "Ġog": 5311,
      "ml": 5312,
      "káº¹ta": 5313,
      "fÃ¡Ãł": 5314,
      "Ġjan": 5315,
      "Ġhydro": 5316,
      "nipa": 5317,
      "Ġdis": 5318,
      "Ġhihan": 5319,
      "Ġá¹£iyemeji": 5320,
      "lewá»įn": 5321,
      "fikun": 5322,
      "Ġilodi": 5323,
      "Ġaifá»įkanbaláº¹": 5324,
      "Ġasiri": 5325,
      "ĠOr": 5326,
      "ĠAna": 5327,
      "Ġifitonileti": 5328,
      "ĠOlumulo": 5329,
      "Pro": 5330,
      "Ġadajá»į": 5331,
      "Ġakosemose": 5332,
      "Ġáº¹yá»įkan": 5333,
      "Ġsho": 5334,
      "toto": 5335,
      "Ġá»įmá»įkÃ¹nrin": 5336,
      "áĪĺ": 5337,
      "rora": 5338,
      "Ġtáº¹numá»į": 5339,
      "Ġawin": 5340,
      "Ġaladani": 5341,
      "sinsin": 5342,
      "ĠIroyin": 5343,
      "EN": 5344,
      "ikawe": 5345,
      "ĠkejÃ¬": 5346,
      "Itumá»į": 5347,
      "Ġbulu": 5348,
      "Ibi": 5349,
      "Ġoá¹£ooá¹£u": 5350,
      "ĠDipo": 5351,
      "ben": 5352,
      "Ġiá¹£á»įra": 5353,
      "Ġup": 5354,
      "Te": 5355,
      "Ġiranlowo": 5356,
      "ulu": 5357,
      "Ġsaye": 5358,
      "Ġlailewu": 5359,
      "ĠSara": 5360,
      "Ġirohin": 5361,
      "ĠBibáº¹áº¹ká»į": 5362,
      "Ġaji": 5363,
      "Ġidabobo": 5364,
      "ðŁ": 5365,
      "Ri": 5366,
      "Ã§": 5367,
      "Ġate": 5368,
      "ĠIran": 5369,
      "Ġinki": 5370,
      "itaja": 5371,
      "áº¹ra": 5372,
      "wÃ¡rÃŃ": 5373,
      "ĠNipasáº¹": 5374,
      "ĠEuropean": 5375,
      "kejÃ¬": 5376,
      "Ġeegun": 5377,
      "gbodiyan": 5378,
      "Ġomiran": 5379,
      "ĠmacOS": 5380,
      "gittarius": 5381,
      "ĠjÃł": 5382,
      "Ġolufáº¹": 5383,
      "Ġdaaká»į": 5384,
      "gbeni": 5385,
      "dimu": 5386,
      "tigbá»į": 5387,
      "ĠAgbo": 5388,
      "Ġhomonu": 5389,
      "ano": 5390,
      "Ġalgori": 5391,
      "Ġigbohunsafefe": 5392,
      "Ġå": 5393,
      "Ġoloá¹£elu": 5394,
      "Ġitáº¹siwaju": 5395,
      "xbet": 5396,
      "Ġgira": 5397,
      "Ġikolu": 5398,
      "fit": 5399,
      "ĠÃ¬bÃŃ": 5400,
      "arch": 5401,
      "ĠlÃ¡ÃłÃ¡": 5402,
      "Ġopi": 5403,
      "ĠBiography": 5404,
      "Ġlodo": 5405,
      "Ġlá»įdá»į": 5406,
      "Ġatunká»į": 5407,
      "ments": 5408,
      "ller": 5409,
      "ite": 5410,
      "ĠolÃº": 5411,
      "Ġá¹£eÃ©": 5412,
      "ĠBri": 5413,
      "Tunes": 5414,
      "Ġloore": 5415,
      "ĠOjo": 5416,
      "dor": 5417,
      "Ġigbero": 5418,
      "commerce": 5419,
      "Ġafetigbá»į": 5420,
      "Ġáº¹lomiran": 5421,
      "lÃłÃ¡": 5422,
      "ĠWeb": 5423,
      "Ġmajele": 5424,
      "Ġbit": 5425,
      "lip": 5426,
      "Ġaririn": 5427,
      "fer": 5428,
      "nes": 5429,
      "ĠPis": 5430,
      "Ġikunsinu": 5431,
      "bit": 5432,
      "Ġaniyan": 5433,
      "ĠÃ¬yÃłwÃ³": 5434,
      "ĠLá»įwá»įlá»įwá»į": 5435,
      "ĠÃ²bÃŃ": 5436,
      "500": 5437,
      "Ã¬á¹£áº¹": 5438,
      "Ġá»Įá¹£un": 5439,
      "esara": 5440,
      "Ġoá¹£upa": 5441,
      "ĠØ¯": 5442,
      "Ġaiá¹£edede": 5443,
      "ĠAmi": 5444,
      "die": 5445,
      "ĠÃłrÃ¹n": 5446,
      "Ġolukopa": 5447,
      "ample": 5448,
      "esu": 5449,
      "jepe": 5450,
      "ĠAami": 5451,
      "á»įfáº¹": 5452,
      "told": 5453,
      "%.": 5454,
      "ĠEarth": 5455,
      "ĠRU": 5456,
      "Ġifura": 5457,
      "ĠMÃŃ": 5458,
      "Ġà¤ħ": 5459,
      "vice": 5460,
      "Ġijá»įsin": 5461,
      "mb": 5462,
      "ness": 5463,
      "Cloud": 5464,
      "Ġsp": 5465,
      "Ġdemo": 5466,
      "ifowo": 5467,
      "yáº¹mi": 5468,
      "olo": 5469,
      "ving": 5470,
      "Ġiyasoto": 5471,
      "ĠbÃ©Ã¨rÃ¨": 5472,
      "ones": 5473,
      "Olootu": 5474,
      "Ġve": 5475,
      "ĠÃłwÃ²rÃ¡n": 5476,
      "ĠÃ¬fi": 5477,
      "ĠÄ": 5478,
      "Ġadie": 5479,
      "ĠáĬ¥áĬķ": 5480,
      "ï¼": 5481,
      "Ġtitá»į": 5482,
      "ĠAriwa": 5483,
      "bric": 5484,
      "Ġá»įtá»į": 5485,
      "Ġfiyesi": 5486,
      "ĠÃĪyÃŃ": 5487,
      "ĠBrazil": 5488,
      "Ġmá»įna": 5489,
      "Ġidakáº¹jáº¹": 5490,
      "gbagbá»į": 5491,
      "ĠÃłwon": 5492,
      "tilejepe": 5493,
      "tik": 5494,
      "Ġleyin": 5495,
      "Ġfikun": 5496,
      "Ġmy": 5497,
      "ties": 5498,
      "Ġdale": 5499,
      "Ġláº¹nsi": 5500,
      "kÃ²Ã³": 5501,
      "ĠolÃ³rÃŃ": 5502,
      "Ġbá»įwá»į": 5503,
      "Ġalara": 5504,
      "bÃ³": 5505,
      "29": 5506,
      "Ġá¹£Ã¬": 5507,
      "lona": 5508,
      "deri": 5509,
      "Ġtira": 5510,
      "Ġeriali": 5511,
      "à¤²": 5512,
      "Ġkiko": 5513,
      "Ġmejila": 5514,
      "ká»įri": 5515,
      "Ġoran": 5516,
      "Ġoch": 5517,
      "Ġrirá»įpo": 5518,
      "nusá»į": 5519,
      "pho": 5520,
      "ĠkÃ¡Ãł": 5521,
      "ondon": 5522,
      "26": 5523,
      "Ġaapá»įn": 5524,
      "lockchain": 5525,
      "Ġhun": 5526,
      "erra": 5527,
      "gar": 5528,
      "now": 5529,
      "Lara": 5530,
      "oot": 5531,
      "watch": 5532,
      "ĠMadrid": 5533,
      "Oá¹£u": 5534,
      "kuso": 5535,
      "Ġste": 5536,
      "aniani": 5537,
      "Ġá¹¢E": 5538,
      "reso": 5539,
      "key": 5540,
      "ĠáĭŃ": 5541,
      "IF": 5542,
      "ĠiTunes": 5543,
      "Ġlesa": 5544,
      "gbá»įran": 5545,
      "ĠRu": 5546,
      "lse": 5547,
      "ĠLtd": 5548,
      "ĠGBO": 5549,
      "Ġjáº¹wá»į": 5550,
      "yanu": 5551,
      "Ġcy": 5552,
      "Ġeekanna": 5553,
      "ĠTaurus": 5554,
      "Ġdáº¹kun": 5555,
      "Ġmá»įnamá»įna": 5556,
      "ĠLaarin": 5557,
      "ĠEa": 5558,
      "Ġkawá»įn": 5559,
      "ĠNitoribáº¹áº¹": 5560,
      "ĠInternational": 5561,
      "Ipo": 5562,
      "ĠAworan": 5563,
      "ĠlÃ¡báº¹": 5564,
      "ĠgbÃŃ": 5565,
      "ojusun": 5566,
      ":||": 5567,
      "ĠSch": 5568,
      "Ġigbaradi": 5569,
      "Ġidamu": 5570,
      "Ġilowosi": 5571,
      "Ġete": 5572,
      "ĠOrin": 5573,
      "Ġetikun": 5574,
      "WE": 5575,
      "ĠSwi": 5576,
      "kada": 5577,
      "Ġ198": 5578,
      "ĠiyokÃ¹": 5579,
      "SD": 5580,
      "Ġcu": 5581,
      "Ġidilá»įwá»į": 5582,
      "ĠRanti": 5583,
      "kinde": 5584,
      "ĠCD": 5585,
      "igbe": 5586,
      "Ġogbo": 5587,
      "Ġopolopo": 5588,
      "ĠsÃ³rÃŃ": 5589,
      "mpi": 5590,
      "Ġwho": 5591,
      "á»Įrá»į": 5592,
      "Ġbojumu": 5593,
      "Ø©": 5594,
      "tive": 5595,
      "ĠPisces": 5596,
      "mÃ¡nÃ¬": 5597,
      "Ãļ": 5598,
      "aram": 5599,
      "ĠWin": 5600,
      "ĠRou": 5601,
      "Ġidanilaraya": 5602,
      "Ġáº¹á¹£áº¹": 5603,
      "ĠPA": 5604,
      "ĠEro": 5605,
      "ĠnÃŃpasáº¹": 5606,
      "umu": 5607,
      "and": 5608,
      "áĪ¨": 5609,
      "Ġarticle": 5610,
      "Ġonibaje": 5611,
      "tech": 5612,
      "Ġkata": 5613,
      "Ġitá»įka": 5614,
      "ĠUntold": 5615,
      "seaniani": 5616,
      "Ġkojá»įpá»į": 5617,
      "sudo": 5618,
      "Ġeleyii": 5619,
      "Ùģ": 5620,
      "ĠyÃ¡": 5621,
      "Ġagbá»įrá»įsá»į": 5622,
      "ĠInu": 5623,
      "MA": 5624,
      "Pal": 5625,
      "ĠShi": 5626,
      "beli": 5627,
      "sy": 5628,
      "tÃº": 5629,
      "ĠÃłlÃ¡": 5630,
      "Ro": 5631,
      "ĠOla": 5632,
      "Ġá¹£iá¹£iá¹£áº¹": 5633,
      "Ġsmart": 5634,
      "bÃ¬": 5635,
      "lenti": 5636,
      "row": 5637,
      "Ġ35": 5638,
      "Ġug": 5639,
      "ká»įká»į": 5640,
      "Ġigbale": 5641,
      "Ġgbadura": 5642,
      "kusa": 5643,
      "Ġoloro": 5644,
      "Ġolomi": 5645,
      "ĠINEC": 5646,
      "Ġnilu": 5647,
      "ĠwÉĶ": 5648,
      "Ġáº¹n": 5649,
      "gáº¹li": 5650,
      "ĠonÃŃná»įmbÃł": 5651,
      "eráº¹": 5652,
      "ĠÃ¬jÃł": 5653,
      "ĠIbiyi": 5654,
      "Ġá»įwá»įn": 5655,
      "à¸²": 5656,
      "?âĢĿ": 5657,
      "á¹£oju": 5658,
      "ĠItalia": 5659,
      "rist": 5660,
      "Ġkoriko": 5661,
      "ĠÃłpáº¹áº¹ráº¹": 5662,
      "JU": 5663,
      "yaworan": 5664,
      "Ġisáº¹po": 5665,
      "ational": 5666,
      "Ġfagile": 5667,
      "CD": 5668,
      "vin": 5669,
      "Ġigbakeji": 5670,
      "ĠReluwe": 5671,
      "Ġtinrin": 5672,
      "''": 5673,
      "ĠApo": 5674,
      "ĠDani": 5675,
      "Ġoruko": 5676,
      "Ġultra": 5677,
      "Ele": 5678,
      "Ġáº¹rÃº": 5679,
      "Ġká»įwe": 5680,
      "Ġpor": 5681,
      "ĠChe": 5682,
      "Ġalaabo": 5683,
      "ĠÃłlÃ¹fÃ¡Ãł": 5684,
      "koore": 5685,
      "ĠgbÃ³": 5686,
      "Ġairotáº¹láº¹": 5687,
      "Ġà¤¤": 5688,
      "lls": 5689,
      "máº¹ta": 5690,
      "ĠGbogbogbo": 5691,
      "xt": 5692,
      "Ġaanu": 5693,
      "Ġwáº¹wáº¹": 5694,
      "ewe": 5695,
      "sign": 5696,
      "selu": 5697,
      "ĠÃłfi": 5698,
      "fÃłÃłnÃŃ": 5699,
      "Ġmar": 5700,
      "GBA": 5701,
      "ĠHausa": 5702,
      "kar": 5703,
      "ĠTiti": 5704,
      "Ġloriláº¹ede": 5705,
      "ĠkÃ¬ÃŃ": 5706,
      "ance": 5707,
      "Páº¹lupáº¹lu": 5708,
      "áīł": 5709,
      "lá»įgbá»įn": 5710,
      "ĠÃłgbÃ¡": 5711,
      "ĠFá»į": 5712,
      "Ġifiyesi": 5713,
      "Ġ300": 5714,
      "ĠACP": 5715,
      "flix": 5716,
      "Ġfifo": 5717,
      "aaya": 5718,
      "mos": 5719,
      "Ġitiju": 5720,
      "65": 5721,
      "Itan": 5722,
      "pport": 5723,
      "Ġá¹£oro": 5724,
      "Ġeji": 5725,
      "Ġá¹£ajá»įpá»į": 5726,
      "Ġip": 5727,
      "Ġfu": 5728,
      "Ġibaláº¹": 5729,
      "Ġiyika": 5730,
      "ĠPen": 5731,
      "ĠMore": 5732,
      "Ġafá»į": 5733,
      "ĠMA": 5734,
      "ĠGN": 5735,
      "Ġtumo": 5736,
      "Ġajesara": 5737,
      "ĠSati": 5738,
      "Ġair": 5739,
      "ãģ": 5740,
      "ĠLondon": 5741,
      "ĠYe": 5742,
      "BE": 5743,
      "rates": 5744,
      "Ġalaini": 5745,
      "Ġikunra": 5746,
      "ĠÃ¬tá»į": 5747,
      "Ġigbelewá»įn": 5748,
      "ĠIyatá»į": 5749,
      "ĠakÃłn": 5750,
      "Ġjije": 5751,
      "Lá»įgan": 5752,
      "ĠHer": 5753,
      "yederun": 5754,
      "gara": 5755,
      "Ġagbabá»įá»įlu": 5756,
      "Ġ..": 5757,
      "Ġá»įrinrin": 5758,
      "ĠNáº¹tiwá»į": 5759,
      "Ġdani": 5760,
      "ĠApejuwe": 5761,
      "sel": 5762,
      "Ġolutá»į": 5763,
      "dÃ¡jÃº": 5764,
      "nÃ¹": 5765,
      "ĠpÃŃn": 5766,
      "ĠCen": 5767,
      "ĠVo": 5768,
      "ĠjÃ³": 5769,
      "sha": 5770,
      "Ġá»įmá»įláº¹yin": 5771,
      "Ja": 5772,
      "pamo": 5773,
      "ĠCanada": 5774,
      "Ġvo": 5775,
      "Ġinira": 5776,
      "orin": 5777,
      "ĠOrgani": 5778,
      "Ġinaro": 5779,
      "Ġokeeráº¹": 5780,
      "pinpin": 5781,
      "ĠAjá»į": 5782,
      "ĠAku": 5783,
      "à¤ª": 5784,
      "Ġkarun": 5785,
      "ĠSagittarius": 5786,
      "tz": 5787,
      "Ġrogbodiyan": 5788,
      "28": 5789,
      "yÃºn": 5790,
      "bala": 5791,
      "Ġ2013": 5792,
      "Ġgbasiláº¹": 5793,
      "Ġjulo": 5794,
      "sona": 5795,
      "Ġpaadi": 5796,
      "ĠÙĥ": 5797,
      "ĠIpele": 5798,
      "sor": 5799,
      "Ġoniwosan": 5800,
      "ĠibÃ¹": 5801,
      "á¹£ere": 5802,
      "ĠFai": 5803,
      "leláº¹": 5804,
      "Ġojulowo": 5805,
      "Ġà¤ľ": 5806,
      "qui": 5807,
      "Láº¹hinna": 5808,
      "Ah": 5809,
      "Ġnibe": 5810,
      "Ġdabaa": 5811,
      "Ġbilionu": 5812,
      "BÃ¡": 5813,
      "ĠogÃºn": 5814,
      "Ġá¹£á»įja": 5815,
      "Ġidaamu": 5816,
      "Ġsilikoni": 5817,
      "wani": 5818,
      "Ġnisisiyi": 5819,
      "Ġwhi": 5820,
      "ĠAL": 5821,
      "deo": 5822,
      "Apejuwe": 5823,
      "KE": 5824,
      "bii": 5825,
      "Ġsom": 5826,
      "táº¹le": 5827,
      "ĠlÃ¡ÃłÃ¡rÃŃn": 5828,
      "Ġiposii": 5829,
      "Ġiraná¹£áº¹": 5830,
      "Ġdawá»į": 5831,
      "Ġisokuso": 5832,
      "ARO": 5833,
      "Ġagbeka": 5834,
      "ĠsÃł": 5835,
      "Ġá»Įká»į": 5836,
      "ÅŁ": 5837,
      "Ġáº¸ka": 5838,
      "rá»įwá»į": 5839,
      "ĠÃ¬bÃ©Ã¨rÃ¨": 5840,
      "moni": 5841,
      "ĠAtiláº¹yin": 5842,
      "very": 5843,
      "HE": 5844,
      "ĠTri": 5845,
      "ĠKÃŃnnÃŃ": 5846,
      "Ġoriá¹£a": 5847,
      "dragon": 5848,
      "ĠÃłnÃŃ": 5849,
      "bili": 5850,
      "ĠNu": 5851,
      "ĠURL": 5852,
      "Ġfaaji": 5853,
      "ople": 5854,
      "ĠTÃ³": 5855,
      "Ġarabara": 5856,
      "quare": 5857,
      "ĠIráº¹": 5858,
      "ĠÃĮdÃŃ": 5859,
      "ĠtÃºmá»į": 5860,
      "Ġsayensi": 5861,
      "ĠCity": 5862,
      "Ġibá»įwá»į": 5863,
      "woranhan": 5864,
      "fÃŃÃł": 5865,
      "example": 5866,
      "Ġ250": 5867,
      "sterone": 5868,
      "âĢĵ": 5869,
      "Ġogbin": 5870,
      "ĠGbe": 5871,
      "ĠáīłáĪ": 5872,
      "cast": 5873,
      "Ġibojuwo": 5874,
      "Ġloorekoore": 5875,
      "foonu": 5876,
      "stan": 5877,
      "Ġofee": 5878,
      "Ç¸jáº¹": 5879,
      "UR": 5880,
      "má»įran": 5881,
      "ĠBáº¹ráº¹": 5882,
      "ĠburÃº": 5883,
      "ĠrÃłn": 5884,
      "Ġagbeká»įri": 5885,
      "Ġofeefee": 5886,
      "Ġá»Įlá»įhun": 5887,
      "ĠbÃłbÃ¡": 5888,
      "ĠpÃŃ": 5889,
      "ĠEF": 5890,
      "Ġilá»įpo": 5891,
      "2021": 5892,
      "ĠáĬĲ": 5893,
      "ifowopamá»į": 5894,
      "Ġrou": 5895,
      "Ġnká»įwe": 5896,
      "Ġolubori": 5897,
      "Ġadará»į": 5898,
      "rican": 5899,
      "Ġibáº¹wáº¹": 5900,
      "Ġamayederun": 5901,
      "car": 5902,
      "rie": 5903,
      "Ġalagbero": 5904,
      "ĠKen": 5905,
      "kani": 5906,
      "my": 5907,
      "Ġaza": 5908,
      "áī³": 5909,
      "Ġloyun": 5910,
      "Ġigbala": 5911,
      "à¥ĩà¤Ĥ": 5912,
      "Ġyani": 5913,
      "ĠÃłá¹£Ãł": 5914,
      "ĠIgboho": 5915,
      "ĠohÃ¹n": 5916,
      "iá¹£ere": 5917,
      "ĠSeries": 5918,
      "TT": 5919,
      "lari": 5920,
      "ĠStar": 5921,
      "MP": 5922,
      "mic": 5923,
      "Ġafojusun": 5924,
      "27": 5925,
      "Ġwuni": 5926,
      "Ġwww": 5927,
      "Ġedidi": 5928,
      "ĠÃ²á¹£Ã¬á¹£áº¹": 5929,
      "ĠÃłmÃ¬": 5930,
      "Ġagbaiye": 5931,
      "ating": 5932,
      "llo": 5933,
      "Ġsinima": 5934,
      "ĠPCB": 5935,
      "Rá»Į": 5936,
      "áĪ«": 5937,
      "Ġfojuinu": 5938,
      "ìĹ": 5939,
      "Ġtrans": 5940,
      "lation": 5941,
      "ĠDuro": 5942,
      "ĠerÃ©": 5943,
      "ĠPataki": 5944,
      "ĠAarin": 5945,
      "KAN": 5946,
      "Ġdown": 5947,
      "Ġree": 5948,
      "ĠTan": 5949,
      "ĠBI": 5950,
      "Ġá¹£aju": 5951,
      "layer": 5952,
      "Ġjijo": 5953,
      "Ġhis": 5954,
      "dian": 5955,
      "ĠLive": 5956,
      "Ġakáº¹ká»įá»į": 5957,
      "ĠÃ¬jÃ¡": 5958,
      "Ġitankaláº¹": 5959,
      "Ġilolupo": 5960,
      "ĠFá»įwá»į": 5961,
      "ĠMakinde": 5962,
      "ĠsÃºn": 5963,
      "dos": 5964,
      "Ġajalu": 5965,
      "Ġmillion": 5966,
      "ĠsÃŃwÃ¡jÃº": 5967,
      "ĠAustra": 5968,
      "ĠTelegram": 5969,
      "ĠOro": 5970,
      "ĠNigbamii": 5971,
      "Ġnfi": 5972,
      "Pupá»į": 5973,
      "ĠAries": 5974,
      "soro": 5975,
      "ĠWiwa": 5976,
      "Ġpaará»į": 5977,
      "wonsi": 5978,
      "ĠLayer": 5979,
      "Ġafo": 5980,
      "cess": 5981,
      "á¹£Ã¬": 5982,
      "ĠMacBook": 5983,
      "fox": 5984,
      "adura": 5985,
      "gital": 5986,
      "ĠHu": 5987,
      "Ġ197": 5988,
      "Ġejika": 5989,
      "ola": 5990,
      "ĠáĬłáĪ": 5991,
      "em": 5992,
      "Ġitá»įsi": 5993,
      "ĠÂ»": 5994,
      "Ġbuluu": 5995,
      "áī£": 5996,
      "ĠSnapdragon": 5997,
      "ij": 5998,
      "Ġenia": 5999,
      "ĠoÃ²gÃ¹n": 6000,
      "ĠIbara": 6001,
      "Ġaá¹£i": 6002,
      "Ġirorun": 6003,
      "ĠÃ¬pÃłdÃ©": 6004,
      "lade": 6005,
      "Ġelere": 6006,
      "ĠBarce": 6007,
      "wá»įlu": 6008,
      "ĠsÃŃÃŃ": 6009,
      "Ã¬nÃŃ": 6010,
      "ĠpÃłÃ¡": 6011,
      "ĠÃ¬táº¹": 6012,
      "Ġcha": 6013,
      "Com": 6014,
      "ĠAni": 6015,
      "ĠFrance": 6016,
      "ĠsÃ¹n": 6017,
      "ĠTO": 6018,
      "Ġwole": 6019,
      "Ġimurasiláº¹": 6020,
      "toro": 6021,
      "ania": 6022,
      "ĠGáº¹": 6023,
      "Ġáº¹nipe": 6024,
      "ĠÃī": 6025,
      "Ġifipamá»į": 6026,
      "Ġmáº¹áº¹dogun": 6027,
      "ráº¹y": 6028,
      "ĠÃ¬wÃ¡dÃ¬ÃŃ": 6029,
      "ĠReal": 6030,
      "Ġdabaru": 6031,
      "ME": 6032,
      "ĠLI": 6033,
      "ĠPhi": 6034,
      "ĠYato": 6035,
      "'.": 6036,
      "ĠStu": 6037,
      "ĠjÃ¹lá»į": 6038,
      "33": 6039,
      "dele": 6040,
      "Ġover": 6041,
      "lace": 6042,
      "darÃłn": 6043,
      "káº¹ti": 6044,
      "siness": 6045,
      "Ġgbogun": 6046,
      "Ġajinigbe": 6047,
      "Ġopiti": 6048,
      "war": 6049,
      "Ġhas": 6050,
      "ØŃ": 6051,
      "ĠdÃŃn": 6052,
      "Ġpost": 6053,
      "ĠMP": 6054,
      "Ġrorun": 6055,
      "ppy": 6056,
      "yidayida": 6057,
      "sian": 6058,
      "ĠIna": 6059,
      "Ġsub": 6060,
      "ĠnÃ¬dÃŃ": 6061,
      "Ġmin": 6062,
      "para": 6063,
      "ĠSá»įfitiwia": 6064,
      "ĠÃłpapá»į": 6065,
      ",\"": 6066,
      "RM": 6067,
      "ĠGermany": 6068,
      "Paapaa": 6069,
      "RP": 6070,
      "Ġsibi": 6071,
      "Ġofo": 6072,
      "ĠiÅ¡i": 6073,
      "ĠnÃŃlÃ©": 6074,
      "gas": 6075,
      "ĠJÃº": 6076,
      "ERE": 6077,
      "Ġeye": 6078,
      "rusa": 6079,
      "Ġroyin": 6080,
      "ĠmÃ©je": 6081,
      "ĠMotorola": 6082,
      "Ġtee": 6083,
      "gbohun": 6084,
      "Ġlojo": 6085,
      "ĠBarcelona": 6086,
      "ĠAD": 6087,
      "Ġwá»įlÃ©": 6088,
      "Ġgame": 6089,
      "lling": 6090,
      "ĠJesus": 6091,
      "Ġibimá»į": 6092,
      "ĠpÃ¨sÃ¨": 6093,
      "á»įdu": 6094,
      "Ġiwakusa": 6095,
      "ĠAfihan": 6096,
      "liki": 6097,
      "ĠBoko": 6098,
      "ĠOpen": 6099,
      "anuje": 6100,
      "ĠTech": 6101,
      "liteji": 6102,
      "Iwa": 6103,
      "ĠÃ¬ká»į": 6104,
      "ĠronÃº": 6105,
      "ĠÙĦ": 6106,
      "ÙĤ": 6107,
      "mis": 6108,
      "get": 6109,
      "Ġá»įlÃ¡": 6110,
      "ĠÃ¬yÃł": 6111,
      "Ġologbo": 6112,
      "Ġthey": 6113,
      "ĠAlai": 6114,
      "ĠAbdul": 6115,
      "âĹı": 6116,
      "tá»įla": 6117,
      "Ġirá»įláº¹": 6118,
      "AROYE": 6119,
      "Ġayidayida": 6120,
      "Ġngba": 6121,
      "Ç¹fÃłÃłnÃŃ": 6122,
      "ĠBá»įtini": 6123,
      "tru": 6124,
      "Ġlos": 6125,
      "dic": 6126,
      "karahun": 6127,
      "Ġniyi": 6128,
      "ĠObinrin": 6129,
      "ĠAnd": 6130,
      "ĠTop": 6131,
      "HUN": 6132,
      "bá»įla": 6133,
      "Ġá¹£oki": 6134,
      "ĠHome": 6135,
      "Ġá»Įjá»įgbá»įn": 6136,
      "Ú¯": 6137,
      "Ġajakaye": 6138,
      "ĠÑģ": 6139,
      "jÃ³": 6140,
      "Ġiranran": 6141,
      "Ġmá»įláº¹bi": 6142,
      "dad": 6143,
      "ĠOyo": 6144,
      "Ġibikan": 6145,
      "ĠMate": 6146,
      "ching": 6147,
      "Ġà¤¦": 6148,
      "lÃ³gÃºn": 6149,
      "TML": 6150,
      "ĠwÃ¹": 6151,
      "ĠIyipada": 6152,
      "Ġtaba": 6153,
      "kes": 6154,
      "ĠSAR": 6155,
      "ĠTitaja": 6156,
      "raye": 6157,
      "kadi": 6158,
      "Ġimá»įlara": 6159,
      "Ġthem": 6160,
      "Ġalabapade": 6161,
      "ĠBur": 6162,
      "Ġguusu": 6163,
      "Gbigba": 6164,
      "tÃ¡n": 6165,
      "ĠâĢĶ": 6166,
      "tine": 6167,
      "á¹¢Ã©": 6168,
      "Ġaká»įwe": 6169,
      "rest": 6170,
      "eld": 6171,
      "35": 6172,
      "LI": 6173,
      "lie": 6174,
      "Ġakojo": 6175,
      "ĠMax": 6176,
      "Ġyen": 6177,
      "Ġalako": 6178,
      "Ġsuga": 6179,
      "Ã´": 6180,
      "hunsoke": 6181,
      "ĠDis": 6182,
      "ĠlÃ³rÃŃláº¹": 6183,
      "Ġatá»įwá»įda": 6184,
      "Já»įwá»į": 6185,
      "Ġlaser": 6186,
      "adÃ¡a": 6187,
      "ĠPixel": 6188,
      "ĠJer": 6189,
      "estosterone": 6190,
      "45": 6191,
      "Ġpen": 6192,
      "takun": 6193,
      "Ġoba": 6194,
      "Ġgbodo": 6195,
      "CE": 6196,
      "ĠOWO": 6197,
      "Ġapanirun": 6198,
      "ctic": 6199,
      "Ġihoho": 6200,
      "riba": 6201,
      "Ð¸Ð": 6202,
      "ĠPá»į": 6203,
      "sonic": 6204,
      "ĠdÃ¡adÃ¡a": 6205,
      "á»£": 6206,
      "ká»įá»į": 6207,
      "Ġiberu": 6208,
      "Google": 6209,
      "JA": 6210,
      "Ġfura": 6211,
      "led": 6212,
      "ĠHaram": 6213,
      "ĠOludari": 6214,
      "brahim": 6215,
      "á¹¢iá¹£áº¹": 6216,
      "Ġyanilenu": 6217,
      "Ġage": 6218,
      "ĠAWá»ĮN": 6219,
      "Ġkaláº¹nda": 6220,
      "Ġapaniyan": 6221,
      "ĠIá¹£eduro": 6222,
      "Ġakero": 6223,
      "Ġikilá»į": 6224,
      "sara": 6225,
      "Ġojurere": 6226,
      "ĠÃ¬dÃ¡já»į": 6227,
      "Ġlitiumu": 6228,
      "ĠOá¹£Ã¹": 6229,
      "atiri": 6230,
      "2022": 6231,
      "Ġpoly": 6232,
      "Lakotan": 6233,
      "ĠtÃŃÃ¬": 6234,
      "Ġpá»įn": 6235,
      "ĠIranlá»įwá»į": 6236,
      "rÃ²yin": 6237,
      "ĠBank": 6238,
      "Ġ?": 6239,
      "Ġangáº¹li": 6240,
      "graphi": 6241,
      "lÃ©rÃŃ": 6242,
      "¸áĭį": 6243,
      "ĠAmá»į": 6244,
      "ĠNetflix": 6245,
      "ĠtÃ¨": 6246,
      "ked": 6247,
      "Ġibasepo": 6248,
      "Ġlaiseaniani": 6249,
      "ĠÃĢÃłráº¹": 6250,
      "ĠOluá¹£akoso": 6251,
      "ĠArab": 6252,
      "JI": 6253,
      "ĠDC": 6254,
      "ĠRoulette": 6255,
      "Ġjina": 6256,
      "kola": 6257,
      "ĠNF": 6258,
      "Ġfesi": 6259,
      "ach": 6260,
      "ws": 6261,
      "ĠlÃ¡sÃ¬kÃ²": 6262,
      "íķĺ": 6263,
      "Ġipanu": 6264,
      "Ġá»įnÃł": 6265,
      "Ġmm": 6266,
      "ĠIboju": 6267,
      "ĠEmirates": 6268,
      "tina": 6269,
      "let": 6270,
      "ĠIwo": 6271,
      "Ġifaramá»į": 6272,
      "tunwonsi": 6273,
      "roup": 6274,
      "ĠagbÃ¨gbÃ¨": 6275,
      "ĠAwujá»į": 6276,
      "Ġkalori": 6277,
      "Ġigbanu": 6278,
      "ĠJamani": 6279,
      "Ġà¤²": 6280,
      "Ġpoku": 6281,
      "nira": 6282,
      "kai": 6283,
      "áĬ¨": 6284,
      "Ga": 6285,
      "Ġpri": 6286,
      "nabi": 6287,
      "Ġ31": 6288,
      "Ġasan": 6289,
      "ĠBro": 6290,
      "ĠChar": 6291,
      "Ġeleto": 6292,
      "iworo": 6293,
      "omono": 6294,
      "Ġilokulo": 6295,
      "Ġidunadura": 6296,
      "ĠIsraáº¹li": 6297,
      "Ġotito": 6298,
      ".|": 6299,
      "Ġnpa": 6300,
      "Ġfon": 6301,
      "Ġgbalejo": 6302,
      "ĠÃ¬sÃ¬n": 6303,
      "Ġoludasile": 6304,
      "lÃłÃ¡fÃŃÃł": 6305,
      "Ġout": 6306,
      "Ġaá¹£aaju": 6307,
      "Ġvan": 6308,
      "GUN": 6309,
      "port": 6310,
      "Ġidá»įti": 6311,
      "amáº¹ra": 6312,
      "ĠUnion": 6313,
      "Ġndun": 6314,
      "ĠfÃ²": 6315,
      "Ġblockchain": 6316,
      "Ġalafia": 6317,
      "ĠJose": 6318,
      "Ġá¹£ÃłlÃłyÃ©": 6319,
      "Ġasofin": 6320,
      "ĠirÃ²yin": 6321,
      "Ġom": 6322,
      "áĪ°": 6323,
      "Ġlea": 6324,
      "ĠIkáº¹ká»į": 6325,
      "ĠPelu": 6326,
      "ĠAPI": 6327,
      "ãĢ": 6328,
      "ĠnÃŃfáº¹": 6329,
      "Ġonihoho": 6330,
      "31": 6331,
      "wale": 6332,
      "ĠGÃ³mÃ¬nÃł": 6333,
      "Ġipinya": 6334,
      "ĠPark": 6335,
      "ĠpÃłÃ¡pÃłÃ¡": 6336,
      "Ġ%": 6337,
      "Ġeke": 6338,
      "sáº¹fu": 6339,
      "ĠLara": 6340,
      "ĠPS": 6341,
      "ĠGbigbe": 6342,
      "Ġsoobu": 6343,
      "hÃ²": 6344,
      "Ġipasáº¹": 6345,
      "áĪī": 6346,
      "ĠsÃ¬n": 6347,
      "Ġà¤¬": 6348,
      "Ġsha": 6349,
      "ĠWar": 6350,
      "Ġche": 6351,
      "Ġoloselu": 6352,
      "kokoro": 6353,
      "cent": 6354,
      "ĠBonu": 6355,
      "ĠØ®": 6356,
      "ĠnÃ¬yáº¹n": 6357,
      "tara": 6358,
      "ĠÃłwÃ¡rÃŃ": 6359,
      "ĠCre": 6360,
      "Ġten": 6361,
      "Ġgráº¹y": 6362,
      "ĠDie": 6363,
      "Ġá¹£iá¹£atunká»į": 6364,
      "90": 6365,
      "Play": 6366,
      "yaa": 6367,
      "á¹¢i": 6368,
      "Ġaká»įni": 6369,
      "gbÃ©e": 6370,
      "mula": 6371,
      "there": 6372,
      "OO": 6373,
      "lex": 6374,
      "Ġtakun": 6375,
      "ĠEgi": 6376,
      "ali": 6377,
      "cen": 6378,
      "Ġeh": 6379,
      "Ġiá¹£á»įrá»į": 6380,
      "Ġaá¹£Ãł": 6381,
      "ĠOrganic": 6382,
      "Gi": 6383,
      "Ġkilá»į": 6384,
      "kekere": 6385,
      "ĠSin": 6386,
      "ative": 6387,
      "Ġolutá»įpa": 6388,
      "ohun": 6389,
      "Ġspa": 6390,
      "Ġaará»į": 6391,
      "Ġsoju": 6392,
      "Ġifáº¹sáº¹": 6393,
      "gbÃ©ejÃ¡de": 6394,
      "):": 6395,
      "ĠAji": 6396,
      "Ġlepa": 6397,
      "Ã¨jÃ¬": 6398,
      "Ġoto": 6399,
      "wood": 6400,
      "Ġdaran": 6401,
      "ĠPáº¹": 6402,
      "ĠPower": 6403,
      "Iyáº¹n": 6404,
      "Ġobe": 6405,
      "Ġbibáº¹áº¹ká»į": 6406,
      "ĠFlo": 6407,
      "Ġoojá»į": 6408,
      "lum": 6409,
      "ĠKDE": 6410,
      "pins": 6411,
      "ĠFirefox": 6412,
      "rá»įwá»įto": 6413,
      "Ġejo": 6414,
      "Ġtaya": 6415,
      "hang": 6416,
      "kuluku": 6417,
      "ĠPayPal": 6418,
      "Ġyiyipada": 6419,
      "ĠHTML": 6420,
      "rini": 6421,
      "yeye": 6422,
      "maa": 6423,
      "Ada": 6424,
      "kose": 6425,
      "Ġmusi": 6426,
      "train": 6427,
      "wole": 6428,
      "eed": 6429,
      "ĠCali": 6430,
      "Ġsitáº¹": 6431,
      "Ġidanileko": 6432,
      "ĠiCloud": 6433,
      "ĠGar": 6434,
      "TS": 6435,
      "ĠÃ¬á¹£e": 6436,
      "Ġikore": 6437,
      "Ã¶r": 6438,
      "fini": 6439,
      "ĠOlÃ³": 6440,
      "ĠEs": 6441,
      "Ġnitootá»į": 6442,
      "ĠHy": 6443,
      "Ġà¤¨": 6444,
      "nel": 6445,
      "Ġifá»įwá»įra": 6446,
      "Ġalloy": 6447,
      "ĠmÃ³": 6448,
      "Ġá»Įráº¹": 6449,
      "ĠAá¹£eyá»įri": 6450,
      "Ġcor": 6451,
      "báº¹okuta": 6452,
      "hinti": 6453,
      "ĠAdi": 6454,
      "dá»įta": 6455,
      "Ġtheir": 6456,
      "Ġburuju": 6457,
      "Ġmejeji": 6458,
      "ĠÃ¬dÃł": 6459,
      "ele": 6460,
      "hoo": 6461,
      "une": 6462,
      "Ġá»įdáº¹": 6463,
      "ĠSt": 6464,
      "mole": 6465,
      "áī¸áĭį": 6466,
      "ĠLite": 6467,
      "lm": 6468,
      "sives": 6469,
      "ĠnÃŃlÃ²": 6470,
      "gua": 6471,
      "Ġfoo": 6472,
      "Ġdigi": 6473,
      "Ġkey": 6474,
      "Ġá¹£Ã©": 6475,
      "ĠIbo": 6476,
      "ĠÃ¬wÃ²": 6477,
      "ĠÃ²go": 6478,
      "lÃ¹Ãº": 6479,
      "fÃº": 6480,
      "ĠdarÃŃ": 6481,
      "piresi": 6482,
      "ĠAustralia": 6483,
      "ĠdÃ¡n": 6484,
      "Ġeng": 6485,
      "ĠAlÃ¡": 6486,
      "logo": 6487,
      "ĠNational": 6488,
      "mÃŃrÃłn": 6489,
      "Ġ=": 6490,
      "Ã¬yÃłnjÃº": 6491,
      "langidi": 6492,
      "ĠAuto": 6493,
      "Kaa": 6494,
      "tai": 6495,
      "Ġaaya": 6496,
      "Ġresini": 6497,
      "Ġ45": 6498,
      "ĠÃĪmi": 6499,
      "ĠIro": 6500,
      "Ġadalu": 6501,
      "dupiresi": 6502,
      "ĠwÃłÃ¡sÃ¹": 6503,
      "ĠIbrahim": 6504,
      "ĠDel": 6505,
      "ĠPada": 6506,
      "Ġitoju": 6507,
      "waniláº¹nu": 6508,
      "Äĥ": 6509,
      "ĠojÃ²": 6510,
      "ĠTai": 6511,
      "Ġnijá»įba": 6512,
      "ĠGmail": 6513,
      "Ġapin": 6514,
      "Ġwaká»į": 6515,
      "ĠMin": 6516,
      "ĠUp": 6517,
      "Ġonjáº¹": 6518,
      "!!": 6519,
      "Ġpatikulu": 6520,
      "Owo": 6521,
      "ĠCam": 6522,
      "ctive": 6523,
      "à¸²à¸": 6524,
      "pre": 6525,
      "ĠAá¹£á»į": 6526,
      "ĠÃłgá»į": 6527,
      "ĠÙĨ": 6528,
      "ĠehÃŃn": 6529,
      "Na": 6530,
      "mÃ³": 6531,
      "ĠMes": 6532,
      "ĠWal": 6533,
      "berg": 6534,
      "ĠBáº¹áº¹": 6535,
      "Niwá»įn": 6536,
      "Al": 6537,
      "ĠmÃł": 6538,
      "Ġiá¹£u": 6539,
      "Ġoluyipada": 6540,
      "table": 6541,
      "Ġkoda": 6542,
      "ĠEpo": 6543,
      "Ġmerin": 6544,
      "fra": 6545,
      "Ġdáº¹rá»į": 6546,
      "ĠÃ¬á¹£Ã²ro": 6547,
      "blo": 6548,
      "ÌĢ?": 6549,
      "ĠNyin": 6550,
      "pera": 6551,
      "Ġtitari": 6552,
      "mation": 6553,
      "ĠTitun": 6554,
      "Ġimuposi": 6555,
      "Ġodidi": 6556,
      "Ġyorisi": 6557,
      "Aá¹£ayan": 6558,
      "Ġsáº¹ni": 6559,
      "yiya": 6560,
      "ĠFede": 6561,
      "kalo": 6562,
      "Ġkeje": 6563,
      "Ġfaye": 6564,
      "ĠØª": 6565,
      "ĠrÃ¨Ã©": 6566,
      "ĠBonus": 6567,
      "ĠelÃ©": 6568,
      "less": 6569,
      "ĠISO": 6570,
      "ĠsÃ³kÃ¨": 6571,
      "ĠLATI": 6572,
      "Ġnrin": 6573,
      "diáº¹": 6574,
      "ĠpÃłá¹£áº¹": 6575,
      "Ġef": 6576,
      "ĠTik": 6577,
      "enovo": 6578,
      "Ilu": 6579,
      "Ġer": 6580,
      "hungbohun": 6581,
      "Ġeeka": 6582,
      "Ġá¹£in": 6583,
      "Ġfifin": 6584,
      "burÃº": 6585,
      "Ġmore": 6586,
      "Ġisakoso": 6587,
      "Ġfarapamá»į": 6588,
      "ttp": 6589,
      "ĠÃłÃłbÃ²": 6590,
      "thereum": 6591,
      "waniláº¹nuwo": 6592,
      "Ġá»įya": 6593,
      "bian": 6594,
      "ĠÃ¬pa": 6595,
      "ĠmÃ¡rÃ¹n": 6596,
      "Ġoniruuru": 6597,
      "ĠÃłyÃł": 6598,
      "ĠArabinrin": 6599,
      "aradagba": 6600,
      "ĠbÃ¨be": 6601,
      "Ġä": 6602,
      "ĠTA": 6603,
      "ĠáĪĪ": 6604,
      "Ġá¹£ofo": 6605,
      "%?": 6606,
      "ĠmÃ²": 6607,
      "ĠAjo": 6608,
      "ĠÅĥ": 6609,
      "godo": 6610,
      "Ġmáº¹san": 6611,
      "ĠApk": 6612,
      "xico": 6613,
      "gbungbun": 6614,
      "DP": 6615,
      "awá»į": 6616,
      "Ġbiri": 6617,
      "Ġalapin": 6618,
      "wers": 6619,
      "ĠmÃ©jÃ¨": 6620,
      "ĠNla": 6621,
      "2020": 6622,
      "ĠlÃłwá»įn": 6623,
      "UI": 6624,
      "Ġapt": 6625,
      "gbaradi": 6626,
      "Ġabá»į": 6627,
      "leri": 6628,
      "ĠIrun": 6629,
      "Ġimugbo": 6630,
      "Ġnawo": 6631,
      "wÃ¹já»į": 6632,
      "nan": 6633,
      "sÃ³": 6634,
      "Ġhar": 6635,
      "We": 6636,
      "Ġav": 6637,
      "ĠsÃŃbáº¹": 6638,
      "Ġoloogbe": 6639,
      "Ġká»įfi": 6640,
      "Ġitanjáº¹": 6641,
      "risto": 6642,
      "ÌĢ.+": 6643,
      "ĠProfit": 6644,
      "JO": 6645,
      "blic": 6646,
      "á»Įlá»į": 6647,
      "Ġroulette": 6648,
      "ide": 6649,
      "Ĳ×": 6650,
      "páº¹láº¹": 6651,
      "Ġ%%?": 6652,
      "Ġiwin": 6653,
      "ĠII": 6654,
      "ĠÃ¬gbÃ¬má»į": 6655,
      "Ġtáº¹lifoonu": 6656,
      "Ġá»įmu": 6657,
      "Ġjere": 6658,
      "Ġloootá»į": 6659,
      "ĠLife": 6660,
      "ĠÃłÃłráº¹": 6661,
      "shing": 6662,
      "lujÃ¡ra": 6663,
      "Ġá¹¢eun": 6664,
      "ĠDavid": 6665,
      "ĠTita": 6666,
      "faramo": 6667,
      "ĠyÃ³": 6668,
      "Ġpag": 6669,
      "Ġcoronavirus": 6670,
      "Ġone": 6671,
      "tiki": 6672,
      "Ġá¹£á»įá»į": 6673,
      "Ġafá»įwá»įá¹£e": 6674,
      "Ġnwaye": 6675,
      "Ġipá»įn": 6676,
      "luku": 6677,
      "Ġonkawe": 6678,
      "Ġ64": 6679,
      "!âĢĿ": 6680,
      "ĠGuusu": 6681,
      "tÃ¨": 6682,
      "ĠAS": 6683,
      "Ġrá»įra": 6684,
      "Ġabuku": 6685,
      "táº¹ni": 6686,
      "ĠPipe": 6687,
      "Ġkorira": 6688,
      "Ġiá¹£una": 6689,
      "ĠCol": 6690,
      "Ġolokun": 6691,
      "á¹£ura": 6692,
      "Ġapeere": 6693,
      "ÃĪmi": 6694,
      "ctory": 6695,
      "akoko": 6696,
      "tta": 6697,
      "Ãµ": 6698,
      "pedia": 6699,
      "Ġidibajáº¹": 6700,
      "ĠIre": 6701,
      "Ġfifihan": 6702,
      "ĠEFCC": 6703,
      "ins": 6704,
      "Ġá»Įpa": 6705,
      "Ġá»įranyan": 6706,
      "ĠIráº¹danu": 6707,
      "gne": 6708,
      "ida": 6709,
      "kerÃ©": 6710,
      "ĠfÃºnra": 6711,
      "Ġatunlo": 6712,
      "Nipasáº¹": 6713,
      "ĠSMS": 6714,
      "kunkun": 6715,
      "Nibáº¹": 6716,
      "ĠTer": 6717,
      "ĠrÃ¡rÃ¡": 6718,
      "Ġijade": 6719,
      "Ġbbl": 6720,
      "ĠMÃ³": 6721,
      "rongba": 6722,
      "Gomina": 6723,
      "Ġndagba": 6724,
      "ĠbÃºburÃº": 6725,
      "Ġpilasi": 6726,
      "Ġyinbá»įn": 6727,
      "ĠÃłlÃłÃ¡fÃŃÃł": 6728,
      "Ġá»įrá»įigbaniwá»įle": 6729,
      "Ġdidasiláº¹": 6730,
      "kra": 6731,
      "Ġlatari": 6732,
      "Ġles": 6733,
      "ĠItumá»į": 6734,
      "Ġá¹£atunká»į": 6735,
      "Ġdena": 6736,
      "Ġiwapá»į": 6737,
      "Ġiyá»įá»įda": 6738,
      "áĪĽ": 6739,
      "GBE": 6740,
      "ĠMer": 6741,
      "ĠNikan": 6742,
      "ĠHal": 6743,
      "Ġimoriri": 6744,
      "á»Įjá»įgbá»įn": 6745,
      "Alu": 6746,
      "Ġfoliteji": 6747,
      "ĠDan": 6748,
      "Ġirokeke": 6749,
      "Ifihan": 6750,
      "Ġá»įmá»įlangidi": 6751,
      "dua": 6752,
      "ĠfÃ¡wá»įn": 6753,
      "Be": 6754,
      "ĠÃĮwÃ©": 6755,
      "ĠtÃºbá»į": 6756,
      "ĠMÃ¡": 6757,
      "rÃŃkÃł": 6758,
      "Ġá¹£afipamá»į": 6759,
      "ĠKoko": 6760,
      "lÃ¹kÃ¹": 6761,
      "ĠÃ²á¹£Ã¨lÃº": 6762,
      "Xiaomi": 6763,
      "Ã¸": 6764,
      "inos": 6765,
      "dation": 6766,
      "ĠMc": 6767,
      "Ġawotáº¹láº¹": 6768,
      "saka": 6769,
      "ĠSoftware": 6770,
      "Ġiwontunwonsi": 6771,
      "ipamá»į": 6772,
      "Ġtio": 6773,
      "32": 6774,
      "bÃ¹n": 6775,
      "sm": 6776,
      "ĠØ£": 6777,
      "Ġimoye": 6778,
      "ĠFoonu": 6779,
      "tral": 6780,
      "Ġá»įbáº¹": 6781,
      "ĠGáº¹gáº¹": 6782,
      "ÃŃnÃŃ": 6783,
      "ĠMimá»į": 6784,
      "cket": 6785,
      "ĠImudojuiwá»įn": 6786,
      "Ġalgorith": 6787,
      "ppe": 6788,
      "ĠIá¹£a": 6789,
      "ĠolÃ³gun": 6790,
      "ĠnÃ¡": 6791,
      "Ġfifaláº¹": 6792,
      "Láº¹yin": 6793,
      "Ġdá»įgba": 6794,
      "ĠIdanwo": 6795,
      "duku": 6796,
      "Ġbut": 6797,
      "ttle": 6798,
      "cuit": 6799,
      "ramiki": 6800,
      "aamu": 6801,
      "nifoji": 6802,
      "ĠOorun": 6803,
      "dÃ¡nÃ¹": 6804,
      "risirisi": 6805,
      "Ġibuso": 6806,
      "Nigbagbogbo": 6807,
      "linda": 6808,
      "RUN": 6809,
      "she": 6810,
      "Ġáº¹iyáº¹": 6811,
      "ĠOgbeni": 6812,
      "bomi": 6813,
      "ĠDra": 6814,
      "Ġ196": 6815,
      "Ġhuwa": 6816,
      "bayi": 6817,
      "à¤¦": 6818,
      "ĠJerusa": 6819,
      "Ġlw": 6820,
      "ÃłyÃ¨": 6821,
      "yl": 6822,
      "gbogi": 6823,
      "Ġpeople": 6824,
      "ĠÃłtáº¹": 6825,
      "Ġtakuntakun": 6826,
      "ĠEgipti": 6827,
      "Ġá»įn": 6828,
      "bot": 6829,
      "ĠGbiyanju": 6830,
      "bes": 6831,
      "ĠtÃłn": 6832,
      "Ġsetan": 6833,
      "lea": 6834,
      "Ìģ-": 6835,
      "Ġkilode": 6836,
      "Ġá»Įfáº¹": 6837,
      "Ġgbekele": 6838,
      "Ġabuja": 6839,
      "eyiti": 6840,
      "sodi": 6841,
      "Ġaipe": 6842,
      "áĭ¨": 6843,
      "Ġabemi": 6844,
      "Ġden": 6845,
      "Ġiá¹£aju": 6846,
      "Visa": 6847,
      "lene": 6848,
      "bajo": 6849,
      "Ġoniwadi": 6850,
      "ĠMÃŃmá»į": 6851,
      "ĠEdge": 6852,
      "Ġá¹¢áº¹da": 6853,
      "ĠgbÃłdÃºrÃł": 6854,
      "Ġá»įmá»įbÃ¬nrin": 6855,
      "Ġ2012": 6856,
      "ĠAbra": 6857,
      "ĠÃ¬rÃŃ": 6858,
      "ally": 6859,
      "nipasáº¹": 6860,
      "ĠIdani": 6861,
      "ĠparÃŃ": 6862,
      "ĠMal": 6863,
      "matic": 6864,
      "sunwon": 6865,
      "Ġáº¹láº¹ya": 6866,
      "ĠÙģ": 6867,
      "Ke": 6868,
      "sanjá»į": 6869,
      "Ġsakani": 6870,
      "ĠNaira": 6871,
      "Ġtá»įkasi": 6872,
      "chael": 6873,
      "ĠSky": 6874,
      "Ġgbohungbohun": 6875,
      "Ø§Ø±": 6876,
      "ĠFidio": 6877,
      "Má»Į": 6878,
      "lokalo": 6879,
      "ĠCode": 6880,
      "ĠWá»įle": 6881,
      "ĠrÃ¡ntÃŃ": 6882,
      "ĠOlÃ¹gbÃ©ejÃ¡de": 6883,
      "yal": 6884,
      "kalara": 6885,
      "ĠES": 6886,
      "ĠOniru": 6887,
      "ĠolÃ³Ã²": 6888,
      "Ġá¹£iná¹£in": 6889,
      "Ekiti": 6890,
      "kito": 6891,
      "Ġaiye": 6892,
      "Ġiresi": 6893,
      "Ġmusiá»įmu": 6894,
      "her": 6895,
      "vol": 6896,
      "Ġapple": 6897,
      "tube": 6898,
      "Ġkee": 6899,
      "Ġekun": 6900,
      "Ġfiri": 6901,
      "ĠFin": 6902,
      "ĠDay": 6903,
      "ĠtÃ²Ã³tá»į": 6904,
      "Ð½": 6905,
      "Ġosan": 6906,
      "ĠÅ¡i": 6907,
      "ĠKin": 6908,
      "Ġabayá»į": 6909,
      "ĠGeor": 6910,
      "----------------": 6911,
      "ĠNáº¹tiwá»įá»įki": 6912,
      "Iwadi": 6913,
      "LÃ¡": 6914,
      "lor": 6915,
      "ĠOpo": 6916,
      "Ġibáº¹ru": 6917,
      "kalararáº¹": 6918,
      "En": 6919,
      "ĠkÃ©kerÃ©": 6920,
      "ĠlÃ¡ÃłrÃŃn": 6921,
      "Orisun": 6922,
      "Ġmodulu": 6923,
      "ĠSaraki": 6924,
      "digbin": 6925,
      "Hz": 6926,
      "Otitá»į": 6927,
      "dar": 6928,
      "Ġtitáº¹jade": 6929,
      "Ġproces": 6930,
      "Ġtiraka": 6931,
      "lt": 6932,
      "¬ë": 6933,
      "ĠBÃ³": 6934,
      "ĠgbÃ¬yÃłnjÃº": 6935,
      "vea": 6936,
      "Ġfá»įtoyiya": 6937,
      "ĠJack": 6938,
      "Aworan": 6939,
      "Ġali": 6940,
      "ĠIFA": 6941,
      "ĠmÃ©jÃ¨Ã¨jÃ¬": 6942,
      "ĠSáº¹": 6943,
      "ĠEthereum": 6944,
      "arao": 6945,
      "ĠFri": 6946,
      "à¥Ī": 6947,
      "sÃ©": 6948,
      "Ġspe": 6949,
      "lá»įkan": 6950,
      "Ġolulana": 6951,
      "Ġsá»įkaláº¹": 6952,
      "PU": 6953,
      "á»įra": 6954,
      "unter": 6955,
      "sinmi": 6956,
      "Ġoluranlowo": 6957,
      "ĠwÃ³n": 6958,
      "ĠetÃŃ": 6959,
      "ĠGPS": 6960,
      "Ġibora": 6961,
      "Ġibewo": 6962,
      "Yato": 6963,
      "ĠCalifor": 6964,
      "yÃ¬": 6965,
      "side": 6966,
      "Ġjanduku": 6967,
      "ï¼Į": 6968,
      "ez": 6969,
      "ĠAgbe": 6970,
      "stre": 6971,
      "ĠDigital": 6972,
      "Ġadiro": 6973,
      "Ġroboti": 6974,
      "Ġmonomono": 6975,
      "DF": 6976,
      "Ġtikáº¹ti": 6977,
      "Ã²Ã³": 6978,
      "ĠAquari": 6979,
      "ĠIPTV": 6980,
      "Ġparo": 6981,
      "ĠGlo": 6982,
      "ĠGroup": 6983,
      "Ġaká»įrin": 6984,
      "Ġirufin": 6985,
      "Ã³Ã²gÃ¬": 6986,
      "Ġibon": 6987,
      "Ġamuaradagba": 6988,
      "ĠSatide": 6989,
      "fÃ¡": 6990,
      "waini": 6991,
      "tino": 6992,
      "Ġoniduro": 6993,
      "Bio": 6994,
      "ĠyÃłtá»į": 6995,
      "rer": 6996,
      "fone": 6997,
      "iwá»įle": 6998,
      "dit": 6999,
      "Ġbulá»įá»įki": 7000,
      "Bu": 7001,
      "pot": 7002,
      "ĠAluminiomu": 7003,
      "uri": 7004,
      "à¦": 7005,
      "Ġá¹¢eto": 7006,
      "Ġlawon": 7007,
      "Ġwhat": 7008,
      "tas": 7009,
      "ĠEde": 7010,
      "Ġ1000": 7011,
      "55": 7012,
      "lian": 7013,
      "Ġoluá¹£eto": 7014,
      "áī¥áĪ": 7015,
      "kiká»į": 7016,
      "ĠRO": 7017,
      "Ġcm": 7018,
      "ĠÃ¨rÃ¨": 7019,
      "ĠEgbe": 7020,
      "mad": 7021,
      "ĠpÃ¡tÃ¡": 7022,
      "ĠWord": 7023,
      "à¸Ļ": 7024,
      "Ġjaketi": 7025,
      "Ġngbero": 7026,
      "AT": 7027,
      "âĸ": 7028,
      "Ġibawi": 7029,
      "ĠDios": 7030,
      "ĠMexico": 7031,
      "GO": 7032,
      "Ġsowo": 7033,
      "páº¹táº¹": 7034,
      "káº¹yÃ¬n": 7035,
      "Ġipá»įnju": 7036,
      "Ġáº¹rÃ¹": 7037,
      "Ġmori": 7038,
      "ĠdÃ¬de": 7039,
      "Ġnká»įju": 7040,
      "Ġpere": 7041,
      "á»įnÃł": 7042,
      "Ġoya": 7043,
      "ĠMoham": 7044,
      "ĠAdehun": 7045,
      "má»įlemá»į": 7046,
      "ĠMana": 7047,
      "ĠLan": 7048,
      "Ġ2000": 7049,
      "Ġayede": 7050,
      "ropra": 7051,
      "dd": 7052,
      "Ġegbegbe": 7053,
      "Ġohunelo": 7054,
      "ĠnÃŃláº¹": 7055,
      "ĠOluká»į": 7056,
      "kÃºlÃ¹kÃ¹": 7057,
      "dÃºrÃ³": 7058,
      "ĠIsakoso": 7059,
      "ĠÃ¬hÃ¬n": 7060,
      "ĠOdi": 7061,
      "ĠRedmi": 7062,
      "Ju": 7063,
      "Ġlenu": 7064,
      "menti": 7065,
      "Ġ150": 7066,
      "Ġagolo": 7067,
      "tori": 7068,
      "ĠÃ¬ran": 7069,
      "ĠRá»įrun": 7070,
      "ĠÃ¬gbÃ©sáº¹": 7071,
      "Ġdarandaran": 7072,
      "ĠAá¹£oju": 7073,
      "count": 7074,
      "Ġdina": 7075,
      "à¤Ĺ": 7076,
      "ĠAnge": 7077,
      "ĠFifi": 7078,
      "ĠJuda": 7079,
      "plo": 7080,
      "sitá»į": 7081,
      "Ġifileláº¹": 7082,
      "Ġá¹£iá¹£anwá»įle": 7083,
      "ĠNews": 7084,
      "ĠXNUMXth": 7085,
      "ĠÃºn": 7086,
      "Ġagekuru": 7087,
      "Sá»į": 7088,
      "Ġwere": 7089,
      "ĠVer": 7090,
      "ids": 7091,
      "á¹¢ayáº¹wo": 7092,
      "lee": 7093,
      "nuko": 7094,
      "ibi": 7095,
      "báº¹ká»į": 7096,
      "Ġibori": 7097,
      "Ġá¹£ÃŃá¹£e": 7098,
      "Ġnipo": 7099,
      "ĠdÃ¡a": 7100,
      "ĠIduro": 7101,
      "peri": 7102,
      "Laarin": 7103,
      "láº¹hin": 7104,
      "ĠCal": 7105,
      "bert": 7106,
      "ĠkÃ¡Ãłkiri": 7107,
      "Ġjá»įba": 7108,
      "GA": 7109,
      "gbayida": 7110,
      "ĠØ±": 7111,
      "OME": 7112,
      "Ġbar": 7113,
      "rum": 7114,
      "ĠSco": 7115,
      "ĠdÃ¨nÃł": 7116,
      "ĠDÃ¡": 7117,
      "Ġpaali": 7118,
      "Ġyipo": 7119,
      "ĠrÃ©": 7120,
      "Kan": 7121,
      "Ġnwon": 7122,
      "Ġegbon": 7123,
      "Ġshe": 7124,
      "táº¹laiti": 7125,
      "ĠyÃłrÃ¡": 7126,
      "Ġsiliki": 7127,
      "Ġsikiri": 7128,
      "ĠAá¹£i": 7129,
      "ĠUltra": 7130,
      "cm": 7131,
      "ĠCe": 7132,
      "Ġseyin": 7133,
      "Ġ400": 7134,
      "tary": 7135,
      "ĠSwe": 7136,
      "à¤¶": 7137,
      "Fáº¹": 7138,
      "Iá¹£e": 7139,
      "RAN": 7140,
      "cio": 7141,
      "ľ×": 7142,
      "Ġgara": 7143,
      "ĠVitamin": 7144,
      "Ġá¹£á»įwá»įn": 7145,
      "Ġlododun": 7146,
      "Ġkamera": 7147,
      "Ġonra": 7148,
      "Ġ48": 7149,
      "ĠalÃł": 7150,
      "Ġseeti": 7151,
      "Ġifá»įkanbaláº¹": 7152,
      "work": 7153,
      "ĠCircuit": 7154,
      "By": 7155,
      "36": 7156,
      "Ġatt": 7157,
      "ĠÃłtÃºná¹£e": 7158,
      "ĠÃłgbÃ¡yÃ©": 7159,
      "Ar": 7160,
      "gÃłn": 7161,
      "pri": 7162,
      "ĠAta": 7163,
      "ĠSD": 7164,
      "Ġawokose": 7165,
      "ĠbÃ³yÃ¡": 7166,
      "ĠCro": 7167,
      "oney": 7168,
      "ĠáĪ°": 7169,
      "ĠÃ¬bÃŃláº¹": 7170,
      "ewÃ©": 7171,
      "Ġsilinda": 7172,
      "Ġpáº¹lÃº": 7173,
      "ĠOEM": 7174,
      "Ġci": 7175,
      "ĠZa": 7176,
      "Ġikarahun": 7177,
      "ĠIká»į": 7178,
      "Ġabáº¹fáº¹láº¹": 7179,
      "kÃ³hun": 7180,
      ".)": 7181,
      "Ġlemá»įlemá»į": 7182,
      "nam": 7183,
      "ĠSÃ¡": 7184,
      "ĠLainos": 7185,
      "ĠOko": 7186,
      "ward": 7187,
      "Ġyears": 7188,
      "ĠÃ¬pÃ¨": 7189,
      "Ġabbl": 7190,
      "Ġisokan": 7191,
      "gunjale": 7192,
      "iyan": 7193,
      "ĠTrump": 7194,
      "MC": 7195,
      "ĠGbáº¹": 7196,
      "rÃ¨tÃŃ": 7197,
      "ĠjÃ©": 7198,
      "oor": 7199,
      "Ġlese": 7200,
      "ĠKeji": 7201,
      "mpe": 7202,
      "Ġá¹£elá»įpá»į": 7203,
      "lone": 7204,
      "Bit": 7205,
      "shitisi": 7206,
      "ĠÃ¬gbÃ©sÃŃ": 7207,
      "Ġchip": 7208,
      "ĠCalifornia": 7209,
      "tory": 7210,
      "jumá»įsá»įrá»į": 7211,
      "ĠJava": 7212,
      "shitisii": 7213,
      "Ġigbeyewo": 7214,
      "à¥Ĥ": 7215,
      "Ġafonifoji": 7216,
      "ĠOo": 7217,
      "ĠNin": 7218,
      "á¹£á»įla": 7219,
      "Ġiká»įsiláº¹": 7220,
      "ĠJáº¹mÃ¡nÃ¬": 7221,
      "Aká»į": 7222,
      "cre": 7223,
      "rita": 7224,
      "ĠdÃ³": 7225,
      "ĠAsiri": 7226,
      "Ġáº¹ná»į": 7227,
      "Ġakoran": 7228,
      "cies": 7229,
      "Ġtite": 7230,
      "Ġeku": 7231,
      "ĠÃłwá»į": 7232,
      "Ġaladun": 7233,
      "Imudojuiwá»įn": 7234,
      "Huawei": 7235,
      "Ìģ?": 7236,
      "ĠLoo": 7237,
      "colate": 7238,
      "ĠÂ°": 7239,
      "ĠÃ¬á¹£Ãł": 7240,
      "set": 7241,
      "sowá»į": 7242,
      "ĠÃ¬sá»į": 7243,
      "ĠCC": 7244,
      "Ġfáº¹rÃłn": 7245,
      "Ġmotor": 7246,
      "Ġáī°": 7247,
      "ĠIdagbasoke": 7248,
      "malt": 7249,
      "áīĢ": 7250,
      "ĠayÃ©lujÃ¡ra": 7251,
      "LED": 7252,
      "ká»įsÃŃláº¹": 7253,
      "eren": 7254,
      "Dara": 7255,
      "Ho": 7256,
      "lÃ¡Ãł": 7257,
      "Ġá»įá¹£áº¹": 7258,
      "ĠWodupiresi": 7259,
      "ĠnpÃ¨": 7260,
      "ĠApoti": 7261,
      "Ġ36": 7262,
      "Ġáº¸ti": 7263,
      "wÃ¡kiri": 7264,
      "graphic": 7265,
      "tita": 7266,
      "láº¹rin": 7267,
      "Ġgbara": 7268,
      "hana": 7269,
      "ĠJosáº¹fu": 7270,
      "ĠdÃłgbÃł": 7271,
      "nde": 7272,
      "Ġimuduro": 7273,
      "mÃ¬nira": 7274,
      "Laisi": 7275,
      "hÃ¬n": 7276,
      "kh": 7277,
      "Ġher": 7278,
      "ĠKristáº¹ni": 7279,
      "Ġeja": 7280,
      "Ġaratuntun": 7281,
      "yá»įrisi": 7282,
      "ĠKaadi": 7283,
      "ĠKÃ³": 7284,
      "Ġelomiran": 7285,
      "FI": 7286,
      "Ġ@": 7287,
      "Ġáº¹wÃł": 7288,
      "tos": 7289,
      "ĠIfo": 7290,
      "bal": 7291,
      "Ġayeraye": 7292,
      "Ġ2010": 7293,
      "ĠLaibikita": 7294,
      "Ġidapá»įmá»įra": 7295,
      "sso": 7296,
      "tti": 7297,
      "Ġiyin": 7298,
      "Ġkosi": 7299,
      "Ġidasile": 7300,
      "Ġaiá¹£an": 7301,
      "Ġtá»įpinpin": 7302,
      "Ġinte": 7303,
      "ĠBibeli": 7304,
      "agba": 7305,
      "ĠAlagba": 7306,
      "ĠÃłÃ¬sÃłn": 7307,
      "ĠBiotiláº¹jáº¹pe": 7308,
      "SC": 7309,
      "Ġnyara": 7310,
      "Ġwaláº¹": 7311,
      "burg": 7312,
      "Ġigbekaláº¹": 7313,
      "Ġseramiki": 7314,
      "ĠMeta": 7315,
      "ĠrÃ¡ná¹£áº¹": 7316,
      "idi": 7317,
      "lp": 7318,
      "Ġfipa": 7319,
      "ĠÃłbÃ¡": 7320,
      "Ġoloye": 7321,
      "Ġitá»įpa": 7322,
      "Ġlubric": 7323,
      "ĠkÃ©de": 7324,
      "Ġiyá»įrisi": 7325,
      "biyi": 7326,
      "ĠÃ¬rÃłn": 7327,
      "ĠÃ¨lÃ²": 7328,
      "Ġ2011": 7329,
      "cation": 7330,
      "leke": 7331,
      "pres": 7332,
      "·¸": 7333,
      "ĠCoronavirus": 7334,
      "fari": 7335,
      "bri": 7336,
      "Ġáº¹lÃ²": 7337,
      "lá»įlá»į": 7338,
      "Ġà¤ī": 7339,
      "KALE": 7340,
      "ĠApejá»į": 7341,
      "Ġsiga": 7342,
      "ĠEji": 7343,
      "Ġagbapada": 7344,
      "ved": 7345,
      "potify": 7346,
      "Ġagin": 7347,
      "Ġos": 7348,
      "ĠAY": 7349,
      "lang": 7350,
      "ĠHon": 7351,
      "Ġjasi": 7352,
      "ĠEngland": 7353,
      "Irin": 7354,
      "ĠiwÃ¡jÃº": 7355,
      "Ġfirst": 7356,
      "káº¹ni": 7357,
      "cade": 7358,
      "Ġhard": 7359,
      "roosi": 7360,
      "iro": 7361,
      "Ġatá»įka": 7362,
      "ung": 7363,
      "riá»įdu": 7364,
      "Ġmii": 7365,
      "Ġalala": 7366,
      "Ġá¹£akiyesi": 7367,
      "ĠJÃ³": 7368,
      "ciÃ³n": 7369,
      "Ġá»Įkunrin": 7370,
      "Ġany": 7371,
      "Ġjija": 7372,
      "Ġapinfunni": 7373,
      "Ø¬": 7374,
      "lah": 7375,
      "kansi": 7376,
      "ĠÃ¬bÃ²": 7377,
      "',": 7378,
      "ĠIbeere": 7379,
      "Ġsanra": 7380,
      "kÃ³so": 7381,
      "lÃ¶": 7382,
      "rence": 7383,
      "Ġáº¹nyin": 7384,
      "DM": 7385,
      "á»įsáº¹": 7386,
      "Ġce": 7387,
      "Ġáº¸mi": 7388,
      "ĠÃĮwá»į": 7389,
      "Ġisele": 7390,
      "tarigi": 7391,
      "TUN": 7392,
      "cc": 7393,
      "jÃ©": 7394,
      "Ġtalenti": 7395,
      "ĠWest": 7396,
      "Ġbáº¹wáº¹": 7397,
      "Ġ33": 7398,
      "Ġiyen": 7399,
      "ĠPVC": 7400,
      "Ġfilasi": 7401,
      "sere": 7402,
      "Ġtura": 7403,
      "ridge": 7404,
      "ĠÙĬ": 7405,
      "Ġgeo": 7406,
      "Ġhim": 7407,
      "Ipari": 7408,
      "gna": 7409,
      "yemi": 7410,
      "Ġjáº¹ki": 7411,
      "rÃŃa": 7412,
      "ens": 7413,
      "Ġfoomu": 7414,
      "Ġeekaderi": 7415,
      "Ġadanu": 7416,
      "bility": 7417,
      "Ġtá»įrá»į": 7418,
      "Ġkikankikan": 7419,
      "Ġsy": 7420,
      "Ġkalokalo": 7421,
      "laka": 7422,
      "ĠKar": 7423,
      "Ġopolo": 7424,
      "Ġsmartwatch": 7425,
      "Eleyi": 7426,
      "Nkan": 7427,
      "mine": 7428,
      "Ġtri": 7429,
      "à¤¬": 7430,
      "Ġans": 7431,
      "áĭ³": 7432,
      "pany": 7433,
      "Ġifá»įrá»įwaniláº¹nuwo": 7434,
      "áĥ": 7435,
      "ĠwÃ³": 7436,
      "telaiti": 7437,
      "KU": 7438,
      "Ġtoonu": 7439,
      "ĠFer": 7440,
      "áī±": 7441,
      "ĠmÃºláº¹": 7442,
      "ĠÃ¬báº¹": 7443,
      "Ġatagba": 7444,
      "ĠIjáº¹": 7445,
      "here": 7446,
      "pupu": 7447,
      "ĠAkoonu": 7448,
      "ĠPrime": 7449,
      "Ġwapá»į": 7450,
      "ĠÃ¬b": 7451,
      "á¹£iiri": 7452,
      "ĠOre": 7453,
      "ĠSur": 7454,
      "ĠAtunwo": 7455,
      "https": 7456,
      "Ã¬sÃ¬": 7457,
      "ĠgbÃ³Ã²gÃ¬": 7458,
      "Ġatunwo": 7459,
      "bro": 7460,
      "ija": 7461,
      "Ġnwá»įle": 7462,
      "undation": 7463,
      "ket": 7464,
      "jÃºtÃ³": 7465,
      "Ġsatáº¹laiti": 7466,
      "Ná»įmba": 7467,
      "Ġewa": 7468,
      "hine": 7469,
      "ĠHol": 7470,
      "dÃłn": 7471,
      "Ġwun": 7472,
      "Ġolubere": 7473,
      "Ġibanisá»įrá»į": 7474,
      "veatrain": 7475,
      "Ġjáº¹bi": 7476,
      "Ġ360": 7477,
      "ĠMy": 7478,
      "honu": 7479,
      "ĠLaw": 7480,
      "ĠÙĩ": 7481,
      "ĠOlootu": 7482,
      "ĠAtiku": 7483,
      "ĠAquarius": 7484,
      "ĠSpe": 7485,
      "lands": 7486,
      "ĠOlupese": 7487,
      "ure": 7488,
      "ĠCF": 7489,
      "Ade": 7490,
      "urs": 7491,
      "áįį": 7492,
      "ĠTorÃŃ": 7493,
      "Ã£o": 7494,
      "cture": 7495,
      "Ø²": 7496,
      "ĠmAh": 7497,
      "mitoro": 7498,
      "Ġaká»įroyin": 7499,
      "Ġano": 7500,
      "ÙĨØ¯": 7501,
      "lopinpin": 7502,
      "bomire": 7503,
      "NÃŃnÃº": 7504,
      "gbese": 7505,
      "Ġdabobo": 7506,
      "ĠAnti": 7507,
      "CH": 7508,
      "ĠEU": 7509,
      "lailopinpin": 7510,
      "Igbese": 7511,
      "Ġpáº¹láº¹páº¹láº¹": 7512,
      "Ġalaragbayida": 7513,
      "ade": 7514,
      "tone": 7515,
      "dira": 7516,
      "Ġback": 7517,
      "ĠÃłyÃŃ": 7518,
      "Ġibadi": 7519,
      "ĠUN": 7520,
      "ĠJona": 7521,
      "ĠAlha": 7522,
      "Ġprocessing": 7523,
      "ĠOdun": 7524,
      "stall": 7525,
      "mpili": 7526,
      "Ġengine": 7527,
      "tian": 7528,
      "ĠAmerika": 7529,
      "gÃ©": 7530,
      "gni": 7531,
      "Ġola": 7532,
      "Ġbrand": 7533,
      "báº¹wáº¹": 7534,
      "saveatrain": 7535,
      "Ġsupport": 7536,
      "Ġitáº¹ka": 7537,
      "ëĭ¤": 7538,
      "ĠNAA": 7539,
      "Ġdakáº¹": 7540,
      "ĠJimá»į": 7541,
      "Ġagbebá»įn": 7542,
      "ĠItanna": 7543,
      "lolobo": 7544,
      "%,": 7545,
      "chan": 7546,
      "igbimá»į": 7547,
      "Ûİ": 7548,
      "ĊĊ": 7549,
      "tia": 7550,
      "Ġjiá¹£áº¹": 7551,
      "ÌĢ,+": 7552,
      "kaido": 7553,
      "jÃ¬n": 7554,
      "light": 7555,
      "Ġajakale": 7556,
      "Ġá¹£aa": 7557,
      "ĠnÃŃlÃ¹Ãº": 7558,
      "vers": 7559,
      "à¸£": 7560,
      "áĮ¥": 7561,
      "ĠEnglish": 7562,
      "ns": 7563,
      "ĠohunkÃ³hun": 7564,
      "Ġeniti": 7565,
      "Ġiwá»įde": 7566,
      "Ġbiotilejepe": 7567,
      "Ġkatalogi": 7568,
      "ĠOrisun": 7569,
      "chester": 7570,
      "Oun": 7571,
      "Ġodaran": 7572,
      "ĠESP": 7573,
      "Ġatako": 7574,
      "ĠKano": 7575,
      "mple": 7576,
      "à¹Ģ": 7577,
      "ming": 7578,
      "ĠÃ¬mÃº": 7579,
      "49": 7580,
      "lorun": 7581,
      "dust": 7582,
      "Ġprodu": 7583,
      "dinlá»įgbá»įn": 7584,
      "esti": 7585,
      "Ġologba": 7586,
      "alth": 7587,
      "Ġá¹£Ã¡Ã¡jÃº": 7588,
      "ĠOffice": 7589,
      "ĠWhi": 7590,
      "ĠImudara": 7591,
      "lifi": 7592,
      "ĠIdahun": 7593,
      "ĠIpari": 7594,
      "Lá»įwá»įlá»įwá»į": 7595,
      "nd": 7596,
      "Ġæ": 7597,
      "Ġnii": 7598,
      "ĠMá»įn": 7599,
      "Ġá¹¢ii": 7600,
      "ĠmÃŃrÃłn": 7601,
      "Ġabout": 7602,
      "ĠAkuráº¹": 7603,
      "Ġsitáº¹riá»įdu": 7604,
      "pping": 7605,
      "sey": 7606,
      "ĠTho": 7607,
      "à¸Ń": 7608,
      "ĠlÃ¡Ãłrin": 7609,
      "Ġiyáº¹fun": 7610,
      "ĠGam": 7611,
      "Ġà¤¯": 7612,
      "Ġelegbogi": 7613,
      "Ġimototo": 7614,
      "Dajudaju": 7615,
      "Ġjokoo": 7616,
      "Ikáº¹ká»į": 7617,
      "agbara": 7618,
      "nue": 7619,
      "Ġagbekale": 7620,
      "ĠlÃ¡yÃ©": 7621,
      "ĠImeeli": 7622,
      "IlÃ©": 7623,
      "mÃ©": 7624,
      "Ġadanwo": 7625,
      "deede": 7626,
      "ĠStre": 7627,
      "dÃłÃ¡": 7628,
      "igba": 7629,
      "ĠGene": 7630,
      "eek": 7631,
      "ĠDudu": 7632,
      "sus": 7633,
      "olumulo": 7634,
      "Ġkeyboard": 7635,
      "ĠAWON": 7636,
      "ĠNÃį": 7637,
      "ĠÃĴtÃŃtá»į": 7638,
      "Press": 7639,
      "odo": 7640,
      "Ķ×": 7641,
      "Ġlalailopinpin": 7642,
      "gbaja": 7643,
      "mia": 7644,
      "sáº¹hin": 7645,
      "Ġibikibi": 7646,
      "ĠØ¹": 7647,
      "Ġorule": 7648,
      "ìĿĦ": 7649,
      "ìĹĲ": 7650,
      "SA": 7651,
      "ĠEd": 7652,
      "Ġsawá»įn": 7653,
      "Ġafáº¹sodi": 7654,
      "ĠFá»įwá»įkan": 7655,
      "ĠFaith": 7656,
      "ela": 7657,
      "lution": 7658,
      "polowo": 7659,
      "Ġeerun": 7660,
      "Titi": 7661,
      "rent": 7662,
      "ĠACM": 7663,
      "Ġder": 7664,
      "ĠVal": 7665,
      "Ġtitele": 7666,
      "pako": 7667,
      "Ġipalá»įlá»į": 7668,
      "ĠÃ²pÃ³": 7669,
      "Ġifasiláº¹": 7670,
      "Ġbaramu": 7671,
      "ĠðŁ": 7672,
      "Ġtime": 7673,
      "Ġtawon": 7674,
      "Ġtuka": 7675,
      "Ġaá¹£ÃłwÃ¡kiri": 7676,
      "ĠÃłá¹£e": 7677,
      "kÃłnlÃ¡": 7678,
      "ĠUSA": 7679,
      "Ġbrown": 7680,
      "ĠIce": 7681,
      "ĠOut": 7682,
      "ĠLord": 7683,
      "urÃº": 7684,
      "HC": 7685,
      "ĶáĪŃ": 7686,
      "Ġikawe": 7687,
      "ĠjÃ¬": 7688,
      "Ġesun": 7689,
      "ween": 7690,
      "à¤¥": 7691,
      "ÃĪyÃŃ": 7692,
      "ssi": 7693,
      "áº¹mu": 7694,
      "Ġnjáº¹": 7695,
      "Ġeefun": 7696,
      "ĠWiwá»įle": 7697,
      "ford": 7698,
      "ĠolÃºkÃºlÃ¹kÃ¹": 7699,
      "Ġesta": 7700,
      "Ġbibáº¹ká»į": 7701,
      "lÃŃÃ¬": 7702,
      "Ġmen": 7703,
      "gira": 7704,
      "áĪ±": 7705,
      "bÃ¡ni": 7706,
      "Pass": 7707,
      "Ġaka": 7708,
      "ĠÃłsá»į": 7709,
      "Ġturari": 7710,
      "kkaido": 7711,
      "pper": 7712,
      "rity": 7713,
      "ĠIfa": 7714,
      "Ġtesiwaju": 7715,
      "Ġirungbá»įn": 7716,
      "Ġiá¹£ootá»į": 7717,
      "Ġtáº¹áº¹ráº¹": 7718,
      "rÃºurÃº": 7719,
      "Ġpolye": 7720,
      "Ġopa": 7721,
      "áĮįáĭļ": 7722,
      "Ġaquari": 7723,
      "ĠMAA": 7724,
      "ĠIá¹£áº¹gun": 7725,
      "áĬłáī¥áĪ": 7726,
      "Agbegbe": 7727,
      "idaraya": 7728,
      "raw": 7729,
      "ĠIjoba": 7730,
      "ĠgbÃ¨": 7731,
      "ĠSil": 7732,
      "Ġ2009": 7733,
      "logoji": 7734,
      "Ġnso": 7735,
      "lub": 7736,
      "ĠNiwon": 7737,
      "Ġtur": 7738,
      "áĮįáĭļáĬłáī¥áĪ": 7739,
      "AI": 7740,
      "cing": 7741,
      "ĠSKALE": 7742,
      "Ġmimo": 7743,
      "Ġidaláº¹nu": 7744,
      "ĠÃ²nÃŃ": 7745,
      "Ġá¹¢awari": 7746,
      "áĮįáĭļáĬłáī¥áĪĶáĪŃ": 7747,
      "Ġigbehin": 7748,
      "gos": 7749,
      "mÃ²": 7750,
      "gbamu": 7751,
      "dena": 7752,
      "ĠÃłdÃºrÃł": 7753,
      "list": 7754,
      "Ġonimo": 7755,
      "Ġsuuru": 7756,
      "kers": 7757,
      "Ġajohun": 7758,
      "Tok": 7759,
      "ader": 7760,
      "ê³": 7761,
      "bakar": 7762,
      "ĠhÃ¹": 7763,
      "gles": 7764,
      "riniini": 7765,
      "faa": 7766,
      "ŀ×": 7767,
      "lass": 7768,
      "Ġolufara": 7769,
      "Ġá¹£iá¹£akoso": 7770,
      "Ġkáº¹ká»įá»į": 7771,
      "Ġapere": 7772,
      "ĠÃłká»įsÃŃláº¹": 7773,
      "ĠFoundation": 7774,
      "Iroyin": 7775,
      "ĠÃĪkÃ³": 7776,
      "ĠJeki": 7777,
      "riniinitutu": 7778,
      "Amá»į": 7779,
      "DO": 7780,
      "torial": 7781,
      "Ġ120": 7782,
      "chen": 7783,
      "Ġaburo": 7784,
      "à¹ī": 7785,
      "CT": 7786,
      "Ġah": 7787,
      "Ġng": 7788,
      "Ġosunwon": 7789,
      "Ġbikita": 7790,
      "ĠGreen": 7791,
      "eer": 7792,
      "Ġonje": 7793,
      "ĠDutch": 7794,
      "yon": 7795,
      "Ġdana": 7796,
      "ĠPy": 7797,
      "ĠYu": 7798,
      "Ġ2008": 7799,
      "ĠipÃ¡": 7800,
      "ĠSam": 7801,
      "ĠCE": 7802,
      "lÃ³wÃ³": 7803,
      "adi": 7804,
      "Ġiyanju": 7805,
      "didun": 7806,
      "hesives": 7807,
      "Ġtweak": 7808,
      "Ġarufin": 7809,
      "fÃ¬": 7810,
      "Ġboolu": 7811,
      "par": 7812,
      "ĠÃłjÃł": 7813,
      "Ġjiju": 7814,
      "á¹¢eun": 7815,
      "ĠSemalt": 7816,
      "ĠCuper": 7817,
      "Ġaquarium": 7818,
      "Mar": 7819,
      "Ġevery": 7820,
      "Ġferese": 7821,
      "ĠOunjáº¹": 7822,
      "ĠAkÃŃn": 7823,
      "luti": 7824,
      "Ġsk": 7825,
      "Ġparun": 7826,
      "ĠWáº¹": 7827,
      "lanfani": 7828,
      "dÃŃÃ²": 7829,
      "01": 7830,
      "bora": 7831,
      "táº¹áº¹": 7832,
      "mate": 7833,
      "nology": 7834,
      "ĠHarry": 7835,
      "sk": 7836,
      "moti": 7837,
      "Ġlaiyara": 7838,
      "Bá»į": 7839,
      "Já»Į": 7840,
      "muni": 7841,
      "ĠodÃ²": 7842,
      "dam": 7843,
      "Ġoniye": 7844,
      "Ġikorira": 7845,
      "ĠojÃºewÃ©": 7846,
      "Ibadan": 7847,
      "ĠCupertino": 7848,
      "Ranti": 7849,
      "Ġijomitoro": 7850,
      "ĠAká»įká»į": 7851,
      "ĠCentral": 7852,
      "BS": 7853,
      "Ġiá¹£áº¹gun": 7854,
      "ester": 7855,
      "Ġkáº¹fa": 7856,
      "ĠrÃł": 7857,
      "ĠWiFi": 7858,
      "bÃłdÃłn": 7859,
      "Ġiráº¹wáº¹si": 7860,
      "ĠSal": 7861,
      "Ġrogodo": 7862,
      "ĠSystem": 7863,
      "48": 7864,
      "Ġdanu": 7865,
      "ĠsÉĽ": 7866,
      "liam": 7867,
      "Ġiboji": 7868,
      "ĠHokkaido": 7869,
      "Awo": 7870,
      "Ġemail": 7871,
      "ĠIpe": 7872,
      "ĠIá¹£i": 7873,
      "ĠPol": 7874,
      "Ġonisowo": 7875,
      "Ġiá¹£elu": 7876,
      "Ġifibá»į": 7877,
      "cking": 7878,
      "Ġisisiyi": 7879,
      "Ġgiramu": 7880,
      "bio": 7881,
      "goni": 7882,
      "pupá»į": 7883,
      "Ġatáº¹we": 7884,
      "Ġiyá»įkuro": 7885,
      "ĠLatin": 7886,
      "Ġ75": 7887,
      "Ġáĭ«": 7888,
      "Fifi": 7889,
      "dÃ¡nwÃ²": 7890,
      "ĠBÃ¡wo": 7891,
      "Ġteepu": 7892,
      "gia": 7893,
      "Ġmal": 7894,
      "gÃ³": 7895,
      "Ġá»įdarÃłn": 7896,
      "ĠAso": 7897,
      "gÃł": 7898,
      "lot": 7899,
      "ĠgÃ³mÃ¬nÃł": 7900,
      "ĠPra": 7901,
      "Ġlairotáº¹láº¹": 7902,
      "Ġluláº¹": 7903,
      "ĠÉĶ": 7904,
      "ĠSS": 7905,
      "Ġbibajáº¹": 7906,
      "yinka": 7907,
      "ĠMichael": 7908,
      "IV": 7909,
      "Ø£": 7910,
      "Ġtro": 7911,
      "Ġwhen": 7912,
      "Ġibigbogbo": 7913,
      "ĠØ³": 7914,
      "gbele": 7915,
      "ĠLenovo": 7916,
      "Ġoluyaworan": 7917,
      "táº¹jade": 7918,
      "kereke": 7919,
      "pupo": 7920,
      "dÃłs": 7921,
      "Ġqui": 7922,
      "Ġaringbungbun": 7923,
      "ĠØ§Ø": 7924,
      "Ġibaamu": 7925,
      "star": 7926,
      "ĠiÅ¡ipopada": 7927,
      "nabis": 7928,
      "Ġalafaramo": 7929,
      "Ġjibiti": 7930,
      "ĠLos": 7931,
      "Ġiyani": 7932,
      "ĠTok": 7933,
      "Ġimugboroosi": 7934,
      "He": 7935,
      "Ġapá»įn": 7936,
      "Ġpamo": 7937,
      "Ġá»Įwá»į": 7938,
      "Ġtootá»į": 7939,
      "Ġska": 7940,
      "Ġaafin": 7941,
      "Ġaá¹£Ã¡Ã¡jÃº": 7942,
      "kuwo": 7943,
      "mor": 7944,
      "ĠPese": 7945,
      "Ġaláº¹má»į": 7946,
      "Ġbaluwe": 7947,
      "ject": 7948,
      "Iwá»įnyi": 7949,
      "ĠMinisita": 7950,
      "Ġwhich": 7951,
      "lag": 7952,
      "ĠÃ¨so": 7953,
      "DI": 7954,
      "Ġnife": 7955,
      "enti": 7956,
      "ĠMose": 7957,
      "ĠAdebá»įla": 7958,
      "sten": 7959,
      "nÃ¬ÃŃ": 7960,
      "Ġafa": 7961,
      "ĠAto": 7962,
      "Ġ34": 7963,
      "ĠWikipedia": 7964,
      "!\"": 7965,
      "ĠTá»įki": 7966,
      "ĠlÃ¡Ã©": 7967,
      "Ġisonu": 7968,
      "ĠElect": 7969,
      "HD": 7970,
      "Tra": 7971,
      "Ġgran": 7972,
      "ĠÃ²dodo": 7973,
      "Ġzodiac": 7974,
      "WC": 7975,
      "Ġoga": 7976,
      "yafi": 7977,
      "ĠKey": 7978,
      "Ġáº¹dá»įfu": 7979,
      "Ġeri": 7980,
      "gbooro": 7981,
      "Ġsang": 7982,
      "Ġiparada": 7983,
      "sp": 7984,
      "ëĬ": 7985,
      "Ġalso": 7986,
      "ĠLLC": 7987,
      "áĪļ": 7988,
      "via": 7989,
      "ÌĢ.âĢĿ": 7990,
      "ĠService": 7991,
      "One": 7992,
      "moo": 7993,
      "zy": 7994,
      "Ġtire": 7995,
      "ĠApa": 7996,
      "alls": 7997,
      "áĭĪ": 7998,
      "Ø§Ùħ": 7999,
      "Ġeranko": 8000,
      "Ajá»į": 8001,
      "tzer": 8002,
      "Ġá»įkÃł": 8003,
      "Ġ99": 8004,
      "ĠArse": 8005,
      "Ha": 8006,
      "tto": 8007,
      "Ġewi": 8008,
      "ranti": 8009,
      "ball": 8010,
      "Ġrá»įrÃ¹n": 8011,
      "Ġawada": 8012,
      "reat": 8013,
      "ĠItaly": 8014,
      "38": 8015,
      "Atiláº¹yin": 8016,
      "Ġtiketi": 8017,
      "Ġakosile": 8018,
      "Ġidin": 8019,
      "Ġigbekele": 8020,
      "ceta": 8021,
      "ĠZi": 8022,
      "ĠTani": 8023,
      "ciation": 8024,
      "RU": 8025,
      "sse": 8026,
      "last": 8027,
      "Ġlera": 8028,
      "ĠÃĮgbÃł": 8029,
      "75": 8030,
      "banujáº¹": 8031,
      "taa": 8032,
      "udi": 8033,
      "Ġpetele": 8034,
      "ĠOnÃŃ": 8035,
      "Ġinfo": 8036,
      "Awá»į": 8037,
      "kaa": 8038,
      "Ġá»įná»į": 8039,
      "Ġlarin": 8040,
      "arn": 8041,
      "mbot": 8042,
      "ĠMohammed": 8043,
      "Qu": 8044,
      "ráº¹láº¹": 8045,
      "tiriki": 8046,
      "ìĿ´": 8047,
      "ĠÃłÃ¡rÃŃn": 8048,
      "yÃŃn": 8049,
      "rit": 8050,
      "das": 8051,
      "Ġaá¹£iwe": 8052,
      "Ġhakii": 8053,
      "Baba": 8054,
      "ĠAbubakar": 8055,
      "Ġaá¹£iwere": 8056,
      "ĠÃ¡n": 8057,
      "Ġá»įriniinitutu": 8058,
      "Ġlaya": 8059,
      "ĠCi": 8060,
      "Ġriráº¹": 8061,
      "ari": 8062,
      "mg": 8063,
      "pÃ¬": 8064,
      "ĠlÃ¡wá»įn": 8065,
      "cel": 8066,
      "ĠIlá»įrin": 8067,
      "ĠMaa": 8068,
      "Ø®": 8069,
      "ĠIdo": 8070,
      "Ġikopa": 8071,
      "Ġarekereke": 8072,
      "tting": 8073,
      "Ġother": 8074,
      "ĠIt": 8075,
      "ĠMaria": 8076,
      "ĠEyikeyi": 8077,
      "à¹Ī": 8078,
      "jini": 8079,
      "Ġsokiri": 8080,
      "mero": 8081,
      "Ġifaworanhan": 8082,
      "Ġther": 8083,
      "KÃ²": 8084,
      "fÃ¹": 8085,
      "Ġojuá¹£e": 8086,
      "ĠÃ¤": 8087,
      "horo": 8088,
      "Yan": 8089,
      "Ġspins": 8090,
      "ĠÃ¬lera": 8091,
      "Ġselifu": 8092,
      "lasma": 8093,
      "ĠÃ¬rÃ¨tÃŃ": 8094,
      "Ġaila": 8095,
      "Ġmáº¹waa": 8096,
      "ipari": 8097,
      "Ġosere": 8098,
      "ĠÃłrÃŃ": 8099,
      "Ġalabojuto": 8100,
      "Ġaladugbo": 8101,
      "Ġidasi": 8102,
      "Ġmabomire": 8103,
      "áīħ": 8104,
      "ĠPaul": 8105,
      "Ġláº¹áº¹meji": 8106,
      "Ġlas": 8107,
      "dal": 8108,
      "ĠIfara": 8109,
      "Ġkebulu": 8110,
      "ĠØ´": 8111,
      "kÃŃtÃł": 8112,
      "ata": 8113,
      "Ġoyi": 8114,
      "ĠEshitisii": 8115,
      "Ġá¹£apejuwe": 8116,
      "Ġchocolate": 8117,
      "iya": 8118,
      "itan": 8119,
      "ĠAll": 8120,
      "ladi": 8121,
      "Nigbamii": 8122,
      "Ġiwokuwo": 8123,
      "Itá»įju": 8124,
      "Ġijumá»įsá»įrá»į": 8125,
      "ĠTUN": 8126,
      "áįĪ": 8127,
      "ĠIgbakeji": 8128,
      "Ero": 8129,
      "Ãª": 8130,
      "Ġbawá»įn": 8131,
      "ĠPrin": 8132,
      "Ġnigbami": 8133,
      "ĠRá»į": 8134,
      "ĠÐ¸": 8135,
      "TU": 8136,
      "Ġnidii": 8137,
      "Ġsur": 8138,
      "jaja": 8139,
      "miá¹£an": 8140,
      "ĠLakotan": 8141,
      "Ġapk": 8142,
      "Ð»": 8143,
      "wá»įnsáº¹": 8144,
      "ĠÃ¬pinnu": 8145,
      "Ġpuppy": 8146,
      "duction": 8147,
      "ĠAnfani": 8148,
      "ING": 8149,
      "Ġlaileto": 8150,
      "Ġigbá»įran": 8151,
      "kese": 8152,
      "duna": 8153,
      "Ġaboyun": 8154,
      "Ġidina": 8155,
      "sters": 8156,
      "ĠIsraeli": 8157,
      "Pods": 8158,
      "Aaráº¹": 8159,
      "Ai": 8160,
      "Agbáº¹": 8161,
      "Ġcol": 8162,
      "Ġ195": 8163,
      "Ġdownload": 8164,
      "Ġmá»įkan": 8165,
      "Ġuse": 8166,
      "ĠManchester": 8167,
      "Ġpáº¹láº¹báº¹": 8168,
      "gger": 8169,
      "Ġob": 8170,
      "ĠAbáº¹okuta": 8171,
      "Nibo": 8172,
      "Ġnitoripe": 8173,
      "jÃºwe": 8174,
      "Ġifáº¹hinti": 8175,
      "ĠÃ¬gbÃ©yÃłwÃ³": 8176,
      "Ġultrasonic": 8177,
      "ĠÃ¬jÃ¡pá»į": 8178,
      "Yoo": 8179,
      "Ġemo": 8180,
      "ĠArÃ¡": 8181,
      "ĠMail": 8182,
      "cher": 8183,
      "Ġolufaragba": 8184,
      "Ġtijá»įba": 8185,
      "ĠRáº¸": 8186,
      "Ġhttp": 8187,
      "ĠZodiac": 8188,
      "Ġá»Įjá»įbá»į": 8189,
      "unifa": 8190,
      "miá¹£anna": 8191,
      "95": 8192,
      "jan": 8193,
      "ĠNÃŃnÃº": 8194,
      "ĠkÃ¡wá»įn": 8195,
      "goridimu": 8196,
      "ĠDisney": 8197,
      "Ġlife": 8198,
      "Ġcou": 8199,
      "ALAROYE": 8200,
      "Ġil": 8201,
      "Ġpra": 8202,
      "ĠlÃ¡gbÃ¡ra": 8203,
      "áĭ²": 8204,
      "Ġibukun": 8205,
      "ĠRepu": 8206,
      "fÃŃdÃ¬": 8207,
      "ĠTABI": 8208,
      "Ijá»įba": 8209,
      "Ġá¹£Ã¡": 8210,
      "ĠSen": 8211,
      "ĠSci": 8212,
      "Ġà¤µ": 8213,
      "Ġwura": 8214,
      "ĠpÃłdÃ©": 8215,
      "ĠMÃ³sÃ¨": 8216,
      "fs": 8217,
      "Ġnduro": 8218,
      "view": 8219,
      "ĠSARS": 8220,
      "ĠijÃ³": 8221,
      "ĠEni": 8222,
      "Ġká»įláº¹": 8223,
      "Ġá»įmá»įdÃ©": 8224,
      "ĠGBOGBO": 8225,
      "ĠEjibiti": 8226,
      "Ġmay": 8227,
      "Ġsese": 8228,
      "ĠWipe": 8229,
      "ĠkÃ©rÃ©": 8230,
      "ĠTikTok": 8231,
      "Ex": 8232,
      "NU": 8233,
      "Ġç": 8234,
      "Ġlopo": 8235,
      "ĠÃłgbÃ©": 8236,
      "ĠSpi": 8237,
      "ĠIá¹£oro": 8238,
      "Ġajáº¹sara": 8239,
      "Ġcyber": 8240,
      "Ġipeja": 8241,
      "ĠNokia": 8242,
      "Ġijáº¹áº¹mu": 8243,
      "wÃłÃ¡sÃ¹": 8244,
      "pÃŃnláº¹": 8245,
      "ĠGT": 8246,
      "ĠCham": 8247,
      "Ġáº¹láº¹á¹£in": 8248,
      "ĠFranci": 8249,
      "áº¹sáº¹": 8250,
      "dolu": 8251,
      "Ġsabe": 8252,
      "HO": 8253,
      "Ġdira": 8254,
      "ĠGÃŃ": 8255,
      "ĠÃ²Ã²": 8256,
      "stle": 8257,
      "ĠChrist": 8258,
      "yorisi": 8259,
      "Ġá»įlaju": 8260,
      "Ġà¤ªà¤°": 8261,
      "Sugbon": 8262,
      "sowá»įpá»į": 8263,
      "Du": 8264,
      "ĠyÃ¬n": 8265,
      "biri": 8266,
      "ĠIriri": 8267,
      "ĠSP": 8268,
      "joko": 8269,
      "unifasiti": 8270,
      "Ġagutan": 8271,
      "Ġá»įgbÃł": 8272,
      "ĠSpotify": 8273,
      "Ġlá»įrun": 8274,
      "Ġaafo": 8275,
      "ĠFayo": 8276,
      "ĠAlaga": 8277,
      "à¸ĩ": 8278,
      "Ġalupupu": 8279,
      "Ġá»Įbasanjá»į": 8280,
      "thium": 8281,
      "ĠNorth": 8282,
      "Ġfai": 8283,
      "ĠJan": 8284,
      "Ġpote": 8285,
      "zee": 8286,
      "Â®": 8287,
      "Ġza": 8288,
      "Ġaito": 8289,
      "art": 8290,
      "Ġimolara": 8291,
      "Ġogbontarigi": 8292,
      "ĠMus": 8293,
      "Ã¨re": 8294,
      "Ġká»įju": 8295,
      "ĠÃ²kun": 8296,
      "Ġdubuláº¹": 8297,
      "Ġvol": 8298,
      "yÃ¨sÃŃ": 8299,
      "à¥ĭà¤Ĥ": 8300,
      "Ġiyaniláº¹nu": 8301,
      "mina": 8302,
      "ĳ×": 8303,
      "dition": 8304,
      "Ġtalaka": 8305,
      "Ġibanuje": 8306,
      "bel": 8307,
      "á¹£ayáº¹wo": 8308,
      "Ġ2007": 8309,
      "Mac": 8310,
      "Ġhydra": 8311,
      "Gege": 8312,
      "Ġatike": 8313,
      "Ġkofi": 8314,
      "ĠSp": 8315,
      "Ġáº¹láº¹dáº¹": 8316,
      "etro": 8317,
      "Ġisá»įdá»įkan": 8318,
      "Ġiá¹£agbe": 8319,
      "ĠRoman": 8320,
      "34": 8321,
      "Agba": 8322,
      "Ġnyorisi": 8323,
      "ĠIbáº¹ráº¹": 8324,
      "ĠRF": 8325,
      "ĠDÃ¡fÃŃdÃ¬": 8326,
      "Je": 8327,
      "ston": 8328,
      "Ġsquare": 8329,
      "ĠÃłwÃ¹já»į": 8330,
      "ĠBig": 8331,
      "fes": 8332,
      "Ġatá»į": 8333,
      "ream": 8334,
      "teru": 8335,
      "ĠVan": 8336,
      "Ġbakannaa": 8337,
      "minu": 8338,
      "ĠbÃ²": 8339,
      "ráº¹ráº¹": 8340,
      "rish": 8341,
      "BÃŃbÃ©lÃ¬": 8342,
      "ĠPortu": 8343,
      "Ġrobot": 8344,
      "ctu": 8345,
      "Ġtitani": 8346,
      "Ġáº¹san": 8347,
      "pers": 8348,
      "sori": 8349,
      "ĠKamáº¹ra": 8350,
      "ĠUSD": 8351,
      "mmer": 8352,
      "Ġráº¹rin": 8353,
      "Ġget": 8354,
      "stri": 8355,
      "900": 8356,
      "ira": 8357,
      "á¹¢áº¸": 8358,
      "vie": 8359,
      "ĠAiku": 8360,
      "AP": 8361,
      "ĠÇ¸jáº¹": 8362,
      "nigba": 8363,
      "ĠGbá»į": 8364,
      "ĠHun": 8365,
      "keredolu": 8366,
      "ĠMeji": 8367,
      "ĠJohan": 8368,
      "ĠajohunÅ¡e": 8369,
      "Ġtiw": 8370,
      "kata": 8371,
      "ĠKÃ¡": 8372,
      "táº¹kun": 8373,
      "Ġonigi": 8374,
      "Ġifarabaláº¹": 8375,
      "Ġwork": 8376,
      "Ġebun": 8377,
      "ĠStudio": 8378,
      "JE": 8379,
      "LG": 8380,
      "náº¹": 8381,
      "Ġnbeere": 8382,
      "ĠbÃ¹": 8383,
      "lica": 8384,
      "Ġdarapo": 8385,
      "yaafin": 8386,
      "ĠWordPress": 8387,
      "Con": 8388,
      "Ġimudani": 8389,
      "velo": 8390,
      "ĠLeague": 8391,
      "fen": 8392,
      "lÃºÃ¹": 8393,
      "ĠJames": 8394,
      "tni": 8395,
      "ĠIyan": 8396,
      "stru": 8397,
      "Ø§ÙĪ": 8398,
      "ations": 8399,
      "ĠonÃŃrÃºurÃº": 8400,
      "à¹Ģà¸": 8401,
      "ĠYara": 8402,
      "Ġinudidun": 8403,
      "ĠKaduna": 8404,
      "lÃ²pá»į": 8405,
      "Ġauto": 8406,
      "Ġafá»įju": 8407,
      "bble": 8408,
      "Ġfani": 8409,
      "pop": 8410,
      "ĠKon": 8411,
      "Ġthere": 8412,
      "ĠCoun": 8413,
      "ĠAlaafin": 8414,
      "tzerland": 8415,
      "Ġvitamin": 8416,
      "Ã³nÃ¡": 8417,
      "shington": 8418,
      "Ġanswers": 8419,
      "agutan": 8420,
      "Ã¦": 8421,
      "ĠAsa": 8422,
      "Ġfarapa": 8423,
      "look": 8424,
      "ĠosÃ¹": 8425,
      "Ġnit": 8426,
      "Ġwatch": 8427,
      "ĠSanwo": 8428,
      "TION": 8429,
      "eyin": 8430,
      "Â«": 8431,
      "Ġik": 8432,
      "Ġsto": 8433,
      "ĠsÃŃlÃ©": 8434,
      "Dokita": 8435,
      "Ġop": 8436,
      "rex": 8437,
      "ĠTor": 8438,
      "ĠBakannaa": 8439,
      "ĠOá¹£o": 8440,
      "TP": 8441,
      "Ġlaanu": 8442,
      "Ã²kÃ¨": 8443,
      "ĠCup": 8444,
      "á»įba": 8445,
      "ÃŃa": 8446,
      "ĠApakan": 8447,
      "Ġáº¹rin": 8448,
      "nus": 8449,
      "ĠStan": 8450,
      "ĠÃ²ye": 8451,
      "ĠHacker": 8452,
      "ÙĪÙĨ": 8453,
      "ĠGNOME": 8454,
      "Ġalgorithm": 8455,
      "Ġlá»įkan": 8456,
      "ĠEe": 8457,
      "Ã¬nÃ¬": 8458,
      "form": 8459,
      "Ġweb": 8460,
      "ĠSchool": 8461,
      "ĠAlhaji": 8462,
      "Má»į": 8463,
      "wÃŃ": 8464,
      "Ġlagba": 8465,
      "Ġfifunni": 8466,
      "ĠJor": 8467,
      "ĠHam": 8468,
      "Ġirá»įbi": 8469,
      "craft": 8470,
      "ffe": 8471,
      "ĠOsun": 8472,
      "ĠTou": 8473,
      "ĠLee": 8474,
      "ĠFoju": 8475,
      "come": 8476,
      "ĠAlaba": 8477,
      "Ġaburu": 8478,
      "reak": 8479,
      "ĠArsenal": 8480,
      "Ise": 8481,
      "ot": 8482,
      "ĠOru": 8483,
      "wal": 8484,
      "Ġsome": 8485,
      "sai": 8486,
      "ĠlÃ³nÃ¬ÃŃ": 8487,
      "44": 8488,
      "ae": 8489,
      "Ġsiki": 8490,
      "Ġenu": 8491,
      "ĠAyika": 8492,
      "map": 8493,
      "ĠdÃ¡hÃ¹n": 8494,
      "For": 8495,
      "roni": 8496,
      "ĠÃ¬tumá»į": 8497,
      "stitu": 8498,
      "sÃ³kÃ¨": 8499,
      "Ibeere": 8500,
      "Yo": 8501,
      "Ġgbagbo": 8502,
      "ĠPU": 8503,
      "Ġolupolowo": 8504,
      "Ġfopin": 8505,
      "Wiwa": 8506,
      "Ġlitireso": 8507,
      "Ġegan": 8508,
      "tola": 8509,
      "ĠKAN": 8510,
      "Iá¹£": 8511,
      "VPN": 8512,
      "ĠihÃ²": 8513,
      "Ġtitá»įju": 8514,
      "ĠyÃ©": 8515,
      "Ġfiweraná¹£áº¹": 8516,
      "ĠBá»įla": 8517,
      "cht": 8518,
      "llet": 8519,
      "Ġknow": 8520,
      "ÃłbÃ¡": 8521,
      "ĠArun": 8522,
      "ĠItu": 8523,
      "ĠOjÃº": 8524,
      "ĠGan": 8525,
      "enna": 8526,
      "ĠpÃ¡tÃ¡pÃ¡": 8527,
      "Ġado": 8528,
      "ĠpÃ¥": 8529,
      "rush": 8530,
      "Ġglu": 8531,
      "jise": 8532,
      "Ġfáº¹sáº¹": 8533,
      "Ġiá¹£alaye": 8534,
      "Laibikita": 8535,
      "ĠÅ¡iÅ¡e": 8536,
      "á¹£Ã¡": 8537,
      "sipá»į": 8538,
      "ĠCSS": 8539,
      "pic": 8540,
      "Ã¡ÃłbÃ²": 8541,
      "Ġá¹£iá¹£ere": 8542,
      "Ġdaabo": 8543,
      "ĠÐ½": 8544,
      "Didara": 8545,
      "Ġkonge": 8546,
      "GE": 8547,
      "IA": 8548,
      "vani": 8549,
      "Ġngbaradi": 8550,
      "ĠChan": 8551,
      "Ġdogba": 8552,
      "Ġisáº¹láº¹": 8553,
      "Å¡iÅ¡áº¹": 8554,
      "Ġkilomita": 8555,
      "ĠJonathan": 8556,
      "ĠIlo": 8557,
      "ĠNini": 8558,
      "ĠÃ¬po": 8559,
      "jÃºmá»į": 8560,
      "ĠsÃ¡bÃł": 8561,
      "Ġiá¹£áº¹á¹£á»į": 8562,
      "Ġiwá»įlu": 8563,
      "Ġsatelaiti": 8564,
      "ëĬĶ": 8565,
      "ĠsÃ¹": 8566,
      "als": 8567,
      "usto": 8568,
      "TH": 8569,
      "ĠImo": 8570,
      "ĠBatiri": 8571,
      "hinrere": 8572,
      "Ġinsu": 8573,
      "orisun": 8574,
      "ĠSafari": 8575,
      "Ġdola": 8576,
      "ĠAago": 8577,
      "Ġamugbooro": 8578,
      "TÃŃ": 8579,
      "Ġter": 8580,
      "ĠAyá»į": 8581,
      "kula": 8582,
      "Ġirá»įra": 8583,
      "gÃ¹ntÃłn": 8584,
      "Ġhardware": 8585,
      "hara": 8586,
      "ugbo": 8587,
      "Ġfiwe": 8588,
      "Ġkawe": 8589,
      "Ġsatunká»į": 8590,
      "sÃŃwÃ¡jÃº": 8591,
      "Ġá»įtá»įtá»į": 8592,
      "ĠÎ": 8593,
      "Ġnjade": 8594,
      "ĠfÃ¶r": 8595,
      "Ġsai": 8596,
      "ĠFÃºn": 8597,
      "ĠWashington": 8598,
      "Ġfoun": 8599,
      "Ġileesáº¹": 8600,
      "ĠÐ¿": 8601,
      "ĠSwitzerland": 8602,
      "Å¾": 8603,
      "rey": 8604,
      "á¹£á»įlÃ¡": 8605,
      "ĠÃĴun": 8606,
      "ĠpÃ¡tÃ¡pÃ¡tÃ¡": 8607,
      "Ġtestosterone": 8608,
      "bar": 8609,
      "á»Įkunrin": 8610,
      "ĠGhana": 8611,
      "ĠNÃłÃŃ": 8612,
      "300": 8613,
      "ĠAkan": 8614,
      "Ġoluta": 8615,
      "ĠDen": 8616,
      "Ġinc": 8617,
      "Ø§ÙĬ": 8618,
      "ĠPeter": 8619,
      "Ġolopa": 8620,
      "ced": 8621,
      "Ġiláº¹má»į": 8622,
      "Ġopoiye": 8623,
      "ĠXbox": 8624,
      "ĠRadio": 8625,
      "ĠÃ¬dÃ¡ni": 8626,
      "ĠAkintá»įla": 8627,
      "ĠWilliam": 8628,
      "ĠRepublic": 8629,
      "ĠAsopá»į": 8630,
      "bic": 8631,
      "Ġisanpada": 8632,
      "Fidio": 8633,
      "ĠBá»įá»įlu": 8634,
      "ê²": 8635,
      "lopa": 8636,
      "Ġlorile": 8637,
      "Ġà¤°": 8638,
      "kisi": 8639,
      "ĠgÃ©": 8640,
      "Ġdet": 8641,
      "Ġalailanfani": 8642,
      "ĠkÃ³kÃ³": 8643,
      "rough": 8644,
      "ĠAbajade": 8645,
      "ĠAhmed": 8646,
      "ĠMá»įnde": 8647,
      "Omi": 8648,
      "Un": 8649,
      "dá»įwá»į": 8650,
      "mai": 8651,
      "ĠburÃºkÃº": 8652,
      "88": 8653,
      "fai": 8654,
      "ĠkÃ¡n": 8655,
      "rankasi": 8656,
      "ĠFarao": 8657,
      "dÃŃnlÃ³gÃºn": 8658,
      "Ġtikalararáº¹": 8659,
      "Ġfá»įn": 8660,
      "ĠlilÃ¶": 8661,
      "ĠÙ¾": 8662,
      "Ġadiresi": 8663,
      "Ġà¤ķà¤°": 8664,
      "Aaye": 8665,
      "chat": 8666,
      "bitu": 8667,
      "Ġsacri": 8668,
      "els": 8669,
      "ÙĪØ¯": 8670,
      "ĠIbaraáº¹nisá»įrá»į": 8671,
      "mulator": 8672,
      "Ġirinajo": 8673,
      "Ġimuá¹£ere": 8674,
      "ĠWay": 8675,
      "Ġ65": 8676,
      "Ġisiyi": 8677,
      "Ġibeji": 8678,
      "scope": 8679,
      "ĠAccount": 8680,
      "Ġmake": 8681,
      "lÃ¡ra": 8682,
      "Ġ''": 8683,
      "ĠYiyan": 8684,
      "Ġplay": 8685,
      "mit": 8686,
      "rÃŃá¹£i": 8687,
      "Ġmalu": 8688,
      "Ġbugbamu": 8689,
      "Ġdupe": 8690,
      "Ġpoun": 8691,
      "ĠRome": 8692,
      "Ġá¹£opá»į": 8693,
      "ĠarÃ¡bÃ¬nrin": 8694,
      "á¹£iiriá¹£ii": 8695,
      "ttoo": 8696,
      "Ġkm": 8697,
      "Ġapero": 8698,
      "llen": 8699,
      "Ġleralera": 8700,
      "37": 8701,
      "ĠIgi": 8702,
      "Ġtunse": 8703,
      "lisi": 8704,
      "ĠÃ¬kÃłn": 8705,
      "wuye": 8706,
      "Ġliláº¹": 8707,
      "Ġá¹£agbe": 8708,
      "ĠAmá»įtáº¹kun": 8709,
      "ĠNisisiyi": 8710,
      "Ġibasá»įrá»į": 8711,
      "vator": 8712,
      "nome": 8713,
      "Ġifalá»įkan": 8714,
      "Ê¼": 8715,
      "ĠyÃ²Ã³": 8716,
      "ĠOogun": 8717,
      "ĠÃłtá»į": 8718,
      "Ġtá»įsi": 8719,
      "ĠÃĮW": 8720,
      "Ġigbimo": 8721,
      "Ġifojusá»įna": 8722,
      "ĠIgbesáº¹": 8723,
      "ĠCydia": 8724,
      "Ġarugbo": 8725,
      "Bitcoin": 8726,
      "Aá¹£á»į": 8727,
      "Ġest": 8728,
      "Ã²rÃ¹n": 8729,
      "Ġawoara": 8730,
      "gic": 8731,
      "Ġrea": 8732,
      "Ġá¹£á»įá»įbu": 8733,
      "Ġnija": 8734,
      "Ġdon": 8735,
      "áĪĨ": 8736,
      "Ġoff": 8737,
      "ĠonÃŃmá»į": 8738,
      "ĠAkÃŃná¹£á»įlÃ¡": 8739,
      "Ġmalware": 8740,
      "Ġnina": 8741,
      "data": 8742,
      "Ġgal": 8743,
      "Ġkaabo": 8744,
      "ĠDown": 8745,
      "ĠHigh": 8746,
      "áī½áĪģ": 8747,
      "Ija": 8748,
      "dle": 8749,
      "mbu": 8750,
      "Ð²": 8751,
      "ìĦ": 8752,
      "Ġwoon": 8753,
      "lane": 8754,
      "ĠInc": 8755,
      "ĠWiwo": 8756,
      "ĠIfiraná¹£áº¹": 8757,
      "ĠIreland": 8758,
      "Fo": 8759,
      "Ġyapa": 8760,
      "ĠIntel": 8761,
      "ĠMusic": 8762,
      "ĠKingdom": 8763,
      "Abu": 8764,
      "dex": 8765,
      "mimá»į": 8766,
      "ĠInte": 8767,
      "ĠtÃ©": 8768,
      "pá»įlá»į": 8769,
      "Ġirira": 8770,
      "Ġund": 8771,
      "jÃŃbÃŃ": 8772,
      "Ġanime": 8773,
      "ĠAsso": 8774,
      "lsea": 8775,
      "Nu": 8776,
      "ĠAfáº¹": 8777,
      "Ġáº¹gba": 8778,
      "ÌĢ+": 8779,
      "Ġnipari": 8780,
      "ĠBin": 8781,
      "ĠSanta": 8782,
      "ĠbÃła": 8783,
      "pace": 8784,
      "ĠSO": 8785,
      "Ġmega": 8786,
      "Ġiruju": 8787,
      "ìĭ": 8788,
      "Ġnhu": 8789,
      "pari": 8790,
      "ĠÃłsÃ¬kÃ²": 8791,
      "Ġsá»įdá»į": 8792,
      "ĠáĪģ": 8793,
      "ĠwÃºrÃł": 8794,
      "ĠalejÃ²": 8795,
      "Commerce": 8796,
      "jÃŃbÃŃtÃ¬": 8797,
      "kg": 8798,
      "Ġmai": 8799,
      "kon": 8800,
      "comm": 8801,
      "Ġafefe": 8802,
      "ĠgbÃ¡dÃ¹n": 8803,
      "Ġalakobere": 8804,
      "64": 8805,
      "Atun": 8806,
      "Ofin": 8807,
      "Ġisansa": 8808,
      "Ġisiro": 8809,
      "Ġlesekese": 8810,
      "estern": 8811,
      "Ġndi": 8812,
      "á¹£Ã³": 8813,
      "Ġniya": 8814,
      "Ġpejá»į": 8815,
      "darÃŃ": 8816,
      "josita": 8817,
      "ĠRan": 8818,
      "Ġelege": 8819,
      "ĠIbamu": 8820,
      "ĠAmerican": 8821,
      "llywood": 8822,
      "ĠPink": 8823,
      "jositabulu": 8824,
      "ÄŁ": 8825,
      "wadii": 8826,
      "Ġwiwu": 8827,
      "ĠKoi": 8828,
      "ĠOdu": 8829,
      "Ġ37": 8830,
      "Ġdirafu": 8831,
      "á¹£ootá»į": 8832,
      "rate": 8833,
      "ooki": 8834,
      "bode": 8835,
      "tunde": 8836,
      "ĠFC": 8837,
      "ĠDrive": 8838,
      "Ġibá»įsáº¹": 8839,
      "pÃł": 8840,
      "alcomm": 8841,
      "ĠCovid": 8842,
      "ĠdÃºpáº¹": 8843,
      "Ġegbogi": 8844,
      "ĠOluká»įni": 8845,
      "oxi": 8846,
      "sibo": 8847,
      "Ġinstall": 8848,
      "amond": 8849,
      "Ġnjagun": 8850,
      "ĠTokyo": 8851,
      "ĠAwa": 8852,
      "Ġpay": 8853,
      "Ġlike": 8854,
      "ĠKekere": 8855,
      "Ġalamá»įran": 8856,
      "ĠÃįjÃŃbÃŃtÃ¬": 8857,
      "Ġakojopo": 8858,
      "©×": 8859,
      "lick": 8860,
      "vis": 8861,
      "Ġnew": 8862,
      "Ġasomá»į": 8863,
      "Ġadhesives": 8864,
      "ĠoÃ²rÃ¹n": 8865,
      "lá»įgá»į": 8866,
      "mium": 8867,
      "ghts": 8868,
      "Ġigbáº¹já»į": 8869,
      "ĠAirPods": 8870,
      "ĠÃłpÃ©": 8871,
      "ĠTrans": 8872,
      "duugbo": 8873,
      "áº¹áº¹kansi": 8874,
      "felopa": 8875,
      "Ġuna": 8876,
      "Moto": 8877,
      "ĠZe": 8878,
      "im": 8879,
      "bie": 8880,
      "ĠIá¹£oogun": 8881,
      "Ġdimu": 8882,
      "keting": 8883,
      "ĠBlog": 8884,
      "ropractic": 8885,
      "ĠLá»įn": 8886,
      "ĠDE": 8887,
      "Ġabáº¹nu": 8888,
      "ĠAifá»įwá»įyi": 8889,
      "Ĥĺ": 8890,
      "Ġstu": 8891,
      "lile": 8892,
      "ĠCle": 8893,
      "ĠHis": 8894,
      "Ġbusiness": 8895,
      "áĭĭ": 8896,
      "phen": 8897,
      "ĠÃ¬filá»į": 8898,
      "VD": 8899,
      "cco": 8900,
      "tare": 8901,
      "ĠBal": 8902,
      "dÃ¡já»į": 8903,
      "ĠÂ´": 8904,
      "ship": 8905,
      "Ġasopo": 8906,
      "sitireti": 8907,
      "Yiyan": 8908,
      "ĠOrÃŃláº¹": 8909,
      "zhou": 8910,
      "ĠId": 8911,
      "ĠGran": 8912,
      "Ġá¹£iá¹£atuná¹£e": 8913,
      "ĠLá»įndá»į": 8914,
      "Ġfori": 8915,
      "ros": 8916,
      "ĠGIF": 8917,
      "Ġaá¹£aju": 8918,
      "ĠDifelopa": 8919,
      "Ġorundun": 8920,
      "kwu": 8921,
      "ĠAkeredolu": 8922,
      "Ġ600": 8923,
      "Ġpipaá¹£áº¹": 8924,
      "ĠGbongbo": 8925,
      "ĠRUBO": 8926,
      "Lu": 8927,
      "ĠAsin": 8928,
      "ĠIá¹£iro": 8929,
      "Ġidajo": 8930,
      "áĪ³": 8931,
      "Ġiredodo": 8932,
      "hould": 8933,
      "ĠDaniel": 8934,
      "á¹£Ã²": 8935,
      "ĠSiri": 8936,
      "ĠDelta": 8937,
      ");": 8938,
      "Ġwel": 8939,
      "Ġkáº¹já»į": 8940,
      "jumá»įá¹£e": 8941,
      "Igbesi": 8942,
      "ĠIpolowo": 8943,
      "ĠIfÃ¡": 8944,
      "ĠCRM": 8945,
      "Ġká»įrin": 8946,
      "Ġwoye": 8947,
      "Ã¤r": 8948,
      "Ġê·¸": 8949,
      "ĠSkype": 8950,
      "sibodu": 8951,
      "ĠdidÃ¹n": 8952,
      "ĠThis": 8953,
      "Ġhelp": 8954,
      "ĠParty": 8955,
      "ĠFederal": 8956,
      "Ġmoriwu": 8957,
      "86": 8958,
      "ĠOli": 8959,
      "mir": 8960,
      "Ġfasiti": 8961,
      "ports": 8962,
      "ĠÃ²kÃºta": 8963,
      "You": 8964,
      "dri": 8965,
      "Ø°": 8966,
      "ĠMint": 8967,
      "Ġá»įdá»įá»įdun": 8968,
      "Ġorisii": 8969,
      "Ġlemá»įlemá»įfÃºn": 8970,
      "39": 8971,
      "ebu": 8972,
      "Ġtá»įwá»į": 8973,
      "ĠWhite": 8974,
      "Inu": 8975,
      "Ġagun": 8976,
      "mus": 8977,
      "Ġibisi": 8978,
      "Ġhad": 8979,
      "Ġisá»įnu": 8980,
      "Anfani": 8981,
      "ëĵ": 8982,
      "loween": 8983,
      "áĪ¥": 8984,
      "ĠBakanna": 8985,
      "city": 8986,
      "ĠLight": 8987,
      "Ġlodidi": 8988,
      "ĠLá»įndá»įnu": 8989,
      "Iá¹£a": 8990,
      "ate": 8991,
      "yÃ²": 8992,
      "rew": 8993,
      "á»Įdun": 8994,
      "Ġidawá»įle": 8995,
      "Ġmode": 8996,
      "ĠÃ¨Ã©": 8997,
      "ĠLaipáº¹": 8998,
      "fÃŃÃ¬sÃ¬": 8999,
      "hÃ¡lÃł": 9000,
      "ĠÃ¬wÃ²sÃłn": 9001,
      "baba": 9002,
      "ways": 9003,
      "ĠMai": 9004,
      "ĠÃ¬lÃ©rÃŃ": 9005,
      "Ġtáº¹mpili": 9006,
      "chu": 9007,
      "Ø§ÛĮ": 9008,
      "Ġsinte": 9009,
      "PG": 9010,
      "tage": 9011,
      "kanju": 9012,
      "ĠThai": 9013,
      "Ġawopá»į": 9014,
      "Ġagbega": 9015,
      "ned": 9016,
      "Ġlainidi": 9017,
      "ĠDIFA": 9018,
      "Ġeiyan": 9019,
      "lau": 9020,
      "Ã¬kan": 9021,
      "code": 9022,
      "Ġitage": 9023,
      "ĠfojÃº": 9024,
      "volution": 9025,
      "gÃŃ": 9026,
      "osa": 9027,
      "Ġdidanu": 9028,
      "sosi": 9029,
      "tendo": 9030,
      "Ġgbarale": 9031,
      "Au": 9032,
      "ĠÃłkÃłn": 9033,
      "Ġigbagbo": 9034,
      "ĠlÃ¡ÃłyÃ¨": 9035,
      "Ġliluho": 9036,
      "Ġlawujá»į": 9037,
      "lewon": 9038,
      "à¤ı": 9039,
      "ĠáĪµ": 9040,
      "Iyatá»į": 9041,
      "ĠChelsea": 9042,
      "ÌĢ;": 9043,
      "rink": 9044,
      "Ġbibi": 9045,
      "busitireti": 9046,
      "ĠSaint": 9047,
      "Ø±Ø¯": 9048,
      "ĠArgen": 9049,
      "Ġagbáº¹nusá»į": 9050,
      "ĠExpress": 9051,
      "ĠAkojá»į": 9052,
      "ĠFá»įá»įmu": 9053,
      "Ġidinamá»į": 9054,
      "okun": 9055,
      "uá¹£e": 9056,
      "ĠYin": 9057,
      "ĠLabáº¹": 9058,
      "ĠArabia": 9059,
      "ĠMark": 9060,
      "ĠIko": 9061,
      "ĠNA": 9062,
      "som": 9063,
      "habi": 9064,
      "ĠOutlook": 9065,
      "Apakan": 9066,
      "Ġson": 9067,
      "rot": 9068,
      "pia": 9069,
      "Ġeletan": 9070,
      "Ġdoko": 9071,
      "kooko": 9072,
      "kee": 9073,
      "ĠENI": 9074,
      "ĠNibo": 9075,
      "Ġjiji": 9076,
      "gudu": 9077,
      "ĠÐ²": 9078,
      "ĠpÃ¡pÃ¡": 9079,
      "ĠFlorence": 9080,
      "ĠOá¹£ogbo": 9081,
      "ĠNÃłÃŃjÃŃrÃŃÃł": 9082,
      "Â·": 9083,
      "Ġmeeli": 9084,
      "Ġshould": 9085,
      "sáº¹li": 9086,
      "Ġjiyan": 9087,
      "Ġalailagbara": 9088,
      "ĠdÃłbÃŃ": 9089,
      "tÃ¡náº¹": 9090,
      "izu": 9091,
      "Ġty": 9092,
      "ĠShar": 9093,
      "Ġonitumá»į": 9094,
      "thon": 9095,
      "ellu": 9096,
      "kurolewon": 9097,
      "ĠRay": 9098,
      "onald": 9099,
      "fication": 9100,
      "Ġigara": 9101,
      "Ġmule": 9102,
      "Ġyiyalo": 9103,
      "ĠInternet": 9104,
      "ĠBerlin": 9105,
      "Ġmultimedia": 9106,
      "ĠFriday": 9107,
      "tland": 9108,
      "á¹£Ã¨": 9109,
      "ĠOku": 9110,
      "Ġgusu": 9111,
      "ĠgÃ²kÃ¨": 9112,
      "Ġmimi": 9113,
      "Ġbot": 9114,
      "Ġjagun": 9115,
      "ĠKogi": 9116,
      "Rara": 9117,
      "ĠOlori": 9118,
      "ĠÃłtÃºn": 9119,
      "Ġoluá¹£á»į": 9120,
      "Ġcur": 9121,
      "ĠAdebiyi": 9122,
      "Ġiderun": 9123,
      "Ġatá»įwá»įdá»įwá»į": 9124,
      "Báº¹ráº¹": 9125,
      "itá»įju": 9126,
      "Ġatan": 9127,
      "tiro": 9128,
      "Ġlará»įwá»įto": 9129,
      "Ġtomati": 9130,
      "à¤¼": 9131,
      "sinipo": 9132,
      "MÃ¡": 9133,
      "fÃ²": 9134,
      "gro": 9135,
      "ksáº¹li": 9136,
      "á»įká»į": 9137,
      "keni": 9138,
      "ĠZTE": 9139,
      "ĠTáº¹le": 9140,
      "ÅĦtÃ¡náº¹": 9141,
      "ĠTravel": 9142,
      "Ġiráº¹láº¹": 9143,
      "ĠGeorge": 9144,
      "Ġpoteto": 9145,
      "mma": 9146,
      "Ġsimi": 9147,
      "ĠCS": 9148,
      "bul": 9149,
      "Ġrola": 9150,
      "Ġà¤Ĩ": 9151,
      "ĠSaudi": 9152,
      "ĠAimbot": 9153,
      "wÃºrÃº": 9154,
      "ĠCFD": 9155,
      "nikan": 9156,
      "muwia": 9157,
      "tex": 9158,
      "Ùī": 9159,
      "Ġá¹£ejá»įba": 9160,
      "láº¹ru": 9161,
      "ĠDA": 9162,
      "ĠilÃ©eá¹£áº¹": 9163,
      "Ġirá»įri": 9164,
      "Nitoribáº¹áº¹": 9165,
      "ĠlÃ²dÃ¬": 9166,
      "ĠStates": 9167,
      "YI": 9168,
      "ĠOti": 9169,
      "pes": 9170,
      "ĠÃłÃ¬má»į": 9171,
      "Ġfiriji": 9172,
      "ĠAYÃī": 9173,
      "hones": 9174,
      "ĠAbe": 9175,
      "Ġolubáº¹wáº¹": 9176,
      "lÃ³hÃ¹n": 9177,
      "asy": 9178,
      "gbiyanju": 9179,
      "ĠBello": 9180,
      "ĠGold": 9181,
      "Ġgbigbá»į": 9182,
      "ĠLaanu": 9183,
      "jinde": 9184,
      "Ġzi": 9185,
      "ĠStory": 9186,
      "ĠÃĮWÃī": 9187,
      "wÃºrÃºju": 9188,
      "yonu": 9189,
      "Íħ": 9190,
      "ĠAtá»įka": 9191,
      "ĠObirin": 9192,
      "ĠYI": 9193,
      "ĠOluá¹£áº¹": 9194,
      "Ġpoli": 9195,
      "ĠmÃ¬": 9196,
      "ĠAgo": 9197,
      "ĠsÃ©": 9198,
      "jack": 9199,
      "tuta": 9200,
      "Ġsudo": 9201,
      "Ġadigunjale": 9202,
      "kÃ²rÃ²": 9203,
      "Ġajile": 9204,
      "EE": 9205,
      "Ġsobusitireti": 9206,
      "olli": 9207,
      "ĠPapa": 9208,
      "ĠÃłká»įá»įláº¹": 9209,
      "ĠJohnson": 9210,
      "cript": 9211,
      "kÃ¡n": 9212,
      "ĠOHUN": 9213,
      "ĠEli": 9214,
      "áĮ£": 9215,
      "ĠNitoripe": 9216,
      "Ġplu": 9217,
      "ĠOMO": 9218,
      "Ġdid": 9219,
      "Ġalarinrin": 9220,
      "sola": 9221,
      "ĠBet": 9222,
      "á»Įpa": 9223,
      "ĠGree": 9224,
      "Ġketa": 9225,
      "áīłáĪ": 9226,
      "ĠNIKI": 9227,
      "Ġsensosi": 9228,
      "ĠIlá»įsiwaju": 9229,
      "Fe": 9230,
      "Igbimá»į": 9231,
      "Ġá»įkada": 9232,
      "Ġá»Įdá»į": 9233,
      "ĠidÃł": 9234,
      "Ø§Øª": 9235,
      "sÃ¡láº¹": 9236,
      "ĠCharles": 9237,
      "ĠmÃłlÃºÃ¹": 9238,
      "Ġáº¹lÃ²mÃŃrÃłn": 9239,
      "Ġnihin": 9240,
      "sifi": 9241,
      "Ġriru": 9242,
      "ĠBay": 9243,
      "hua": 9244,
      "gust": 9245,
      "steli": 9246,
      "Ġhow": 9247,
      "antiwa": 9248,
      "Ġleaves": 9249,
      "ĠStreet": 9250,
      "Ipele": 9251,
      "Ġtill": 9252,
      "à¤ľ": 9253,
      "Ġigboro": 9254,
      "Eniyan": 9255,
      "ĠÃº": 9256,
      "Ġoje": 9257,
      "ram": 9258,
      "wada": 9259,
      "fore": 9260,
      "47": 9261,
      "ah": 9262,
      "Ġaran": 9263,
      "fifo": 9264,
      "sinni": 9265,
      "ĠAdajá»į": 9266,
      "ĠDaradara": 9267,
      "ĠwatchOS": 9268,
      "ĠejÃ²": 9269,
      "ĠBee": 9270,
      "ĠGin": 9271,
      "anuel": 9272,
      "ÛķÙĪ": 9273,
      "Gbigbe": 9274,
      "ĠTechnology": 9275,
      "Ġwarankasi": 9276,
      "Ġlona": 9277,
      "Ġnipataki": 9278,
      "áĬŃ": 9279,
      "Ø§Ø¯": 9280,
      "Ġunder": 9281,
      "umber": 9282,
      "ĠAlailowaya": 9283,
[...]
