{
  "version": "1.0",
  "truncation": null,
  "padding": null,
  "added_tokens": [
    {
      "id": 0,
      "content": "<s>",
      "single_word": false,
      "lstrip": false,
      "rstrip": false,
      "normalized": false,
      "special": true
    },
    {
      "id": 1,
      "content": "<pad>",
      "single_word": false,
      "lstrip": false,
      "rstrip": false,
      "normalized": false,
      "special": true
    },
    {
      "id": 2,
      "content": "</s>",
      "single_word": false,
      "lstrip": false,
      "rstrip": false,
      "normalized": false,
      "special": true
    },
    {
      "id": 3,
      "content": "<unk>",
      "single_word": false,
      "lstrip": false,
      "rstrip": false,
      "normalized": false,
      "special": true
    },
    {
      "id": 4,
      "content": "<mask>",
      "single_word": false,
      "lstrip": false,
      "rstrip": false,
      "normalized": false,
      "special": true
    }
  ],
  "normalizer": null,
  "pre_tokenizer": {
    "type": "ByteLevel",
    "add_prefix_space": true,
    "trim_offsets": true,
    "use_regex": true
  },
  "post_processor": {
    "type": "TemplateProcessing",
    "single": [
      {
        "SpecialToken": {
          "id": "<s>",
          "type_id": 0
        }
      },
      {
        "Sequence": {
          "id": "A",
          "type_id": 0
        }
      },
      {
        "SpecialToken": {
          "id": "</s>",
          "type_id": 0
        }
      }
    ],
    "pair": [
      {
        "SpecialToken": {
          "id": "<s>",
          "type_id": 0
        }
      },
      {
        "Sequence": {
          "id": "A",
          "type_id": 0
        }
      },
      {
        "SpecialToken": {
          "id": "</s>",
          "type_id": 0
        }
      },
      {
        "SpecialToken": {
          "id": "</s>",
          "type_id": 0
        }
      },
      {
        "Sequence": {
          "id": "B",
          "type_id": 0
        }
      },
      {
        "SpecialToken": {
          "id": "</s>",
          "type_id": 0
        }
      }
    ],
    "special_tokens": {
      "</s>": {
        "id": "</s>",
        "ids": [
          2
        ],
        "tokens": [
          "</s>"
        ]
      },
      "<s>": {
        "id": "<s>",
        "ids": [
          0
        ],
        "tokens": [
          "<s>"
        ]
      }
    }
  },
  "decoder": {
    "type": "ByteLevel",
    "add_prefix_space": true,
    "trim_offsets": true,
    "use_regex": true
  },
  "model": {
    "type": "BPE",
    "dropout": null,
    "unk_token": "<unk>",
    "continuing_subword_prefix": null,
    "end_of_word_suffix": null,
    "fuse_unk": false,
    "byte_fallback": false,
    "ignore_merges": false,
    "vocab": {
      "<s>": 0,
      "<pad>": 1,
      "</s>": 2,
      "<unk>": 3,
      "<mask>": 4,
      "!": 5,
      "\"": 6,
      "#": 7,
      "$": 8,
      "%": 9,
      "&": 10,
      "'": 11,
      "(": 12,
      ")": 13,
      "*": 14,
      "+": 15,
      ",": 16,
      "-": 17,
      ".": 18,
      "/": 19,
      "0": 20,
      "1": 21,
      "2": 22,
      "3": 23,
      "4": 24,
      "5": 25,
      "6": 26,
      "7": 27,
      "8": 28,
      "9": 29,
      ":": 30,
      ";": 31,
      "<": 32,
      "=": 33,
      ">": 34,
      "?": 35,
      "@": 36,
      "A": 37,
      "B": 38,
      "C": 39,
      "D": 40,
      "E": 41,
      "F": 42,
      "G": 43,
      "H": 44,
      "I": 45,
      "J": 46,
      "K": 47,
      "L": 48,
      "M": 49,
      "N": 50,
      "O": 51,
      "P": 52,
      "Q": 53,
      "R": 54,
      "S": 55,
      "T": 56,
      "U": 57,
      "V": 58,
      "W": 59,
      "X": 60,
      "Y": 61,
      "Z": 62,
      "[": 63,
      "\\": 64,
      "]": 65,
      "^": 66,
      "_": 67,
      "`": 68,
      "a": 69,
      "b": 70,
      "c": 71,
      "d": 72,
      "e": 73,
      "f": 74,
      "g": 75,
      "h": 76,
      "i": 77,
      "j": 78,
      "k": 79,
      "l": 80,
      "m": 81,
      "n": 82,
      "o": 83,
      "p": 84,
      "q": 85,
      "r": 86,
      "s": 87,
      "t": 88,
      "u": 89,
      "v": 90,
      "w": 91,
      "x": 92,
      "y": 93,
      "z": 94,
      "{": 95,
      "|": 96,
      "}": 97,
      "~": 98,
      "¡": 99,
      "¢": 100,
      "£": 101,
      "¤": 102,
      "¥": 103,
      "¦": 104,
      "§": 105,
      "¨": 106,
      "©": 107,
      "ª": 108,
      "«": 109,
      "¬": 110,
      "®": 111,
      "¯": 112,
      "°": 113,
      "±": 114,
      "²": 115,
      "³": 116,
      "´": 117,
      "µ": 118,
      "¶": 119,
      "·": 120,
      "¸": 121,
      "¹": 122,
      "º": 123,
      "»": 124,
      "¼": 125,
      "½": 126,
      "¾": 127,
      "¿": 128,
      "À": 129,
      "Á": 130,
      "Â": 131,
      "Ã": 132,
      "Ä": 133,
      "Å": 134,
      "Æ": 135,
      "Ç": 136,
      "È": 137,
      "É": 138,
      "Ê": 139,
      "Ë": 140,
      "Ì": 141,
      "Í": 142,
      "Î": 143,
      "Ï": 144,
      "Ð": 145,
      "Ñ": 146,
      "Ò": 147,
      "Ó": 148,
      "Ô": 149,
      "Õ": 150,
      "Ö": 151,
      "×": 152,
      "Ø": 153,
      "Ù": 154,
      "Ú": 155,
      "Û": 156,
      "Ü": 157,
      "Ý": 158,
      "Þ": 159,
      "ß": 160,
      "à": 161,
      "á": 162,
      "â": 163,
      "ã": 164,
      "ä": 165,
      "å": 166,
      "æ": 167,
      "ç": 168,
      "è": 169,
      "é": 170,
      "ê": 171,
      "ë": 172,
      "ì": 173,
      "í": 174,
      "î": 175,
      "ï": 176,
      "ð": 177,
      "ñ": 178,
      "ò": 179,
      "ó": 180,
      "ô": 181,
      "õ": 182,
      "ö": 183,
      "÷": 184,
      "ø": 185,
      "ù": 186,
      "ú": 187,
      "û": 188,
      "ü": 189,
      "ý": 190,
      "þ": 191,
      "ÿ": 192,
      "Ā": 193,
      "ā": 194,
      "Ă": 195,
      "ă": 196,
      "Ą": 197,
      "ą": 198,
      "Ć": 199,
      "ć": 200,
      "Ĉ": 201,
      "ĉ": 202,
      "Ċ": 203,
      "ċ": 204,
      "Č": 205,
      "č": 206,
      "Ď": 207,
      "ď": 208,
      "Đ": 209,
      "đ": 210,
      "Ē": 211,
      "ē": 212,
      "Ĕ": 213,
      "ĕ": 214,
      "Ė": 215,
      "ė": 216,
      "Ę": 217,
      "ę": 218,
      "Ě": 219,
      "ě": 220,
      "Ĝ": 221,
      "ĝ": 222,
      "Ğ": 223,
      "ğ": 224,
      "Ġ": 225,
      "ġ": 226,
      "Ģ": 227,
      "ģ": 228,
      "Ĥ": 229,
      "ĥ": 230,
      "Ħ": 231,
      "ħ": 232,
      "Ĩ": 233,
      "ĩ": 234,
      "Ī": 235,
      "ī": 236,
      "Ĭ": 237,
      "ĭ": 238,
      "Į": 239,
      "į": 240,
      "İ": 241,
      "ı": 242,
      "Ĳ": 243,
      "ĳ": 244,
      "Ĵ": 245,
      "ĵ": 246,
      "Ķ": 247,
      "ķ": 248,
      "ĸ": 249,
      "Ĺ": 250,
      "ĺ": 251,
      "Ļ": 252,
      "ļ": 253,
      "Ľ": 254,
      "ľ": 255,
      "Ŀ": 256,
      "ŀ": 257,
      "Ł": 258,
      "ł": 259,
      "Ń": 260,
      "ä¸": 261,
      "ï¼": 262,
      "çļ": 263,
      "çļĦ": 264,
      "ï¼Į": 265,
      "ãĢ": 266,
      "äº": 267,
      "æľ": 268,
      "åı": 269,
      "ä»": 270,
      "å¤": 271,
      "ãĢĤ": 272,
      "åħ": 273,
      "æĺ": 274,
      "åľ": 275,
      "å®": 276,
      "è¿": 277,
      "åĪ": 278,
      "ä½": 279,
      "ä¸Ģ": 280,
      "åĲ": 281,
      "æĪ": 282,
      "ä¹": 283,
      "å°": 284,
      "æĺ¯": 285,
      "çĶ": 286,
      "æĹ": 287,
      "ä¸į": 288,
      "æĸ": 289,
      "æľī": 290,
      "åį": 291,
      "åĽ": 292,
      "äºº": 293,
      "åľ¨": 294,
      "è¯": 295,
      "åĬ": 296,
      "å¾": 297,
      "å¥": 298,
      "äºĨ": 299,
      "æĿ": 300,
      "ç»": 301,
      "ä¼": 302,
      "æī": 303,
      "åŃ": 304,
      "ãĢģ": 305,
      "å¹": 306,
      "è®": 307,
      "æĪĳ": 308,
      "å¸": 309,
      "èĢ": 310,
      "éĢ": 311,
      "å¼": 312,
      "åº": 313,
      "å·": 314,
      "âĢ": 315,
      "åĩ": 316,
      "å¤§": 317,
      "ĥ½": 318,
      "éĩ": 319,
      "çī": 320,
      "åĨ": 321,
      "å¿": 322,
      "èµ": 323,
      "çľ": 324,
      "çĽ": 325,
      "å¯": 326,
      "ä¸Ĭ": 327,
      "è¡": 328,
      "æĥ": 329,
      "è§": 330,
      "å½": 331,
      "åĪ°": 332,
      "ä¸Ń": 333,
      "åİ": 334,
      "æĢ": 335,
      "æŃ": 336,
      "è¦": 337,
      "ä¸ª": 338,
      "éĹ": 339,
      "çİ": 340,
      "æĬ": 341,
      "æķ": 342,
      "ä»¥": 343,
      "èĩ": 344,
      "è¿Ļ": 345,
      "åĴ": 346,
      "éģ": 347,
      "è¦ģ": 348,
      "æĿ¥": 349,
      "åĮ": 350,
      "æ²": 351,
      "åĳ": 352,
      "ï¼ļ": 353,
      "ä»ĸ": 354,
      "ä¸º": 355,
      "æ°": 356,
      "æł": 357,
      "æ³": 358,
      "éĿ": 359,
      "ç§": 360,
      "æĹ¶": 361,
      "åı¯": 362,
      "å°±": 363,
      "å®¶": 364,
      "å±": 365,
      "ä¼ļ": 366,
      "éĻ": 367,
      "çĶŁ": 368,
      "åĴĮ": 369,
      "ä¸ĭ": 370,
      "ä½ł": 371,
      "æĦ": 372,
      "..": 373,
      "æĶ": 374,
      "çº": 375,
      "å¦": 376,
      "æĭ": 377,
      "æ¯": 378,
      "è´": 379,
      "å¹´": 380,
      "æİ": 381,
      "åĩº": 382,
      "æŀ": 383,
      "åī": 384,
      "åĵ": 385,
      "ç½": 386,
      "è½": 387,
      "çĶ¨": 388,
      "å¥½": 389,
      "æµ": 390,
      "æ¸": 391,
      "ä¹Ł": 392,
      "ä¿": 393,
      "å¤©": 394,
      "å¤ļ": 395,
      "çĲ": 396,
      "èĥ½": 397,
      "åĢ": 398,
      "åľ°": 399,
      "æ¬": 400,
      "èĩª": 401,
      "çĤ": 402,
      "å°ı": 403,
      "åĽ½": 404,
      "ç«": 405,
      "ä¾": 406,
      "åŃĲ": 407,
      "ä»¬": 408,
      "ç¾": 409,
      "éĤ": 410,
      "è·": 411,
      "éĥ½": 412,
      "æĻ": 413,
      "éĽ": 414,
      "æ´": 415,
      "è¾": 416,
      "çľĭ": 417,
      "åģ": 418,
      "çĻ": 419,
      "ä¹ĭ": 420,
      "é¢": 421,
      "æĪĲ": 422,
      "å¿ĥ": 423,
      "åĲİ": 424,
      "å¯¹": 425,
      "è¿ĩ": 426,
      "åıĳ": 427,
      "åŁ": 428,
      "éĺ": 429,
      "æľĢ": 430,
      "å¾Ĺ": 431,
      "æĽ": 432,
      "çŃ": 433,
      "çĦ": 434,
      "æĮ": 435,
      "å¾Ī": 436,
      "è¡Į": 437,
      "ä½ľ": 438,
      "çĪ": 439,
      "èĢĮ": 440,
      "æĸ¹": 441,
      "è¶": 442,
      "åİ»": 443,
      "é«": 444,
      "åĪĨ": 445,
      "é£": 446,
      "ç¬": 447,
      "è¯´": 448,
      "å¼Ģ": 449,
      "æĹ¥": 450,
      "æīĢ": 451,
      "æĸ°": 452,
      "åīį": 453,
      "èĬ": 454,
      "èĤ": 455,
      "äºİ": 456,
      "çŁ": 457,
      "çİ°": 458,
      "ç½ĳ": 459,
      "ä¹Ĳ": 460,
      "âĢĿ": 461,
      "éĿ¢": 462,
      "åŃ¦": 463,
      "å¦Ĥ": 464,
      "--": 465,
      "åħ¬": 466,
      "æĥ³": 467,
      "æ±": 468,
      "ï¼ģ": 469,
      "éģĵ": 470,
      "âĢľ": 471,
      "çķ": 472,
      "20": 473,
      "è£": 474,
      "èī": 475,
      "çĦ¶": 476,
      "äºĭ": 477,
      "æľ¬": 478,
      "æĥħ": 479,
      "ç¾İ": 480,
      "éļ": 481,
      "è¿ĺ": 482,
      "æ³ķ": 483,
      "åĿ": 484,
      "åĸ": 485,
      "åķ": 486,
      "åĬ¨": 487,
      "é¡": 488,
      "ä¸Ģä¸ª": 489,
      "éĤ£": 490,
      "ç®": 491,
      "é«ĺ": 492,
      "ï¼Ł": 493,
      "è°": 494,
      "èĪ": 495,
      "æı": 496,
      "éķ": 497,
      "èµ·": 498,
      "å§": 499,
      "æ²¡": 500,
      "æīĭ": 501,
      "åĲĮ": 502,
      "åĽł": 503,
      "æģ": 504,
      "ä¸»": 505,
      "çĲĨ": 506,
      "ä¸İ": 507,
      "éº": 508,
      "éĹ´": 509,
      "çĤ¹": 510,
      "ç»ı": 511,
      "ç¥": 512,
      "å¨": 513,
      "ç¨": 514,
      "ä½Ĩ": 515,
      "åĬĽ": 516,
      "åħ¨": 517,
      "éĥ": 518,
      "è¢": 519,
      "ä¸ļ": 520,
      "ãĢĮ": 521,
      "çĿ": 522,
      "å¥³": 523,
      "æľº": 524,
      "ç©": 525,
      "é¦": 526,
      "åħ¶": 527,
      "èĳ": 528,
      "èĢħ": 529,
      "å®ļ": 530,
      "ç´": 531,
      "ãĢį": 532,
      "èģ": 533,
      "æĸĩ": 534,
      "æ°´": 535,
      "ï¼ī": 536,
      "åı¯ä»¥": 537,
      "é»": 538,
      "åľº": 539,
      "åĲį": 540,
      "èº": 541,
      "åĬł": 542,
      "éħ": 543,
      "åı°": 544,
      "ï¼Ī": 545,
      "çĶµ": 546,
      "éĴ": 547,
      "æŀľ": 548,
      "æĦı": 549,
      "å·¥": 550,
      "åıª": 551,
      "ç¤": 552,
      "æľĪ": 553,
      "çģ": 554,
      "å½ĵ": 555,
      "ä½į": 556,
      "çľŁ": 557,
      "çŃī": 558,
      "ä¸ī": 559,
      "å¤ĸ": 560,
      "èĭ": 561,
      "æĢ§": 562,
      "å·±": 563,
      "éľ": 564,
      "çĽ¸": 565,
      "åĵģ": 566,
      "éĩĳ": 567,
      "çĥ": 568,
      "èĲ": 569,
      "æĹł": 570,
      "å£": 571,
      "æĦŁ": 572,
      "éĩĮ": 573,
      "ä½ĵ": 574,
      "å®ŀ": 575,
      "èĩªå·±": 576,
      "å¸¸": 577,
      "èº«": 578,
      "åĲĪ": 579,
      "éĥ¨": 580,
      "äºĽ": 581,
      "è¢«": 582,
      "ç¬¬": 583,
      "å¸Ĥ": 584,
      "çŁ¥": 585,
      "æ·": 586,
      "æ¬¡": 587,
      "å¥¹": 588,
      "èĢģ": 589,
      "éĩį": 590,
      "æ¯Ķ": 591,
      "è¿Ľ": 592,
      "æŁ": 593,
      "åħ¥": 594,
      "è¨": 595,
      "çī¹": 596,
      "æį": 597,
      "å°Ĩ": 598,
      "æ´»": 599,
      "åº¦": 600,
      "èĳĹ": 601,
      "èĻ": 602,
      "ç²": 603,
      "å»": 604,
      "åıĬ": 605,
      "æĽ´": 606,
      "æĺİ": 607,
      "ç³": 608,
      "éĶ": 609,
      "ç§į": 610,
      "æł·": 611,
      "æ¼": 612,
      "00": 613,
      "åįļ": 614,
      "èĦ": 615,
      "æ¡": 616,
      "æĪĸ": 617,
      "æŃ£": 618,
      "åĨħ": 619,
      "çī©": 620,
      "æĪĳä»¬": 621,
      "æĤ": 622,
      "åŁİ": 623,
      "æ¸¸": 624,
      "æŃ¤": 625,
      "åĮĸ": 626,
      "èĥ": 627,
      "éķ¿": 628,
      "æıĲ": 629,
      "æ»": 630,
      "æ¶": 631,
      "èī²": 632,
      "çĽ®": 633,
      "è¡¨": 634,
      "è·¯": 635,
      "åģļ": 636,
      "ç¦": 637,
      "å·²": 638,
      "åĽŀ": 639,
      "åĥ": 640,
      "å½±": 641,
      "çĪ±": 642,
      "åħ³": 643,
      "çĹ": 644,
      "çĿĢ": 645,
      "æ¨": 646,
      "ç±": 647,
      "çł": 648,
      "201": 649,
      "åıĭ": 650,
      "éĹ®": 651,
      "è®©": 652,
      "æľŁ": 653,
      "å¢": 654,
      "ä»İ": 655,
      "æµ·": 656,
      "ä¿Ŀ": 657,
      "çĲĥ": 658,
      "ä»Ģ": 659,
      "çĭ": 660,
      "å¼ı": 661,
      "è½¦": 662,
      "éĢļ": 663,
      "å¹³": 664,
      "çīĩ": 665,
      "é©": 666,
      "èĬ±": 667,
      "å®ī": 668,
      "å½©": 669,
      "ä¿¡": 670,
      "ä½¿": 671,
      "æīĵ": 672,
      "åĪ©": 673,
      "éª": 674,
      "éĸ": 675,
      "åĭ": 676,
      "±ä¹Ĳ": 677,
      "éĹ¨": 678,
      "æº": 679,
      "åĲĥ": 680,
      "ä¹Ī": 681,
      "äºĮ": 682,
      "ç¼": 683,
      "è¥": 684,
      "æ²¡æľī": 685,
      "é¥": 686,
      "å¨±ä¹Ĳ": 687,
      "åįģ": 688,
      "èį": 689,
      "å¤´": 690,
      "å±±": 691,
      "åºĹ": 692,
      "ä»¶": 693,
      "ä¸ĸ": 694,
      "åıĪ": 695,
      "ãĢĭ": 696,
      "èİ": 697,
      "æķ°": 698,
      "æİ¥": 699,
      "ãĢĬ": 700,
      "å°ĳ": 701,
      "è¥¿": 702,
      "çı": 703,
      "è±": 704,
      "âĢ¦": 705,
      "çĽ´": 706,
      "åİŁ": 707,
      "çĻ½": 708,
      "æķĻ": 709,
      "åı£": 710,
      "ä¸¤": 711,
      "æ¯ı": 712,
      "çĶ±": 713,
      "èµĦ": 714,
      "åı¸": 715,
      "èª": 716,
      "æĶ¾": 717,
      "ç¨ĭ": 718,
      "éĩı": 719,
      "äº§": 720,
      "ä»£": 721,
      "åıĹ": 722,
      "å¤ª": 723,
      "åħī": 724,
      "çĻ¾": 725,
      "é£İ": 726,
      "æĬĬ": 727,
      "æ°ĳ": 728,
      "å¹¶": 729,
      "ç¥ŀ": 730,
      "åºĶ": 731,
      "er": 732,
      "åĲĦ": 733,
      "åĨį": 734,
      "éŁ": 735,
      "ï¼Ľ": 736,
      "æĸ¯": 737,
      "æ°Ķ": 738,
      "----": 739,
      "é¢ĺ": 740,
      "åĶ": 741,
      "å°±æĺ¯": 742,
      "æĸĻ": 743,
      "è§£": 744,
      "è¿ĳ": 745,
      "åħĥ": 746,
      "çĸ": 747,
      "éĢĻ": 748,
      "ç³»": 749,
      "æľį": 750,
      "ç»Ļ": 751,
      "è§ī": 752,
      "ä»ĸä»¬": 753,
      "è¯Ŀ": 754,
      "éº½": 755,
      "ŀĭ": 756,
      "æ¹": 757,
      "åĥı": 758,
      "æ®": 759,
      "ä¸ľ": 760,
      "åĪ¶": 761,
      "å®Į": 762,
      "æ¢": 763,
      "10": 764,
      "ä½ķ": 765,
      "å±ķ": 766,
      "åĮº": 767,
      "æł¼": 768,
      "ç«Ļ": 769,
      "åĬ¡": 770,
      "æīį": 771,
      "çħ": 772,
      "æ£": 773,
      "å¿«": 774,
      "èµ°": 775,
      "å²": 776,
      "èĩ³": 777,
      "åº§": 778,
      "æħ": 779,
      "å»º": 780,
      "çļĦäºº": 781,
      "åħĭ": 782,
      "ä¼ł": 783,
      "æĬ¥": 784,
      "èı": 785,
      "çĶ·": 786,
      "åħĪ": 787,
      "æĳ": 788,
      "....": 789,
      "çº¿": 790,
      "çķĮ": 791,
      "è£¡": 792,
      "åł": 793,
      "ç®¡": 794,
      "åĪ«": 795,
      "è®¾": 796,
      "è®°": 797,
      "åĳĺ": 798,
      "å®¢": 799,
      "å®¹": 800,
      "è¯·": 801,
      "ä»Ĭ": 802,
      "åıĺ": 803,
      "è·Ł": 804,
      "èħ": 805,
      "åĦ": 806,
      "åĢĻ": 807,
      "in": 808,
      "è®¡": 809,
      "è§Ĩ": 810,
      "æµģ": 811,
      "åķĨ": 812,
      "éŃ": 813,
      "çĤº": 814,
      "åĲĳ": 815,
      "éĢī": 816,
      "å¤Ħ": 817,
      "ç»ĵ": 818,
      "åħ¬åı¸": 819,
      "æĲ": 820,
      "æĺŁ": 821,
      "éĵ": 822,
      "ä»»": 823,
      "åĽłä¸º": 824,
      "è¶³": 825,
      "æ¥": 826,
      "ä¾Ĩ": 827,
      "éĿŀ": 828,
      "åĩł": 829,
      "ç©º": 830,
      "åįĹ": 831,
      "å§ĭ": 832,
      "åĢĭ": 833,
      "æ¸ħ": 834,
      "äº¤": 835,
      "åĽĽ": 836,
      "æ¼Ķ": 837,
      "æ³¨": 838,
      "èĬĤ": 839,
      "å¸Ī": 840,
      "æĶ¶": 841,
      "çľ¼": 842,
      "å¸¦": 843,
      "ä»·": 844,
      "åĸľ": 845,
      "åĻ": 846,
      "an": 847,
      "æľĥ": 848,
      "åĮħ": 849,
      "å¯¼": 850,
      "æĹ¶éĹ´": 851,
      "éľĢ": 852,
      "åŁº": 853,
      "on": 854,
      "é£Ł": 855,
      "Â·": 856,
      "åįķ": 857,
      "çŁ¥éģĵ": 858,
      "è§ģ": 859,
      "ä¸įæĺ¯": 860,
      "ç«ĭ": 861,
      "æļ": 862,
      "æĪ¿": 863,
      "æĮģ": 864,
      "å¦Ĥæŀľ": 865,
      "é¤": 866,
      "æŃ»": 867,
      "æİ¨": 868,
      "ç¡": 869,
      "æĻĤ": 870,
      "èĮ": 871,
      "åŀĭ": 872,
      "æĢ»": 873,
      "æĮĩ": 874,
      "æ±Ĥ": 875,
      "æĭī": 876,
      "è¿Ļä¸ª": 877,
      "æĶ¿": 878,
      "æķ´": 879,
      "çµ": 880,
      "ä¾¿": 881,
      "è´¹": 882,
      "æľĭ": 883,
      "æľ¯": 884,
      "çİ©": 885,
      "ä¸ĩ": 886,
      "...": 887,
      "åŃ©": 888,
      "ç²¾": 889,
      "æĵ": 890,
      "æĬĢ": 891,
      "åĮĹ": 892,
      "ä½ı": 893,
      "éĢł": 894,
      "è¯¥": 895,
      "é©¬": 896,
      "å°Ķ": 897,
      "æŀĹ": 898,
      "å¤§å®¶": 899,
      "åĲĹ": 900,
      "éł": 901,
      "ä¸Ķ": 902,
      "ä¸ŃåĽ½": 903,
      "å®ĥ": 904,
      "æľĭåıĭ": 905,
      "å·¥ä½ľ": 906,
      "æī¾": 907,
      "æīĢä»¥": 908,
      "é¦Ļ": 909,
      "å¼º": 910,
      "or": 911,
      "æĬķ": 912,
      "äºĶ": 913,
      "æĢİ": 914,
      "ç¤º": 915,
      "è¿Ĳ": 916,
      "éĽĨ": 917,
      "è¾¹": 918,
      "ä¾Ľ": 919,
      "ç¶": 920,
      "è²": 921,
      "åį´": 922,
      "çª": 923,
      "å¸ĥ": 924,
      "è®¤": 925,
      "æĪĺ": 926,
      "ç¢": 927,
      "çİĭ": 928,
      "æ¬¢": 929,
      "æĹħ": 930,
      "çīĪ": 931,
      "éŁ³": 932,
      "åħ·": 933,
      "æĴ": 934,
      "ç§ĳ": 935,
      "åĳ³": 936,
      "åĬŁ": 937,
      "æºĲ": 938,
      "åĦ¿": 939,
      "æľĽ": 940,
      "æĹ¶åĢĻ": 941,
      "éħĴ": 942,
      "ä¸ĵ": 943,
      "å¾·": 944,
      "åį³": 945,
      "å¾Ģ": 946,
      "èĢĥ": 947,
      "è§Ĥ": 948,
      "æŃ¥": 949,
      "éĻħ": 950,
      "è¶ħ": 951,
      "èŃ": 952,
      "åįļå½©": 953,
      "æĺĵ": 954,
      "é¾": 955,
      "æĪı": 956,
      "å©": 957,
      "/>": 958,
      "äºĨä¸Ģ": 959,
      "ç»Ł": 960,
      "åĤ": 961,
      "åĳ½": 962,
      "åĻ¨": 963,
      "åĲ§": 964,
      "åŃĺ": 965,
      "æĪ·": 966,
      "å¨±ä¹ĲåŁİ": 967,
      "ç¤¾": 968,
      "æĻ¯": 969,
      "âĢĶ": 970,
      "ç±»": 971,
      "å¤ĩ": 972,
      "åĽ¾": 973,
      "åı·": 974,
      "çħ§": 975,
      "äººçļĦ": 976,
      "è¾¾": 977,
      "è¶Ĭ": 978,
      "Ġ1": 979,
      "çīĮ": 980,
      "æģ¯": 981,
      "æ·±": 982,
      "çĥŃ": 983,
      "åĳĬ": 984,
      "åĪĽ": 985,
      "ä¸ĸçķĮ": 986,
      "ç®Ĺ": 987,
      "çĮ": 988,
      "å¤±": 989,
      "çģ«": 990,
      "å¼ł": 991,
      "çĬ": 992,
      "ä¹°": 993,
      "å½¢": 994,
      "éļ¾": 995,
      "çº¢": 996,
      "è½½": 997,
      "å£°": 998,
      "è®º": 999,
      "ãĢĲ": 1000,
      "è½¬": 1001,
      "ãĢĳ": 1002,
      "éĴ±": 1003,
      "éĻ¤": 1004,
      "æĶ¹": 1005,
      "æ¶Ī": 1006,
      "ä½Ĩæĺ¯": 1007,
      "å£«": 1008,
      "èģĶ": 1009,
      "éĺ¿": 1010,
      "å¿ħ": 1011,
      "åĳ¢": 1012,
      "è£ħ": 1013,
      "æ»¡": 1014,
      "æĢĿ": 1015,
      "æį®": 1016,
      "è®¸": 1017,
      "åįİ": 1018,
      "åıį": 1019,
      "åıĸ": 1020,
      "è³": 1021,
      "è©": 1022,
      "åĺ": 1023,
      "çļĦä¸Ģ": 1024,
      "è´¨": 1025,
      "è¾ĥ": 1026,
      "èĭ±": 1027,
      "å¼Ģå§ĭ": 1028,
      "åĢĳ": 1029,
      "è°ĥ": 1030,
      "ä¹¦": 1031,
      "æľª": 1032,
      "å¤ľ": 1033,
      "é¤Ĳ": 1034,
      "è¯ķ": 1035,
      "æĹ©": 1036,
      "ar": 1037,
      "çĹħ": 1038,
      "æĻļ": 1039,
      "ç¬¬ä¸Ģ": 1040,
      "çİ°åľ¨": 1041,
      "çľĭåĪ°": 1042,
      "åı¯èĥ½": 1043,
      "ç¿": 1044,
      "11": 1045,
      "è¿ŀ": 1046,
      "ä½¿çĶ¨": 1047,
      "å¾Į": 1048,
      "çĶŁæ´»": 1049,
      "èĲ½": 1050,
      "çº¦": 1051,
      "åĳ¨": 1052,
      "çº§": 1053,
      "é»ĳ": 1054,
      "å·²ç»ı": 1055,
      "åŃĹ": 1056,
      "æ¾": 1057,
      "éĻ¢": 1058,
      "æĿĥ": 1059,
      "æķĪ": 1060,
      "è¨Ģ": 1061,
      "å¡": 1062,
      "æĺ¯ä¸Ģ": 1063,
      "åĬŀ": 1064,
      "é¦ĸ": 1065,
      "æĤ¨": 1066,
      "åĨ³": 1067,
      "é¸": 1068,
      "æłĩ": 1069,
      "ç¦»": 1070,
      "éĹ®é¢ĺ": 1071,
      "èĹ": 1072,
      "æľīä¸Ģ": 1073,
      "åį¡": 1074,
      "å®Ŀ": 1075,
      "èĲ¥": 1076,
      "æ¡Ī": 1077,
      "æİĴ": 1078,
      "è§Ĵ": 1079,
      "å¼ķ": 1080,
      "å¥ĩ": 1081,
      "è¡Ģ": 1082,
      "åĵª": 1083,
      "çĨ": 1084,
      "æŁ¥": 1085,
      "èĽ": 1086,
      "å¾®": 1087,
      "!!": 1088,
      "æīĢæľī": 1089,
      "åĲ¬": 1090,
      "åħį": 1091,
      "Ġ/>": 1092,
      "ä»Ģä¹Ī": 1093,
      "ä¼ĺ": 1094,
      "ï½": 1095,
      "èµĮ": 1096,
      "æ®µ": 1097,
      "æĩ": 1098,
      "åĪĩ": 1099,
      "en": 1100,
      "åĽŃ": 1101,
      "è§Ħ": 1102,
      "éģİ": 1103,
      "éªĮ": 1104,
      "èĤī": 1105,
      "éĢģ": 1106,
      "äº²": 1107,
      "ç»Ħ": 1108,
      "é±": 1109,
      "åħ±": 1110,
      "ç¬ĳ": 1111,
      "æķħ": 1112,
      "è¿ĺæĺ¯": 1113,
      "åįĬ": 1114,
      "è½»": 1115,
      "ç±³": 1116,
      "ä»Ģéº½": 1117,
      "æ²¹": 1118,
      "æĶ¯": 1119,
      "å¾Īå¤ļ": 1120,
      "æĿ¡": 1121,
      "æĪĳçļĦ": 1122,
      "åıĤ": 1123,
      "çłĶ": 1124,
      "éħį": 1125,
      "æĿĢ": 1126,
      "åıĮ": 1127,
      "æ½": 1128,
      "é±¼": 1129,
      "æıĲä¾Ľ": 1130,
      "åıĳçİ°": 1131,
      "æł¹": 1132,
      "é²": 1133,
      "200": 1134,
      "éĢŁ": 1135,
      "å®ĺ": 1136,
      "éĥ½æĺ¯": 1137,
      "æ´»åĬ¨": 1138,
      "è±¡": 1139,
      "12": 1140,
      "æ¸¸æĪı": 1141,
      "å¢ŀ": 1142,
      "åĬ©": 1143,
      "çīĽ": 1144,
      "è¿Ļæł·": 1145,
      "le": 1146,
      "Ġ(": 1147,
      "ç¯": 1148,
      "çļĦæĺ¯": 1149,
      "éĺŁ": 1150,
      "éľĢè¦ģ": 1151,
      "å¹¿": 1152,
      "åĪĻ": 1153,
      "åĩĨ": 1154,
      "å¢ĥ": 1155,
      "è¯ģ": 1156,
      "äº«": 1157,
      "å°į": 1158,
      "äºļ": 1159,
      "é¬": 1160,
      "åĽ½éĻħ": 1161,
      "èĩªå·±çļĦ": 1162,
      "ä»½": 1163,
      "éļı": 1164,
      "éĨ": 1165,
      "åĽ¢": 1166,
      "æ²»": 1167,
      "åı¤": 1168,
      "çİĩ": 1169,
      "ä¼Ĺ": 1170,
      "ãĢĤâĢĿ": 1171,
      "åºķ": 1172,
      "åĪ°äºĨ": 1173,
      "æĽ¾": 1174,
      "éĺ³": 1175,
      "åģĩ": 1176,
      "ç«ł": 1177,
      "ä½łçļĦ": 1178,
      "æ¨¡": 1179,
      "æ¹¾": 1180,
      "ä¹ł": 1181,
      "çķĻ": 1182,
      "~~": 1183,
      "ä¹ī": 1184,
      "ä¿®": 1185,
      "æ¬¾": 1186,
      "æĿĲ": 1187,
      "åĮ»": 1188,
      "ä»ĸçļĦ": 1189,
      "--------": 1190,
      "åĪļ": 1191,
      "èĤ²": 1192,
      "om": 1193,
      "ç©¶": 1194,
      "19": 1195,
      "æĸ¼": 1196,
      "ä½İ": 1197,
      "åľĭ": 1198,
      "æĭį": 1199,
      "åħŃ": 1200,
      "å¸Į": 1201,
      "é¾Ļ": 1202,
      "åĸľæ¬¢": 1203,
      "èªª": 1204,
      "30": 1205,
      "åĪĹ": 1206,
      "çİ¯": 1207,
      "ç¦ı": 1208,
      "st": 1209,
      "æ¯į": 1210,
      "è¿ľ": 1211,
      "æł¡": 1212,
      "æ©": 1213,
      "ä¼ģ": 1214,
      "é¢Ĩ": 1215,
      "ç´ł": 1216,
      "èµĽ": 1217,
      "å¿µ": 1218,
      "at": 1219,
      "å¤į": 1220,
      "åŃ£": 1221,
      "éĶĻ": 1222,
      "ä¸ĭè½½": 1223,
      "âĢ¦âĢ¦": 1224,
      "æľįåĬ¡": 1225,
      "äº¬": 1226,
      "ç½Ĺ": 1227,
      "å·´": 1228,
      "åĨĽ": 1229,
      "ç§°": 1230,
      "å®¤": 1231,
      "éĻĲ": 1232,
      "é»Ħ": 1233,
      "éŃĶ": 1234,
      "ä¹ħ": 1235,
      "çĵ": 1236,
      "ç½®": 1237,
      "ä¸ŃçļĦ": 1238,
      "åĢ¼": 1239,
      "ä¸Ģä¸ĭ": 1240,
      "èĩ´": 1241,
      "éĿŀå¸¸": 1242,
      "æ¿": 1243,
      "è¼": 1244,
      "èıľ": 1245,
      "æĭ¿": 1246,
      "éĿĴ": 1247,
      "é¡¹": 1248,
      "ç»´": 1249,
      "ä¸ĬçļĦ": 1250,
      "è§īå¾Ĺ": 1251,
      "èĪĩ": 1252,
      "åı¦": 1253,
      "èĪ¬": 1254,
      "ç»Ī": 1255,
      "å¼Ł": 1256,
      "å¤§çļĦ": 1257,
      "å¸®": 1258,
      "æĿİ": 1259,
      "è¶³çĲĥ": 1260,
      "åįĥ": 1261,
      "è¯Ĩ": 1262,
      "ww": 1263,
      "å¦Ī": 1264,
      "çļĦæĹ¶åĢĻ": 1265,
      "çĻ¼": 1266,
      "æ¸©": 1267,
      "è¿Ľè¡Į": 1268,
      "ç»Ń": 1269,
      "è¯Ń": 1270,
      "çĻ¾å®¶": 1271,
      "éĢĤ": 1272,
      "åı°æ¹¾": 1273,
      "çļ®": 1274,
      "ä¸Ģèµ·": 1275,
      "ä»ĭ": 1276,
      "ç¡®": 1277,
      "çıŃ": 1278,
      "è¡£": 1279,
      "ç¾İåĽ½": 1280,
      "éĤĦ": 1281,
      "ç½ĳç«Ļ": 1282,
      "åķĬ": 1283,
      "åİĨ": 1284,
      "åı«": 1285,
      "æ¾³": 1286,
      "ç²ī": 1287,
      "åıĳå±ķ": 1288,
      "æ¦": 1289,
      "ä¸įåĲĮ": 1290,
      "ç»ľ": 1291,
      "æŀģ": 1292,
      "å®³": 1293,
      "é¢Ħ": 1294,
      "çŁ³": 1295,
      "å¯Ĩ": 1296,
      "çļĩ": 1297,
      "æĸŃ": 1298,
      "è®®": 1299,
      "ç·": 1300,
      "ä¹Łæĺ¯": 1301,
      "å±Ģ": 1302,
      "å¥ĸ": 1303,
      "çľŁçļĦ": 1304,
      "ä¸½": 1305,
      "ç¾¤": 1306,
      "æĢģ": 1307,
      "èĴ": 1308,
      "åī§": 1309,
      "è´Ń": 1310,
      "çĳ": 1311,
      "æ¸¯": 1312,
      "åĲ¸": 1313,
      "ä¸įä¼ļ": 1314,
      "çĻ¾å®¶ä¹Ĳ": 1315,
      "ä»¥åıĬ": 1316,
      "ic": 1317,
      "å°¼": 1318,
      "å¦Ĥä½ķ": 1319,
      "al": 1320,
      "ä¾Ŀ": 1321,
      "ä¸įèĥ½": 1322,
      "ç¥¨": 1323,
      "åħ«": 1324,
      "åĿĢ": 1325,
      "å¤«": 1326,
      "é£ŀ": 1327,
      "æĭ©": 1328,
      "è¿ĻäºĽ": 1329,
      "å¥½çļĦ": 1330,
      "äºĳ": 1331,
      "åı²": 1332,
      "èĸ": 1333,
      "éĸĭ": 1334,
      "åĲ¦": 1335,
      "å¾ħ": 1336,
      "éĻĦ": 1337,
      "åįĩ": 1338,
      "åģ¥": 1339,
      "èĢĮä¸Ķ": 1340,
      "èīº": 1341,
      "å¯Į": 1342,
      "åŃ©åŃĲ": 1343,
      "æĬ¤": 1344,
      "åĭķ": 1345,
      "è®²": 1346,
      "ä¼ĳ": 1347,
      "éĺ²": 1348,
      "æİ§": 1349,
      "ä¼¼": 1350,
      "ç»Ĩ": 1351,
      "åħ°": 1352,
      "çı¾": 1353,
      "åª": 1354,
      "åĨ·": 1355,
      "åĨµ": 1356,
      "=\"": 1357,
      "ï¼ı": 1358,
      "åħ»": 1359,
      "çģµ": 1360,
      "éģĩ": 1361,
      "åŃ¸": 1362,
      "æĿ¿": 1363,
      "15": 1364,
      "ä¸įè¿ĩ": 1365,
      "ä»¤": 1366,
      "ä¸ºäºĨ": 1367,
      "è¯Ħ": 1368,
      "è»": 1369,
      "ï½ŀ": 1370,
      "åľ°æĸ¹": 1371,
      "çĪ¶": 1372,
      "å¸Ĥåľº": 1373,
      "è«": 1374,
      "æĺ¥": 1375,
      "ä¸ĢçĽ´": 1376,
      "ç®Ģ": 1377,
      "çĶ»": 1378,
      "ç½ĳç»ľ": 1379,
      "æĺ¾": 1380,
      "éĸĵ": 1381,
      "å¤Ł": 1382,
      "å·ŀ": 1383,
      "çªģ": 1384,
      "èµ·æĿ¥": 1385,
      "é»ŀ": 1386,
      "éĢīæĭ©": 1387,
      "å½ķ": 1388,
      "ä¹İ": 1389,
      "ç»Ŀ": 1390,
      "çł´": 1391,
      "åĪĿ": 1392,
      "å±ħ": 1393,
      "èĤ¡": 1394,
      "èĻ½": 1395,
      "åĵĪ": 1396,
      "æ²Ĵ": 1397,
      "æĿĳ": 1398,
      "ç®¡çĲĨ": 1399,
      "æĹı": 1400,
      "æ´Ĺ": 1401,
      "é¬¼": 1402,
      "ä¼ģä¸ļ": 1403,
      "èİ·": 1404,
      "æľ¨": 1405,
      "äº§åĵģ": 1406,
      "åĨĻ": 1407,
      "ä¼¤": 1408,
      "çĩ": 1409,
      "è¿ĺæľī": 1410,
      "éĴĵ": 1411,
      "æ³¢": 1412,
      "åºľ": 1413,
      "ä¸Ģå®ļ": 1414,
      "re": 1415,
      "åĩ»": 1416,
      "åº·": 1417,
      "èĦĳ": 1418,
      "å¸ĮæľĽ": 1419,
      "æľĢè¿ĳ": 1420,
      "æ¯Ķè¾ĥ": 1421,
      "åŃ¦çĶŁ": 1422,
      "å¼Ĥ": 1423,
      "æĸ¹å¼ı": 1424,
      "æĸ½": 1425,
      "å¹²": 1426,
      "çłĶç©¶": 1427,
      "éĩįè¦ģ": 1428,
      "ä¸įè¦ģ": 1429,
      "é¦Ĩ": 1430,
      "æĴŃ": 1431,
      "åħħ": 1432,
      "åģľ": 1433,
      "ä¹ĭåĲİ": 1434,
      "th": 1435,
      "ä»Ĭå¤©": 1436,
      "ç¶ĵ": 1437,
      "åįĪ": 1438,
      "çķ¶": 1439,
      "æŃ¦": 1440,
      "åĵį": 1441,
      "æĮī": 1442,
      "æ´²": 1443,
      "çĶļ": 1444,
      "æ¤": 1445,
      "æ²Ļ": 1446,
      "è®¾è®¡": 1447,
      "ä¸ªäºº": 1448,
      "æĿ¥çļĦ": 1449,
      "æŃĮ": 1450,
      "å©ļ": 1451,
      "è°¢": 1452,
      "èĨ": 1453,
      "æĥĬ": 1454,
      "è®¯": 1455,
      "ä¸¾": 1456,
      "ï¼ļâĢľ": 1457,
      "æĦŁè§ī": 1458,
      "åħ´": 1459,
      "æĻº": 1460,
      "æħ¢": 1461,
      "äº®": 1462,
      "è¡Ĺ": 1463,
      "ä¸ĥ": 1464,
      "jp": 1465,
      "æ¹ĸ": 1466,
      "çĭ¬": 1467,
      "æ¢¦": 1468,
      "èĵ": 1469,
      "ç¼ĸ": 1470,
      "åħ¶ä»ĸ": 1471,
      "åĬ¿": 1472,
      "éĩĩ": 1473,
      "çĽĺ": 1474,
      "å·®": 1475,
      "el": 1476,
      "åĵ¥": 1477,
      "æį¢": 1478,
      "åıªæĺ¯": 1479,
      "åİĭ": 1480,
      "ä¾ĭ": 1481,
      "åĪĴ": 1482,
      "jpg": 1483,
      "50": 1484,
      "æŃ¢": 1485,
      "èĻİ": 1486,
      "ä¹Ŀ": 1487,
      "é¼": 1488,
      "æµĭ": 1489,
      "é«Ķ": 1490,
      "ç§ĺ": 1491,
      "ä¸ĢäºĽ": 1492,
      "åĴĸ": 1493,
      "åįĸ": 1494,
      "æĻ®": 1495,
      "åį°": 1496,
      "é¥°": 1497,
      "åĸĦ": 1498,
      "åĪ»": 1499,
      "æģĲ": 1500,
      "ç©¿": 1501,
      "ä»ħ": 1502,
      "ç¾Ĭ": 1503,
      "æķħäºĭ": 1504,
      "å±ŀ": 1505,
      "ç«Ł": 1506,
      "ç¤¼": 1507,
      "ä¸Ģæł·": 1508,
      "äºī": 1509,
      "å°½": 1510,
      "èŀ": 1511,
      "å¹¸": 1512,
      "ï¼İ": 1513,
      "å¿Ĺ": 1514,
      "äºĴ": 1515,
      "æ©Ł": 1516,
      "æĹħæ¸¸": 1517,
      "çŃĶ": 1518,
      "å§Ĳ": 1519,
      "88": 1520,
      "æĢª": 1521,
      "çĬ¶": 1522,
      "æĹ¥æľ¬": 1523,
      "æŁĲ": 1524,
      "åľŁ": 1525,
      "å²ģ": 1526,
      "ä¸įçŁ¥éģĵ": 1527,
      "ou": 1528,
      "é¥Ń": 1529,
      "ä¸Ŀ": 1530,
      "åĿĲ": 1531,
      "âĢĶâĢĶ": 1532,
      "åĨł": 1533,
      "ç§Ģ": 1534,
      "éĢı": 1535,
      "åĽ½å®¶": 1536,
      "èŃ¦": 1537,
      "æ±Ł": 1538,
      "åĨľ": 1539,
      "çºª": 1540,
      "çĽ®åīį": 1541,
      "è¿Ļæĺ¯": 1542,
      "çļĦäºĭ": 1543,
      "æ¥¼": 1544,
      "èģĮ": 1545,
      "ç³»ç»Ł": 1546,
      "èĭ¥": 1547,
      "éĴŁ": 1548,
      "èĮ¶": 1549,
      "èĽĭ": 1550,
      "éĢļè¿ĩ": 1551,
      "ä¸Ńå¿ĥ": 1552,
      "èĭ¦": 1553,
      "æĪĲä¸º": 1554,
      "å¾ĭ": 1555,
      "éĻ©": 1556,
      "es": 1557,
      "å¨ģ": 1558,
      "çĹĽ": 1559,
      "åıĳçĶŁ": 1560,
      "è¸": 1561,
      "è¿·": 1562,
      "æĬĢæľ¯": 1563,
      "com": 1564,
      "èĥĮ": 1565,
      "ä½³": 1566,
      "æµİ": 1567,
      "åĸĿ": 1568,
      "éħĴåºĹ": 1569,
      "æĢķ": 1570,
      "èĻ½çĦ¶": 1571,
      "ç¤¾ä¼ļ": 1572,
      "è½¯": 1573,
      "ĠS": 1574,
      "èľ": 1575,
      "è¿Ļç§į": 1576,
      "ä¸»è¦ģ": 1577,
      "æĭĽ": 1578,
      "åºĶè¯¥": 1579,
      "çļĦå°ı": 1580,
      "éĿĻ": 1581,
      "å±Ĥ": 1582,
      "èĹı": 1583,
      "éĶĢ": 1584,
      "çľģ": 1585,
      "æĸ¹éĿ¢": 1586,
      "æ¿Ģ": 1587,
      "æİī": 1588,
      "æĪĳåĢĳ": 1589,
      "æŀĦ": 1590,
      "è¯»": 1591,
      "åħ¶å®ŀ": 1592,
      "è¿½": 1593,
      "è·ĳ": 1594,
      "åĨ°": 1595,
      "éľ²": 1596,
      "18": 1597,
      "ä¹ĭåīį": 1598,
      "å¤ı": 1599,
      "éº¼": 1600,
      "åķ¡": 1601,
      "éĽ¨": 1602,
      "as": 1603,
      "it": 1604,
      "åıªæľī": 1605,
      "æ¬§": 1606,
      "æ¾³éĹ¨": 1607,
      "èĦ¸": 1608,
      "çĦ¡": 1609,
      "å·¦": 1610,
      "æĢİä¹Ī": 1611,
      "è®°èĢħ": 1612,
      "åĨħå®¹": 1613,
      "æĳĦ": 1614,
      "ä¸ľè¥¿": 1615,
      "è¶£": 1616,
      "æľĢåĲİ": 1617,
      "åĴĸåķ¡": 1618,
      "éĽ»": 1619,
      "åĨĮ": 1620,
      "å¦¹": 1621,
      "åĽ´": 1622,
      "éĽĦ": 1623,
      "æ²³": 1624,
      "åĶ®": 1625,
      "åĲĮæĹ¶": 1626,
      "16": 1627,
      "çļĦå¤§": 1628,
      "çĻ»": 1629,
      "æĿ¾": 1630,
      "ĠæĪĳ": 1631,
      "ç´¢": 1632,
      "ï¼ļãĢĮ": 1633,
      "æĿ¯": 1634,
      "ä¹Łä¸į": 1635,
      "çĶµå½±": 1636,
      "èįī": 1637,
      "æĸ¹æ³ķ": 1638,
      "å¯¦": 1639,
      "åĽłæŃ¤": 1640,
      "è°ģ": 1641,
      "èĪŀ": 1642,
      "ç¬¬äºĮ": 1643,
      "æŀĲ": 1644,
      "22": 1645,
      "æ°¸": 1646,
      "è¡¨ç¤º": 1647,
      "ä¸ĢèĪ¬": 1648,
      "am": 1649,
      "è´£": 1650,
      "çŁŃ": 1651,
      "14": 1652,
      "éĵ¶": 1653,
      "æ¨£": 1654,
      "åıªè¦ģ": 1655,
      "éĢ²": 1656,
      "ac": 1657,
      "et": 1658,
      "éĥ¨åĪĨ": 1659,
      "åħ§": 1660,
      "å®īåħ¨": 1661,
      "æľīäºº": 1662,
      "åĩºçİ°": 1663,
      "ĠK": 1664,
      "å¯¹äºİ": 1665,
      "is": 1666,
      "ĠC": 1667,
      "ä¿¡æģ¯": 1668,
      "åİ¿": 1669,
      "çĿ¡": 1670,
      "åı³": 1671,
      "è®ĵ": 1672,
      "è¿Ļä¸Ģ": 1673,
      "çĽĳ": 1674,
      "å¥Ĺ": 1675,
      "æĽ²": 1676,
      "ä»ĺ": 1677,
      "åŁŁ": 1678,
      "èµĦæĸĻ": 1679,
      "çŀ": 1680,
      "çĶµè§Ĩ": 1681,
      "æĸĩåĮĸ": 1682,
      "å³": 1683,
      "é²ľ": 1684,
      "å°ĩ": 1685,
      "è¯¾": 1686,
      "è®¤ä¸º": 1687,
      "ä»»ä½ķ": 1688,
      "éĹ»": 1689,
      "åĢĴ": 1690,
      "ä¹¡": 1691,
      "ç¨®": 1692,
      "éºµ": 1693,
      "æī¿": 1694,
      "çĪ¸": 1695,
      "éĽª": 1696,
      "åı¯æĺ¯": 1697,
      "æĶ¿åºľ": 1698,
      "å¥¶": 1699,
      "å¹´çļĦ": 1700,
      "å§Ķ": 1701,
      "ç¹": 1702,
      "å®¹æĺĵ": 1703,
      "âĨ": 1704,
      "åħ¸": 1705,
      "æ¯Ĵ": 1706,
      "æģ¶": 1707,
      "å·¨": 1708,
      "æĥł": 1709,
      "çĶµè¯Ŀ": 1710,
      "æ¯Ľ": 1711,
      "éĻĪ": 1712,
      "13": 1713,
      "ç§¯": 1714,
      "æĿ¥æºĲ": 1715,
      "é¡»": 1716,
      "å¹³åı°": 1717,
      "çĽĬ": 1718,
      "åĲ«": 1719,
      "åĿĩ": 1720,
      "ç»į": 1721,
      "ç´§": 1722,
      "è´Ł": 1723,
      "è¯ī": 1724,
      "åį«": 1725,
      "âĹ": 1726,
      "æĦ¿": 1727,
      "å²Ľ": 1728,
      "çķ¥": 1729,
      "è¿°": 1730,
      "æĭ¬": 1731,
      "åĸĶ": 1732,
      "Ġ2": 1733,
      "æ£®": 1734,
      "ĠA": 1735,
      "ç»§": 1736,
      "å¤§åŃ¦": 1737,
      "åĩºæĿ¥": 1738,
      "åİħ": 1739,
      "ç»ıæµİ": 1740,
      "ä¸Ģæ¬¡": 1741,
      "å®ľ": 1742,
      "il": 1743,
      "éĢĢ": 1744,
      "ç§»": 1745,
      "èį¯": 1746,
      "åłĤ": 1747,
      "å±ĭ": 1748,
      "çĸĳ": 1749,
      "åĪĨäº«": 1750,
      "æīĭæľº": 1751,
      "å¯»": 1752,
      "éĻį": 1753,
      "éķĩ": 1754,
      "é¢ĳ": 1755,
      "id": 1756,
      "éº»": 1757,
      "èī¯": 1758,
      "è´¢": 1759,
      "éķ·": 1760,
      "ä¸¥": 1761,
      "æķĻèĤ²": 1762,
      "éĮ": 1763,
      "èĬĤçĽ®": 1764,
      "çĽĽ": 1765,
      "åĹ": 1766,
      "èĥ½åĬĽ": 1767,
      "éĿł": 1768,
      "Ġ0": 1769,
      "åħµ": 1770,
      "æķĳ": 1771,
      "ht": 1772,
      "è±Ĩ": 1773,
      "æĸĹ": 1774,
      "è¦ģæ±Ĥ": 1775,
      "åºŃ": 1776,
      "ç¯ĩ": 1777,
      "ç«¯": 1778,
      "é¸¡": 1779,
      "çĽ´æİ¥": 1780,
      "éĻ¤äºĨ": 1781,
      "ä»ĭç»į": 1782,
      "çĦ¶åĲİ": 1783,
      "éĵģ": 1784,
      "çĶļèĩ³": 1785,
      "éĩİ": 1786,
      "åĿĹ": 1787,
      "æĽ´å¤ļ": 1788,
      "Ġb": 1789,
      "åĮħæĭ¬": 1790,
      "èĩªçĦ¶": 1791,
      "æĥħåĨµ": 1792,
      "éĹľ": 1793,
      "çĭĤ": 1794,
      "åĶ±": 1795,
      "æĲŃ": 1796,
      "èĦļ": 1797,
      "å·§": 1798,
      "å¥¹çļĦ": 1799,
      "èĥľ": 1800,
      "çŃĸ": 1801,
      "ed": 1802,
      "æİ¢": 1803,
      "æ³¨æĦı": 1804,
      "ä½Ľ": 1805,
      "100": 1806,
      "æ±¤": 1807,
      "ç£": 1808,
      "åı¶": 1809,
      "çī¹åĪ«": 1810,
      "åĲĦä½į": 1811,
      "å¹ķ": 1812,
      "åħ¶ä¸Ń": 1813,
      "æ¸Ĳ": 1814,
      "ç»ĵæŀľ": 1815,
      "èŀį": 1816,
      "åĬŁèĥ½": 1817,
      "17": 1818,
      "åħįè´¹": 1819,
      "çĨŁ": 1820,
      "Ġ201": 1821,
      "æ¥Ń": 1822,
      "æłĳ": 1823,
      "åºı": 1824,
      "æ´¾": 1825,
      "å¯Ł": 1826,
      "èµı": 1827,
      "çłģ": 1828,
      "çĸĹ": 1829,
      "æĺ¯åĲ¦": 1830,
      "åľ£": 1831,
      "å°ļ": 1832,
      "è¿İ": 1833,
      "åħļ": 1834,
      "æĥ³è¦ģ": 1835,
      "çĶ¨æĪ·": 1836,
      "åı¥": 1837,
      "æĩī": 1838,
      "è½®": 1839,
      "æµª": 1840,
      "èģĬ": 1841,
      "éĽħ": 1842,
      "æĢĢ": 1843,
      "éŀĭ": 1844,
      "ç»¿": 1845,
      "æľīäºĽ": 1846,
      "æ¼«": 1847,
      "æĬĺ": 1848,
      "è®¸å¤ļ": 1849,
      "é¦Ļæ¸¯": 1850,
      "40": 1851,
      "ä¸įåĪ°": 1852,
      "ä¸°": 1853,
      "å¾ŀ": 1854,
      "åºĬ": 1855,
      "éĸĴ": 1856,
      "éĽ·": 1857,
      "çļĦå¥³": 1858,
      "ç³ĸ": 1859,
      "ç§ģ": 1860,
      "æ¦Ĥ": 1861,
      "èįĲ": 1862,
      "åķ¦": 1863,
      "åŀ": 1864,
      "èĮĥ": 1865,
      "ç¶²": 1866,
      "25": 1867,
      "è°Ī": 1868,
      "æ²ī": 1869,
      "âĢĿï¼Į": 1870,
      "ç«¥": 1871,
      "æĸĩç«ł": 1872,
      "é¡º": 1873,
      "å½±åĵį": 1874,
      "æĪĸèĢħ": 1875,
      "æĭ¥": 1876,
      "æİ¨èįĲ": 1877,
      "è¡¥": 1878,
      "çį": 1879,
      "æĸ°çļĦ": 1880,
      "Ġä¸Ĭ": 1881,
      "å¿ĺ": 1882,
      "ing": 1883,
      "åĲī": 1884,
      "æł¸": 1885,
      "ä¸¦": 1886,
      "æ³¡": 1887,
      "æĭħ": 1888,
      "åħ©": 1889,
      "æļĹ": 1890,
      "çļĦè¯Ŀ": 1891,
      "æĿĲæĸĻ": 1892,
      "èĭı": 1893,
      "çĴ": 1894,
      "åŃ¦ä¹ł": 1895,
      "æĹģ": 1896,
      "æĹłæ³ķ": 1897,
      "åł´": 1898,
      "è´§": 1899,
      "åģ¥åº·": 1900,
      "ĠçļĦ": 1901,
      "åªĴ": 1902,
      "ĠKB": 1903,
      "éłŃ": 1904,
      "ĠM": 1905,
      "ol": 1906,
      "60": 1907,
      "é¹": 1908,
      "ä¸´": 1909,
      "www": 1910,
      "çĳŀ": 1911,
      "åĨ³å®ļ": 1912,
      "å¿ħé¡»": 1913,
      "ç§ĭ": 1914,
      "èĶ": 1915,
      "èĥ½å¤Ł": 1916,
      "æ£Ģ": 1917,
      "å¿Ļ": 1918,
      "æĢ¥": 1919,
      "æĢİéº½": 1920,
      "æľĿ": 1921,
      "ç»ĩ": 1922,
      "åįı": 1923,
      "ä»į": 1924,
      "Ġï¼Į": 1925,
      "å°Ħ": 1926,
      "åĪĨæŀĲ": 1927,
      "å¥¥": 1928,
      "éŃĤ": 1929,
      "æ¯ķ": 1930,
      "çİī": 1931,
      "æĶ»": 1932,
      "ä¹¾": 1933,
      "ä»Ĭå¹´": 1934,
      "ä¸ĢçĤ¹": 1935,
      "çĪĨ": 1936,
      "ĠP": 1937,
      "æĬ¥å¯¼": 1938,
      "è´µ": 1939,
      "æ´ĭ": 1940,
      "çģ¯": 1941,
      "æĬķèµĦ": 1942,
      "å®Įåħ¨": 1943,
      "ad": 1944,
      "çĽ¸åħ³": 1945,
      "æģĭ": 1946,
      "çĶ·äºº": 1947,
      "åĩı": 1948,
      "ä½ľä¸º": 1949,
      "ç¼º": 1950,
      "æĮĳ": 1951,
      "æĪĲåĬŁ": 1952,
      "çľĭçľĭ": 1953,
      "äº¡": 1954,
      "äº¿": 1955,
      "ä¸¤ä¸ª": 1956,
      "è·³": 1957,
      "çīĻ": 1958,
      "æķ£": 1959,
      "åĮĹäº¬": 1960,
      "æīĺ": 1961,
      "çīĪæĿĥ": 1962,
      "çİ¯å¢ĥ": 1963,
      "----------------": 1964,
      "éª¨": 1965,
      "ï¼į": 1966,
      "ç½ĳä¸Ĭ": 1967,
      "........": 1968,
      "è»Ĭ": 1969,
      "æŀ¶": 1970,
      "éĻĨ": 1971,
      "èģļ": 1972,
      "çĶ³": 1973,
      "é¡¶": 1974,
      "ri": 1975,
      "é½": 1976,
      "çĶ±äºİ": 1977,
      "å«": 1978,
      "å®£": 1979,
      "çº³": 1980,
      "å°±ä¼ļ": 1981,
      "ch": 1982,
      "ç¸": 1983,
      "æĦĽ": 1984,
      "åĳ¼": 1985,
      "æģ©": 1986,
      "æĬ½": 1987,
      "åĪĢ": 1988,
      "è¿Ľåħ¥": 1989,
      "é¡¾": 1990,
      "æĬĹ": 1991,
      "æī§": 1992,
      "äººåĳĺ": 1993,
      "éĥ½æľī": 1994,
      "ç»ĥ": 1995,
      "å¨±ä¹Ĳåľº": 1996,
      "äºĨè§£": 1997,
      "èĪª": 1998,
      "ä¼´": 1999,
      "æķ°æį®": 2000,
      "çĶ°": 2001,
      "æ²Ĵæľī": 2002,
      "çĶľ": 2003,
      "ä¼Ĭ": 2004,
      "è£½": 2005,
      "è¿ĻéĩĮ": 2006,
      "åİĤ": 2007,
      "è¨Ń": 2008,
      "é»ĺ": 2009,
      "å¥½åĥı": 2010,
      "è³ĩ": 2011,
      "èĿ": 2012,
      "ç²¾ç¥ŀ": 2013,
      "??": 2014,
      "å®ĮæĪĲ": 2015,
      "å½±çīĩ": 2016,
      "æ³°": 2017,
      "åĿļ": 2018,
      "24": 2019,
      "æ·¡": 2020,
      "åŁİå¸Ĥ": 2021,
      "ä»·æł¼": 2022,
      "è´´": 2023,
      "ro": 2024,
      "çĹĩ": 2025,
      "çļĦåľ°æĸ¹": 2026,
      "âĨĴ": 2027,
      "æĺ¯åľ¨": 2028,
      "å´": 2029,
      "å®Ī": 2030,
      "æ¥ļ": 2031,
      "ç³»åĪĹ": 2032,
      "åİŁåĽł": 2033,
      "99": 2034,
      "è®¿": 2035,
      "èĵĿ": 2036,
      "éĺµ": 2037,
      "\">": 2038,
      "åĵģçīĮ": 2039,
      "è±ª": 2040,
      "çļĩåĨł": 2041,
      "è¦ĸ": 2042,
      "åĲĪä½ľ": 2043,
      "æ¯ıå¤©": 2044,
      "è®¨": 2045,
      "âĺ": 2046,
      "ä¸ĢåĢĭ": 2047,
      "åĪĨéĴŁ": 2048,
      "æ½®": 2049,
      "è¿ª": 2050,
      "éŁ³ä¹Ĳ": 2051,
      "ç¿»": 2052,
      "éģ¿": 2053,
      "æĢĸ": 2054,
      "åīĳ": 2055,
      "é¥®": 2056,
      "å¸Ŀ": 2057,
      "80": 2058,
      "æĵį": 2059,
      "ç¬Ķ": 2060,
      "ä»£è¡¨": 2061,
      "åĪĺ": 2062,
      "ord": 2063,
      "å®¿": 2064,
      "ä¼¯": 2065,
      "ä½łä»¬": 2066,
      "ä¼¦": 2067,
      "è¿ĩç¨ĭ": 2068,
      "éĥ½ä¼ļ": 2069,
      "æģĲæĢĸ": 2070,
      "âĢĿãĢĤ": 2071,
      "çĪ±æĥħ": 2072,
      "å¹´è½»": 2073,
      "ä¸įæĸŃ": 2074,
      "çĥĪ": 2075,
      "åŁºæľ¬": 2076,
      "åĮĻ": 2077,
      "æľºä¼ļ": 2078,
      "å¦»": 2079,
      "ä½ĵéªĮ": 2080,
      "å®«": 2081,
      "åķı": 2082,
      "ä¹Łæľī": 2083,
      "åĺī": 2084,
      "æ±ī": 2085,
      "åĩĨå¤ĩ": 2086,
      "å°¸": 2087,
      "åĪº": 2088,
      "çĶŁçļĦ": 2089,
      "éĨĴ": 2090,
      "æ±ł": 2091,
      "æĳ©": 2092,
      "å¾ĹåĪ°": 2093,
      "æĶ¯æĮģ": 2094,
      "Ġåľ¨": 2095,
      "å°ıæĹ¶": 2096,
      "åıĤåĬł": 2097,
      "æľīçļĦ": 2098,
      "åĩºäºĨ": 2099,
      "èİ«": 2100,
      "åĬ³": 2101,
      "çĬ¯": 2102,
      "æ°£": 2103,
      "æĹ§": 2104,
      "éĺ´": 2105,
      "éĿ¢çļĦ": 2106,
      "ay": 2107,
      "è¯·éĹ®": 2108,
      "èĢ³": 2109,
      "éģŃ": 2110,
      "åĨ²": 2111,
      "è¦º": 2112,
      "ï¼īï¼Į": 2113,
      "åĲĦç§į": 2114,
      "çĶ¢": 2115,
      "èİ·å¾Ĺ": 2116,
      "åŃ¦æł¡": 2117,
      "åİĨåı²": 2118,
      "ç«ŀ": 2119,
      "éģ¸": 2120,
      "ä¹±": 2121,
      "åī¯": 2122,
      "è·Ŀ": 2123,
      "æŁĵ": 2124,
      "ä¸ĵä¸ļ": 2125,
      "åį±": 2126,
      "çĶ²": 2127,
      "èī²çļĦ": 2128,
      "å¿Ĩ": 2129,
      "ä¹ĭéĹ´": 2130,
      "éĤ£äºĽ": 2131,
      "è¿ĩåİ»": 2132,
      "ĠT": 2133,
      "çĶŁåĳ½": 2134,
      "æļ´": 2135,
      "oo": 2136,
      "æİ§åĪ¶": 2137,
      "ĠB": 2138,
      "ä¹ĭä¸Ģ": 2139,
      "åĽ°": 2140,
      "ï¼ĮâĢľ": 2141,
      "éħ¸": 2142,
      "èµĮåľº": 2143,
      "å°ģ": 2144,
      "23": 2145,
      "éĶħ": 2146,
      "éĤ£ä¸ª": 2147,
      "å¡Ķ": 2148,
      "åĿĽ": 2149,
      "åŁ¹": 2150,
      "åľ¨çº¿": 2151,
      "å®¶åºŃ": 2152,
      "å½ĵçĦ¶": 2153,
      "ç½ĳåĿĢ": 2154,
      "ç¡¬": 2155,
      "æĺ¯ä¸Ģä¸ª": 2156,
      "åĽłçĤº": 2157,
      "åĭĻ": 2158,
      "çªģçĦ¶": 2159,
      "é¢Ŀ": 2160,
      "èĢģèĻİ": 2161,
      "2014": 2162,
      "ç¬¬ä¸ī": 2163,
      "è©±": 2164,
      "28": 2165,
      "éŁ©": 2166,
      "èĪĴ": 2167,
      "å®Ĺ": 2168,
      "ç«¹": 2169,
      "èĪ¹": 2170,
      "æĿ¥è¯´": 2171,
      "ç®Ģåįķ": 2172,
      "åģ¶": 2173,
      "çļĦå¿ĥ": 2174,
      "æī¹": 2175,
      "çĥ§": 2176,
      "ï¼ģï¼ģ": 2177,
      "è®Ń": 2178,
      "è¾ĳ": 2179,
      "ä¸Ģç§į": 2180,
      "ç½ª": 2181,
      "and": 2182,
      "æĬ±": 2183,
      "æª": 2184,
      "ä¸ģ": 2185,
      "åĿı": 2186,
      "çĭĹ": 2187,
      "Ġ3": 2188,
      "ãģ": 2189,
      "éĤ£ä¹Ī": 2190,
      "å¦ĤæŃ¤": 2191,
      "æĪĸæĺ¯": 2192,
      "åľ°åĿĢ": 2193,
      "æĿĤ": 2194,
      "ç¦ģ": 2195,
      "åŃĺåľ¨": 2196,
      "ãĢİ": 2197,
      "ãĢį,": 2198,
      "èĢģå¸Ī": 2199,
      "èī¾": 2200,
      "æķĪæŀľ": 2201,
      "ãĢĤãĢį": 2202,
      "çĺ": 2203,
      "äººæ°ĳ": 2204,
      "æĸ°éĹ»": 2205,
      "åľ°åĮº": 2206,
      "åĨ¬": 2207,
      "æĤ£": 2208,
      "æĬĵ": 2209,
      "åĪ©çĶ¨": 2210,
      "é¡µ": 2211,
      "è¾ĵ": 2212,
      "æĪĲäºĨ": 2213,
      "åļ": 2214,
      "æľ«": 2215,
      "åħ·æľī": 2216,
      "ç®±": 2217,
      "ä»¥åīį": 2218,
      "æĥ³åĪ°": 2219,
      "åĪ¥": 2220,
      "ion": 2221,
      "éĽ¶": 2222,
      "ä¸įéĶĻ": 2223,
      "æĨ": 2224,
      "æĻļä¸Ĭ": 2225,
      "çīĪæĿĥæīĢæľī": 2226,
      "èĦ±": 2227,
      "å¤§å¤§": 2228,
      "æĭľ": 2229,
      "è¨Ī": 2230,
      "æİĮ": 2231,
      "ĠãĢĤ": 2232,
      "ot": 2233,
      "çħ§çīĩ": 2234,
      "éļĲ": 2235,
      "éĢĶ": 2236,
      "åľĨ": 2237,
      "éĢĲ": 2238,
      "çĽ¸ä¿¡": 2239,
      "èīºæľ¯": 2240,
      "è´Ŀ": 2241,
      "ç»Ħç»ĩ": 2242,
      "éĿ©": 2243,
      "æł¹æį®": 2244,
      "ä»¥ä¸ĭ": 2245,
      "å¯¹æĸ¹": 2246,
      "ä¿ĿåŃĺ": 2247,
      "è®¢": 2248,
      "åĳĬè¯ī": 2249,
      "èº«ä½ĵ": 2250,
      "ä»Ķ": 2251,
      "ä¼ĳéĸĴ": 2252,
      "æĲľ": 2253,
      "éģĹ": 2254,
      "æŃ£åľ¨": 2255,
      "èĤ¯": 2256,
      "çµ¦": 2257,
      "ä¸įåı¯": 2258,
      "æ¶Īè´¹": 2259,
      "åĽº": 2260,
      "åĺ´": 2261,
      "è¿ĲåĬ¨": 2262,
      "ä¸ĭæĿ¥": 2263,
      "è°·": 2264,
      "æĿ¨": 2265,
      "é¡¿": 2266,
      "æīįèĥ½": 2267,
      "ä»ĸä»¬çļĦ": 2268,
      "åĶĲ": 2269,
      "âĶ": 2270,
      "å¢ŀåĬł": 2271,
      "é¡¹çĽ®": 2272,
      "å¤ļå°ĳ": 2273,
      "27": 2274,
      "æķ¸": 2275,
      "çµĲ": 2276,
      "åĵ¡": 2277,
      "åĩºçļĦ": 2278,
      "åºĵ": 2279,
      "ãĢı": 2280,
      "çŃĳ": 2281,
      "ç©ºéĹ´": 2282,
      "æ¢ħ": 2283,
      "è®Ĭ": 2284,
      "åģı": 2285,
      "åĩ¡": 2286,
      "ow": 2287,
      "å»¶": 2288,
      "Ġä¸Ģ": 2289,
      "è¬": 2290,
      "çº¸": 2291,
      "å®¾": 2292,
      "äºĭä»¶": 2293,
      "ud": 2294,
      "æĩĤ": 2295,
      "æķ¢": 2296,
      "æ±½": 2297,
      "2013": 2298,
      "éļĶ": 2299,
      "im": 2300,
      "æĿŁ": 2301,
      "å¦Īå¦Ī": 2302,
      "21": 2303,
      "2010": 2304,
      "ä½ľåĵģ": 2305,
      "å¸ģ": 2306,
      "éļ»": 2307,
      "å¨ľ": 2308,
      "è§£åĨ³": 2309,
      "å©Ĩ": 2310,
      "å¸®åĬ©": 2311,
      "ent": 2312,
      "äºĭæĥħ": 2313,
      "å½Ĵ": 2314,
      "ç»§ç»Ń": 2315,
      "æİ¥åıĹ": 2316,
      "æ¬£": 2317,
      "è¦ĭ": 2318,
      "æĢ§çļĦ": 2319,
      "å¤ĦçĲĨ": 2320,
      "ä¼ĺæĥł": 2321,
      "æ£ĭ": 2322,
      "èĻķ": 2323,
      "æ¡£": 2324,
      "åĬª": 2325,
      "è¡Įä¸ļ": 2326,
      "ä¸įå¾Ĺ": 2327,
      "éĢłæĪĲ": 2328,
      "ig": 2329,
      "å¿į": 2330,
      "ä»¥ä¸Ĭ": 2331,
      "åŃĲçļĦ": 2332,
      "åħ¨çĲĥ": 2333,
      "26": 2334,
      "ä¸įçŁ¥": 2335,
      "çľŁäºº": 2336,
      "å°ıå¼Ł": 2337,
      "æ¡ĥ": 2338,
      "ä¸įå°ĳ": 2339,
      "è«ĭ": 2340,
      "èĥ¡": 2341,
      "ç§ĳæĬĢ": 2342,
      "åĪ¤": 2343,
      "åıªèĥ½": 2344,
      "åıĹåĪ°": 2345,
      "åħ³ç³»": 2346,
      "br": 2347,
      "ĠR": 2348,
      "000": 2349,
      "èĩªçĶ±": 2350,
      "å¤ªéĺ³": 2351,
      "äºİæĺ¯": 2352,
      "ä¹³": 2353,
      "un": 2354,
      "Ġs": 2355,
      "éķľ": 2356,
      "åįĢ": 2357,
      "çĽĸ": 2358,
      "æĪĳä»¬çļĦ": 2359,
      "è¯º": 2360,
      "æĢ»æĺ¯": 2361,
      "Ġ-": 2362,
      "éĢ±": 2363,
      "è®©äºº": 2364,
      "è¹": 2365,
      "==": 2366,
      "å°±åı¯ä»¥": 2367,
      "çªĹ": 2368,
      "æī¾åĪ°": 2369,
      "æĭ¥æľī": 2370,
      "åºĨ": 2371,
      "è²»": 2372,
      "æĲŀ": 2373,
      "ĠD": 2374,
      "æľīçĤ¹": 2375,
      "èĢģèĻİæľº": 2376,
      "ä¸įå¥½": 2377,
      "ä»ĸåĢĳ": 2378,
      "ag": 2379,
      "Ġä¸Ĭä¼ł": 2380,
      "èŁ": 2381,
      "æ³ī": 2382,
      "åģ·": 2383,
      "éĶ®": 2384,
      "åĸ®": 2385,
      "å¹»": 2386,
      "åĲ¯": 2387,
      "æ¶²": 2388,
      "æºª": 2389,
      "éĢĥ": 2390,
      "å®ĺæĸ¹": 2391,
      "èµĦæĸĻæĿ¥æºĲ": 2392,
      "æĺ¨": 2393,
      "éļľ": 2394,
      "è¯į": 2395,
      "åĩ¯": 2396,
      "æİĪ": 2397,
      "åĬłåħ¥": 2398,
      "é¡Į": 2399,
      "åħ³äºİ": 2400,
      "æļĸ": 2401,
      "ç¨³": 2402,
      "è´¥": 2403,
      "èµĮåįļ": 2404,
      "ä½įç½®": 2405,
      "å²¸": 2406,
      "æĿ¥èĩª": 2407,
      "å¼ĥ": 2408,
      "æĽ¼": 2409,
      "å®¶çļĦ": 2410,
      "å°¤": 2411,
      "çĥ¦": 2412,
      "åı¦å¤ĸ": 2413,
      "è¾£": 2414,
      "çľŁæŃ£": 2415,
      "æ§": 2416,
      "ĠL": 2417,
      "åĲ´": 2418,
      "æ»ĳ": 2419,
      "æı¡": 2420,
      "å¹¸ç¦ı": 2421,
      "ä¼łç»Ł": 2422,
      "åĪ«äºº": 2423,
      "å¥³äºº": 2424,
      "ä½ľçĶ¨": 2425,
      "èļ": 2426,
      "éĴĪ": 2427,
      "ä¸İçīĪæĿĥæīĢæľī": 2428,
      "âĶĢ": 2429,
      "æĬķæ³¨": 2430,
      "ä½įäºİ": 2431,
      "ç´¯": 2432,
      "90": 2433,
      "å®ģ": 2434,
      "æ··": 2435,
      "æ¡¥": 2436,
      "ä¸ĭçļĦ": 2437,
      "æ¤į": 2438,
      "ĠH": 2439,
      "36": 2440,
      "æ¬¡æķ°": 2441,
      "åĬªåĬĽ": 2442,
      "åı¦ä¸Ģ": 2443,
      "çĦ¶èĢĮ": 2444,
      "èµ¢": 2445,
      "åĢŁ": 2446,
      "æ´Ľ": 2447,
      "55": 2448,
      "å¸«": 2449,
      "æľĢä½³": 2450,
      "çĥŁ": 2451,
      "ä»Ļ": 2452,
      "éľĩ": 2453,
      "éĩĬ": 2454,
      "åĩłä¸ª": 2455,
      "è¯¯": 2456,
      "é¤Ĳåİħ": 2457,
      "ä¿Ĥ": 2458,
      "çº¯": 2459,
      "âĺħ": 2460,
      "èµ¶": 2461,
      "ï¼ŁãĢį": 2462,
      "å°Ĭ": 2463,
      "ä¸»é¢ĺ": 2464,
      "å¥³åŃ©": 2465,
      "ä¸ĢæŃ¥": 2466,
      "å¦ĩ": 2467,
      "èµĮçĲĥ": 2468,
      "é«®": 2469,
      "éĸĢ": 2470,
      "ç¾İåħĥ": 2471,
      "èµĦæĸĻæĿ¥æºĲä¸İçīĪæĿĥæīĢæľī": 2472,
      "æĥ¯": 2473,
      "è¢ĭ": 2474,
      "å®¢æĪ·": 2475,
      "order": 2476,
      "ä¼¼ä¹İ": 2477,
      "çĶŁäº§": 2478,
      "äº¦": 2479,
      "å¿ĥçļĦ": 2480,
      "2011": 2481,
      "æĹ¢": 2482,
      "åįł": 2483,
      "çº·": 2484,
      "è§¦": 2485,
      "ï¼īãĢĤ": 2486,
      "çĶµåŃĲ": 2487,
      "åľĪ": 2488,
      "ä¸¹": 2489,
      "äººä»¬": 2490,
      "æ¯ĶåĪĨ": 2491,
      "ãĢĤãĢĤ": 2492,
      "ç¾İä¸½": 2493,
      "å»ºè®¾": 2494,
      "éĢĻåĢĭ": 2495,
      "å¾Īå¥½": 2496,
      "ç»ıè¿ĩ": 2497,
      "Ġ,": 2498,
      "ï¼ģãĢį": 2499,
      "__": 2500,
      "å§Ĩ": 2501,
      "åºĶçĶ¨": 2502,
      "çĵ¶": 2503,
      "æıĲé«ĺ": 2504,
      "å®ļçļĦ": 2505,
      "æµ´": 2506,
      "ä¸ĢåĪĩ": 2507,
      "éĥ½ä¸į": 2508,
      "èİ²": 2509,
      "çħ®": 2510,
      "æ£Ĵ": 2511,
      "æĺ¯ä¸ª": 2512,
      "è¿Ļæł·çļĦ": 2513,
      "åĲįçļĦ": 2514,
      "ç¾Ĭåº§": 2515,
      "æ¨Ĥ": 2516,
      "æ¬²": 2517,
      "æķ´ä¸ª": 2518,
      "å¤®": 2519,
      "ä¸įä»ħ": 2520,
      "å¨ĺ": 2521,
      "çıį": 2522,
      "ï¼ŁâĢĿ": 2523,
      "å¸¶": 2524,
      "éĩĳçīĽ": 2525,
      "æł·çļĦ": 2526,
      "ç·ļ": 2527,
      "æ¨¡å¼ı": 2528,
      "èķ": 2529,
      "æĺŁåº§": 2530,
      "è®¡åĪĴ": 2531,
      "èĤ¤": 2532,
      "ï¼ģâĢĿ": 2533,
      "éľ¹": 2534,
      "èµĶ": 2535,
      "æĬ¢": 2536,
      "éĺ¶": 2537,
      "å°¾": 2538,
      "å·¦åı³": 2539,
      "åĶ¯": 2540,
      "è¿Ļæ¬¡": 2541,
      "å»ºçŃĳ": 2542,
      "ä¸Ģä¸ªäºº": 2543,
      "åľĸ": 2544,
      "å³°": 2545,
      "æĿ°": 2546,
      "he": 2547,
      "éĽ³": 2548,
      "çĮª": 2549,
      "èĢ¶": 2550,
      "çĽĲ": 2551,
      "åħĪçĶŁ": 2552,
      "Ġæľī": 2553,
      "29": 2554,
      "ç»Īäºİ": 2555,
      "å¿½": 2556,
      "è½¯ä»¶": 2557,
      "çĥ¤": 2558,
      "éľ¹éĽ³": 2559,
      "å¼Ģåıĳ": 2560,
      "éģĬ": 2561,
      "è¡Įä¸º": 2562,
      "æĿ¥äºĨ": 2563,
      "åĪ°çĽ¸": 2564,
      "éĻĦä»¶": 2565,
      "è¿«": 2566,
      "èµĦæºĲ": 2567,
      "æĪĳæĥ³": 2568,
      "æĺł": 2569,
      "ç¾İé£Ł": 2570,
      "èĻ¾": 2571,
      "èħ¿": 2572,
      "çĽŁ": 2573,
      "æ¼Ĥ": 2574,
      "çļĦå¥½": 2575,
      "æ¡Į": 2576,
      "ä»¤äºº": 2577,
      "ä¿ĥ": 2578,
      "é¢¨": 2579,
      "æĹ¶ä»£": 2580,
      "å·¥ç¨ĭ": 2581,
      "å¼±": 2582,
      "çĿĽ": 2583,
      "å¹¶ä¸Ķ": 2584,
      "è©²": 2585,
      "ä»¥åĲİ": 2586,
      "å¯Ĵ": 2587,
      "ä¸Ģå¤©": 2588,
      "ä¸Ģå®¶": 2589,
      "ç°": 2590,
      "éĢĤåĲĪ": 2591,
      "èı²": 2592,
      "å¤ļçļĦ": 2593,
      "æ¯įäº²": 2594,
      "åĽ½åĨħ": 2595,
      "ir": 2596,
      "èİī": 2597,
      "70": 2598,
      "é¢ľ": 2599,
      "ç¬¦": 2600,
      "èİ±": 2601,
      "å¸Ń": 2602,
      "å¡ŀ": 2603,
      "å»ºè®®": 2604,
      "æŃ»äº¡": 2605,
      "ä»Ģéº¼": 2606,
      "ä¸Ģä½į": 2607,
      "æĳĦå½±": 2608,
      "ä½Ļ": 2609,
      "çļĦäºĭæĥħ": 2610,
      "ç§Ł": 2611,
      "åĪ°çĽ¸åĨĮ": 2612,
      "çĽ®æłĩ": 2613,
      "ä¸Ĭæµ·": 2614,
      "é«ĺéĽĦ": 2615,
      "Ġä¸ĭè½½": 2616,
      "å¿«ä¹Ĳ": 2617,
      "æľªæĿ¥": 2618,
      "èº«ä¸Ĭ": 2619,
      "ç¼ĺ": 2620,
      "å¹¾": 2621,
      "æľīéĻĲ": 2622,
      "è§Ī": 2623,
      "éĻĦè¿ĳ": 2624,
      "è¯Ĺ": 2625,
      "ç»¼": 2626,
      "å°±åľ¨": 2627,
      "æĿ±": 2628,
      "æľĢæĸ°": 2629,
      "2012": 2630,
      "us": 2631,
      "è£Ŀ": 2632,
      "ä¿ĿåŃĺåĪ°çĽ¸åĨĮ": 2633,
      "è¼ĥ": 2634,
      "åĬłä¸Ĭ": 2635,
      "åķĨåĵģ": 2636,
      "Ġborder": 2637,
      "åĮ»éĻ¢": 2638,
      "çµ±": 2639,
      "è¯¢": 2640,
      "ä¿ĿæĬ¤": 2641,
      "éĿ¢å¯¹": 2642,
      "èªį": 2643,
      "åį·": 2644,
      "ç»ıéªĮ": 2645,
      "å·Ŀ": 2646,
      "âĹİ": 2647,
      "åĪ°åºķ": 2648,
      "è¤": 2649,
      "åŃ¤": 2650,
      "the": 2651,
      "å®ŀçİ°": 2652,
      "çĵľ": 2653,
      "çĶµèĦĳ": 2654,
      "åİļ": 2655,
      "éļĨ": 2656,
      "ç§ĳåŃ¦": 2657,
      "åºĦ": 2658,
      "å¹´åīį": 2659,
      "å®¡": 2660,
      "æķı": 2661,
      "æĪ´": 2662,
      "åĤ³": 2663,
      "åĲĽ": 2664,
      "åīĩ": 2665,
      "é¢Ĺ": 2666,
      "ä¸ĭåįĪ": 2667,
      "ä¸įåĲĮçļĦ": 2668,
      "è¶ĬæĿ¥": 2669,
      "ï¼ĳ": 2670,
      "æħ§": 2671,
      "ur": 2672,
      "éĤĬ": 2673,
      "ä»ģ": 2674,
      "çĶ¨çļĦ": 2675,
      "çıł": 2676,
      "33": 2677,
      "åı°ä¸Ń": 2678,
      "æ´ģ": 2679,
      "ä¸ļåĬ¡": 2680,
      "ap": 2681,
      "çĤ¸": 2682,
      "è®©æĪĳ": 2683,
      "è®ºåĿĽ": 2684,
      "æŁĶ": 2685,
      "ĠI": 2686,
      "è¡¨çİ°": 2687,
      "å±Ĭ": 2688,
      "æ¯«": 2689,
      "è·¯ä¸Ĭ": 2690,
      "åİ»äºĨ": 2691,
      "è¶ĬæĿ¥è¶Ĭ": 2692,
      "æ¸ħæ¥ļ": 2693,
      "æĹħè¡Į": 2694,
      "æĺ¾ç¤º": 2695,
      "æĤ²": 2696,
      "çĽ®çļĦ": 2697,
      "éĺħ": 2698,
      "ç¬¬ä¸Ģæ¬¡": 2699,
      "of": 2700,
      "æľīåħ³": 2701,
      "åĭĩ": 2702,
      "çĪ±çļĦ": 2703,
      "ï¹": 2704,
      "é£Łçī©": 2705,
      "å¼·": 2706,
      "æĪĳæĺ¯": 2707,
      "åĥ¹": 2708,
      "è§Ģ": 2709,
      "éģĩåĪ°": 2710,
      "åįģåĪĨ": 2711,
      "åĲĮåŃ¦": 2712,
      "å®ĩ": 2713,
      "æĽ¸": 2714,
      "èĤĮ": 2715,
      "å¼¹": 2716,
      "ä»¥ä¸º": 2717,
      "èĻĳ": 2718,
      "ç¼ĵ": 2719,
      "ä¹ĺ": 2720,
      "ä½łä¼ļ": 2721,
      "æłĩåĩĨ": 2722,
      "æµ®": 2723,
      "äºĨä¸Ģä¸ª": 2724,
      "éģĭ": 2725,
      "è³ª": 2726,
      "è¨ĺ": 2727,
      "ç¥ĸ": 2728,
      "éģį": 2729,
      "éľĢæ±Ĥ": 2730,
      "åªĴä½ĵ": 2731,
      "çľŁæĺ¯": 2732,
      "è¡¨æ¼Ķ": 2733,
      "è¶ħè¿ĩ": 2734,
      "éĤª": 2735,
      "åĩī": 2736,
      "çľ¼çĿĽ": 2737,
      "ç´«": 2738,
      "ä¸ĭè½½éĻĦä»¶": 2739,
      "å±ı": 2740,
      "çĸ¾": 2741,
      "å¸¸å¸¸": 2742,
      "çŃ¾": 2743,
      "å£°éŁ³": 2744,
      "ä¼Ļ": 2745,
      "Ġä¸ĭè½½æ¬¡æķ°": 2746,
      "åĪ·": 2747,
      "æĦŁæĥħ": 2748,
      "å¹¿åĳĬ": 2749,
      "å¦Ļ": 2750,
      "lo": 2751,
      "ãĢįãĢĤ": 2752,
      "æ£ĭçīĮ": 2753,
      "æįŁ": 2754,
      "æ³¨åĨĮ": 2755,
      "èģĶç½ĳ": 2756,
      "åħĴ": 2757,
      "æĽ¾ç»ı": 2758,
      "çİ°åľº": 2759,
      "æł¹æľ¬": 2760,
      "æİ¨åĩº": 2761,
      "å¤©çļĦ": 2762,
      "æĮ¥": 2763,
      "åĲ¸å¼ķ": 2764,
      "éģĶ": 2765,
      "æĺŁæľŁ": 2766,
      "æıĴ": 2767,
      "âĸ": 2768,
      "æµĵ": 2769,
      "æľīæķĪ": 2770,
      "è®¤è¯Ĩ": 2771,
      "å½ĵæĹ¶": 2772,
      "æ®ĭ": 2773,
      "çĪ¶æ¯į": 2774,
      "çģ£": 2775,
      "å°İ": 2776,
      "æĽ´åĬł": 2777,
      "æĪ°": 2778,
      "è¿Ļä¹Ī": 2779,
      "æıı": 2780,
      "éº¦": 2781,
      "ä¹łæĥ¯": 2782,
      "äº«åıĹ": 2783,
      "ä¿ĿæĮģ": 2784,
      "ä½ľèĢħ": 2785,
      "ä¸Ģå®ļè¦ģ": 2786,
      "æ¬§æ´²": 2787,
      "éĻ·": 2788,
      "æ¯ķä¸ļ": 2789,
      "çĤİ": 2790,
      "æĻĤéĸĵ": 2791,
      "å¯¼èĩ´": 2792,
      "çİ°éĩĳ": 2793,
      "æ·¨": 2794,
      "em": 2795,
      "é¡ŀ": 2796,
      "èį£": 2797,
      "è«ĸ": 2798,
      "ç¨ĭåºı": 2799,
      "åĬŀæ³ķ": 2800,
      "op": 2801,
      "æĮĤ": 2802,
      "å¼ĢæĪ·": 2803,
      "45": 2804,
      "æĿ¥åĪ°": 2805,
      "äº§ä¸ļ": 2806,
      "åĬĽéĩı": 2807,
      "äººçĶŁ": 2808,
      "èĺ": 2809,
      "æ»¿": 2810,
      "éªĳ": 2811,
      "Ġä¸į": 2812,
      "ç´Ħ": 2813,
      "udn": 2814,
      "éĵ¶è¡Į": 2815,
      "èľľ": 2816,
      "å£ģ": 2817,
      "æ´ŀ": 2818,
      "è¿ħ": 2819,
      "è·¨": 2820,
      "æĹħæ¸¸ä¼ĳéĸĴ": 2821,
      "å¦Ĥæŀľä½ł": 2822,
      "ä»·åĢ¼": 2823,
      "èĴĻ": 2824,
      "ĠF": 2825,
      "è¯¦": 2826,
      "éĢ£": 2827,
      "æĺ¯ä¸įæĺ¯": 2828,
      "æľīæ²¡æľī": 2829,
      "è¯ļ": 2830,
      "åħ¬åĽŃ": 2831,
      "è®¾å¤ĩ": 2832,
      "æĻ¨": 2833,
      "åĳĢ": 2834,
      "udnæĹħæ¸¸ä¼ĳéĸĴ": 2835,
      "35": 2836,
      "è§Ĩé¢ĳ": 2837,
      "ç£¨": 2838,
      "äº¤æĺĵ": 2839,
      "æ¨±": 2840,
      "Ġ:": 2841,
      "Ġä¿ĿåŃĺåĪ°çĽ¸åĨĮ": 2842,
      "çŁ¥è¯Ĩ": 2843,
      "èĲ¨": 2844,
      "ä¸Ģå¹´": 2845,
      "ĠN": 2846,
      "è¨±": 2847,
      "ĠG": 2848,
      "ĠW": 2849,
      "æ²»çĸĹ": 2850,
      "å°Ī": 2851,
      "å¾ģ": 2852,
      "å¹ħ": 2853,
      "æĥľ": 2854,
      "é¸Ł": 2855,
      "å°¤åħ¶": 2856,
      "èĻļ": 2857,
      "æĦıæĢĿ": 2858,
      "æ¯ıä¸ª": 2859,
      "è°ĵ": 2860,
      "ä»ª": 2861,
      "åĩłä¹İ": 2862,
      "æ±½è½¦": 2863,
      "å¥Ī": 2864,
      "åħĦ": 2865,
      "åıĺåĮĸ": 2866,
      "å»ºç«ĭ": 2867,
      "å¿ĥçĲĨ": 2868,
      "åľ¨è¿Ļ": 2869,
      "åį»": 2870,
      "èĢĮæĺ¯": 2871,
      "åł±": 2872,
      "æĸ¹ä¾¿": 2873,
      "å±ŀäºİ": 2874,
      "å°º": 2875,
      "è°ĥæŁ¥": 2876,
      "ç¦»å¼Ģ": 2877,
      "èĭ±åĽ½": 2878,
      "åıĳå¸ĥ": 2879,
      "çŃīçŃī": 2880,
      "ç¡Ģ": 2881,
      "ç¸½": 2882,
      "çİĽ": 2883,
      "é¼ĵ": 2884,
      "æ¶Īæģ¯": 2885,
      "æľĹ": 2886,
      "åıĺæĪĲ": 2887,
      "æĦŁåĪ°": 2888,
      "åŁºç¡Ģ": 2889,
      "um": 2890,
      "çĿ£": 2891,
      "éħ±": 2892,
      "èĤ¥": 2893,
      "æľĢå¥½": 2894,
      "å®ħ": 2895,
      "åħ³æ³¨": 2896,
      "ä¸īä¸ª": 2897,
      "çļĦæĸ°": 2898,
      "æį·": 2899,
      "ä¼ļæľī": 2900,
      "sp": 2901,
      "æ±ģ": 2902,
      "å¼Ħ": 2903,
      "å°±åĥı": 2904,
      "å¹½": 2905,
      "Ġc": 2906,
      "ç¢İ": 2907,
      "åħ¨åĽ½": 2908,
      "åĲİæĿ¥": 2909,
      "éĩįæĸ°": 2910,
      "ä¸ĬäºĨ": 2911,
      "é²ģ": 2912,
      "ç«ŁçĦ¶": 2913,
      "å¦®": 2914,
      "èħ¾": 2915,
      "éĢļå¸¸": 2916,
      "æ³ª": 2917,
      "æĶ¹åıĺ": 2918,
      "çĮ«": 2919,
      "çļĦæľĭåıĭ": 2920,
      "Ġ4": 2921,
      "è¡ĵ": 2922,
      "Ġä½ł": 2923,
      "è¦Ĩ": 2924,
      "ç§ĺå¯Ĩ": 2925,
      "æĹĹ": 2926,
      "éĺ»": 2927,
      "æ¯ıæ¬¡": 2928,
      "æĶ¿æ²»": 2929,
      "è·Ŀç¦»": 2930,
      "å¢ŀéķ¿": 2931,
      "åħ¨éĥ¨": 2932,
      "é½Ĳ": 2933,
      "çĨ±": 2934,
      "ãĥ": 2935,
      "éĤĢ": 2936,
      "å¹¶ä¸į": 2937,
      "æ½ľ": 2938,
      "é¦¬": 2939,
      "è´Łè´£": 2940,
      "ç¾İå¥³": 2941,
      "äºĴèģĶç½ĳ": 2942,
      "éĩĮçļĦ": 2943,
      "æĸ¹åĲĳ": 2944,
      "ew": 2945,
      "èĢĲ": 2946,
      "åľ°çĤ¹": 2947,
      "åĽī": 2948,
      "æĽ¿": 2949,
      "åĨĴ": 2950,
      "åĲ¹": 2951,
      "æĵįä½ľ": 2952,
      "éĬ": 2953,
      "ç¾İçļĦ": 2954,
      "ç»©": 2955,
      "ç»ª": 2956,
      "2016": 2957,
      "ä¸ĵå®¶": 2958,
      "åĢį": 2959,
      "äºĪ": 2960,
      "åŃĶ": 2961,
      "ex": 2962,
      "æľŁéĹ´": 2963,
      "æĶ¿çŃĸ": 2964,
      "æĳĨ": 2965,
      "åĲİçļĦ": 2966,
      "ä½ĵèĤ²": 2967,
      "ä¸įäºĨ": 2968,
      "è´Ńä¹°": 2969,
      "åĵ¦": 2970,
      "åİŁæľ¬": 2971,
      "éĢĽ": 2972,
      "ç¥ŀç§ĺ": 2973,
      "éŃĶæľ¯": 2974,
      "2015": 2975,
      "æķĮ": 2976,
      "æĤī": 2977,
      "åīįå¾Ģ": 2978,
      "æĬĢå·§": 2979,
      "åĩºåİ»": 2980,
      "éĹĨ": 2981,
      "åıĤä¸İ": 2982,
      "æľĢç»Ī": 2983,
      "ä¸ĭåİ»": 2984,
      "éĢŁåº¦": 2985,
      "æŃ£å¸¸": 2986,
      "è¿¹": 2987,
      "æħ¢æħ¢": 2988,
      "é¢Ĩå¯¼": 2989,
      "ä¹Į": 2990,
      "åĵŃ": 2991,
      "æ°´æŀľ": 2992,
      "äº§çĶŁ": 2993,
      "è¸ª": 2994,
      "è¨Ĭ": 2995,
      "åİ»å¹´": 2996,
      "åįķä½į": 2997,
      "èĢĥè¯ķ": 2998,
      "æ®Ĭ": 2999,
      "å°ĸ": 3000,
      "å¼µ": 3001,
      "ä¸įçĶ¨": 3002,
      "èĢģéĹĨ": 3003,
      "å®ŀéĻħ": 3004,
      "ç¹ģ": 3005,
      "è½ī": 3006,
      "æĺ¯æĪĳ": 3007,
      "åŃķ": 3008,
      "æŃ¡": 3009,
      "æĻ¶": 3010,
      "to": 3011,
      "æŃ£å¼ı": 3012,
      "éĤ£éº½": 3013,
      "æĿ¡ä»¶": 3014,
      "å¿«éĢŁ": 3015,
      "è¡£æľį": 3016,
      "ul": 3017,
      "èª¿": 3018,
      "å½ĵåľ°": 3019,
      "è¾Ľ": 3020,
      "é³": 3021,
      "if": 3022,
      "åĬĽçļĦ": 3023,
      "éĽ£": 3024,
      "ä¸°å¯Į": 3025,
      "ç¼ĸè¾ĳ": 3026,
      "æĳĩ": 3027,
      "çĪ¶äº²": 3028,
      "ãĤ": 3029,
      "éĶģ": 3030,
      "66": 3031,
      "å·¥åħ·": 3032,
      "äº¤éĢļ": 3033,
      "ä¸»ä¹ī": 3034,
      "æ·ĺ": 3035,
      "ä¼°": 3036,
      "æ¬¢è¿İ": 3037,
      "æ»´": 3038,
      "ä¸»è§Ĵ": 3039,
      "ç»ıèĲ¥": 3040,
      "åĳĪ": 3041,
      "èĸĦ": 3042,
      "31": 3043,
      "æĻĵ": 3044,
      "å¤§æ¦Ĥ": 3045,
      "éĶĢåĶ®": 3046,
      "ä¹Łåı¯ä»¥": 3047,
      "éĽĨåĽ¢": 3048,
      "è¡Ŀ": 3049,
      "åħ±åĲĮ": 3050,
      "æ¹¿": 3051,
      "éªĹ": 3052,
      "åĵĪåĵĪ": 3053,
      "åĪ¶ä½ľ": 3054,
      "çľŁå®ŀ": 3055,
      "åĩ¤": 3056,
      "åĪĽæĸ°": 3057,
      "äºĮåįģ": 3058,
      "ind": 3059,
      "éĢĻæ¨£": 3060,
      "è¾¾åĪ°": 3061,
      "æıĲåįĩ": 3062,
      "æĤ¨çļĦ": 3063,
      "çĵ¦": 3064,
      "æľ±": 3065,
      "å¼ķèµ·": 3066,
      "Ġ5": 3067,
      "çī¹èī²": 3068,
      "çļĦéĹ®é¢ĺ": 3069,
      "åİŁæĿ¥": 3070,
      "éĥ½åľ¨": 3071,
      "å¥½äºĨ": 3072,
      "ä¸įç®¡": 3073,
      "åª½": 3074,
      "ke": 3075,
      "2009": 3076,
      "å®ĥçļĦ": 3077,
      "åĽ¾çīĩ": 3078,
      "æĿĢäºº": 3079,
      "iv": 3080,
      "æ¶¨": 3081,
      "çĽ¸å½ĵ": 3082,
      "éĸĭå§ĭ": 3083,
      "ãĦ": 3084,
      "çĪ·": 3085,
      "æľĢé«ĺ": 3086,
      "æķĻåŃ¦": 3087,
      "âĢ§": 3088,
      "åł¡": 3089,
      "å®ĺç½ĳ": 3090,
      "çī¡": 3091,
      "ĠE": 3092,
      "//": 3093,
      "é¦ĸåħĪ": 3094,
      "çº¿ä¸Ĭ": 3095,
      "ä¸Ńå¤®": 3096,
      "èģ²": 3097,
      "åĤĻ": 3098,
      "èĥ¸": 3099,
      "ä»»åĬ¡": 3100,
      "çļĦé«ĺ": 3101,
      "ä¹ĭå¤ĸ": 3102,
      "æĸĩä»¶": 3103,
      "çķ«": 3104,
      "å½¢æĪĲ": 3105,
      "è¿Ļéº½": 3106,
      "èĴĤ": 3107,
      "äººåľ¨": 3108,
      "æĢĴ": 3109,
      "æľºæŀĦ": 3110,
      "ec": 3111,
      "ç¨ĭåº¦": 3112,
      "éħ·": 3113,
      "æĪ¿éĹ´": 3114,
      "ia": 3115,
      "**": 3116,
      "éĥ¨éĹ¨": 3117,
      "åĽŀå®¶": 3118,
      "æĪ¿åŃĲ": 3119,
      "èĳ¡": 3120,
      "æ³ķå¾ĭ": 3121,
      "çļĨ": 3122,
      "åıĳè¡¨": 3123,
      "åį³åı¯": 3124,
      "çİ°ä»£": 3125,
      "çĦ¦": 3126,
      "åı°çģ£": 3127,
      "çļĦéĤ£": 3128,
      "Ġæĺ¯": 3129,
      "09": 3130,
      "æ¼Ĥäº®": 3131,
      "å¤©æ°Ķ": 3132,
      "ç»Ŀå¯¹": 3133,
      "è®©ä½ł": 3134,
      "æĸ¹æ¡Ī": 3135,
      "å®½": 3136,
      "ç´ļ": 3137,
      "nb": 3138,
      "åĭĴ": 3139,
      "èĢħçļĦ": 3140,
      "èĲ¬": 3141,
      "ç¯Ģ": 3142,
      "èħĲ": 3143,
      "æ¼ĶåĶ±": 3144,
      "èģĬå¤©": 3145,
      "åĬ¨çī©": 3146,
      "æ¢Ŀ": 3147,
      "ç¨İ": 3148,
      "èĽ®": 3149,
      "ç¢°": 3150,
      "æĶ¾åľ¨": 3151,
      "çĪ½": 3152,
      "èģĶç³»": 3153,
      "éĹ¹": 3154,
      "çĸ¯": 3155,
      "éĲ": 3156,
      "èĻŁ": 3157,
      "æ¢¯": 3158,
      "æĻ®éĢļ": 3159,
      "åĽŀåĪ°": 3160,
      "åĪ¸": 3161,
      "åı°åįĹ": 3162,
      "æĹ¥æľŁ": 3163,
      "å¥³çĶŁ": 3164,
      "è´£ä»»": 3165,
      "ä¸¥éĩį": 3166,
      "ab": 3167,
      "æ¶¦": 3168,
      "å¾Īæľī": 3169,
      "è²·": 3170,
      "ç»ıå¸¸": 3171,
      "ä¸ºä»Ģéº½": 3172,
      "å¾Ĵ": 3173,
      "èı¯": 3174,
      "!!!": 3175,
      "77": 3176,
      "æĻĤåĢĻ": 3177,
      "ä¹Łä¼ļ": 3178,
      "æĸĻçĲĨ": 3179,
      "ç§¦": 3180,
      "éĽ¢": 3181,
      "ä¼Ł": 3182,
      "é¢ĨåŁŁ": 3183,
      "è²Į": 3184,
      "éĩĳçīĽåº§": 3185,
      "é¥¼": 3186,
      "éĨ«": 3187,
      "åĢ¼å¾Ĺ": 3188,
      "æ±¡": 3189,
      "å¤§åĪ©": 3190,
      "èİİ": 3191,
      "å¼Ĺ": 3192,
      "åĩŃ": 3193,
      "è¦ª": 3194,
      "éĩĩçĶ¨": 3195,
      "å½¼": 3196,
      "èģĶåĲĪ": 3197,
      "åľ¨ä¸Ģèµ·": 3198,
      "ä¾µ": 3199,
      "ç¾©": 3200,
      "èµļ": 3201,
      "è¼ķ": 3202,
      "ãĢįï¼Į": 3203,
      "è¸ı": 3204,
      "ter": 3205,
      "å¹¼": 3206,
      "å·²ç¶ĵ": 3207,
      "è¡ĮåĬ¨": 3208,
      "æī¬": 3209,
      "åºĹåĲį": 3210,
      "éĤ®": 3211,
      "åĲĥçļĦ": 3212,
      "åĦ¿åŃĲ": 3213,
      "éģ©": 3214,
      "æĢİæł·": 3215,
      "è®°å¿Ĩ": 3216,
      "èĥŀ": 3217,
      "è§Ĵèī²": 3218,
      "æ¨Ļ": 3219,
      "æı´": 3220,
      "è©¦": 3221,
      "ä¸»æ¼Ķ": 3222,
      "æľīä¸Ģä¸ª": 3223,
      "å¾Ĳ": 3224,
      "ç¼©": 3225,
      "å¼ĢæĶ¾": 3226,
      "æľµ": 3227,
      "æĦĪ": 3228,
      "éĹª": 3229,
      "å¯»æī¾": 3230,
      "åİ¨": 3231,
      "çĤĴ": 3232,
      "çļĦæĥħ": 3233,
      "çģŃ": 3234,
      "è£ģ": 3235,
      "Ġm": 3236,
      "å¥³æĢ§": 3237,
      "å¥¹ä»¬": 3238,
      "çĪ¸çĪ¸": 3239,
      "èµĶçİĩ": 3240,
      "è®°å¾Ĺ": 3241,
      "æľĢå¤§": 3242,
      "æ¤Ĵ": 3243,
      "æľĢå¤§çļĦ": 3244,
      "åķıé¡Į": 3245,
      "æ²¿": 3246,
      "åħħæ»¡": 3247,
      "å®¶äºº": 3248,
      "åĳ³éģĵ": 3249,
      "98": 3250,
      "èº«è¾¹": 3251,
      "å¤§å°ı": 3252,
      "ä¸Ģæ®µ": 3253,
      "å®ŀåľ¨": 3254,
      "çģ°": 3255,
      "ä¸įéģİ": 3256,
      "èĲ¥ä¸ļ": 3257,
      "ĠãĢĲ": 3258,
      "æĹ¦": 3259,
      "æī®": 3260,
      "çĽĪ": 3261,
      "çģ¾": 3262,
      "ä¸¾åĬŀ": 3263,
      "äººç±»": 3264,
      "çĭ±": 3265,
      "é£İæł¼": 3266,
      "æīİ": 3267,
      "ä¸»æĮģ": 3268,
      "åĿ¦": 3269,
      "éĹŃ": 3270,
      "æĽ´æĺ¯": 3271,
      "åįļå½©åħ¬åı¸": 3272,
      "æ¯ĶèµĽ": 3273,
      "åħ´è¶£": 3274,
      "è£¡çļĦ": 3275,
      "åī©": 3276,
      "åħ³éĶ®": 3277,
      "èŃ°": 3278,
      "ä¼¸": 3279,
      "åŃĲåº§": 3280,
      "åłĨ": 3281,
      "æĺ¯ä¸Ģç§į": 3282,
      "æĭ¼": 3283,
      "çľł": 3284,
      "ä¸ĸçºª": 3285,
      "åİĭåĬĽ": 3286,
      "èµĦè®¯": 3287,
      "è¡¡": 3288,
      "äº¤æµģ": 3289,
      "çĽ´æĴŃ": 3290,
      "éĻª": 3291,
      "æ¬Ĭ": 3292,
      "âķ": 3293,
      "av": 3294,
      "åį³ä½¿": 3295,
      "ç¥Ŀ": 3296,
      "èıĮ": 3297,
      "ç»ĵæĿŁ": 3298,
      "åıĥ": 3299,
      "æĮº": 3300,
      "æ±ĩ": 3301,
      "æĳ¸": 3302,
      "ä¾¿å®ľ": 3303,
      "ä¿Ĺ": 3304,
      "02": 3305,
      "ä¸įæĥ³": 3306,
      "åīµ": 3307,
      "æĵ¦": 3308,
      "æķ¬": 3309,
      "ä¾ĭå¦Ĥ": 3310,
      "æ·»": 3311,
      "å®īæİĴ": 3312,
      "ä¼ļè®®": 3313,
      "æī£": 3314,
      "æī©": 3315,
      "çļĦä¸Ģä¸ª": 3316,
      "åĩĢ": 3317,
      "æ¨ª": 3318,
      "æĭįæĳĦ": 3319,
      "èĨľ": 3320,
      "æ±º": 3321,
      "éļıçĿĢ": 3322,
      "çĸ¾çĹħ": 3323,
      "æĹĭ": 3324,
      "Ġf": 3325,
      "åĶ¯ä¸Ģ": 3326,
      "Ġ10": 3327,
      "è®¡ç®Ĺ": 3328,
      "è¯´æĺİ": 3329,
      "åĥµ": 3330,
      "æĬµ": 3331,
      "çµĦ": 3332,
      "çĮ®": 3333,
      "åĩ¶": 3334,
      "è£¡éĿ¢": 3335,
      "å°Ŀ": 3336,
      "æľįåĭĻ": 3337,
      "éķ¿çļĦ": 3338,
      "éĩĳèŀį": 3339,
      "è¿ĩçļĦ": 3340,
      "ç§Ĵ": 3341,
      "åĽŀæĿ¥": 3342,
      "æĶ¶åħ¥": 3343,
      "æĦŁåıĹ": 3344,
      "æĪĳå°±": 3345,
      "ç»ĵåĲĪ": 3346,
      "åĽŀçŃĶ": 3347,
      "èĻ«": 3348,
      "Ġp": 3349,
      "çİ©å®¶": 3350,
      "æ¶ī": 3351,
      "çĽĴ": 3352,
      "çķª": 3353,
      "æľ¬èº«": 3354,
      "æī°": 3355,
      "éĵ¾": 3356,
      "å¯¿": 3357,
      "èĦĤ": 3358,
      "å¯¶": 3359,
      "éģ¿åħį": 3360,
      "è´¨éĩı": 3361,
      "åĪ°çļĦ": 3362,
      "æĪ²": 3363,
      "åĬ±": 3364,
      "æľīéĻĲåħ¬åı¸": 3365,
      "é¼»": 3366,
      "çĶĺ": 3367,
      "æĦıå¤ĸ": 3368,
      "èŁ¹": 3369,
      "åĩłå¤©": 3370,
      "ĠâĢľ": 3371,
      "çľĭäºĨ": 3372,
      "od": 3373,
      "çºĮ": 3374,
      "æĺ¨å¤©": 3375,
      "åĮĸçļĦ": 3376,
      "æĭĶ": 3377,
      "ä¸¤äºº": 3378,
      "ç»ıåİĨ": 3379,
      "æĪĲæľ¬": 3380,
      "çĢ": 3381,
      "art": 3382,
      "çı¾åľ¨": 3383,
      "äººçī©": 3384,
      "éĤĦæĺ¯": 3385,
      "ç³ķ": 3386,
      "ç¢Ĺ": 3387,
      "æ¯Ķå¦Ĥ": 3388,
      "tp": 3389,
      "ç§»åĬ¨": 3390,
      "ç´ħ": 3391,
      "éĽĸ": 3392,
      "è¡ĮçļĦ": 3393,
      "44": 3394,
      "èĢĥèĻĳ": 3395,
      "åıĶ": 3396,
      "æĹłè®º": 3397,
      "å¾Īå¿«": 3398,
      "éį": 3399,
      "æĮĩæķ°": 3400,
      "å¤§éĩı": 3401,
      "çľĭè§ģ": 3402,
      "ç«ŀäºī": 3403,
      "æĢ¨": 3404,
      "38": 3405,
      "çĶŁçī©": 3406,
      "å°±è¦ģ": 3407,
      "å°ĺ": 3408,
      "ç»ĻæĪĳ": 3409,
      "æĽ´æĸ°": 3410,
      "èµµ": 3411,
      "çĬ¶æĢģ": 3412,
      "éĩįè¦ģçļĦ": 3413,
      "01": 3414,
      "å°±èĥ½": 3415,
      "è¿Ŀ": 3416,
      "å¤º": 3417,
      "èĳ±": 3418,
      "èªī": 3419,
      "......": 3420,
      "éĩįçĤ¹": 3421,
      "çĭ¼": 3422,
      "æ¸¸å®¢": 3423,
      "çĶ³è¯·": 3424,
      "å¤§å¤ļ": 3425,
      "æŀª": 3426,
      "åįģäºĮ": 3427,
      "è¿Ķ": 3428,
      "äººå£«": 3429,
      "ä¹ĭä¸Ń": 3430,
      "05": 3431,
      "æĲ¬": 3432,
      "ä»£çĲĨ": 3433,
      "è§Ĥä¼Ĺ": 3434,
      "èĪį": 3435,
      "èį·": 3436,
      "æĹ¶å°ļ": 3437,
      "åĪ¶åº¦": 3438,
      "çļĦæĸ¹å¼ı": 3439,
      "å°ıè¯´": 3440,
      "èģ½": 3441,
      "os": 3442,
      "æ£®æŀĹ": 3443,
      "||": 3444,
      "ä¹Łè®¸": 3445,
      "~~~": 3446,
      "åľĺ": 3447,
      "å°ıå¿ĥ": 3448,
      "ç¨±": 3449,
      "çĶ·åŃ©": 3450,
      "ce": 3451,
      "åĮ»çĶŁ": 3452,
      "äººéĥ½": 3453,
      "è¿½æ±Ĥ": 3454,
      "éĴ¢": 3455,
      "çļĦçĶŁæ´»": 3456,
      "èĥĥ": 3457,
      "one": 3458,
      "çļĦæĹ¶éĹ´": 3459,
      "å¦Ĩ": 3460,
      "æ²Ł": 3461,
      "ä¸ĩåħĥ": 3462,
      "åĲįåŃĹ": 3463,
      "âķ±": 3464,
      "ont": 3465,
      "åĿļæĮģ": 3466,
      "ç´°": 3467,
      "èĥİ": 3468,
      "ãĢĤâĢľ": 3469,
      "éļ¨": 3470,
      "ç©·": 3471,
      "å°±æľī": 3472,
      "æĦıè¯Ĩ": 3473,
      "ç¨į": 3474,
      "éĢ¸": 3475,
      "ç±»åŀĭ": 3476,
      "ãĢĭï¼Į": 3477,
      "åį³å°Ĩ": 3478,
      "æĹ¥åŃĲ": 3479,
      "ä¸ĬéĿ¢": 3480,
      "èĤł": 3481,
      "Ġ|": 3482,
      "åĪļåĪļ": 3483,
      "åĿ¡": 3484,
      "æĪĳä¹Ł": 3485,
      "ä»¥æĿ¥": 3486,
      "æĢĿæĥ³": 3487,
      "åĵªäºĽ": 3488,
      "æ°Ľ": 3489,
      "æīĵå¼Ģ": 3490,
      "è¾Ī": 3491,
      "èµ·ä¾Ĩ": 3492,
      "åķĨä¸ļ": 3493,
      "æĮģç»Ń": 3494,
      "ç¢º": 3495,
      "éĢ¼": 3496,
      "åĴ¬": 3497,
      "çľĭçĿĢ": 3498,
      "æĪĳåľ¨": 3499,
      "éĥĳ": 3500,
      "å°ĳå¥³": 3501,
      "çĻĮ": 3502,
      "è°¢è°¢": 3503,
      "åıĺå¾Ĺ": 3504,
      "åĳĺå·¥": 3505,
      "æľŁå¾ħ": 3506,
      "åħ¼": 3507,
      "Ġw": 3508,
      "æĬ¥åĳĬ": 3509,
      "ä¸ºä»Ģä¹Ī": 3510,
      "å¸¦æĿ¥": 3511,
      "éĺħè¯»": 3512,
      "èªŀ": 3513,
      "Ġäºº": 3514,
      "éĳ": 3515,
      "ä¸ĭéĿ¢": 3516,
      "Ġ6": 3517,
      "æįķ": 3518,
      "åĪĳ": 3519,
      "ç»¼åĲĪ": 3520,
      "å¯Ĥ": 3521,
      "://": 3522,
      "æ°´å¹³": 3523,
      "çĪ¾": 3524,
      "ä¸ĬçıŃ": 3525,
      "éŁ©åĽ½": 3526,
      "çİ°å®ŀ": 3527,
      "è®¨è®º": 3528,
      "è£Ĥ": 3529,
      "æ°¸è¿ľ": 3530,
      "å¤©ä¸ĭ": 3531,
      "Ġï¼ļ": 3532,
      "å¤ĩçĶ¨": 3533,
      "æī«": 3534,
      "é¡¯": 3535,
      "çļĦä¸ľè¥¿": 3536,
      "http": 3537,
      "ï¼Ĳ": 3538,
      "èįĴ": 3539,
      "å¤ªå¤ļ": 3540,
      "åīĤ": 3541,
      "æºĸ": 3542,
      "åĤ¨": 3543,
      "æķĻå¸Ī": 3544,
      "åŁºéĩĳ": 3545,
      "å¯º": 3546,
      "å¾®åįļ": 3547,
      "åĲĮäºĭ": 3548,
      "å»ī": 3549,
      "æĺ¯ä¸į": 3550,
      "å¢¨": 3551,
      "æİª": 3552,
      "æ·ĭ": 3553,
      "BA": 3554,
      "è¾¦": 3555,
      "ç»ĵæŀĦ": 3556,
      "æīĵéĢł": 3557,
      "èŃ·": 3558,
      "çķĻä¸ĭ": 3559,
      "å¿ł": 3560,
      "é£Łåĵģ": 3561,
      "æĿľ": 3562,
      "æĦ¿æĦı": 3563,
      "ä¸įåĨį": 3564,
      "06": 3565,
      "èĥĨ": 3566,
      "çĤ¼": 3567,
      "ç½ĳåıĭ": 3568,
      "é©Ĺ": 3569,
      "å°ıçļĦ": 3570,
      "æĥħäºº": 3571,
      "é»İ": 3572,
      "æĭĸ": 3573,
      "åŃĻ": 3574,
      "åĦª": 3575,
      "Ġè¿Ļ": 3576,
      "âĢĻ": 3577,
      "75": 3578,
      "è¦ı": 3579,
      "å¯Ħ": 3580,
      "æ¢ģ": 3581,
      "èĭ±æĸĩ": 3582,
      "å¾Ģå¾Ģ": 3583,
      "éĮ¯": 3584,
      "å¥ĭ": 3585,
      "å¾µ": 3586,
      "èħ°": 3587,
      "ä¾§": 3588,
      "çĲ³": 3589,
      "èĭ¹": 3590,
      "èĩªåĬ¨": 3591,
      "çĭ®": 3592,
      "03": 3593,
      "ä¿Ŀè¯ģ": 3594,
      "åı¬": 3595,
      "æ³¥": 3596,
      "èĳ£": 3597,
      "ç§¯æŀģ": 3598,
      "ä¸įå¤ļ": 3599,
      "å§ĳ": 3600,
      "æĮīçħ§": 3601,
      "è§ĦåĪĴ": 3602,
      "04": 3603,
      "å®ĥä»¬": 3604,
      "å¡ĳ": 3605,
      "æĪª": 3606,
      "åĳµ": 3607,
      "æĮĩåĩº": 3608,
      "è·Į": 3609,
      "åĦ¿ç«¥": 3610,
      "çľ¾": 3611,
      "95": 3612,
      "åĲįç§°": 3613,
      "è¢Ń": 3614,
      "èŃī": 3615,
      "Ch": 3616,
      "è§Ħæ¨¡": 3617,
      "å¿ĥæĥħ": 3618,
      "Ġ...": 3619,
      "å°ıå§Ĳ": 3620,
      "å¿ĥä¸Ń": 3621,
      "åŃ¦éĻ¢": 3622,
      "ï¼Ĵ": 3623,
      "ĠV": 3624,
      "çī¹æ®Ĭ": 3625,
      "åĲĲ": 3626,
      "ç»ķ": 3627,
      "çĨĬ": 3628,
      "åľ¨ä¸Ģ": 3629,
      "çľŁçĽ¸": 3630,
      "æĶ¯ä»ĺ": 3631,
      "ä¸Ńæĸĩ": 3632,
      "æ°ĳä¼Ĺ": 3633,
      "ä¼į": 3634,
      "çļĦèĢģ": 3635,
      "èĤ¯å®ļ": 3636,
      "ä¸Ĭä¸Ģ": 3637,
      "æĺİæĺŁ": 3638,
      "æľ¬æĿ¥": 3639,
      "åıĤèĢĥ": 3640,
      "ä¹Łå¾Ī": 3641,
      ".....": 3642,
      "åĪĽéĢł": 3643,
      "èĸª": 3644,
      "æĻ¯çĤ¹": 3645,
      "èĭ¹æŀľ": 3646,
      "ç»ĵå©ļ": 3647,
      "èĢĢ": 3648,
      "eb": 3649,
      "%ï¼Į": 3650,
      "å¯«": 3651,
      "ĠæľĢè¿ĳ": 3652,
      "çľī": 3653,
      "çļĦå·¥ä½ľ": 3654,
      "ä¸įä½ı": 3655,
      "å¤ļå¹´": 3656,
      "å¦ĸ": 3657,
      "é¾Ħ": 3658,
      "ä¿ĿéĻ©": 3659,
      "çĽ´åĪ°": 3660,
      "è¾Ĩ": 3661,
      "è»į": 3662,
      "èĩ³å°ĳ": 3663,
      "è½»æĿ¾": 3664,
      "æĥĳ": 3665,
      "è¡Įç¨ĭ": 3666,
      "ub": 3667,
      "çĭĢ": 3668,
      "å§ĵ": 3669,
      "åī§æĥħ": 3670,
      "æ»¡è¶³": 3671,
      "æĭĴ": 3672,
      "æĥ¨": 3673,
      "),": 3674,
      "æĹ©ä¸Ĭ": 3675,
      "èĢĮè¨Ģ": 3676,
      "ä¸»äºº": 3677,
      "çļĦä¸į": 3678,
      "ç¥¥": 3679,
      "åĽ¢éĺŁ": 3680,
      "æļĳ": 3681,
      "æŃ¤å¤ĸ": 3682,
      "åŁĥ": 3683,
      "æĲŃéħį": 3684,
      "ä¸ªæľĪ": 3685,
      "çº¹": 3686,
      "åĲ¬åĪ°": 3687,
      "ut": 3688,
      "æľīäºĨ": 3689,
      "æ³Ľ": 3690,
      "çĮľ": 3691,
      "08": 3692,
      "ĠudnæĹħæ¸¸ä¼ĳéĸĴ": 3693,
      "åĽłç´ł": 3694,
      "æĻºæħ§": 3695,
      "åħ³ä¿Ĥ": 3696,
      "æıĲåĩº": 3697,
      "å°±ç®Ĺ": 3698,
      "äºĭä¸ļ": 3699,
      "åĨįæ¬¡": 3700,
      "æīĳ": 3701,
      "æµ©": 3702,
      "ä¸Ĭå¸Ĥ": 3703,
      "å°ĳå¹´": 3704,
      "æŃ¤æĹ¶": 3705,
      ")ï¼Į": 3706,
      "çĶŁæĢģ": 3707,
      "Ġd": 3708,
      "é«ĺçļĦ": 3709,
      "æĺİçĻ½": 3710,
      "48": 3711,
      "æļĤ": 3712,
      "å¨ĥ": 3713,
      "æ»ļ": 3714,
      "æĤł": 3715,
      "07": 3716,
      "æĺİæĺ¾": 3717,
      "è¿ĩç¨ĭä¸Ń": 3718,
      "äºļæ´²": 3719,
      "500": 3720,
      "çļĦæĦŁè§ī": 3721,
      "æŁľ": 3722,
      "è°ĭ": 3723,
      "éĢĻäºĽ": 3724,
      "æ¼ĶåĶ±ä¼ļ": 3725,
      "äºŀ": 3726,
      "æī§è¡Į": 3727,
      "çĮĽ": 3728,
      "é£ĺ": 3729,
      "çŃĶæ¡Ī": 3730,
      "æıŃ": 3731,
      "ph": 3732,
      "æĭŁ": 3733,
      "æĵĬ": 3734,
      "æŁ³": 3735,
      "ä»ĸè¯´": 3736,
      "ä¸ªæĢ§": 3737,
      "åĪĽä¸ļ": 3738,
      "çĶ·çĶŁ": 3739,
      "åıįåºĶ": 3740,
      "æ»ĭ": 3741,
      "åĹİ": 3742,
      "åº¦çļĦ": 3743,
      "æĦŁè°¢": 3744,
      "éĥŃ": 3745,
      "æĶ¹éĿ©": 3746,
      "å¤§éĻĨ": 3747,
      "Ġ>": 3748,
      "æģ¨": 3749,
      "éĽĻ": 3750,
      "æĹ¶æľŁ": 3751,
      "éĴĪå¯¹": 3752,
      "éłĲ": 3753,
      "çļ®èĤ¤": 3754,
      "åĩĮ": 3755,
      "åıĸå¾Ĺ": 3756,
      "è§Ħå®ļ": 3757,
      "çĴĥ": 3758,
      "æ£ĢæŁ¥": 3759,
      "æĮĳæĪĺ": 3760,
      "å½¢å¼ı": 3761,
      "æħĪ": 3762,
      "å¥Ķ": 3763,
      "åħĦå¼Ł": 3764,
      "ie": 3765,
      "è¯Ĭ": 3766,
      "å®īè£ħ": 3767,
      "èº«ä»½": 3768,
      "Ġ[": 3769,
      "æ¦ľ": 3770,
      "è¨Ńè¨Ī": 3771,
      "ç¤¾åĮº": 3772,
      "äºĭå®ŀ": 3773,
      "ç¬¬åĽĽ": 3774,
      "ç°¡": 3775,
      "æĪĲç«ĭ": 3776,
      "éĨī": 3777,
      "çĥĤ": 3778,
      "æīĢè°ĵ": 3779,
      "åľ¨éĤ£": 3780,
      "çĲĨè§£": 3781,
      "éļĬ": 3782,
      "é©±": 3783,
      "è¿ĺè¦ģ": 3784,
      "37": 3785,
      "ç²Ĵ": 3786,
      "çĴ°": 3787,
      "ç²Ĺ": 3788,
      "åı£åĳ³": 3789,
      "èµŀ": 3790,
      "åĬłå¼º": 3791,
      "è¡ĮæĶ¿": 3792,
      "çĻ½ç¾Ĭåº§": 3793,
      "ue": 3794,
      "çĲ´": 3795,
      "é¥±": 3796,
      "çŃīå¾ħ": 3797,
      "æĦıä¹ī": 3798,
      "å®Įæķ´": 3799,
      "åĬŀåħ¬": 3800,
      "å¯ĵ": 3801,
      "éłħ": 3802,
      "æ¥µ": 3803,
      "è®°å½ķ": 3804,
      "--------------------------------": 3805,
      "ä¼ĳæģ¯": 3806,
      "ĠO": 3807,
      "çľĭèĳĹ": 3808,
      "å¥ı": 3809,
      "èĮĥåĽ´": 3810,
      "èĢĹ": 3811,
      "åĨħçļĦ": 3812,
      "å¦Ĥä»Ĭ": 3813,
      "æĬ¥åĲį": 3814,
      "çŀ¬": 3815,
      "ä¹Łå°±æĺ¯": 3816,
      "è¦ºå¾Ĺ": 3817,
      "éĥ½è¦ģ": 3818,
      "å··": 3819,
      "æĥ³æ³ķ": 3820,
      "æ³½": 3821,
      "æ°ĳæĹı": 3822,
      "çīĪæľ¬": 3823,
      "å®ĭ": 3824,
      "ä¸ĢåĲį": 3825,
      "æģ¢": 3826,
      "æħķ": 3827,
      "éĺ³åħī": 3828,
      "å¤ł": 3829,
      "æĹ©é¤Ĳ": 3830,
      "æľīä¸ª": 3831,
      "æĪĴ": 3832,
      "ï¼īãĢģ": 3833,
      "è¯¾ç¨ĭ": 3834,
      "åºŁ": 3835,
      "åĥµå°¸": 3836,
      "åĳĨ": 3837,
      "åģļçļĦ": 3838,
      "åĪĨåĪ«": 3839,
      "æľĢå¥½çļĦ": 3840,
      "æĪĳè¯´": 3841,
      "éŃħ": 3842,
      "se": 3843,
      "éĿ¢åīį": 3844,
      "åľ°çļĦ": 3845,
      "æīĢæľīçļĦ": 3846,
      "åħ¬åħĭ": 3847,
      "éĺ¶æ®µ": 3848,
      "åħ¨éĿ¢": 3849,
      "æĶ¾å¼ĥ": 3850,
      "éĿĴå¹´": 3851,
      "æµĭè¯ķ": 3852,
      "éĥ½å¾Ī": 3853,
      "åħ¬éĩĮ": 3854,
      "ä¹ĭå¾Į": 3855,
      "å¼Ģå¿ĥ": 3856,
      "å®¶è£¡": 3857,
      "ĠèµĦæĸĻæĿ¥æºĲä¸İçīĪæĿĥæīĢæľī": 3858,
      "æķĻæİĪ": 3859,
      "èħ¹": 3860,
      "å¿§": 3861,
      "ç±į": 3862,
      "ä»¿": 3863,
      "é£¯": 3864,
      "ç¿Ĵ": 3865,
      "è¿ĩæĿ¥": 3866,
      "å¹«": 3867,
      "æ»©": 3868,
      "éĽĸçĦ¶": 3869,
      "çĩķ": 3870,
      "æ±Ĺ": 3871,
      "å°ıåŃ©": 3872,
      "ç¶Ń": 3873,
      "ä»ĩ": 3874,
      "çļĦç¾İ": 3875,
      "å±ķå¼Ģ": 3876,
      "è¯Ħä»·": 3877,
      "ED": 3878,
      "çĪ¬": 3879,
      "èµĸ": 3880,
      "æĪĳè¦ģ": 3881,
      "åĪł": 3882,
      "34": 3883,
      "åĪºæ¿Ģ": 3884,
      "ä¸Ńåįİ": 3885,
      "æĪĸè®¸": 3886,
      "èģ¯": 3887,
      "%ãĢĤ": 3888,
      "å¹´ä»£": 3889,
      "æ¢¦æĥ³": 3890,
      "é©¾": 3891,
      "æĴŀ": 3892,
      "æĺ¯åĽłä¸º": 3893,
      "å®¢æĪ¿": 3894,
      "éĩĮéĿ¢": 3895,
      "åĪ¶éĢł": 3896,
      "åĪĬ": 3897,
      "çĸ¼": 3898,
      "ä¸²": 3899,
      ",,": 3900,
      "Ġ/": 3901,
      "æĪĳä¸į": 3902,
      "èĤļ": 3903,
      "èĤ©": 3904,
      "æĸ¤": 3905,
      "ä½©": 3906,
      "çļĦæķħäºĭ": 3907,
      "å¥½å¥½": 3908,
      "åĬ¨ä½ľ": 3909,
      "ä¸Ńåľĭ": 3910,
      "èħ¦": 3911,
      "ä¹Ķ": 3912,
      "å§¿": 3913,
      "è´·": 3914,
      "èĥ¶": 3915,
      "æ¯ıå¹´": 3916,
      "çİ»": 3917,
      "åĲĮæł·": 3918,
      "æĦıè§ģ": 3919,
      "æľīå¤ļ": 3920,
      "âĢĺ": 3921,
      "èĥĸ": 3922,
      "çĬ¶åĨµ": 3923,
      "èĭĹ": 3924,
      "æĤ£èĢħ": 3925,
      "ä¸ĭä¸Ģ": 3926,
      "ç«¿": 3927,
      "æĻºèĥ½": 3928,
      "å°±ä¸į": 3929,
      "å¹¶æ²¡æľī": 3930,
      "æ¦Ĥå¿µ": 3931,
      "éĹ²": 3932,
      "èŃĺ": 3933,
      "ver": 3934,
      "çļĦæīĭ": 3935,
      "Ġ8": 3936,
      "ä¼ı": 3937,
      "è¯ŀ": 3938,
      "çľĭèµ·æĿ¥": 3939,
      "å°¿": 3940,
      "çİ²": 3941,
      "èµĦéĩĳ": 3942,
      "åħ¬åħ±": 3943,
      "32": 3944,
      "è®¾æĸ½": 3945,
      "ç¡®å®ļ": 3946,
      "éļĽ": 3947,
      "éĢĴ": 3948,
      "éĻįä½İ": 3949,
      "æĢĿèĢĥ": 3950,
      "å¦»åŃĲ": 3951,
      "ç»Ļä½ł": 3952,
      "èĩªæĪĳ": 3953,
      "éķ¿æľŁ": 3954,
      "æĵļ": 3955,
      "å¾Ħ": 3956,
      "èģĮä¸ļ": 3957,
      "2008": 3958,
      "äººå®¶": 3959,
      "é£İéĻ©": 3960,
      "åĩºä¸Ģ": 3961,
      "ç»ıåħ¸": 3962,
      "èĦĨ": 3963,
      "åı¥è¯Ŀ": 3964,
      "Ġå¤§": 3965,
      "æħĭ": 3966,
      "çļĦåľ°": 3967,
      "åĽ½éĻħå¨±ä¹ĲåŁİ": 3968,
      "è¯Ńè¨Ģ": 3969,
      "ä¸¢": 3970,
      "æµªæ¼«": 3971,
      "åį°è±¡": 3972,
      "æ¸¡": 3973,
      "åħ·ä½ĵ": 3974,
      "ä¿Ħ": 3975,
      "é©¬ä¸Ĭ": 3976,
      "ä¹ı": 3977,
      "çĩŁ": 3978,
      "çİ°è±¡": 3979,
      "æĵĩ": 3980,
      "çĭ¬ç«ĭ": 3981,
      "çļĦæĥħåĨµ": 3982,
      "å¥³åĦ¿": 3983,
      "ä¾ĿçĦ¶": 3984,
      "å¡«": 3985,
      "çģ«è½¦": 3986,
      "è°ĥæķ´": 3987,
      ")ãĢĤ": 3988,
      "æĤĦ": 3989,
      "èĩŃ": 3990,
      "ost": 3991,
      "éľ¸": 3992,
      "æ°ı": 3993,
      "ä¸Ģè¾¹": 3994,
      "èĩªè¡Į": 3995,
      "çĬ¹": 3996,
      "éħįåĲĪ": 3997,
      "ä¸Ī": 3998,
      "å¬": 3999,
      "åĲĦä½įå¤§å¤§": 4000,
      "ard": 4001,
      "æĢģåº¦": 4002,
      "åĺĽ": 4003,
      "éłĺ": 4004,
      "nd": 4005,
      "åģļæ³ķ": 4006,
      "ç¬¦åĲĪ": 4007,
      "ç½²": 4008,
      "è´Ńçī©": 4009,
      "ak": 4010,
      "å½»": 4011,
      "é¼ł": 4012,
      "åħ½": 4013,
      "æ¯Ķè¼ĥ": 4014,
      "all": 4015,
      "åį«çĶŁ": 4016,
      "æľīå¾Īå¤ļ": 4017,
      "éĥ½åı¯ä»¥": 4018,
      "ç¯®": 4019,
      "åĢ¾": 4020,
      "Ġn": 4021,
      "åľĴ": 4022,
      "æ³ģ": 4023,
      "Ġï¼Ī": 4024,
      "VS": 4025,
      "ang": 4026,
      "çĩĥ": 4027,
      "çĻ¼çı¾": 4028,
      "åħ¬åı¸çļĦ": 4029,
      "åģľè½¦": 4030,
      "æīįæĺ¯": 4031,
      "æķ¦": 4032,
      "æĪĲçļĦ": 4033,
      "åľ¨æĪĳ": 4034,
      "é¤Ĭ": 4035,
      "è¯ĳ": 4036,
      "è¿ĩäºĨ": 4037,
      "åħ¬è·¯": 4038,
      "å¥ĩæĢª": 4039,
      "å¯¸": 4040,
      "çĲĨæĥ³": 4041,
      "æł·åŃĲ": 4042,
      "æĿ¥çľĭ": 4043,
      "åĲĵ": 4044,
      "åľ¨åľ°": 4045,
      "ä»įçĦ¶": 4046,
      "æĪ¶": 4047,
      "é»Ħéĩĳ": 4048,
      "æŃ£æĺ¯": 4049,
      "Ġæľ¬": 4050,
      "åĩıå°ĳ": 4051,
      "âĹı": 4052,
      "ml": 4053,
      "68": 4054,
      "èµ°äºĨ": 4055,
      "ç©¶ç«Ł": 4056,
      "ç¢į": 4057,
      "æ´¥": 4058,
      "äºķ": 4059,
      "pp": 4060,
      "æľīä¸Ģå¤©": 4061,
      "åīĽ": 4062,
      "å²©": 4063,
      "ob": 4064,
      "éĽĨä¸Ń": 4065,
      "é£İæĻ¯": 4066,
      "åĸľæŃ¡": 4067,
      "ä½łæĺ¯": 4068,
      "æııè¿°": 4069,
      "åĩºæĿ¥çļĦ": 4070,
      "iz": 4071,
      "èģª": 4072,
      "éĥ¨èĲ½": 4073,
      "æ¤įçī©": 4074,
      "è¶ħçº§": 4075,
      "åĮ»çĸĹ": 4076,
      "çĶ·åŃĲ": 4077,
      "æľºåľº": 4078,
      "ill": 4079,
      "å¹´è½»äºº": 4080,
      "Ġin": 4081,
      "å¾Īéļ¾": 4082,
      "æº«": 4083,
      "éĽ¾": 4084,
      "åĽŀå¿Ĩ": 4085,
      "éł»": 4086,
      "çļĦæ°´": 4087,
      "æ¶Īè´¹èĢħ": 4088,
      "300": 4089,
      "ç¨¿": 4090,
      "è¤ĩ": 4091,
      "çľŁéĴ±": 4092,
      "ä¸¾è¡Į": 4093,
      "å¥³åıĭ": 4094,
      "æķ´çĲĨ": 4095,
      "å·¥ä¸ļ": 4096,
      "åĶ·": 4097,
      "39": 4098,
      "ä¸įèµ·": 4099,
      "âĢ¢": 4100,
      "èŃ¦å¯Ł": 4101,
      "éĽķ": 4102,
      "éĦ": 4103,
      "å®ŀæĸ½": 4104,
      "åĸ·": 4105,
      "èĭ±éĽĦ": 4106,
      "IN": 4107,
      "éģ¸æĵĩ": 4108,
      "è½°": 4109,
      "å¯¹è±¡": 4110,
      "ä¸įå¤ª": 4111,
      "å¥½åıĭ": 4112,
      "XD": 4113,
      "åĵªè£¡": 4114,
      "å®Ŀå®Ŀ": 4115,
      "çĹķ": 4116,
      "å¯¼æ¼Ķ": 4117,
      "ä¸Ģåľº": 4118,
      "åĩĿ": 4119,
      "çľŁçļĦæĺ¯": 4120,
      "ç»ıçĲĨ": 4121,
      "ä¸įè§ģ": 4122,
      "æĦıçļĦ": 4123,
      "èĽĩ": 4124,
      "éģł": 4125,
      "çĹĽèĭ¦": 4126,
      "ä¸įè¶³": 4127,
      "è¾ī": 4128,
      "å®Įç¾İ": 4129,
      "åį«è§Ĩ": 4130,
      "å£®": 4131,
      "äºĨä¸Ģä¸ĭ": 4132,
      "èľĤ": 4133,
      "çķħ": 4134,
      "éĤ£ç§į": 4135,
      "æŃ£ç¡®": 4136,
      "åĸĬ": 4137,
      "èĴ¸": 4138,
      "éŁ¿": 4139,
      "æĤ¦": 4140,
      "65": 4141,
      "èĢĮå·²": 4142,
      "ç³Ĭ": 4143,
      "è®ļ": 4144,
      "æ¸Ĳæ¸Ĳ": 4145,
      "æµģè¡Į": 4146,
      "éĢĲæ¸Ĳ": 4147,
      "è§ĦåĪĻ": 4148,
      "å¤±åİ»": 4149,
      "å¤©ç©º": 4150,
      "å®¢äºº": 4151,
      "è¿Ľä¸ĢæŃ¥": 4152,
      "ĠãĢĮ": 4153,
      "åħ¶å¯¦": 4154,
      "æĹģè¾¹": 4155,
      "Ġ7": 4156,
      "éĤ¦": 4157,
      "åĬ²": 4158,
      "åŀĭçļĦ": 4159,
      "å¤ıå¤©": 4160,
      "å®ŀéªĮ": 4161,
      "å»£": 4162,
      "è®Ģ": 4163,
      "Ġ&": 4164,
      "è¿Ł": 4165,
      "ä¼łè¯´": 4166,
      "ï½ŀï½ŀ": 4167,
      "è¿Ī": 4168,
      "====": 4169,
      "ç®Ĺæĺ¯": 4170,
      "é¢ľèī²": 4171,
      "ç§°ä¸º": 4172,
      "è¶ĭ": 4173,
      "çīĨ": 4174,
      "å±ħçĦ¶": 4175,
      "åĭ¤": 4176,
      "æĲľç´¢": 4177,
      "ĠJ": 4178,
      "æĶ¹åĸĦ": 4179,
      "åĩºä¾Ĩ": 4180,
      "å¾Īå¤§": 4181,
      "ä¸Ģå¼ł": 4182,
      "æıĽ": 4183,
      "æķ°åŃĹ": 4184,
      "ãĢĳï¼ļ": 4185,
      "é«ĺä¸Ń": 4186,
      "å±¬": 4187,
      "éĥİ": 4188,
      "å¸ħ": 4189,
      "ä¸ĢæĿ¡": 4190,
      "çĽĹ": 4191,
      "æīĵç®Ĺ": 4192,
      "åĢº": 4193,
      "ä»¶äºĭ": 4194,
      "éģĬæĪ²": 4195,
      "èĲĦ": 4196,
      "éĤ»": 4197,
      "åĲµ": 4198,
      "å¤ķ": 4199,
      "æĭħå¿ĥ": 4200,
      "2000": 4201,
      "ãĢĭï¼Ī": 4202,
      "éº»çĥ¦": 4203,
      "æĸ·": 4204,
      "éłĪ": 4205,
      "åħģ": 4206,
      "æĩīè©²": 4207,
      "åľ¨æŃ¤": 4208,
      "ation": 4209,
      "å¹´æĿ¥": 4210,
      "åĪĽä½ľ": 4211,
      "å¸ķ": 4212,
      "ç«ĭåį³": 4213,
      "åĩºåıĳ": 4214,
      "Ġthe": 4215,
      "éĵº": 4216,
      "å¥³åŃĲ": 4217,
      "ä¸Ģè·¯": 4218,
      "å®´": 4219,
      "æ¬£èµı": 4220,
      "å¹³å¸¸": 4221,
      "è®Ńç»ĥ": 4222,
      "è¿ħéĢŁ": 4223,
      "çİ»çĴĥ": 4224,
      "æ¶Īå¤±": 4225,
      "è´¹çĶ¨": 4226,
      "ong": 4227,
      "ä¼ĺåĬ¿": 4228,
      "éŃļ": 4229,
      "æĪĲéķ¿": 4230,
      "å°Ĩä¼ļ": 4231,
      "åįĵ": 4232,
      "åīª": 4233,
      "æĺ¯ä»Ģä¹Ī": 4234,
      "çīĽèĤī": 4235,
      "åĮħåĲ«": 4236,
      "................": 4237,
      "çĶ¨äºİ": 4238,
      "æĦŁè¦º": 4239,
      "èµ·äºĨ": 4240,
      "å¿ħè¦ģ": 4241,
      "èĬ³": 4242,
      "è®©ä»ĸ": 4243,
      "çµĤ": 4244,
      "æĲº": 4245,
      "åįļå½©ç½ĳ": 4246,
      "ç³»çµ±": 4247,
      "Ġå¹´": 4248,
      "æĥħç»ª": 4249,
      "åİĮ": 4250,
      "åĥıæĺ¯": 4251,
      "çĤ¹åĩ»": 4252,
      "éĢ²è¡Į": 4253,
      "å¾ª": 4254,
      "è§Ĥåħī": 4255,
      "ç¾½": 4256,
      "è¯´æĺ¯": 4257,
      "åĿĬ": 4258,
      "å¿Į": 4259,
      "çļĦæĸ¹æ³ķ": 4260,
      "çĽ¾": 4261,
      "æĢ§æł¼": 4262,
      "ä¸Ģæ¨£": 4263,
      "åĬĩ": 4264,
      "åĲ¸è¡Ģ": 4265,
      "è£¤": 4266,
      "ä¸īåįģ": 4267,
      "å¹³åĿĩ": 4268,
      "Ġof": 4269,
      "è½¬è½½": 4270,
      "æĹ¶çļĦ": 4271,
      "æ¸©æ³ī": 4272,
      "èĳ¡èĲĦ": 4273,
      "æĸĩåŃĹ": 4274,
      "æĮ¯": 4275,
      "ç»ĳ": 4276,
      "çµķ": 4277,
      "çŁ¥åĲį": 4278,
      "è¦ģåİ»": 4279,
      "æĭĮ": 4280,
      "å§Ķåĳĺ": 4281,
      "æŃ·": 4282,
      "âĳ": 4283,
      "éĤĦæľī": 4284,
      "èĲ¥åħ»": 4285,
      "éĶĭ": 4286,
      "åįĥä¸ĩ": 4287,
      "éĤĢè¯·": 4288,
      "ä¸Ĭåİ»": 4289,
      "åħ¨è®¯": 4290,
      "ä½¿å¾Ĺ": 4291,
      "ç¨³å®ļ": 4292,
      "æĶ»åĩ»": 4293,
      "ãĢĤ,": 4294,
      "èº²": 4295,
      "è´¸": 4296,
      "åĤ·": 4297,
      "ä¸įåľ¨": 4298,
      "ä¹Łæ²¡æľī": 4299,
      "é»ĥ": 4300,
      "ãĢģãĢĬ": 4301,
      "bet": 4302,
      "å¾Īå¤ļäºº": 4303,
      "ï¼ĵ": 4304,
      "æł¸å¿ĥ": 4305,
      "ä¾ł": 4306,
      "çī¡ç¾Ĭåº§": 4307,
      "çľ¼åīį": 4308,
      "ãĢįãĢģ": 4309,
      "ss": 4310,
      "åĿĲåľ¨": 4311,
      "åĢĭäºº": 4312,
      "æĺİçļĦ": 4313,
      "äº¿åħĥ": 4314,
      "è¿Ľåİ»": 4315,
      "æĪĲåĳĺ": 4316,
      "èĢģå©Ĩ": 4317,
      "é¤¨": 4318,
      "åį°åº¦": 4319,
      "ä¹ĭä¸ĭ": 4320,
      "åıªå¥½": 4321,
      "éĮ¢": 4322,
      "æĪĲç»©": 4323,
      "éĺ¿éĩĮ": 4324,
      "è»Ł": 4325,
      "èĤĿ": 4326,
      "éĶ¦": 4327,
      "ç¾İåľĭ": 4328,
      "åĵģè´¨": 4329,
      "é¥ŃåºĹ": 4330,
      "ä¿Ŀéļľ": 4331,
      "ä¹Łèĥ½": 4332,
      "çĻ½èī²": 4333,
      "æ°§": 4334,
      "æ¶Ĥ": 4335,
      "è¿ŀç»Ń": 4336,
      "éģ¥": 4337,
      "æĹ¥èµ·": 4338,
      "æĬķåħ¥": 4339,
      "æ·±åħ¥": 4340,
      "å±ķç¤º": 4341,
      "å¢Ļ": 4342,
      "å¹¶ä¸įæĺ¯": 4343,
      "æĸ°ç«¹": 4344,
      "ä¸§": 4345,
      "åĮºåŁŁ": 4346,
      "è¯¸": 4347,
      "å±¤": 4348,
      "åŁ¹è®Ń": 4349,
      "è³¼": 4350,
      "ç½Ĺæĸ¯": 4351,
      "åıĮåŃĲåº§": 4352,
      "ine": 4353,
      "å°¤åħ¶æĺ¯": 4354,
      "çº½": 4355,
      "æĬ¥éģĵ": 4356,
      "èĦī": 4357,
      "ook": 4358,
      "97": 4359,
      "è´«": 4360,
      "ãĢĤ>": 4361,
      "èģĺ": 4362,
      "ä¾£": 4363,
      "æĸ°é²ľ": 4364,
      "åİī": 4365,
      "çĶŁåŃĺ": 4366,
      "é£ŀæľº": 4367,
      "å¼¯": 4368,
      "æĪĺçķ¥": 4369,
      "èĭį": 4370,
      "åħ¬å¯ĵ": 4371,
      "çī¹ä»·": 4372,
      "æ³³": 4373,
      "ä¸įæľĥ": 4374,
      "ä½Ī": 4375,
      "åĤ»": 4376,
      "èµ«": 4377,
      "æľīæīĢ": 4378,
      "éĥ½æ²¡æľī": 4379,
      "èĦı": 4380,
      "çĽĺåı£": 4381,
      "éĢĨ": 4382,
      "å¾¡": 4383,
      "æľĢå¾Į": 4384,
      "æ¼ı": 4385,
      "éĻĲåĪ¶": 4386,
      "èĲĿ": 4387,
      "å®ı": 4388,
      "è®²è¿°": 4389,
      "____": 4390,
      "æĮĸ": 4391,
      "85": 4392,
      "èĲ¥ä¸ļæĹ¶éĹ´": 4393,
      "æľ´": 4394,
      "ä¸ľæĸ¹": 4395,
      "---": 4396,
      "æ´ª": 4397,
      "ä½ıåľ¨": 4398,
      "åıįèĢĮ": 4399,
      "åĵªä¸ª": 4400,
      "è¯¦ç»Ĩ": 4401,
      "you": 4402,
      "67": 4403,
      "ä¹Łè¦ģ": 4404,
      "åŁ¹åħ»": 4405,
      "æ¡ĳ": 4406,
      "çĹħæ¯Ĵ": 4407,
      "é©¶": 4408,
      "ä½ĵç³»": 4409,
      "éĩĮæĸ¯": 4410,
      "å¤§å®¶éĥ½": 4411,
      "èł": 4412,
      "å®£ä¼ł": 4413,
      "çĺ¦": 4414,
      "å«©": 4415,
      "è¯ģæĺİ": 4416,
      "çļĦè¯´": 4417,
      "æģ¢å¤į": 4418,
      "çĽ¸åĲĮ": 4419,
      "æ²¡æĥ³åĪ°": 4420,
      "åı¹": 4421,
      "Ġå°ı": 4422,
      "æ³ķåĽ½": 4423,
      "çľĭæĿ¥": 4424,
      "æ¼Ķåĳĺ": 4425,
      "è·ĥ": 4426,
      "æ¸Ķ": 4427,
      "åŀĤ": 4428,
      "è¼ī": 4429,
      "å¤©çĦ¶": 4430,
      "éĴĵé±¼": 4431,
      "èĪĪ": 4432,
      "çŁ¿": 4433,
      "åı¯çĪ±": 4434,
      "å½ĵä½ł": 4435,
      "åĪ©çĽĬ": 4436,
      "è§Ĥå¯Ł": 4437,
      "åĵªéĩĮ": 4438,
      "è¿Ļè£¡": 4439,
      "ä¹ĥ": 4440,
      "è¿ĺæ²¡": 4441,
      "çĶ·å¥³": 4442,
      "æĺ¯æľī": 4443,
      "æĸĳ": 4444,
      "çī§": 4445,
      "åıĳæĮ¥": 4446,
      "çĥŃæĥħ": 4447,
      "éĢĻç¨®": 4448,
      "èĥĮæĻ¯": 4449,
      "å¾·åĽ½": 4450,
      "éļ¾ä»¥": 4451,
      "èĹĿ": 4452,
      "Ġ2013": 4453,
      "åķĨåĬ¡": 4454,
      "OS": 4455,
      "å¼Ģå±ķ": 4456,
      "ç«Ļåľ¨": 4457,
      "æ¬º": 4458,
      "å¥½åĲĥ": 4459,
      "é»ĳèī²": 4460,
      "ä¸ĢæĹ¦": 4461,
      "ç²īä¸Ŀ": 4462,
      "å£ĵ": 4463,
      "æľīæĹ¶": 4464,
      "ct": 4465,
      "çį²": 4466,
      "ï¼İï¼İ": 4467,
      "èĿ¶": 4468,
      "åĤ²": 4469,
      "ä¼ļåĳĺ": 4470,
      "çĨŁæĤī": 4471,
      "sh": 4472,
      "æµħ": 4473,
      "å«Į": 4474,
      "æŃ²": 4475,
      "ĊĊ": 4476,
      "ä¸įçĦ¶": 4477,
      "æ²ĥ": 4478,
      "èĩªèº«": 4479,
      "è§Ĵåº¦": 4480,
      "èĪī": 4481,
      "ç©ºæ°Ķ": 4482,
      "äººéĹ´": 4483,
      "æĪĳè§īå¾Ĺ": 4484,
      "è¯±": 4485,
      "è¿ĺåľ¨": 4486,
      "çĮİ": 4487,
      "ĠåĴĮ": 4488,
      "è§£éĩĬ": 4489,
      "å¤ļäºĨ": 4490,
      "æĹº": 4491,
      "æĪĳåĽ½": 4492,
      "çĭł": 4493,
      "ä¸ºä½ķ": 4494,
      "ä¸įå¦Ĥ": 4495,
      "èĩī": 4496,
      "æľ¬ç«Ļ": 4497,
      "æ¡¶": 4498,
      "ç¯ĩæĸĩç«ł": 4499,
      "éĻĮ": 4500,
      "æĬ¹": 4501,
      "è£½ä½ľ": 4502,
      "çļĦæµ·": 4503,
      "ç¾ħ": 4504,
      "çĤī": 4505,
      "è´¦": 4506,
      "æ´»åĭķ": 4507,
      "ike": 4508,
      "åºĻ": 4509,
      "å¸¦çĿĢ": 4510,
      "ä½ıå®¿": 4511,
      "Ġä¸Ń": 4512,
      "åħħåĪĨ": 4513,
      "æİ¥è¿ĳ": 4514,
      "å¸®å¿Ļ": 4515,
      "åĩºåı£": 4516,
      "çĶ·åıĭ": 4517,
      "è¿Ļå®¶": 4518,
      "å®ľåħ°": 4519,
      "è³ĩæĸĻ": 4520,
      "è©ķ": 4521,
      "å®£å¸ĥ": 4522,
      "æŀ«": 4523,
      "èĴľ": 4524,
      "IC": 4525,
      "éĮĦ": 4526,
      "é¢Ħè®¡": 4527,
      "ä¿Ĭ": 4528,
      "St": 4529,
      "æ¯ģ": 4530,
      "æķ°éĩı": 4531,
      "ç·¨": 4532,
      "åº¦åģĩ": 4533,
      "åħ¬å¼Ģ": 4534,
      "ä¿ĥè¿Ľ": 4535,
      "è®¾ç½®": 4536,
      "åģļå¥½": 4537,
      "éªĤ": 4538,
      "æĮĩå¯¼": 4539,
      "çīµ": 4540,
      "è¿ĺåı¯ä»¥": 4541,
      "åķ¥": 4542,
      "ä»ĬæĹ¥": 4543,
      "éĥ½èĥ½": 4544,
      "èį¡": 4545,
      "çŃĭ": 4546,
      "çī¹çĤ¹": 4547,
      "æ¡Ĳ": 4548,
      "æŃ¥éģĵ": 4549,
      "ä¼¤å®³": 4550,
      "çĶµè§Ĩåı°": 4551,
      "çļĦåİŁåĽł": 4552,
      "åİŁåĪĻ": 4553,
      "çĸ²": 4554,
      "æ¶µ": 4555,
      "å¦¹å¦¹": 4556,
      "ä¹ĭéĹ´çļĦ": 4557,
      "æıĲéĨĴ": 4558,
      "è¯´çļĦ": 4559,
      "å½¼æŃ¤": 4560,
      "ĠãĢĬ": 4561,
      "éĿ¢ä¸Ĭ": 4562,
      "ä»ĸåľ¨": 4563,
      "èµ¤": 4564,
      "æ£ī": 4565,
      "åĩºçīĪ": 4566,
      "åĭ¾": 4567,
      "æ¡Ĥ": 4568,
      "åĲĥé¥Ń": 4569,
      "èĬĿ": 4570,
      "ä¸įä½Ĩ": 4571,
      "å¤§éĥ¨åĪĨ": 4572,
      "æĪĲçĤº": 4573,
      "åĲĬ": 4574,
      "æª¢": 4575,
      "ack": 4576,
      "åĽ½å¤ĸ": 4577,
      "NBA": 4578,
      "å¿½çĦ¶": 4579,
      "çļĦéĩįè¦ģ": 4580,
      "æĹ¥æĬ¥": 4581,
      "åħ¨æĸ°": 4582,
      "æĭĨ": 4583,
      "åıĬæĹ¶": 4584,
      "ä¸»ä»»": 4585,
      ")ãĢģ": 4586,
      "éĢłåŀĭ": 4587,
      "çļĦåıĳå±ķ": 4588,
      "åį±éĻ©": 4589,
      "ä»ĸæĺ¯": 4590,
      "ail": 4591,
      "é«ĺéĢŁ": 4592,
      "å§Ĳå§Ĳ": 4593,
      "ight": 4594,
      "ç¿°": 4595,
      "ç»ĺ": 4596,
      "å¾®ä¿¡": 4597,
      "è¿ĻæĹ¶": 4598,
      "åĽ°éļ¾": 4599,
      "æķ´ä½ĵ": 4600,
      "æĶ¾åħ¥": 4601,
      "è¡¨è¾¾": 4602,
      "é¹¿": 4603,
      "ç«ĭåĪ»": 4604,
      "åħįè²»": 4605,
      "éľį": 4606,
      "ç·Ĭ": 4607,
      "æİĮæı¡": 4608,
      "çį¨": 4609,
      "èĹī": 4610,
      "ä¸ºä¸»": 4611,
      "ç²¾å½©": 4612,
      "æĢĢçĸĳ": 4613,
      "æ¤ħ": 4614,
      "éĹ·": 4615,
      "äººæīį": 4616,
      "æ¹ĸåįĹ": 4617,
      "èĪĮ": 4618,
      "åį³æĹ¶": 4619,
      "èĶ¬": 4620,
      "æĺ¯å¾Ī": 4621,
      "çĲĨè®º": 4622,
      "èĪĴæľį": 4623,
      "èĲ§": 4624,
      "åĥħ": 4625,
      "æ®º": 4626,
      "é¥µ": 4627,
      "å½¢è±¡": 4628,
      "çº¢èī²": 4629,
      "è¿ĺä¼ļ": 4630,
      "ity": 4631,
      "æĹ¶æĹ¶": 4632,
      "æľĪä»½": 4633,
      "çºªå¿µ": 4634,
      "åľŁåľ°": 4635,
      "ï¼ĮãĢĬ": 4636,
      "ä¿¡çĶ¨": 4637,
      "Ġt": 4638,
      "ä»°": 4639,
      "çĽĨ": 4640,
      "ç¿¼": 4641,
      "åľ¨è¿Ļä¸ª": 4642,
      "åĲĪçĲĨ": 4643,
      "çľŁçļĦå¾Ī": 4644,
      "ĠãĢģ": 4645,
      "æĢİéº¼": 4646,
      "å¤§çº¦": 4647,
      "ç¥Ń": 4648,
      "96": 4649,
      "éĿĴæĺ¥": 4650,
      "å®¶ä¸Ń": 4651,
      "å¤§åĮĻ": 4652,
      "åŁĭ": 4653,
      "æĽ´å¤ļçļĦ": 4654,
      "æłı": 4655,
      "è¶ģ": 4656,
      "èĩ³äºİ": 4657,
      "çĻĤ": 4658,
      "å¼ıçļĦ": 4659,
      "æĸ¹çļĦ": 4660,
      "ä¾¯": 4661,
      "å·¡": 4662,
      "åįļçī©": 4663,
      "ãĢįãĢģãĢĮ": 4664,
      "å¤¹": 4665,
      "åı¯èĥ½æĺ¯": 4666,
      "å°ĳè®¸": 4667,
      "éĢ¢": 4668,
      "ast": 4669,
      "çłĤ": 4670,
      "åĲ¸è¡Ģé¬¼": 4671,
      "åı¯èĥ½ä¼ļ": 4672,
      "çĸ¯çĭĤ": 4673,
      "æ¯ıä¸ªäºº": 4674,
      "ä¸ĸçķĮä¸Ĭ": 4675,
      "éĻ¶": 4676,
      "æ¢°": 4677,
      "çĲĨçĶ±": 4678,
      "è´¤": 4679,
      "åģļäºĨ": 4680,
      "éĩįè§Ĩ": 4681,
      "æİ¥è§¦": 4682,
      "åĨħéĥ¨": 4683,
      "âĶĢâĶĢ": 4684,
      "è¯´è¯Ŀ": 4685,
      "æ¨±èĬ±": 4686,
      "æĪĺäºī": 4687,
      "è·µ": 4688,
      "IP": 4689,
      "éĶĻè¯¯": 4690,
      "iP": 4691,
      "æ¸¬": 4692,
      "ç´Ģ": 4693,
      "èĽĭçĻ½": 4694,
      "æ¸´": 4695,
      "The": 4696,
      "ç¬¬ä¸Ģä¸ª": 4697,
      "æ¯Ķä¾ĭ": 4698,
      "æ¡ĥåĽŃ": 4699,
      "æĭ³": 4700,
      "æģ¼": 4701,
      "çĶ¢åĵģ": 4702,
      "åģĩæĹ¥": 4703,
      "åįľ": 4704,
      "å¥ī": 4705,
      "éĢļçŁ¥": 4706,
      "æĢ»ç»Ł": 4707,
      "å¸Ĳ": 4708,
      "ä¸»æĮģäºº": 4709,
      "nt": 4710,
      "éı": 4711,
      "åįģäºĶ": 4712,
      "æĳĬ": 4713,
      "å¾©": 4714,
      "é®": 4715,
      "èµĦæľ¬": 4716,
      "å±ģ": 4717,
      "çĦ¡æ³ķ": 4718,
      "å¤©å¤©": 4719,
      "æİ¨åĬ¨": 4720,
      "ä¸ĭäºĨ": 4721,
      "åħ¬å¸ĥ": 4722,
      "èĬĴ": 4723,
      "éĻ½": 4724,
      "ers": 4725,
      "æİªæĸ½": 4726,
      "åħĥç´ł": 4727,
      "æĪĲçĨŁ": 4728,
      "ä¾ĽåºĶ": 4729,
      "å¾Īä¹ħ": 4730,
      "æĢ¡": 4731,
      "å®¶æĹı": 4732,
      "ä¸»åĬ¨": 4733,
      "çī¹åĪ¥": 4734,
      "ãĢĤï¼Ī": 4735,
      "èī²å½©": 4736,
      "æ½Ń": 4737,
      "è¯Ħè®º": 4738,
      "æĬĢèĥ½": 4739,
      "é¸Ń": 4740,
      "èĥ½æºĲ": 4741,
      "æŀĿ": 4742,
      "åĲĮæĻĤ": 4743,
      "çĽ¸å¯¹": 4744,
      "è¬Ŀ": 4745,
      "çĤ®": 4746,
      "åı°åĮĹ": 4747,
      "åħĭæĸ¯": 4748,
      "è¿ŀæİ¥": 4749,
      "çļĦæĻĤåĢĻ": 4750,
      "æŃ¦åĻ¨": 4751,
      "å§»": 4752,
      "åį´æĺ¯": 4753,
      "47": 4754,
      "éľľ": 4755,
      "è¿ĲèĲ¥": 4756,
      "è¨Ĥ": 4757,
      "éŃħåĬĽ": 4758,
      "46": 4759,
      "æ¯ķç«Ł": 4760,
      "æľīè¶£": 4761,
      "èĹ¥": 4762,
      "èıĩ": 4763,
      "é»ĳæļĹ": 4764,
      "ra": 4765,
      "æĤĶ": 4766,
      "ï¼Ĭ": 4767,
      "æ¨ĵ": 4768,
      "æĴĴ": 4769,
      "å©´": 4770,
      "åĨľä¸ļ": 4771,
      "åħ¶å®ĥ": 4772,
      "åĩºçĶŁ": 4773,
      "ä¸įä¹ħ": 4774,
      "é¾į": 4775,
      "ç±»ä¼¼": 4776,
      "æ®¿": 4777,
      "å¤§åŀĭ": 4778,
      "ç¾İä¸½çļĦ": 4779,
      "ç½ļ": 4780,
      "ï¼ī,": 4781,
      "å½ĵåĪĿ": 4782,
      "ice": 4783,
      "çŀ¬éĹ´": 4784,
      "ev": 4785,
      "åĴĴ": 4786,
      "oc": 4787,
      "æī¶": 4788,
      "åľ°ä¸ĭ": 4789,
      "è®©æĪĳä»¬": 4790,
      "åı¯æĢķ": 4791,
      "çľŁæŃ£çļĦ": 4792,
      "ile": 4793,
      "æĺ¯çĶ±": 4794,
      "ä¹Łåľ¨": 4795,
      "æľºåĻ¨": 4796,
      "çĬ¯ç½ª": 4797,
      "è·ŁæĪĳ": 4798,
      "ist": 4799,
      "æĻĴ": 4800,
      "åĪĽæĦı": 4801,
      "æģ°": 4802,
      ",>": 4803,
      "ä¸Ĭç½ĳ": 4804,
      "æ²ŁéĢļ": 4805,
      "çĽĳæİ§": 4806,
      "é¢ĸ": 4807,
      "èĪ¬çļĦ": 4808,
      "çĤºäºĨ": 4809,
      "49": 4810,
      "AN": 4811,
      "æ¼Ķåĩº": 4812,
      "ç¥¸": 4813,
      "åĳĪçİ°": 4814,
      "æ¯ıä¸Ģ": 4815,
      "åıĳè¡Į": 4816,
      "çµ²": 4817,
      "çļĦåīį": 4818,
      "æĥ³è¯´": 4819,
      "å¤ĸéĿ¢": 4820,
      "è¿Ļä½į": 4821,
      "åĪļå¥½": 4822,
      "æĬĳ": 4823,
      "çĻ¾åº¦": 4824,
      "çľĭçļĦ": 4825,
      "ï¹Ĳ": 4826,
      "é¢ĩ": 4827,
      "ç¦®": 4828,
      "ä½łè¦ģ": 4829,
      "Ġ200": 4830,
      "æĦŁæŁĵ": 4831,
      "ç¢§": 4832,
      "èĤĸ": 4833,
      "åģļåĩº": 4834,
      "æĺı": 4835,
      "åı¯æĥľ": 4836,
      "ç±»çļĦ": 4837,
      "å¤±è´¥": 4838,
      "é¨": 4839,
      "é£Ľ": 4840,
      "æĶ¶åĪ°": 4841,
      "æİ¨å¹¿": 4842,
      "ç¥ŀç»ı": 4843,
      "çī©è´¨": 4844,
      "ç»¿èī²": 4845,
      "çĶ¨åĵģ": 4846,
      "èĬ¬": 4847,
      "è¨±å¤ļ": 4848,
      "å±ħæ°ĳ": 4849,
      "æģĭçĪ±": 4850,
      "ich": 4851,
      "åħ¨éĽĨ": 4852,
      "è®¤çľŁ": 4853,
      "èĬ±èİ²": 4854,
      "å¤«å¦»": 4855,
      "æľīä¸ĢäºĽ": 4856,
      "éĿ©åĳ½": 4857,
      "çŃĸçķ¥": 4858,
      "èī³": 4859,
      "AP": 4860,
      "html": 4861,
      "ä»ĵ": 4862,
      "éĹ¨åı£": 4863,
      "æİĴåĲį": 4864,
      "ä¸įæķ¢": 4865,
      "è¾ħ": 4866,
      "æīĭæľ¯": 4867,
      "ï¼ħ": 4868,
      "ä¸Ģç¾¤": 4869,
      "åĵ²": 4870,
      "AR": 4871,
      "ä¸ŃéĹ´": 4872,
      "åŃ£èĬĤ": 4873,
      "éĥģ": 4874,
      "è§£æŀĲ": 4875,
      "çļĦå£°éŁ³": 4876,
      "åĴ¨": 4877,
      "æĹ¥å¸¸": 4878,
      "å¹¿å·ŀ": 4879,
      "og": 4880,
      "èĽĭç³ķ": 4881,
      "æĺ¯æľĢ": 4882,
      "çºµ": 4883,
      "æĤŁ": 4884,
      "å¯ŀ": 4885,
      "çĦ¶å¾Į": 4886,
      "æĽ°": 4887,
      "ä»İèĢĮ": 4888,
      "æĺĮ": 4889,
      "äºĨä¸ĢäºĽ": 4890,
      "æĤ¬": 4891,
      "åİ»çļĦ": 4892,
      "è£¸": 4893,
      "é¸¿": 4894,
      "ä¼ĺç§Ģ": 4895,
      "å¦Ĥä¸ĭ": 4896,
      "å¿ĺäºĨ": 4897,
      "æŁĲäºĽ": 4898,
      "ç»ĦåĲĪ": 4899,
      "èĢģæĿ¿": 4900,
      "æĥħæĦŁ": 4901,
      "ç»Ĩèĥŀ": 4902,
      "é¼İ": 4903,
      "å¹´åº¦": 4904,
      "èĳĹåĲį": 4905,
      "Ġa": 4906,
      "åĩºçı¾": 4907,
      "ç¯®çĲĥ": 4908,
      "åĶĩ": 4909,
      "èĶ¡": 4910,
      "å½°": 4911,
      "ç»Łä¸Ģ": 4912,
      "åĸľæ¬¢çļĦ": 4913,
      "å¼ĢäºĨ": 4914,
      "åĲŀ": 4915,
      "çİĦ": 4916,
      "å¹´é¾Ħ": 4917,
      "å½©ç¥¨": 4918,
      "ç¶²ç«Ļ": 4919,
      "çĪµ": 4920,
      "æ¢¨": 4921,
      "éĵĥ": 4922,
      "ate": 4923,
      "æĻ´": 4924,
      "ä¸Ģéĺµ": 4925,
      "ä¸įåģľ": 4926,
      "å®ł": 4927,
      "åĭ¢": 4928,
      "èºº": 4929,
      "çĶ»éĿ¢": 4930,
      "400": 4931,
      "è¿ģ": 4932,
      "çĪŃ": 4933,
      "åĵ¥åĵ¥": 4934,
      "åī²": 4935,
      "ç¨Ģ": 4936,
      "æĩĴ": 4937,
      "åįĩçº§": 4938,
      "log": 4939,
      "åĨ»": 4940,
      "åĵĢ": 4941,
      "ä¹ĭæĹħ": 4942,
      "çļĦä¸ĸçķĮ": 4943,
      "èµ°åĪ°": 4944,
      "æŁ±": 4945,
      "ãĢģâĢľ": 4946,
      "æĭĵ": 4947,
      "ç¾İåĳ³": 4948,
      "å²ģçļĦ": 4949,
      "é¦Ģ": 4950,
      "çļĦä¸»": 4951,
      "åľ¨ä¸Ģä¸ª": 4952,
      "æľ¬äºº": 4953,
      "æŁı": 4954,
      "åĪłéĻ¤": 4955,
      "ov": 4956,
      "åħ¨è®¯ç½ĳ": 4957,
      "åīįéĿ¢": 4958,
      "çªģçł´": 4959,
      "58": 4960,
      "å¸ĸ": 4961,
      "éĿĪ": 4962,
      "åĲ¬è¯´": 4963,
      "åħŃåĲĪ": 4964,
      "å¢ĵ": 4965,
      "æĺ¯è¦ģ": 4966,
      "æ§ĭ": 4967,
      "ä¸Īå¤«": 4968,
      "æĪĺæĸĹ": 4969,
      "æĻ¯è§Ĥ": 4970,
      "åŃ¦ä¼ļ": 4971,
      "æ®ĸ": 4972,
      "å¿ĥéĩĮ": 4973,
      "åį±æľº": 4974,
      "çļĦè·¯": 4975,
      "åĽĽä¸ª": 4976,
      "ä¸Ģçīĩ": 4977,
      "indow": 4978,
      "æīŃ": 4979,
      "å®ŀåĬĽ": 4980,
      "ç¤¾æľĥ": 4981,
      "è¬Ľ": 4982,
      "çīĽå¥¶": 4983,
      "çķ°": 4984,
      "å¤©åłĤ": 4985,
      "éĢıéľ²": 4986,
      "Ġè¯·éĹ®": 4987,
      "è¯´éģĵ": 4988,
      "çİ©æ³ķ": 4989,
      "éī": 4990,
      "çĭ¬çī¹": 4991,
      "çĻ¼å±ķ": 4992,
      "æĭįçħ§": 4993,
      "èĢģäºº": 4994,
      "æ°ĳä¸»": 4995,
      "æĬ¬": 4996,
      "æĹħé¦Ĩ": 4997,
      "çĶŁæĦı": 4998,
      "æį²": 4999,
      "èĺŃ": 5000,
      "ç½©": 5001,
      "é¾Ł": 5002,
      "æĸ¹éĿ¢çļĦ": 5003,
      "ç»µ": 5004,
      "åĬŀåħ¬å®¤": 5005,
      "å¤¢": 5006,
      "éª¤": 5007,
      "å°Ĩåľ¨": 5008,
      "åĿĳ": 5009,
      "è¿ĺèĥ½": 5010,
      "åı¯ä»¥åľ¨": 5011,
      "åĴ¨è¯¢": 5012,
      "åĳ¨åĽ´": 5013,
      "çľĭè¿ĩ": 5014,
      "Ġä»¥": 5015,
      "ry": 5016,
      "åįģå¹´": 5017,
      "éħ¥": 5018,
      "æĭīæĸ¯": 5019,
      "é«ĺæīĭ": 5020,
      "éĢĤéĩı": 5021,
      "ç©´": 5022,
      "æĢ§æĦŁ": 5023,
      "éĲĺ": 5024,
      "est": 5025,
      "å½Ī": 5026,
      "èĨļ": 5027,
      "éģĵè·¯": 5028,
      "å¹³è¡¡": 5029,
      "æ·»åĬł": 5030,
      "å°įæĸ¼": 5031,
      "åģļåĪ°": 5032,
      "çĸ«": 5033,
      "Ġä¹Ł": 5034,
      "æĿĢæīĭ": 5035,
      "ä¸ĵéĹ¨": 5036,
      "ä¸įå¤Ł": 5037,
      "ç¬¼": 5038,
      "éİ": 5039,
      "çĶŁæ´»ä¸Ń": 5040,
      "æ»¨": 5041,
      "æ²Ī": 5042,
      "æĽ´å¥½": 5043,
      "æĭ¨": 5044,
      "è³£": 5045,
      "ç£ģ": 5046,
      "æŃ»äºĨ": 5047,
      "æľīæĹ¶åĢĻ": 5048,
      "æŁ¥çľĭ": 5049,
      "åĮĢ": 5050,
      "è³½": 5051,
      "ä¼łå¥ĩ": 5052,
      "çĥĪçļĦ": 5053,
      "å½±éŁ¿": 5054,
      "ä¼Ļä¼´": 5055,
      "Ġä»ĸ": 5056,
      "å°Ŀè¯ķ": 5057,
      "æłĹ": 5058,
      "åħĪè¿Ľ": 5059,
      "Ġh": 5060,
      "åľį": 5061,
      "çļĦæĪĳ": 5062,
      "æİ¢ç´¢": 5063,
      "ï¼ĮãĢĮ": 5064,
      "å¾Īå°ĳ": 5065,
      "åĨľåľº": 5066,
      "æī®æ¼Ķ": 5067,
      "åºĶè¯¥æĺ¯": 5068,
      "åľ³": 5069,
      "æ¡Ĩ": 5070,
      "è²ł": 5071,
      "ff": 5072,
      "æĬĽ": 5073,
      "æ·ĳ": 5074,
      "å®¶éķ¿": 5075,
      "åĬ«": 5076,
      "åıĮæĸ¹": 5077,
      "çĶ·æĢ§": 5078,
      "èħ³": 5079,
      "è¡¨æĥħ": 5080,
      "ç¡®å®ŀ": 5081,
      "èĢģåħ¬": 5082,
      "æŃ¤æ¬¡": 5083,
      "ç¢³": 5084,
      "æĥ§": 5085,
      "æĹ©å·²": 5086,
      "çķĻè¨Ģ": 5087,
      "ple": 5088,
      "ï¼įï¼į": 5089,
      "åĪĻæĺ¯": 5090,
      "ä¸įå¾Ĺä¸į": 5091,
      "ä¹Łæ²¡": 5092,
      "å¼Łå¼Ł": 5093,
      "éļıèĳĹ": 5094,
      "ne": 5095,
      "Ġæĸ°": 5096,
      "åŃĿ": 5097,
      "è¾ŀ": 5098,
      "ç®Ń": 5099,
      "éºĹ": 5100,
      "éĩĩåıĸ": 5101,
      "çŃ¹": 5102,
      "æĮ¤": 5103,
      "åĴª": 5104,
      "çłĶåıĳ": 5105,
      "æīįä¼ļ": 5106,
      "çļĦä½ł": 5107,
      "ç¤¼çī©": 5108,
      "å®ĮåĸĦ": 5109,
      "ç¿ł": 5110,
      "é¸£": 5111,
      "å¥ĳ": 5112,
      "é«ĺåħ´": 5113,
      "åĤħ": 5114,
      "éĻµ": 5115,
      "å§Ĭ": 5116,
      "æĺ¯ä»Ģéº½": 5117,
      "åľ¨å®¶": 5118,
      "1000": 5119,
      "å©ļå§»": 5120,
      "èĩ³ä»Ĭ": 5121,
      "åħ¥äºĨ": 5122,
      "åľ°çĲĥ": 5123,
      "æĿĤå¿Ĺ": 5124,
      "åįļå£«": 5125,
      "å¿ĺè®°": 5126,
      "åħ¹": 5127,
      "çĶŁæĹ¥": 5128,
      "çº¤": 5129,
      "âĢ»": 5130,
      "éļª": 5131,
      "åı¸æľº": 5132,
      "olor": 5133,
      "ä¸įåĩº": 5134,
      "æĢİä¹Īæł·": 5135,
      "åı¦ä¸Ģä¸ª": 5136,
      "888": 5137,
      "åħ§å®¹": 5138,
      "éĤªæģ¶": 5139,
      "æľīçĿĢ": 5140,
      "AM": 5141,
      "å¢ħ": 5142,
      "ãĢĭãĢģãĢĬ": 5143,
      "âĢĵ": 5144,
      "Ġ9": 5145,
      "çĽ¡": 5146,
      "Ġå¤©": 5147,
      "æ¸ħæ´ģ": 5148,
      "åĽŀå¤į": 5149,
      "çģµéŃĤ": 5150,
      "éŀĭåŃĲ": 5151,
      "èĪªç©º": 5152,
      "èĳ£äºĭ": 5153,
      "å¾Ĺå¾Ī": 5154,
      "å½ĵä¸Ń": 5155,
      "åĲİéĿ¢": 5156,
      "å§ľ": 5157,
      "åĪ°è¾¾": 5158,
      "æĳĺ": 5159,
      "ä¿©": 5160,
      "ä¼łåªĴ": 5161,
      "ç»´æĮģ": 5162,
      "å®³æĢķ": 5163,
      "é¥®é£Ł": 5164,
      "çºł": 5165,
      "çİ¯ä¿Ŀ": 5166,
      "æİ¡": 5167,
      "æľŁçļĦ": 5168,
      "æħĮ": 5169,
      "ç»Łè®¡": 5170,
      "ç½Ĳ": 5171,
      "èĮĦ": 5172,
      "rc": 5173,
      "åį§": 5174,
      "åıĪæĺ¯": 5175,
      "å¥¶æ²¹": 5176,
      "åĲĦåľ°": 5177,
      "æĶ¶èĹı": 5178,
      "åħĶ": 5179,
      "Ġand": 5180,
      "ES": 5181,
      "æĭĴç»Ŀ": 5182,
      "èı²å¾ĭ": 5183,
      "ä¸ĬåįĪ": 5184,
      "çļĦå¤ĸ": 5185,
      "åİ¨æĪ¿": 5186,
      "æĴĳ": 5187,
      "å®ŀè·µ": 5188,
      "åįıä¼ļ": 5189,
      "é¥®æĸĻ": 5190,
      "åľ°ä½į": 5191,
      "å¾Īå®¹æĺĵ": 5192,
      "æĢ§èĥ½": 5193,
      "å¼Ģå¹ķ": 5194,
      "æħİ": 5195,
      "æĴŃæĶ¾": 5196,
      "èĿİ": 5197,
      "åĲĥåĪ°": 5198,
      "è´¯": 5199,
      "åĽºå®ļ": 5200,
      "ee": 5201,
      "ä¹¾æ·¨": 5202,
      "Ġ=": 5203,
      "æľīèĳĹ": 5204,
      "åŁºäºİ": 5205,
      "æłĭ": 5206,
      "å¤ļä¹ħ": 5207,
      "éĥ½æ²¡": 5208,
      "åīįçļĦ": 5209,
      "åĬłçĽŁ": 5210,
      "æĥ³åĥı": 5211,
      "å¿ħéłĪ": 5212,
      "èĲ¥éĶĢ": 5213,
      "ok": 5214,
      "çĹħäºº": 5215,
      "57": 5216,
      "å¥½å¤ļ": 5217,
      "æķĪçİĩ": 5218,
      "éĥ¨ä»½": 5219,
      "ell": 5220,
      "å§Ķåĳĺä¼ļ": 5221,
      "æİ¨è¿Ľ": 5222,
      "åľ¨å¤§": 5223,
      "ä¹ĸ": 5224,
      "å¸¦èĳĹ": 5225,
      "èģ·": 5226,
      "for": 5227,
      "å¼ºçļĦ": 5228,
      "å¤±è¸ª": 5229,
      "é«ĺçº§": 5230,
      ">>": 5231,
      "ç¼ºä¹ı": 5232,
      "é§": 5233,
      "å½¹": 5234,
      "æĶ¶éĽĨ": 5235,
      "åįļçī©é¦Ĩ": 5236,
      "ain": 5237,
      "èµĦæł¼": 5238,
      "æ·±åĪ»": 5239,
      "å°ıéķĩ": 5240,
      "æĹłå¥Ī": 5241,
      "å·¨èŁ¹": 5242,
      "æ¾³éĹ¨èµĮåľº": 5243,
      "è¡°": 5244,
      "ç¹¼": 5245,
      "æĸĩåŃ¦": 5246,
      "å¯Ĥå¯ŀ": 5247,
      "ä¸įæĩĤ": 5248,
      "äºĴçĽ¸": 5249,
      "Ġ12": 5250,
      "42": 5251,
      "éĿ¢ä¸´": 5252,
      "æµı": 5253,
      "å¥½å¥ĩ": 5254,
      "è½¨": 5255,
      "æķ²": 5256,
      "æĦģ": 5257,
      "è¯Ī": 5258,
      "ä½ĵçļĦ": 5259,
      "ä¸ĢçĶŁ": 5260,
      "æµ¸": 5261,
      "ä¸ĭéĻį": 5262,
      "æľīä»Ģä¹Ī": 5263,
      "æĮ¡": 5264,
      "ç»Ļå¤§å®¶": 5265,
      "ER": 5266,
      "åľ°åĽ¾": 5267,
      "ç§ģäºº": 5268,
      "èķ¾": 5269,
      "æĿ±è¥¿": 5270,
      "åĲ¦åĪĻ": 5271,
      "èªįçĤº": 5272,
      "éĲµ": 5273,
      "ä¸»ç®¡": 5274,
      "è§ĤçĤ¹": 5275,
      "ä¸Ģä»½": 5276,
      "è±ĨèħĲ": 5277,
      "å¾®ç¬ĳ": 5278,
      "æµ´å®¤": 5279,
      "éļıæĹ¶": 5280,
      "éĿ¢ç§¯": 5281,
      "è¦ĸéł»": 5282,
      "é©»": 5283,
      "å¤ľå¸Ĥ": 5284,
      "åĬŀçĲĨ": 5285,
      "å°ıæľĭåıĭ": 5286,
      "åĩłå¹´": 5287,
      "QQ": 5288,
      "åįĶ": 5289,
      "ber": 5290,
      "åĳ½è¿Ĳ": 5291,
      "è¯¡": 5292,
      "åĬłæĭ¿": 5293,
      "Ġä»Ĭå¤©": 5294,
      "åĴĮå¹³": 5295,
      "é¦¨": 5296,
      "æĹłçº¿": 5297,
      "èª²": 5298,
      "æ¼Ĩ": 5299,
      "indows": 5300,
      "ä»ĸäºº": 5301,
      "åĨħå¿ĥ": 5302,
      "éĽ»å½±": 5303,
      "çĳŁ": 5304,
      "åĳ¼åĲ¸": 5305,
      "äºĨåĲ§": 5306,
      "ä½ıäºĨ": 5307,
      "è®¿éĹ®": 5308,
      "å²Ĺ": 5309,
      "çĸı": 5310,
      "å±Ī": 5311,
      "èµ°åĲĳ": 5312,
      "ç¾ŀ": 5313,
      "æįī": 5314,
      "æĺ¯ä½ł": 5315,
      "è¿Ļä¸¤": 5316,
      "èĬ±åĽŃ": 5317,
      "éĥ¨éĺŁ": 5318,
      "ä¼¦æķ¦": 5319,
      "ng": 5320,
      "åĽŀåİ»": 5321,
      "ä¸Ĭæľī": 5322,
      "æ·±åľ³": 5323,
      "æĦŁåĬ¨": 5324,
      "éĢıè¿ĩ": 5325,
      "æ³ķè½®": 5326,
      "æģĴ": 5327,
      "æħ°": 5328,
      "ä¼Ĺå¤ļ": 5329,
      "çĽ¸æ¯Ķ": 5330,
      "èĪŀåı°": 5331,
      "ç¼Ŀ": 5332,
      "ä¸Ģå£°": 5333,
      "æ·ĺå®Ŀ": 5334,
      "éĥ½å¸Ĥ": 5335,
      "çĨĻ": 5336,
      "åľ¨ä¸ŃåĽ½": 5337,
      "å¤ªéĺ³åŁİ": 5338,
      "ä¸įéĶĻçļĦ": 5339,
      "èµļéĴ±": 5340,
      "ãĢĭãĢĤ": 5341,
      "èĩ´åĳ½": 5342,
      "æ¼ł": 5343,
      "åģ¶åĥı": 5344,
      "æİ©": 5345,
      "çŀŃ": 5346,
      "æĸ¯çī¹": 5347,
      "ĠU": 5348,
      "æĻĥ": 5349,
      "ä¸īå¹´": 5350,
      "2007": 5351,
      "ĠSt": 5352,
      "æĹ¶åħī": 5353,
      "èĩªä¿¡": 5354,
      "ç©į": 5355,
      "å»³": 5356,
      "æĺİç¡®": 5357,
      "æĵĶ": 5358,
      "è³ĩè¨Ĭ": 5359,
      "é¢ģ": 5360,
      "æĹ¶åĪ»": 5361,
      "éºµåĮħ": 5362,
      "èĪĴéĢĤ": 5363,
      "ä¹Łå°±": 5364,
      "å¤§æ³ķ": 5365,
      "56": 5366,
      "ai": 5367,
      "å¤Ħäºİ": 5368,
      "çĲĨå¿µ": 5369,
      "å¸¸è§ģ": 5370,
      "åĲ¸æĶ¶": 5371,
      "äººæ°ĳå¸ģ": 5372,
      "å¿ĥè£¡": 5373,
      "è¿ĲçĶ¨": 5374,
      "èµł": 5375,
      "èĭ±è¯Ń": 5376,
      "å°½ç®¡": 5377,
      "ID": 5378,
      "PS": 5379,
      "å¤ĸçļĦ": 5380,
      "ä½Ķ": 5381,
      "éĩįçļĦ": 5382,
      "å£³": 5383,
      "åłª": 5384,
      "æīĳåħĭ": 5385,
      "ä¿®æĶ¹": 5386,
      "èı²å¾ĭå®¾": 5387,
      "éĿĻçļĦ": 5388,
      "ä½ĨæĪĳ": 5389,
      "ç¬¬ä¸ĢåĲį": 5390,
      "å¤Ħå¥³": 5391,
      "è¶ĭåĬ¿": 5392,
      "ON": 5393,
      "åĩºéĹ¨": 5394,
      "åķĨåºĹ": 5395,
      "éłĨ": 5396,
      "å·®ä¸įå¤ļ": 5397,
      "åĲ»": 5398,
      "Ġä¹ĭ": 5399,
      "è¨´": 5400,
      "æİīäºĨ": 5401,
      "ä¸ĳ": 5402,
      "èµĦäº§": 5403,
      "æ²¾": 5404,
      "æĹ¢çĦ¶": 5405,
      "æĬ¼": 5406,
      "å¿ĥçģµ": 5407,
      "æµıè§Ī": 5408,
      "ãĢĤ/>": 5409,
      "çŁĽ": 5410,
      "å¹¿åľº": 5411,
      "âĺħâĺħ": 5412,
      "ä¸ŃåįĪ": 5413,
      "æĥ³è±¡": 5414,
      "ä¾ĨçļĦ": 5415,
      "æŀľçĦ¶": 5416,
      "èĩĤ": 5417,
      "~~~~": 5418,
      "åĹ¯": 5419,
      "è¯Ŀè¯´": 5420,
      "æĥħçļĦ": 5421,
      "æīĩ": 5422,
      "å·¥ä½ľçļĦ": 5423,
      "å¼ºè°ĥ": 5424,
      ",/>": 5425,
      "çº·çº·": 5426,
      "ä¿Ŀåħ»": 5427,
      "è²¨": 5428,
      "ç·´": 5429,
      "éģµ": 5430,
      "çĭĲ": 5431,
      "ace": 5432,
      "æĭħä»»": 5433,
      "ll": 5434,
      "å§¬": 5435,
      "éĥ¨çļĦ": 5436,
      "è¿Ĳè¡Į": 5437,
      "åı«åģļ": 5438,
      "Ġ.": 5439,
      "åĲĮæĦı": 5440,
      "åĽĬ": 5441,
      "çļĦä¸ĢåĪĩ": 5442,
      "æµ·å²¸": 5443,
      "ç¼ł": 5444,
      "ä¹Ļ": 5445,
      "å§ĳå¨ĺ": 5446,
      "èĪ°": 5447,
      "é¢ĳéģĵ": 5448,
      "æ´Ĵ": 5449,
      "èĤ¡ç¥¨": 5450,
      "æĥ¹": 5451,
      "äºĨæĪĳ": 5452,
      "å¤§å¸Ī": 5453,
      "ç¬ĳå®¹": 5454,
      "LED": 5455,
      "ä¾¿åĪ©": 5456,
      "èĻ¹": 5457,
      "æĦī": 5458,
      "æ¾¡": 5459,
      "å¹¸è¿Ĳ": 5460,
      "å¦ĤåĲĮ": 5461,
      "çķ¶çĦ¶": 5462,
      "ä¸įä¸Ģæł·": 5463,
      "éĴ»": 5464,
      "åľ¨äºİ": 5465,
      "43": 5466,
      "çĢĳ": 5467,
      "æĪĲå°±": 5468,
      "åįĹæĬķ": 5469,
      "è´ª": 5470,
      "é¦ĸæ¬¡": 5471,
      "æĦıåĳ³": 5472,
      "ark": 5473,
      "Ġå¦Ĥæŀľ": 5474,
      "ä¸īäºº": 5475,
      "éłģ": 5476,
      "ç´§å¼ł": 5477,
      "åįıè®®": 5478,
      "Ġæĥ³": 5479,
      "æ³ķéĻ¢": 5480,
      "Ġg": 5481,
      "çł´åĿı": 5482,
      "åºĹå®¶": 5483,
      "æĸľ": 5484,
      "ç¡®ä¿Ŀ": 5485,
      "åĲ¯åĬ¨": 5486,
      "éĭ": 5487,
      "åĪĨç±»": 5488,
      "æĹ¥åīį": 5489,
      "TV": 5490,
      "åĨľæĿĳ": 5491,
      "å¾Īå¤§çļĦ": 5492,
      "æľºåĪ¶": 5493,
      "her": 5494,
      "èħ»": 5495,
      "å¤ľæĻļ": 5496,
      "æ¡Īä»¶": 5497,
      "ä¿¡èªī": 5498,
      "æĶĿ": 5499,
      "çļĦæľºä¼ļ": 5500,
      "åħ¨ä¸ĸçķĮ": 5501,
      "åģľæŃ¢": 5502,
      "å¸½": 5503,
      "ç»Ļä»ĸ": 5504,
      "åĪ©äºļ": 5505,
      "é®®": 5506,
      "éĩįå¤§": 5507,
      "å·¥åİĤ": 5508,
      "çħİ": 5509,
      "åŃŁ": 5510,
      "å¤§åŃ¦çĶŁ": 5511,
      "éĩıçļĦ": 5512,
      "è£ľ": 5513,
      "èģĸ": 5514,
      "åıĳçĶŁäºĨ": 5515,
      "åŁ·": 5516,
      "å§Ĳå¦¹": 5517,
      "å§ĭç»Ī": 5518,
      "åºŀ": 5519,
      "çĽ¸éĹľ": 5520,
      "æĬ«": 5521,
      "æ³°åĽ½": 5522,
      "è¢ĸ": 5523,
      "å¤ļæ¬¡": 5524,
      "åĪ«å¢ħ": 5525,
      "ç¬¬äºĶ": 5526,
      "ä¾¿æĺ¯": 5527,
      "åŃ£åº¦": 5528,
      "æ¸©åº¦": 5529,
      "åıī": 5530,
      "åįĬå¹´": 5531,
      "ä½łåı¯ä»¥": 5532,
      "æ¸ł": 5533,
      "çĿ¡è§ī": 5534,
      "æİĺ": 5535,
      "æľĢå¤ļ": 5536,
      "çģ«éĶħ": 5537,
      "èĹ¤": 5538,
      "æī¾ä¸įåĪ°": 5539,
      "æįĲ": 5540,
      "åį¢": 5541,
      "éĻ³": 5542,
      "éĻ¸": 5543,
      "æĹ¶æĹ¶å½©": 5544,
      "çľĭå®Į": 5545,
      "son": 5546,
      "å¢ŀå¼º": 5547,
      "pl": 5548,
      "çĥ«": 5549,
      "åıĪæľī": 5550,
      "å¤´çļĦ": 5551,
      "âĸ²": 5552,
      "éĹ¯": 5553,
      "èĩ£": 5554,
      "å¸ĥè¢ĭ": 5555,
      "æ¿Ł": 5556,
      "å¤§å¤ļæķ°": 5557,
      "ç©Ĩ": 5558,
      "æ¸Ľ": 5559,
      "åŁĶ": 5560,
      "ä¸Ĭä¸ĭ": 5561,
      "æĻ°": 5562,
      "åĪ®": 5563,
      "éĢĻæĺ¯": 5564,
      "å½©éĩĳ": 5565,
      "åĨ¬å¤©": 5566,
      "åĮ¹": 5567,
      "åĽŃåĮº": 5568,
      "è²¼": 5569,
      "åľ¾": 5570,
      "å°ĭ": 5571,
      "ame": 5572,
      "æ±¡æŁĵ": 5573,
      "æªĶ": 5574,
      "æĽ¹": 5575,
      "æıĲåīį": 5576,
      "åĪ°å¤Ħ": 5577,
      "äºĴåĬ¨": 5578,
      "86": 5579,
      "æİ¥èĳĹ": 5580,
      "åħĭéĩĮæĸ¯": 5581,
      "åĨ°ç®±": 5582,
      "âĺĨ": 5583,
      "äºĨåĲĹ": 5584,
      "éĶĲ": 5585,
      "å¤ļä¸ª": 5586,
      "æĺİå¤©": 5587,
      "éĨĭ": 5588,
      "æĪĲäºº": 5589,
      "åľ¨è¿ĻéĩĮ": 5590,
      "æĵģ": 5591,
      "åŀĥ": 5592,
      "æļĳåģĩ": 5593,
      "å½ĵå¤©": 5594,
      "è¿´": 5595,
      "æľ¬æĸĩ": 5596,
      "åĬ¨çĶ»": 5597,
      "å¤įæĿĤ": 5598,
      "Ġ11": 5599,
      "çĹĩçĬ¶": 5600,
      "çºªå½ķ": 5601,
      "Ġl": 5602,
      "åĪĨä¸º": 5603,
      "éļĲèĹı": 5604,
      "Ġto": 5605,
      "æł¡åĽŃ": 5606,
      "åŀĥåľ¾": 5607,
      "æ¸©æļĸ": 5608,
      "é½¿": 5609,
      "åİĤåķĨ": 5610,
      "å¼¥": 5611,
      "å»·": 5612,
      "éĹľä¿Ĥ": 5613,
      "éĺĶ": 5614,
      "ä¸Ģé»ŀ": 5615,
      "è´¡": 5616,
      "äººåı£": 5617,
      "360": 5618,
      "åħ¨èº«": 5619,
      "æľīä¸Ģç§į": 5620,
      "æ¶īåıĬ": 5621,
      "åļ´": 5622,
      "çłĸ": 5623,
      "èªĵ": 5624,
      "IS": 5625,
      "æ°ĳå®¿": 5626,
      "è£Ļ": 5627,
      "è§Ĥçľĭ": 5628,
      "Ġåīį": 5629,
      "å¼Ģè½¦": 5630,
      "åĬ¨åĬĽ": 5631,
      "è¥¿çıŃ": 5632,
      "éģŃéģĩ": 5633,
      "èĤ¿": 5634,
      "é¡ĺ": 5635,
      "åħĭåĬĽ": 5636,
      "åºĬä¸Ĭ": 5637,
      "ä¸įåı¯èĥ½": 5638,
      "æ²īé»ĺ": 5639,
      "76": 5640,
      "é¼ĵåĬ±": 5641,
      "å±ıå¹ķ": 5642,
      "ä¸Ģå¼Ģå§ĭ": 5643,
      "å´ĩ": 5644,
      "è¥¿çıŃçīĻ": 5645,
      "æµ¦": 5646,
      "å¤©ä½¿": 5647,
      "çĲª": 5648,
      "èĢĮåľ¨": 5649,
      "é©ļ": 5650,
      "éħįç½®": 5651,
      "ä¸¥æł¼": 5652,
      "ç»ĦæĪĲ": 5653,
      "ä¸Ĭåįĩ": 5654,
      "ä¸»å¸Ń": 5655,
      "éģŃåĪ°": 5656,
      "çĴ°å¢ĥ": 5657,
      "æľīä»Ģéº½": 5658,
      "èĸĳ": 5659,
      "è¡¨éĿ¢": 5660,
      "ç·»": 5661,
      "åĩºçİ°åľ¨": 5662,
      "åĲĥäºĨ": 5663,
      "åĲĦèĩª": 5664,
      "èģªæĺİ": 5665,
      "éĤ£æĺ¯": 5666,
      "AD": 5667,
      "gle": 5668,
      "æīĭæ®µ": 5669,
      "çĨ¬": 5670,
      "å¾®å¾®": 5671,
      "æµģç¨ĭ": 5672,
      "éĬĢ": 5673,
      "çĻ¼çĶŁ": 5674,
      "äººä½ĵ": 5675,
      "æ¯ıæĹ¥": 5676,
      "âĢĿãĢģâĢľ": 5677,
      "éĺ²æŃ¢": 5678,
      "éĤ£éº¼": 5679,
      "çİ°åľ¨çļĦ": 5680,
      "ä¸įåıĬ": 5681,
      "è°±": 5682,
      "age": 5683,
      "å®¤åĨħ": 5684,
      "æĪĳå¾Ī": 5685,
      "å¯¹ä½ł": 5686,
      "ä»İå°ı": 5687,
      "ç¥ŀå¥ĩ": 5688,
      "åĬłæĭ¿å¤§": 5689,
      "å¤§ä¼Ĺ": 5690,
      "æµĭéªĮ": 5691,
      "åı°ä¸ľ": 5692,
      "å¸Ĥåł´": 5693,
      "å·¾": 5694,
      "èĳĹåĲįçļĦ": 5695,
      "éĿľ": 5696,
      "æ¯«æĹł": 5697,
      "çĶ±æĸ¼": 5698,
      "ä¼łæĴŃ": 5699,
      "èµĽåŃ£": 5700,
      "åĬĥ": 5701,
      "hone": 5702,
      "åĲĪæ³ķ": 5703,
      "çļĦå¥³äºº": 5704,
      "æĬĢè¡ĵ": 5705,
      "åģ¿": 5706,
      "èĢĮä¸į": 5707,
      "ä¹°äºĨ": 5708,
      "äºĭæķħ": 5709,
      "å°¼æĸ¯": 5710,
      "è¿ĺæ²¡æľī": 5711,
      "CD": 5712,
      "å«ģ": 5713,
      "çĶ¨æĿ¥": 5714,
      "âĢ¦âĢ¦âĢĿ": 5715,
      "ç¤¼æĭľ": 5716,
      "çī¢": 5717,
      "æľĪçļĦ": 5718,
      "çĶŁæ´»çļĦ": 5719,
      "!!!!": 5720,
      "åĶ¤": 5721,
      "éĢĻè£¡": 5722,
      "çº±": 5723,
      "éĤ£ä¸Ģ": 5724,
      "çħ§é¡¾": 5725,
      "end": 5726,
      "è¼¸": 5727,
      "å¼ĢçļĦ": 5728,
      "åľ£è¯ŀ": 5729,
      "éĽ»èħ¦": 5730,
      "æĮīæĳ©": 5731,
      "æĬĬæı¡": 5732,
      "78": 5733,
      "æķ´åĲĪ": 5734,
      "æ¶Į": 5735,
      "é¬Ĩ": 5736,
      "æ°Ķæ°Ľ": 5737,
      "å£°æĺİ": 5738,
      "æ¶¯": 5739,
      "çĶļéº½": 5740,
      "å¯¹æīĭ": 5741,
      "æľºæ¢°": 5742,
      "çĳ°": 5743,
      "éŃı": 5744,
      "å¨ĩ": 5745,
      "ize": 5746,
      "çĩ¥": 5747,
      "åĪ¤æĸŃ": 5748,
      "æ°ĶçļĦ": 5749,
      "è¾¹çļĦ": 5750,
      "çĥŃéĹ¨": 5751,
      "åŃ©åŃĲçļĦ": 5752,
      "ä¸īå¤§": 5753,
      "è²¬": 5754,
      "æŃĮæīĭ": 5755,
      "éĩĬæĶ¾": 5756,
      "ä¼ļåľ¨": 5757,
      "è·ŁèĳĹ": 5758,
      "post": 5759,
      "åĪĨæīĭ": 5760,
      "èĦ¾": 5761,
      "çĿ¡çľł": 5762,
      "ä¿±": 5763,
      "é¢ĺçĽ®": 5764,
      "çº½çº¦": 5765,
      "ä¸Ĭä¼ł": 5766,
      "ä¸Ĭå¸Ŀ": 5767,
      "çŃĨ": 5768,
      "å²³": 5769,
      "é«ĺéĽĦå¸Ĥ": 5770,
      "èģĬå¤©å®¤": 5771,
      "ure": 5772,
      "æŃĲ": 5773,
      "èŃ¦æĸ¹": 5774,
      "å¤ªå¤ª": 5775,
      "çĪ²": 5776,
      "ä¸Ĭè¿°": 5777,
      "ä½Ĩåľ¨": 5778,
      "up": 5779,
      "åľ°çĭ±": 5780,
      "ä¸ĢæĹ¥": 5781,
      "æĽ´æľī": 5782,
      "Ġå¥½": 5783,
      "åĵ©": 5784,
      "é¡§": 5785,
      "åŁºæľ¬ä¸Ĭ": 5786,
      "éļľç¢į": 5787,
      "æĦ¤": 5788,
      "çªĿ": 5789,
      "ä¸Ģäºº": 5790,
      "èħĶ": 5791,
      "ä¿¡ä»»": 5792,
      "éĢĻéº¼": 5793,
      "åĨ³èµĽ": 5794,
      "çģĮ": 5795,
      "çļĦè©±": 5796,
      "èĤļåŃĲ": 5797,
      "åĽłä¸ºæĪĳ": 5798,
      "è¾ĵåħ¥": 5799,
      "éĤ£éĩĮ": 5800,
      "ä¸Ģå¤§": 5801,
      "çĹ´": 5802,
      "ç»´æĬ¤": 5803,
      "æĹ¨": 5804,
      "è¨İ": 5805,
      "è§ģåĪ°": 5806,
      "äº¿ç¾İåħĥ": 5807,
      "Ġå°±": 5808,
      "åıĳåĩº": 5809,
      "150": 5810,
      "é¡ºåĪ©": 5811,
      "åħ©åĢĭ": 5812,
      "åİŁåĪĽ": 5813,
      "åĨįåº¦": 5814,
      "ï¼ķ": 5815,
      "åĮĹå¸Ĥ": 5816,
      "ç¾¤ä¼Ĺ": 5817,
      "ĠåºĹåĲį": 5818,
      "è±«": 5819,
      "ä¸»è¦ģæĺ¯": 5820,
      "åĨłåĨĽ": 5821,
      "å®ĹæķĻ": 5822,
      "é«ĺåº¦": 5823,
      "uc": 5824,
      "å¤©åľ°": 5825,
      "åĶĲä¸ī": 5826,
      "41": 5827,
      "man": 5828,
      "åĺīä¹ī": 5829,
      "è·¨å¹´": 5830,
      "èıĬ": 5831,
      "èĥ½éĩı": 5832,
      "æĺĤ": 5833,
      "åįģåħ«": 5834,
      "çĽ¸äºĴ": 5835,
      "ç¿Ķ": 5836,
      "You": 5837,
      "ä¸¸": 5838,
      "çĪ±ä½ł": 5839,
      "ç»ĻäºĪ": 5840,
      "çº¦ç¿°": 5841,
      "å¤ļç§į": 5842,
      "éĺģ": 5843,
      "è½»è½»": 5844,
      "åĮĸå¦Ĩ": 5845,
      "é£ŁæĿĲ": 5846,
      "ä½ľå®¶": 5847,
      "æĹłéĻĲ": 5848,
      "è¿ĳæĹ¥": 5849,
      "otel": 5850,
      "å¹³æĹ¶": 5851,
      "æ¾³æ´²": 5852,
      "æĥĬéŃĤ": 5853,
      "ip": 5854,
      "åĮºçļĦ": 5855,
      "å°ıåŃ¦": 5856,
      "æĽĿ": 5857,
      "æĹłèģĬ": 5858,
      "ort": 5859,
      "é¢Ī": 5860,
      "æĻļä¼ļ": 5861,
      "äºı": 5862,
      "æīĭæĮĩ": 5863,
      "æĿı": 5864,
      "å°¹": 5865,
      "Ġ\"": 5866,
      "æ¸ħæĻ°": 5867,
      "ly": 5868,
      "æĹłäºº": 5869,
      "å¥´": 5870,
      "ä¿Ħç½Ĺæĸ¯": 5871,
      "æıĲä¾ĽçļĦ": 5872,
      "èħ¾è®¯": 5873,
      "èģŀ": 5874,
      "ç²®": 5875,
      "åŁºçĿ£": 5876,
      "^^": 5877,
      "å²Ń": 5878,
      "åĺ¿": 5879,
      "èĢĮä¸įæĺ¯": 5880,
      "åħ¬ä¸»": 5881,
      "è¿Ļå°±æĺ¯": 5882,
      "çī©åĵģ": 5883,
      "å·§åħĭåĬĽ": 5884,
      "åª½åª½": 5885,
      "è²´": 5886,
      "å¤§åľ°": 5887,
      "æıĲç¤º": 5888,
      "èħ¥": 5889,
      "å½±åĥı": 5890,
      "èİĵ": 5891,
      "ç®ĢåįķçļĦ": 5892,
      "çĶµæ¢¯": 5893,
      "ç½ĳç»ľä¸Ĭ": 5894,
      "Ġ<": 5895,
      "åĳ½ä»¤": 5896,
      "è¯ķåĽ¾": 5897,
      "è¾¨": 5898,
      "åĿª": 5899,
      "æĻ®éģį": 5900,
      "å°±æľĥ": 5901,
      "åŃ¸çĶŁ": 5902,
      "æľįè£ħ": 5903,
      "åŁºåľ°": 5904,
      "çľŁäººç§Ģ": 5905,
      "ä½łåľ¨": 5906,
      "æĵİ": 5907,
      "æī¿è®¤": 5908,
      "é¥°æ¼Ķ": 5909,
      "çļĦçľ¼": 5910,
      "è£ħå¤ĩ": 5911,
      "åıįæĺł": 5912,
      "DV": 5913,
      "éĢĤåºĶ": 5914,
      "ina": 5915,
      "eg": 5916,
      "ä¸ĩç¾İåħĥ": 5917,
      "è£ı": 5918,
      "å¨ģå»ī": 5919,
      "éĻĮçĶŁ": 5920,
      "IM": 5921,
      "è§ĦèĮĥ": 5922,
      "oogle": 5923,
      "ä»İæŃ¤": 5924,
      "èĬ¯": 5925,
      "å°Ĩäºİ": 5926,
      "èĤ¡ä»½": 5927,
      "éĤ£æł·": 5928,
      "åħ±æľī": 5929,
      "ian": 5930,
      "Ġä¸ī": 5931,
      "åĪ©æ¶¦": 5932,
      "ä¸įå®¹æĺĵ": 5933,
      "æŁ¥è¯¢": 5934,
      "åıĤè§Ĥ": 5935,
      "åıĳçİ°äºĨ": 5936,
      "åŃ¦å®¶": 5937,
      "èĤª": 5938,
      "ç´į": 5939,
      "äºŃ": 5940,
      "ä¸Ģéļ»": 5941,
      "ä½ľæ³ķ": 5942,
      "å¹¶éĿŀ": 5943,
      "ore": 5944,
      "é¢Ħéĺ²": 5945,
      "ä¿ĿçķĻ": 5946,
      "Ġä½Ĩ": 5947,
      "ç¾¯": 5948,
      "è®¾è®¡å¸Ī": 5949,
      "69": 5950,
      "æĺĨ": 5951,
      "ä½ľä¸ļ": 5952,
      "å·´é»İ": 5953,
      "æ¬¢ä¹Ĳ": 5954,
      "çī¹åĪ«æĺ¯": 5955,
      "è¡¥åħħ": 5956,
      "éģ®": 5957,
      "æīĵçĶµè¯Ŀ": 5958,
      "åħ¬å°º": 5959,
      "éģĵçļĦ": 5960,
      "èĦ¸ä¸Ĭ": 5961,
      "çįİ": 5962,
      "èĦĤèĤª": 5963,
      "åľ¨ä»ĸ": 5964,
      "é£²": 5965,
      "åĭ¿": 5966,
      "åıĳå±ķçļĦ": 5967,
      "æĪĪ": 5968,
      "å¸®æĪĳ": 5969,
      "ah": 5970,
      "ä¸°å¯ĮçļĦ": 5971,
      "éļ¾éģĵ": 5972,
      "æĻļé¤Ĳ": 5973,
      "éĿłè¿ĳ": 5974,
      "è±ªåįİ": 5975,
      "éĻ°": 5976,
      "ä»ĺåĩº": 5977,
      "ä¸Ģåı£": 5978,
      "æª¬": 5979,
      "åįļå½©ç½ĳç«Ļ": 5980,
      "éĬ·": 5981,
      "ä¸Ģä»¶": 5982,
      "å¥¢": 5983,
      "åĩºç§Ł": 5984,
      "çļĦäººçĶŁ": 5985,
      "ä¸Ģå®ļä¼ļ": 5986,
      "æĪĳåĴĮ": 5987,
      "çŁĽçĽ¾": 5988,
      "è¶³çĲĥæ¯ĶåĪĨ": 5989,
      "æľºåħ³": 5990,
      "çľĭåĪ°çļĦ": 5991,
      "Ġè¦ģ": 5992,
      "éģĵå¾·": 5993,
      "åĭŁ": 5994,
      "æŃ¥éª¤": 5995,
      "åĮ»å¸Ī": 5996,
      "æŃ»çļĦ": 5997,
      "èĨĢ": 5998,
      "èº«é«Ķ": 5999,
      "è°ľ": 6000,
      "å¤©èĿİ": 6001,
      "çĶ¨é¤Ĳ": 6002,
      "ä¸ŃåĽ½çļĦ": 6003,
      "è²¡": 6004,
      "ç¢Ł": 6005,
      "ä¸Ńå±±": 6006,
      "ass": 6007,
      "å³¶": 6008,
      "59": 6009,
      "çĽĳè§Ĩ": 6010,
      "ess": 6011,
      "ment": 6012,
      "åļĲ": 6013,
      "çĶµåķĨ": 6014,
      "æ¼«çĶ»": 6015,
      "æķĻåłĤ": 6016,
      "net": 6017,
      "åĬłåĿ¡": 6018,
      "åħ¬å®ī": 6019,
      "è¹Ī": 6020,
      "å»Ĭ": 6021,
      "çıĬ": 6022,
      "ĠX": 6023,
      "çĽ®åħī": 6024,
      "è¢«äºº": 6025,
      "çµĲæŀľ": 6026,
      "éŀ": 6027,
      "å¦¨": 6028,
      "ĠIn": 6029,
      "è¾Ľèĭ¦": 6030,
      "å¹¼åĦ¿": 6031,
      "é»ı": 6032,
      "æ°´çļĦ": 6033,
      "çļĦå¥³åŃ©": 6034,
      "ä¸¤ç§į": 6035,
      "èĤº": 6036,
      "åıĬåħ¶": 6037,
      "éļıåĲİ": 6038,
      "åĬ¨çļĦ": 6039,
      "ä½¿çĶ¨çļĦ": 6040,
      "æĪĳä¼ļ": 6041,
      "æĸĩæĺİ": 6042,
      "åıĺæĪĲäºĨ": 6043,
      "èĲĿåįľ": 6044,
      "å°±å¥½": 6045,
      "æ°´çĵ¶": 6046,
      "PG": 6047,
      "Ġå°ıå¼Ł": 6048,
      "ä¸ĢéĹ´": 6049,
      "åĽ½çļĦ": 6050,
      "åĮħè£ħ": 6051,
      "ç¬¬äºĮå¤©": 6052,
      "our": 6053,
      "å°¸ä½ĵ": 6054,
      "Ġå¦Ĥ": 6055,
      "æĥ³åİ»": 6056,
      "é£¯åºĹ": 6057,
      "çĤ¹çļĦ": 6058,
      "æĲħ": 6059,
      "åħ¥åı£": 6060,
      "ãĢĤ\"": 6061,
      "æľ¬çīĩ": 6062,
      "éľŀ": 6063,
      "æľĢä½İ": 6064,
      "æ·«": 6065,
      "æī¿æĭħ": 6066,
      "æº¶": 6067,
      "éħĴåĲ§": 6068,
      "æĥ¡": 6069,
      "éĢĬ": 6070,
      "ä»¬çļĦ": 6071,
      "ä¸įä¸Ĭ": 6072,
      "è¿ĽäºĨ": 6073,
      "æ£Ģæµĭ": 6074,
      "æĹ©å°±": 6075,
      "åĬłå·¥": 6076,
      "çĽ¸çķ¶": 6077,
      "ç®Ģä»ĭ": 6078,
      "æĪĲæŀľ": 6079,
      "èĩªä¸»": 6080,
      "ä¸ĸçķĮæĿ¯": 6081,
      "ä¾Ĩèªª": 6082,
      "èĶ¬èıľ": 6083,
      "æĿī": 6084,
      "ç©ºéĸĵ": 6085,
      "å¼Ĥå¸¸": 6086,
      "ĠæĹ¥": 6087,
      "ä¸įéľĢè¦ģ": 6088,
      "èĸ¯": 6089,
      "åĴ¸": 6090,
      "æĥ³èµ·": 6091,
      "ç¡®è®¤": 6092,
      "é¢Ħæµĭ": 6093,
      "å±ķçİ°": 6094,
      "å½»åºķ": 6095,
      "å®¶åħ·": 6096,
      "ä»İäºĭ": 6097,
      "Ġ)": 6098,
      "åĩ½": 6099,
      "æĪ¿éĸĵ": 6100,
      "åĸĤ": 6101,
      "åı£æĦŁ": 6102,
      "ç¡ķ": 6103,
      "AS": 6104,
      "è´¨çļĦ": 6105,
      "åĮĸåŃ¦": 6106,
      "ï¼¡": 6107,
      "å¿įä¸įä½ı": 6108,
      "ive": 6109,
      "ä»İæĿ¥": 6110,
      "ght": 6111,
      "æīĢåľ¨": 6112,
      "æ·ĩ": 6113,
      "ä¾ĿæĹ§": 6114,
      "ä¾¦": 6115,
      "è£ħä¿®": 6116,
      "US": 6117,
      "è±Ĳ": 6118,
      "çļĦå°±æĺ¯": 6119,
      "æĺ¯è°ģ": 6120,
      "å¸¦æĿ¥çļĦ": 6121,
      "æµ·æ´ĭ": 6122,
      "æĮ£": 6123,
      "è·¯çº¿": 6124,
      "æĭ¾": 6125,
      "app": 6126,
      "èĤ¢": 6127,
      "æīĭä¸Ń": 6128,
      "åı°ä¸Ńå¸Ĥ": 6129,
      "ĠéĤ£": 6130,
      "æłĩé¢ĺ": 6131,
      "é»ĺé»ĺ": 6132,
      "æĪĳæľī": 6133,
      "å¾ĭå¸Ī": 6134,
      "èº«æĿĲ": 6135,
      "çļĦä¸Ń": 6136,
      "ews": 6137,
      "çİ«": 6138,
      "89": 6139,
      "ä¼ļä¸įä¼ļ": 6140,
      "ä¹Łä¸įæĺ¯": 6141,
      "å¼ŁåŃĲ": 6142,
      "åģ¥èº«": 6143,
      "éī´": 6144,
      "äººæķ°": 6145,
      "ect": 6146,
      "ä¸ĢåĲĮ": 6147,
      "åįģä¸ī": 6148,
      "åĪĨåŃĲ": 6149,
      "éĢ²åħ¥": 6150,
      "ç»¼èīº": 6151,
      "åĩ°": 6152,
      "æĢľ": 6153,
      "æīĭæ©Ł": 6154,
      "å¯¹éĿ¢": 6155,
      "ï¸": 6156,
      "äº¤å¾Ģ": 6157,
      "èĨı": 6158,
      "æĢªçī©": 6159,
      "are": 6160,
      "365": 6161,
      "å½ĵå¹´": 6162,
      "éĵľ": 6163,
      "å®ļä¹ī": 6164,
      "ĠCh": 6165,
      "OM": 6166,
      "ä»Ķç»Ĩ": 6167,
      "è¡Ģæ¶²": 6168,
      "110": 6169,
      "åľ°ä¸»": 6170,
      "èĥĮåĲİ": 6171,
      "å¾ĹçŁ¥": 6172,
      "å¹¿æ³Ľ": 6173,
      "ç¢¼": 6174,
      "è°ĥåĳ³": 6175,
      "ç¿ģ": 6176,
      "éļıä¾¿": 6177,
      "èĪŁ": 6178,
      "çļĦä¸»è¦ģ": 6179,
      "æ¾İ": 6180,
      "ĠåĽłä¸º": 6181,
      "ä¼ª": 6182,
      "è£ħé¥°": 6183,
      "åı¯è§ģ": 6184,
      "æĶ¶è´Ń": 6185,
      "Ġ15": 6186,
      "çĶŁç´ł": 6187,
      "CE": 6188,
      "org": 6189,
      "å®®": 6190,
      "æĿĨ": 6191,
      "å°ĨåĨĽ": 6192,
      "é¹°": 6193,
      "åģĩæľŁ": 6194,
      "çĢĳå¸ĥ": 6195,
      "åıĽ": 6196,
      "è´¾": 6197,
      "åľºæĻ¯": 6198,
      "èī¯å¥½çļĦ": 6199,
      "å´©": 6200,
      "ç¯Ħ": 6201,
      "åĲ«æľī": 6202,
      "ä¹Łä¸įä¼ļ": 6203,
      "åħģè®¸": 6204,
      "çĮ´": 6205,
      "å®ĺæĸ¹ç½ĳç«Ļ": 6206,
      "æĩ·": 6207,
      "å¤ļåħĥ": 6208,
      "æĶ¶è´¹": 6209,
      "çĽĳçĿ£": 6210,
      "ĠâĢĵ": 6211,
      "åģĩå¦Ĥ": 6212,
      "çĻ¾åĪĨ": 6213,
      "éĽŀ": 6214,
      "è·Łä½ł": 6215,
      "ä¿¡å¿ĥ": 6216,
      "ä¸įå°ıå¿ĥ": 6217,
      "éĢıéģİ": 6218,
      "æ£ĭçīĮæ¸¸æĪı": 6219,
      "åĽ½æ°ĳ": 6220,
      "Sh": 6221,
      "æĶ¯æı´": 6222,
      "åľĭå®¶": 6223,
      "æĶ»çķ¥": 6224,
      "çİĽä¸½": 6225,
      "Ġå¤§å®¶": 6226,
      "è«ĩ": 6227,
      "åŃ¦åĳĺ": 6228,
      "æĶ¾æĿ¾": 6229,
      "çĪĨçĤ¸": 6230,
      "çĽ¤": 6231,
      "å¼ĢåĲ¯": 6232,
      "ç»ĨèĬĤ": 6233,
      "åĮĨ": 6234,
      "è¶Ł": 6235,
      "æ¸¸æ³³": 6236,
      "åĲĦä¸ª": 6237,
      "èĻķçĲĨ": 6238,
      "å¦³": 6239,
      "ä¸įè®º": 6240,
      "éĤĵ": 6241,
      "ä¹ĲåĽŃ": 6242,
      "è´©": 6243,
      "å°Ĭéĩį": 6244,
      "å¤©é£İ": 6245,
      "è¼¯": 6246,
      "ä¸ĩäºº": 6247,
      "qu": 6248,
      "åĴĮä»ĸ": 6249,
      "æ©Łæľĥ": 6250,
      "è¿Ļéĥ¨": 6251,
      "åħ¶ä»ĸçļĦ": 6252,
      "ä¸įå¹¸": 6253,
      "è¿Ľè¡ĮäºĨ": 6254,
      "åİķ": 6255,
      "æµĨ": 6256,
      "çļĦåİŁ": 6257,
      "å¤ļå¤ļ": 6258,
      "å®ļä½į": 6259,
      "éĻ·åħ¥": 6260,
      "æ±ºå®ļ": 6261,
      "è¾°": 6262,
      "çº§çļĦ": 6263,
      "åħŃåĲĪå½©": 6264,
      "è¯¡å¼Ĥ": 6265,
      "åı¤èĢģ": 6266,
      "åĽ¢è´Ń": 6267,
      "çĽĳç®¡": 6268,
      "Ġ20": 6269,
      "ĠèĢĮ": 6270,
      "è°Ĳ": 6271,
      "ach": 6272,
      "èĥ½å¤ł": 6273,
      "åĤ¬": 6274,
      "ç´¹": 6275,
      "img": 6276,
      ",ãĢĮ": 6277,
      "èŀº": 6278,
      "ä¿±ä¹Ĳ": 6279,
      "çİ©åħ·": 6280,
      "87": 6281,
      "å¼ķåıĳ": 6282,
      "2017": 6283,
      "éĸ±": 6284,
      "åĩºåĽ½": 6285,
      "ç¾İå¥½": 6286,
      "ä¸Ģéĥ¨": 6287,
      "æħ¾": 6288,
      "è¥¿æĸ¹": 6289,
      "åĪ¶å®ļ": 6290,
      "çļĦèĬ±": 6291,
      "erv": 6292,
      "å¿«çļĦ": 6293,
      "æ¯Ķè¾ĥå¥½": 6294,
      "æľīæľºä¼ļ": 6295,
      "éĿŀæ³ķ": 6296,
      "ant": 6297,
      "ç¶²è·¯": 6298,
      "æĬ½å¥ĸ": 6299,
      "éĤ±": 6300,
      "é«ĺæ¸ħ": 6301,
      "ä»¥ä¸ĬçļĦ": 6302,
      "æŃī": 6303,
      "åĻ©": 6304,
      "è´¸æĺĵ": 6305,
      "åķ¤": 6306,
      "è¦ĨçĽĸ": 6307,
      "éĢĿ": 6308,
      "è¶³å¤Ł": 6309,
      "âĨĳ": 6310,
      "é»¨": 6311,
      "çĻ»åľº": 6312,
      "èµ´": 6313,
      "å¹¿ä¸ľ": 6314,
      "æ¬ł": 6315,
      "çļĦç²¾": 6316,
      "æ¶Ľ": 6317,
      "å©·": 6318,
      "æĥĬåĸľ": 6319,
      "Ġåı¯": 6320,
      "æĹ¥å¼ı": 6321,
      "æĬļ": 6322,
      "oh": 6323,
      "å°¼äºļ": 6324,
      "æĩĤå¾Ĺ": 6325,
      "èº«ä¸º": 6326,
      "ç§¤": 6327,
      "åĪ«äººçļĦ": 6328,
      "æµĳ": 6329,
      "éĩįåºĨ": 6330,
      "è¯ķè¯ķ": 6331,
      "æĪĲåĪĨ": 6332,
      "ç¼ĸåī§": 6333,
      "å·¨å¤§çļĦ": 6334,
      "èĳ¡äº¬": 6335,
      "æ»¤": 6336,
      "äºĭçī©": 6337,
      "æıĲåĪ°": 6338,
      "é¥¿": 6339,
      "ep": 6340,
      "æ»¡æĦı": 6341,
      "æĿĥåĪ©": 6342,
      "æ³ķè½®åĬŁ": 6343,
      "äººæ°Ķ": 6344,
      "æľĪåºķ": 6345,
      "åıĹä¼¤": 6346,
      "è¡Ľ": 6347,
      "æŁ¯": 6348,
      "çģ¿": 6349,
      "æİĴè¡Į": 6350,
      "è©¹": 6351,
      "54": 6352,
      "è§Ĥå¿µ": 6353,
      "çĶ¨äºĨ": 6354,
      "å»ł": 6355,
      "åľĭéļĽ": 6356,
      "éĮ¶": 6357,
      "èŀįåĲĪ": 6358,
      "åľ¨ç¾İåĽ½": 6359,
      "çĽ®å½ķ": 6360,
      "å¸¸è§Ħ": 6361,
      "çļĦä¸ĢäºĽ": 6362,
      "å¹²éĥ¨": 6363,
      "ä¸įè¡Į": 6364,
      "éĽĢ": 6365,
      "æ¯ıä¸Ģä¸ª": 6366,
      "åĪ«çļĦ": 6367,
      "ä½ĳ": 6368,
      "ä¸Ģçľĭ": 6369,
      "IT": 6370,
      "æ¸©æŁĶ": 6371,
      "æ¹¯": 6372,
      "é¸¡èĽĭ": 6373,
      "ç¶ĵæ¿Ł": 6374,
      "éģĭåĭķ": 6375,
      "æĭ¿åĪ°": 6376,
      "çļĦä¸Ģç§į": 6377,
      "å®Ŀè´Ŀ": 6378,
      "åĲįä¸º": 6379,
      "æµ·å¤ĸ": 6380,
      "å°±è¢«": 6381,
      "é»Ħèī²": 6382,
      "çĬ¬": 6383,
      "å³¡": 6384,
      "æįŁå¤±": 6385,
      "ä½łå°±": 6386,
      "æĹłæķ°": 6387,
      "æľºçļĦ": 6388,
      "èĸĩ": 6389,
      "æľĭåıĭçļĦ": 6390,
      "ä¸įå®ī": 6391,
      "åı°æ¹¾çļĦ": 6392,
      "52": 6393,
      "éĺŁä¼į": 6394,
      "åħ³å¿ĥ": 6395,
      "éĩĩè®¿": 6396,
      "53": 6397,
      "åĲĮä¸Ģ": 6398,
      "èħº": 6399,
      "çķĻåľ¨": 6400,
      "åºĶå½ĵ": 6401,
      "åĬĿ": 6402,
      "æİ¥åĪ°": 6403,
      "AT": 6404,
      "åĬłæ²¹": 6405,
      "å¤§åŃ¸": 6406,
      "åĨľæ°ĳ": 6407,
      "å±¥": 6408,
      "å¸ĥè¢ĭæĪı": 6409,
      "Ġ~": 6410,
      "åĵĩ": 6411,
      "åĪ°æĿ¥": 6412,
      "åįģä¸Ģ": 6413,
      "ä¸ĬæĿ¥": 6414,
      "åŁºåĽł": 6415,
      "åıįå¯¹": 6416,
      "åģľè½¦åľº": 6417,
      "px": 6418,
      "ä¸įå®ļ": 6419,
      "ä¸ĭåĪĹ": 6420,
      "51": 6421,
      "ä¸ĢåįĬ": 6422,
      "å¸Ĩ": 6423,
      "åĭĥ": 6424,
      "æĺ¯ä»¥": 6425,
      "ä¹ħçļĦ": 6426,
      "ç¾İå®¹": 6427,
      "è®¤è¯ģ": 6428,
      "è£ķ": 6429,
      "Ġsrc": 6430,
      "è¿ĽæĿ¥": 6431,
      "éįµ": 6432,
      "600": 6433,
      "ä¸Ľ": 6434,
      "æĪĳçŁ¥éģĵ": 6435,
      "èĵĿèī²": 6436,
      "è§ĴèĲ½": 6437,
      "çģµå¼Ĥ": 6438,
      "ç»ĥä¹ł": 6439,
      "è¡Ĺéģĵ": 6440,
      "åĳ¨æľ«": 6441,
      "éĤ®ä»¶": 6442,
      "èĪĬ": 6443,
      "æĭĽçīĮ": 6444,
      "æĺ¯æĮĩ": 6445,
      "ä¸ºæĤ¨": 6446,
      "èī°": 6447,
      "æ±ª": 6448,
      "æ½ĺ": 6449,
      "å¯¹æŃ¤": 6450,
      "æľĢåĲİä¸Ģ": 6451,
      "åĨ·æ°Ķ": 6452,
      "åĩºçİ°äºĨ": 6453,
      "è£½éĢł": 6454,
      "éĨĩ": 6455,
      "ç»ĳæŀ¶": 6456,
      "Ġ?": 6457,
      "ç½ĳé¡µ": 6458,
      "æ³¨åĨĮéĢģ": 6459,
      "æ¸łéģĵ": 6460,
      "ç³Ł": 6461,
      "é©°": 6462,
      "è¡ĮæĿİ": 6463,
      "æĥħä¾£": 6464,
      "æ··åĲĪ": 6465,
      "äºĨä»ĸ": 6466,
      "å¤ªå¹³": 6467,
      "åķŁ": 6468,
      "è½¦ç«Ļ": 6469,
      "èĤĮèĤ¤": 6470,
      "çļĦç¬¬ä¸Ģ": 6471,
      "å½ĵåīį": 6472,
      "ãĢĤãĢĤãĢĤ": 6473,
      "çľĭä¼¼": 6474,
      "åİ¦": 6475,
      "æ¡£æ¡Ī": 6476,
      "å¤§ä¼ļ": 6477,
      "æĬ¢åħĪ": 6478,
      "çļĦèĥ½åĬĽ": 6479,
      "çĥĺ": 6480,
      "ä¸įåĸľæ¬¢": 6481,
      "å°Ħæīĭ": 6482,
      "éłĤ": 6483,
      "ï¿": 6484,
      "å¤ıåŃ£": 6485,
      "ç°¡åĸ®": 6486,
      "çļĦåŃ¦çĶŁ": 6487,
      "ä¸ĢæĿ¯": 6488,
      "å¹¿å¤§": 6489,
      "å®ŀéĻħä¸Ĭ": 6490,
      "ãĢĤ(": 6491,
      "ä¸Ģä¸ªæľĪ": 6492,
      "ä¿¡åı·": 6493,
      "çĥ¦æģ¼": 6494,
      "ĠæĸĻ": 6495,
      "è¿ĺçľŁ": 6496,
      "éı¡": 6497,
      "éĥ½æľĥ": 6498,
      "çī²": 6499,
      "è¿ĽæŃ¥": 6500,
      "ans": 6501,
      "æĪĳåİ»": 6502,
      "çĻ¾ç§ĳ": 6503,
      "ç¼´": 6504,
      "ä¸ĭä¾Ĩ": 6505,
      "æĸ½å·¥": 6506,
      "Ġä¸º": 6507,
      "ç¾İæĻ¯": 6508,
      "ç©ºä¸Ń": 6509,
      "çļĦé£İ": 6510,
      "ä¿±ä¹Ĳéĥ¨": 6511,
      "éĢĻæ¬¡": 6512,
      "è®©å¥¹": 6513,
      "è½´": 6514,
      "çļ±": 6515,
      "å¤«å¦ĩ": 6516,
      "ix": 6517,
      "çĻ½çļĦ": 6518,
      "äºĮäºº": 6519,
      "ide": 6520,
      "ä½ĵçİ°": 6521,
      "ä¸¤å¹´": 6522,
      "çł´è§£": 6523,
      "ext": 6524,
      "ä¸ĢæĬĬ": 6525,
      "æľīåĵªäºĽ": 6526,
      "å»ºèŃ°": 6527,
      "åĬłéĢŁ": 6528,
      "æĬĸ": 6529,
      "éĽ²": 6530,
      "è¦ģæĺ¯": 6531,
      "æĻķ": 6532,
      "åıįæŃ£": 6533,
      "å·¨èŁ¹åº§": 6534,
      "éĽ»è©±": 6535,
      "èį¯çī©": 6536,
      "æķıæĦŁ": 6537,
      "å¤§äºĨ": 6538,
      "å¡Ĭ": 6539,
      "ç¹Ķ": 6540,
      "æ¬§æ´²æĿ¯": 6541,
      "æ¹ĸåįĹåį«è§Ĩ": 6542,
      "æľ¬ä¹¦": 6543,
      "è®¾æľī": 6544,
      "æĬĺç£¨": 6545,
      "æ¸´æľĽ": 6546,
      "éĹ´çļĦ": 6547,
      "çĵ·": 6548,
      "çĶµæ±ł": 6549,
      "çľĭåĪ°äºĨ": 6550,
      "å¥¥è¿Ĳ": 6551,
      "Ġè¯·": 6552,
      "æĸ°åĬłåĿ¡": 6553,
      "éģİç¨ĭ": 6554,
      "ç½¢": 6555,
      "åľ¨ä½ł": 6556,
      "ä½Ĩåį´": 6557,
      "çİ«çĳ°": 6558,
      "è¡¨æĺİ": 6559,
      "è´Ŀå°Ķ": 6560,
      "ä»ĭç´¹": 6561,
      "PC": 6562,
      "æĹ¥çļĦ": 6563,
      "èĲĮ": 6564,
      "è§Ĩè§ī": 6565,
      "æŁł": 6566,
      "çĽ¸å¤Ħ": 6567,
      "åħ´å¥ĭ": 6568,
      "åĨįåĬłä¸Ĭ": 6569,
      "åıĮé±¼": 6570,
      "æĦıå¤§åĪ©": 6571,
      "è®¨åİĮ": 6572,
      "çľĭæ³ķ": 6573,
      "æ°´ä¸Ń": 6574,
      "éĩĳå±ŀ": 6575,
      "éķľå¤´": 6576,
      "ĠæĪĳä»¬": 6577,
      "xx": 6578,
      "çļĦæĹ¥åŃĲ": 6579,
      "åľĵ": 6580,
      "ä¹Łåı¯": 6581,
      "ä¸¤ä½į": 6582,
      "æī¯": 6583,
      "èµ¶ç´§": 6584,
      "è½©": 6585,
      "èĩªä»İ": 6586,
      "ä»¥å¾Ģ": 6587,
      "æĸĹåľ°ä¸»": 6588,
      "ust": 6589,
      "éģĵçĲĨ": 6590,
      "åįģå¤§": 6591,
      "å¯¹æĪĳ": 6592,
      "æī¿è¯º": 6593,
      "çļĦæĥħåĨµä¸ĭ": 6594,
      "çīł": 6595,
      "è¾²": 6596,
      "âĢĿ,": 6597,
      "çĶµè§Ĩåī§": 6598,
      "å¤´é«®": 6599,
      "éĵ¾æİ¥": 6600,
      "ç§»æ°ĳ": 6601,
      "èĥ¡æ¤Ĵ": 6602,
      "é©±åĬ¨": 6603,
      "Ġ14": 6604,
      "ä¸ĢçĻ¾": 6605,
      "è½®çĽĺ": 6606,
      "ç¬¨": 6607,
      "å°ıå°ıçļĦ": 6608,
      "mm": 6609,
      "æīĭå·¥": 6610,
      "çļĦåĲĮæĹ¶": 6611,
      "æĪĳå®¶": 6612,
      "å¥½åĩł": 6613,
      "èħķ": 6614,
      "Ġ16": 6615,
      "æĢ»ç»ĵ": 6616,
      "åĽ¢ä½ĵ": 6617,
      "åı²ä¸Ĭ": 6618,
      "é£ŁçĶ¨": 6619,
      "æıĲä¾ĽäºĨ": 6620,
      "æĺ¾çĦ¶": 6621,
      "Ġä»İ": 6622,
      "è½¯ä½ĵ": 6623,
      "èĿ´": 6624,
      "æ¼¸": 6625,
      "å°½éĩı": 6626,
      "æ´»åĬĽ": 6627,
      "åĸľçĪ±": 6628,
      "å·¨å¤§": 6629,
      "ï¼Ķ": 6630,
      "æĤļ": 6631,
      "ä¹¦è®°": 6632,
      "æĬĬå®ĥ": 6633,
      "att": 6634,
      "å¤ĩçĶ¨ç½ĳåĿĢ": 6635,
      "æĥħåĨµä¸ĭ": 6636,
      "çļĦçħ§çīĩ": 6637,
      "èĿ´èĿ¶": 6638,
      "åĨ¥": 6639,
      "ä¸įèī¯": 6640,
      "cc": 6641,
      "å¤ļäºº": 6642,
      "ube": 6643,
      "æ´Ĺè¡£": 6644,
      "é¡¾å®¢": 6645,
      "æ·±æ·±": 6646,
      "æµĻ": 6647,
      "å±¿": 6648,
      "åĮ»åŃ¦": 6649,
      "è¾£æ¤Ĵ": 6650,
      "äºĭå®ŀä¸Ĭ": 6651,
      "åľ°ä¸Ĭ": 6652,
      "æ°Ķæģ¯": 6653,
      "è¿ĳæľŁ": 6654,
      "ç´Ļ": 6655,
      "ä¸ĢçĽ´åľ¨": 6656,
      "è¾±": 6657,
      "æĮĩå®ļ": 6658,
      "èģĶçĽŁ": 6659,
      "çļĩå¸Ŀ": 6660,
      "å±ł": 6661,
      "å¥ĸéĩĳ": 6662,
      "åı£çļĦ": 6663,
      "æĢĿç»´": 6664,
      "ä¸Ģä»£": 6665,
      "oy": 6666,
      "èĥģ": 6667,
      "çĵ£": 6668,
      "æĸ¥": 6669,
      "iPhone": 6670,
      "é¡į": 6671,
      "éħµ": 6672,
      "åħ·å¤ĩ": 6673,
      "ä¸Ģèĩ´": 6674,
      "èª¤": 6675,
      "æĿŃ": 6676,
      "2006": 6677,
      "èĪŀè¹Ī": 6678,
      "ET": 6679,
      "åķ¤éħĴ": 6680,
      "çĶŁæ°Ķ": 6681,
      "æĨ¾": 6682,
      "è¿Ļæ¬¾": 6683,
      "64": 6684,
      "éĢĹ": 6685,
      "èĤĮèĤī": 6686,
      "è¯»èĢħ": 6687,
      "åİīå®³": 6688,
      "åĪ©çļĦ": 6689,
      "åĬŁå¤«": 6690,
      "æĭĽèģĺ": 6691,
      "éģ©åĲĪ": 6692,
      "ç¿ħ": 6693,
      "æ¨¡çī¹": 6694,
      "èĮ«": 6695,
      "ç¹¼çºĮ": 6696,
      "æĢ§åĴĮ": 6697,
      "font": 6698,
      "åĹľ": 6699,
      "åĻ¨çļĦ": 6700,
      "ç²¥": 6701,
      "äººåĵ¡": 6702,
      "å±ħä½ı": 6703,
      "èĩªæĿĢ": 6704,
      "å§¨": 6705,
      "è¿«å®³": 6706,
      "åħ¨åı°": 6707,
      "åĪĨéĲĺ": 6708,
      "çŃĴ": 6709,
      "è¯»ä¹¦": 6710,
      "çį²å¾Ĺ": 6711,
      "èŀįèµĦ": 6712,
      "è®¡çĶ»": 6713,
      "ä¹īå¤§åĪ©": 6714,
      "å°ºå¯¸": 6715,
      "è¡«": 6716,
      "å¸ĤåľºçļĦ": 6717,
      "tw": 6718,
      "éĽľ": 6719,
      "ä½Ĩä»ĸ": 6720,
      "co": 6721,
      "å¤¸": 6722,
      "éŁµ": 6723,
      "Ġyou": 6724,
      "åı¦ä¸ĢåįĬ": 6725,
      "èĦ«": 6726,
      "pe": 6727,
      "å¤§äºº": 6728,
      "PO": 6729,
      "æīĢéľĢ": 6730,
      "ann": 6731,
      "æºĸåĤĻ": 6732,
      "æ´ĭèĳ±": 6733,
      "ç¤¾äº¤": 6734,
      "äººå¿ĥ": 6735,
      "ä¼ŀ": 6736,
      "ä¸Ńåħ±": 6737,
      "åİ»çľĭ": 6738,
      "ä½ĵä¼ļ": 6739,
      "éĥ¨ä½į": 6740,
      "éŃĶæ³ķ": 6741,
      "ï¼ģï¼ģï¼ģ": 6742,
      "åį³æĹ¥èµ·": 6743,
      "ä¸ľäº¬": 6744,
      "å°ıæĻĤ": 6745,
      "è¨ª": 6746,
      "æĢĿå¿µ": 6747,
      "çĻ½èıľ": 6748,
      "äº¬ä¸ľ": 6749,
      "åıĮæīĭ": 6750,
      "åħ¨å®¶": 6751,
      "çİ©çļĦ": 6752,
      "èºģ": 6753,
      "å¹³å®ī": 6754,
      "199": 6755,
      "æĺ¾å¾Ĺ": 6756,
      "æŃĮæĽ²": 6757,
      "æ§½": 6758,
      "çĻ«": 6759,
      "æŁłæª¬": 6760,
      "å¿ĥå¾Ĺ": 6761,
      "çĥŃéĹ¹": 6762,
      "è¯¦æĥħ": 6763,
      "çļĦçłĶç©¶": 6764,
      "æĺ¯çĶ¨": 6765,
      "ick": 6766,
      "php": 6767,
      "ä¸Ģåı°": 6768,
      "ith": 6769,
      "åįµ": 6770,
      "Ad": 6771,
      "çī©æµģ": 6772,
      "æīĢä»¥æĪĳ": 6773,
      "å½·": 6774,
      "éĴ©": 6775,
      "æ¢Ń": 6776,
      "åı¯éĿł": 6777,
      "æ²Ļæ»©": 6778,
      "å¸ĪçĪ¶": 6779,
      "éŁ³æ¨Ĥ": 6780,
      "æĽ¾å¤©é£İ": 6781,
      "æİ¨èįĲçļĦ": 6782,
      "éĥ½è¢«": 6783,
      "ä¸ºä½ł": 6784,
      "åŃĲå¥³": 6785,
      "çļĦæł·åŃĲ": 6786,
      "åĲ¾": 6787,
      "å°ıç¼ĸ": 6788,
      "çŃīåĪ°": 6789,
      "æĻĭ": 6790,
      "é£¾": 6791,
      "åŁºéļĨ": 6792,
      "å¤§æĪĺ": 6793,
      "ä¸ľåĮĹ": 6794,
      "çĥŃæ°´": 6795,
      "èµ°åľ¨": 6796,
      "äºĤ": 6797,
      "åŀ«": 6798,
      "AA": 6799,
      "å£¶": 6800,
      "è®©èĩªå·±": 6801,
      "çļĦå½±åĵį": 6802,
      "åįķçº¯": 6803,
      "éªĳå£«": 6804,
      "åĺīå®¾": 6805,
      "éĢĶä¸Ń": 6806,
      "éŁĵ": 6807,
      "çĽ¯": 6808,
      "æĺİæĺİ": 6809,
      "éºµç²ī": 6810,
      "ä¹ĭéĸĵ": 6811,
      "èĮ¨": 6812,
      "èĩ¨": 6813,
      "èĳī": 6814,
      "åħĨ": 6815,
      "æºľ": 6816,
      "çľ¼éķľ": 6817,
      "ĠĊ": 6818,
      "éĤ£å°±": 6819,
      "åĬŁæķĪ": 6820,
      "ĠæľĪ": 6821,
      "å¼ºçĥĪ": 6822,
      "åĦĺ": 6823,
      "æĬķç¥¨": 6824,
      "å¥½åĲĥçļĦ": 6825,
      "è¿Ļæĺ¯ä¸Ģä¸ª": 6826,
      "è°¨": 6827,
      "ç¦ıåĪ©": 6828,
      "çĸĨ": 6829,
      "èĭĹæłĹ": 6830,
      "æľīåı¯èĥ½": 6831,
      "æ½¢": 6832,
      "æĽ¾éĢ¸": 6833,
      "çļĦéĩį": 6834,
      "èģļä¼ļ": 6835,
      "right": 6836,
      "éĩĭ": 6837,
      "çĩĪ": 6838,
      "æŃ£å¥½": 6839,
      "æģĲæĥ§": 6840,
      "Ġ2014": 6841,
      "ä½ĵéªĮéĩĳ": 6842,
      "Ġre": 6843,
      "æĬ±æĢ¨": 6844,
      "ä»·éĴ±": 6845,
      "120": 6846,
      "æĪĳèĩªå·±": 6847,
      "æį·è¿Ĳ": 6848,
      "Al": 6849,
      "DI": 6850,
      "è¦½": 6851,
      "æ²¡æľīäºº": 6852,
      "ary": 6853,
      "åĽ½éĻħå¨±ä¹Ĳ": 6854,
      "çŃĶåºĶ": 6855,
      "è¼ª": 6856,
      "çĽ¸æľº": 6857,
      "2005": 6858,
      "ç¥Ī": 6859,
      "è¾¾äºº": 6860,
      "çļĦæ´»åĬ¨": 6861,
      "å¸Ĥæ°ĳ": 6862,
      "åı·çłģ": 6863,
      "çļĦä½ľçĶ¨": 6864,
      "ä»²": 6865,
      "éĶ¯": 6866,
      "çļĦä¸ī": 6867,
      "æŃĩ": 6868,
      "ç¨įå¾®": 6869,
      "è¿ĺä¸į": 6870,
      "åĲĦç±»": 6871,
      "eat": 6872,
      "å£ŀ": 6873,
      "æĴŃåĩº": 6874,
      "çľĭå¾Ĺ": 6875,
      "è¨Ĺ": 6876,
      "è¾ĪåŃĲ": 6877,
      "çĹħæĥħ": 6878,
      "éĶĻè¿ĩ": 6879,
      "çļĩå®¶": 6880,
      "åŃ¦æľ¯": 6881,
      "åĩĨç¡®": 6882,
      "ä¼ģæ¥Ń": 6883,
      "åħ¸ç¤¼": 6884,
      "ï¸°": 6885,
      "Ġå½ĵ": 6886,
      "åĲĦç¨®": 6887,
      "éĴ¥": 6888,
      "And": 6889,
      "åľ°è¯´": 6890,
      "éĤ£å¤©": 6891,
      "åĬłå¿«": 6892,
      "åŃ¸ç¿Ĵ": 6893,
      "ç»½": 6894,
      "æīĭæ³ķ": 6895,
      "èµ°è¿Ľ": 6896,
      "åĽłèĢĮ": 6897,
      "éĺ´éĺ³": 6898,
      "çļĦçĪ±": 6899,
      "åħ¬å¹³": 6900,
      "ä¸Ģåı¥": 6901,
      "å¸¦é¢Ĩ": 6902,
      "æģ¶éŃĶ": 6903,
      "Ġ2016": 6904,
      "å·¥ä½ľäººåĳĺ": 6905,
      "å©¦": 6906,
      "çļĦäº§åĵģ": 6907,
      "ç½ķ": 6908,
      "æ¼Ķè®²": 6909,
      "ç¢ĳ": 6910,
      "æī©å¤§": 6911,
      "è°Ĭ": 6912,
      "è¡Ģç®¡": 6913,
      "éĽ»è¦ĸ": 6914,
      "è´¢å¯Į": 6915,
      "è´·æ¬¾": 6916,
      "åĿİ": 6917,
      "éº¦åħĭ": 6918,
      "éĤ£å°±æĺ¯": 6919,
      "è·¯çļĦ": 6920,
      "æĪĳéĥ½": 6921,
      "Âł": 6922,
      "èµĭ": 6923,
      "ä»¥å¤ĸ": 6924,
      "å°±è¿Ļæł·": 6925,
      "å°ıå°ı": 6926,
      "ç¶ł": 6927,
      "åĳĬçŁ¥": 6928,
      "åľ°äº§": 6929,
      "æĪĳä»¬åľ¨": 6930,
      "ug": 6931,
      "æĹłæĦı": 6932,
      "æĬķèµĦèĢħ": 6933,
      "éĤ£è¾¹": 6934,
      "æ°´æŀľæĹ¥æĬ¥": 6935,
      "å¥½ä¹ħ": 6936,
      "å½±éŁ³": 6937,
      "èĳĽ": 6938,
      "å¤·": 6939,
      "éĢ»": 6940,
      "åįģåħŃ": 6941,
      "ä¸ĸåįļ": 6942,
      "ä¸ŃæľĢ": 6943,
      "çļĦåĬĽéĩı": 6944,
      "è¿Ļå¯¹": 6945,
      "æµģéĩı": 6946,
      "æķ´åĢĭ": 6947,
      "æĶ¹ç¼ĸ": 6948,
      "èĹį": 6949,
      "æĺ¥èĬĤ": 6950,
      "éĢĢä¼ĳ": 6951,
      "çļĦåħī": 6952,
      "è¯ģæį®": 6953,
      "æļ´åĬĽ": 6954,
      "çļĦä»·æł¼": 6955,
      "æ¯ħ": 6956,
      "æ¯«ä¸į": 6957,
      "è°ħ": 6958,
      "çĪĨåıĳ": 6959,
      "84": 6960,
      "åĿ¤": 6961,
      "çļĦå¥³çĶŁ": 6962,
      "é¡¯ç¤º": 6963,
      "çŀ§": 6964,
      "åĭĿ": 6965,
      "æĺ¯ä»ĸ": 6966,
      "é¢ģå¥ĸ": 6967,
      "åĨĽäºĭ": 6968,
      "çĹĴ": 6969,
      "å®¢æľį": 6970,
      "æŀ¯": 6971,
      "æĹ©æľŁ": 6972,
      "åħ¥ä½ı": 6973,
      "è¯Ģ": 6974,
      "ç»ĻäºĨ": 6975,
      "è¯´äºĨ": 6976,
      "é£ŀè¡Į": 6977,
      "å·®å¼Ĥ": 6978,
      "æĶ¶çĽĬ": 6979,
      "è¸©": 6980,
      "åĳµåĳµ": 6981,
      "æ·¡æ·¡": 6982,
      "å¹³æĸ¹": 6983,
      "çĻ¾ä¸ĩ": 6984,
      "ä¿Ŀç½Ĺ": 6985,
      "éģİåİ»": 6986,
      "æ³¢éŁ³": 6987,
      "æŃ·åı²": 6988,
      "éļİ": 6989,
      "å·¥èīº": 6990,
      "èª°": 6991,
      "çħ¤": 6992,
      "Ġ17": 6993,
      "æ¾³éĹ¨åįļå½©": 6994,
      "é¡ºä¾¿": 6995,
      "å·¢": 6996,
      "ç¦ħ": 6997,
      "æľŁéĻĲ": 6998,
      "çİ¯èĬĤ": 6999,
      "æİĪæĿĥ": 7000,
      "å¨ģèĥģ": 7001,
      "è®©ä»ĸä»¬": 7002,
      "å¯¨": 7003,
      "æĥ³æĥ³": 7004,
      "ä¼¼çļĦ": 7005,
      "çĶ³åįļ": 7006,
      "DD": 7007,
      "å¾Īå¥½çļĦ": 7008,
      "å·²æľī": 7009,
      "åĪĽå»º": 7010,
      "Ġï¼": 7011,
      "ebook": 7012,
      "èĲ½å®ŀ": 7013,
      "æİ¥çĿĢ": 7014,
      "æ³Ħ": 7015,
      "æĶ¹éĢł": 7016,
      "æ¡Īä¾ĭ": 7017,
      "ign": 7018,
      "çŁ¶": 7019,
      "çİīç±³": 7020,
      "æ³Į": 7021,
      "æ²¸": 7022,
      "ä¸įå¤§": 7023,
      "å¹´çºª": 7024,
      "ä¸¤ä¸ªäºº": 7025,
      "åĽĽå·Ŀ": 7026,
      "çķ¶æĻĤ": 7027,
      "æŁĲä¸ª": 7028,
      "å¯¼èĪª": 7029,
      "è¾©": 7030,
      "åĬ³åĬ¨": 7031,
      "éĽĩ": 7032,
      "æĴ¼": 7033,
      "äºĨèµ·æĿ¥": 7034,
      "èħĬ": 7035,
      "æĺ¯ä¸ĢåĢĭ": 7036,
      "æĹħå®¢": 7037,
      "ä¼ĺåĮĸ": 7038,
      "æ¨¡åŀĭ": 7039,
      "çļĦæķĪæŀľ": 7040,
      "æ²»çĻĤ": 7041,
      "å¨ĥå¨ĥ": 7042,
      "æĥ³ä¸įåĪ°": 7043,
      "èĸ¦": 7044,
      "ä¼łç»ŁçļĦ": 7045,
      "å®Ļ": 7046,
      "ä¸Ģéģĵ": 7047,
      "æĽ´å¥½çļĦ": 7048,
      "æł¼å¼ı": 7049,
      "âĹĨ": 7050,
      "æĬķæ³¨ç½ĳ": 7051,
      "ä¸Ńæľī": 7052,
      "å¹»æĥ³": 7053,
      "æĽ´ä¸º": 7054,
      "å½Ń": 7055,
      "èĹĿè¡ĵ": 7056,
      "æĭįçļĦ": 7057,
      "èĤĥ": 7058,
      "åħ¬ä¼Ĺ": 7059,
      "é¹ħ": 7060,
      "å¤§åħ¨": 7061,
      "rist": 7062,
      "ĠåĪ°": 7063,
      "çļĦçī¹": 7064,
      "æŃ»åİ»": 7065,
      "èļĬ": 7066,
      "ä¸Ģçľ¼": 7067,
      "æľ¬æ¬¡": 7068,
      "åħ¬åĳĬ": 7069,
      "èĲ½åľ¨": 7070,
      "62": 7071,
      "èī¯å¥½": 7072,
      "æīĵåĩ»": 7073,
      "å¤ĸåĽ½": 7074,
      "é¬±": 7075,
      "Ġèµ·": 7076,
      "å®µ": 7077,
      "éĩĳæ²Ļ": 7078,
      "èĬ½": 7079,
      "çī©çĲĨ": 7080,
      "å¤§å®¶åĪĨäº«": 7081,
      "è¯¢éĹ®": 7082,
      "å¥³ä¸»è§Ĵ": 7083,
      "çĭ®åŃĲåº§": 7084,
      "ç¼¸": 7085,
      "è¯Ŀé¢ĺ": 7086,
      "æ´Ĺæ¾¡": 7087,
      "æ¿Ģæĥħ": 7088,
      "æŃ»ç¥ŀ": 7089,
      "æīĢè°ĵçļĦ": 7090,
      "åİ»åĲĥ": 7091,
      "åħ¬åĬ¡": 7092,
      "ä¼ļä¸Ĭ": 7093,
      "çĽ¸åºĶ": 7094,
      "éĺ»æŃ¢": 7095,
      "io": 7096,
      "ä½Ĳ": 7097,
      "æĹŃ": 7098,
      "åİķæīĢ": 7099,
      "800": 7100,
      "å¤ļæķ°": 7101,
      "åĭĩæ°Ķ": 7102,
      "æī¾åĪ°äºĨ": 7103,
      "åµ": 7104,
      "æį§": 7105,
      "éľ²åĩº": 7106,
      "è¿Ļæĺ¯ä¸Ģ": 7107,
      "è§¸": 7108,
      "è¿Ļæ®µ": 7109,
      "ĠçĶ¨": 7110,
      "rom": 7111,
      "åŃ¦èĢħ": 7112,
      "å®ĥæĺ¯": 7113,
      "ç²ĺ": 7114,
      "åĩ¤åĩ°": 7115,
      "NO": 7116,
      "ä½ľæĸĩ": 7117,
      "å¼ķæĵİ": 7118,
      "éĤ»å±ħ": 7119,
      "åıł": 7120,
      "é¤Ĳå»³": 7121,
      "???": 7122,
      "nba": 7123,
      "è¿ĩåĲİ": 7124,
      "ä¹Łå°Ĩ": 7125,
      "ç´Ķ": 7126,
      "æµ·é²ľ": 7127,
      "è¿ĺä¸įéĶĻ": 7128,
      "å·«": 7129,
      "ä¸įæĸŃçļĦ": 7130,
      "ä¸Ģç³»åĪĹ": 7131,
      "æĵħ": 7132,
      "Ġcolor": 7133,
      "å®Įç¾İçļĦ": 7134,
      "éĻĨç»Ń": 7135,
      "æľīé»ŀ": 7136,
      "åĲįåįķ": 7137,
      "XX": 7138,
      "ä¸īæĺŁ": 7139,
      "åĸĺ": 7140,
      "äºĨå¾Īå¤ļ": 7141,
      "è·Łä»ĸ": 7142,
      "ä¹ĭå¤Ħ": 7143,
      "åħ±äº«": 7144,
      "éĪ": 7145,
      "ä¸Ģå¤ľ": 7146,
      "å¤§åıĳ": 7147,
      "ä¼Ĺäºº": 7148,
      "å®ª": 7149,
      "é©¾é©¶": 7150,
      "éĿĴå°ĳå¹´": 7151,
      "In": 7152,
      "éªļ": 7153,
      "æ³Ĭ": 7154,
      "åĲĦå¼ı": 7155,
      "åł¤": 7156,
      "å¤§å¥ĸ": 7157,
      "æ¼¢": 7158,
      "æĢĢåŃķ": 7159,
      "æĬĵä½ı": 7160,
      "è·ŁçĿĢ": 7161,
      "çĶŁåĳ½çļĦ": 7162,
      "acebook": 7163,
      "çļĦå¯¹": 7164,
      "æĭĺ": 7165,
      "æĦŁåıĹåĪ°": 7166,
      "æĽĿåħī": 7167,
      "æĪ¿å±ĭ": 7168,
      "çĥŃçļĦ": 7169,
      "é¦Ī": 7170,
      "å°Ķçī¹": 7171,
      "åĽĽåįģ": 7172,
      "å¤§å¹ħ": 7173,
      "å¼ķå¯¼": 7174,
      "å®ĮäºĨ": 7175,
      "ä¹¡æĿĳ": 7176,
      "ä½ľçĤº": 7177,
      "çľ¼æ³ª": 7178,
      "èĮ¶åĮĻ": 7179,
      "æĤĦæĤĦ": 7180,
      "ä¸įéĮ¯": 7181,
      "æ¨¹": 7182,
      "ä¸Ģåıª": 7183,
      "æ°ĳåĽ½": 7184,
      "éħ±æ²¹": 7185,
      "å§ļ": 7186,
      "ax": 7187,
      "ik": 7188,
      "æŁ´": 7189,
      "åķĨåŁİ": 7190,
      "æľīéĴ±": 7191,
      "éĩĳéĴ±": 7192,
      "æĶ¾å¿ĥ": 7193,
      "åºĹçļĦ": 7194,
      "ç²¾ç¥ŀçĹħ": 7195,
      "éĩĿ": 7196,
      "æİ¨èĸ¦": 7197,
      "lue": 7198,
      "çİĭåŃĲ": 7199,
      "åįıåĬ©": 7200,
      "èĻĲ": 7201,
      "æ¸ħæ´Ĺ": 7202,
      "çĶ±æŃ¤": 7203,
      "ire": 7204,
      "sm": 7205,
      "è´Łè´£äºº": 7206,
      "æĹłè®ºæĺ¯": 7207,
      "äººç¾¤": 7208,
      "æİ¥ä¸ĭæĿ¥": 7209,
      "çļĦè¦ģæ±Ĥ": 7210,
      "ä¸Ĭæ¬¡": 7211,
      "çļĦå¤©": 7212,
      "åĳĬè¯īæĪĳ": 7213,
      "åĨ¯": 7214,
      "æŃ¥è¡Į": 7215,
      "ä¸»äººåħ¬": 7216,
      "æĵģæľī": 7217,
      "Ġ2012": 7218,
      "åģ·åģ·": 7219,
      "å¯®": 7220,
      "ä¸»åĬŀ": 7221,
      "å¥³å£«": 7222,
      "çļĦçĶ·äºº": 7223,
      "ä»ĸå°±": 7224,
      "çİ©ç¬ĳ": 7225,
      "èĵĦ": 7226,
      "æŁĲç§į": 7227,
      "åįĪé¤Ĳ": 7228,
      "ä½łåĢĳ": 7229,
      "éĢļéģİ": 7230,
      "éĻ£": 7231,
      "çĻ¾å§ĵ": 7232,
      "ä¸ĵè¾ĳ": 7233,
      "æ¶ĪåĮĸ": 7234,
      "ä¸Ģä¼ļ": 7235,
      "æ¶©": 7236,
      "åıĳçĶŁåľ¨": 7237,
      "ä½łä¸į": 7238,
      "è¯Ħä¼°": 7239,
      "å½°åĮĸ": 7240,
      "ï¼īï¼ļ": 7241,
      "ge": 7242,
      "æłĩå¿Ĺ": 7243,
      "è¿ĺå¥½": 7244,
      "å°ıç»Ħ": 7245,
      "ä¿Ŀåģ¥": 7246,
      "å¼Ģå§ĭäºĨ": 7247,
      "å°¼å°Ķ": 7248,
      "79": 7249,
      "é¢ł": 7250,
      "äº¤æį¢": 7251,
      "ä¸ŃåĽ½äºº": 7252,
      "LO": 7253,
      "è¶³å½©": 7254,
      "æ²Ļæĭī": 7255,
      "çĥ¹": 7256,
      "Ġ19": 7257,
      "å®¶éĩĮ": 7258,
      "èĩªåĬ©": 7259,
      "æ«": 7260,
      "å¹³æĿ¿": 7261,
      "ä¸¤å¤©": 7262,
      "åİļçļĦ": 7263,
      "çļĦå¿ĥæĥħ": 7264,
      "çİ°éĩĳç½ĳ": 7265,
      "æľĭåıĭä»¬": 7266,
      "æīĭçļĦ": 7267,
      "æĪĲåĬŁçļĦ": 7268,
      "åī©ä¸ĭ": 7269,
      "ç¿»è¯ĳ": 7270,
      "æĻ¯èī²": 7271,
      "çĽ²": 7272,
      "åĽ°æī°": 7273,
      "ä¼Ĳ": 7274,
      "åĴ±": 7275,
      "è¡¨çı¾": 7276,
      "å¹¶åľ¨": 7277,
      "çĽ£": 7278,
      "åĩĮæĻ¨": 7279,
      "è´¡çĮ®": 7280,
      "äººäºº": 7281,
      "çĶ¢çĶŁ": 7282,
      "ç¯ī": 7283,
      "èİ·åıĸ": 7284,
      "Ġä½Ĩæĺ¯": 7285,
      "èµĽåŃ£NBA": 7286,
      "ä¸ĺ": 7287,
      "ä¼ģä¸ļçļĦ": 7288,
      "çļĦå¿ĥçĲĨ": 7289,
      "è¡ĮçĤº": 7290,
      "è¯ķéªĮ": 7291,
      "ä¹ĺå®¢": 7292,
      "åĩºå¸Ń": 7293,
      "åīįè¿Ľ": 7294,
      "å¦¥": 7295,
      "ç¥Ŀç¦ı": 7296,
      "èĢģå¸«": 7297,
      "af": 7298,
      "æĺİå¹´": 7299,
      "åĽŀåºĶ": 7300,
      "èĵĭ": 7301,
      "âĨĵ": 7302,
      "çłį": 7303,
      "è¸¢": 7304,
      "ä¸ĭæ¬¡": 7305,
      "å±ķè§Ī": 7306,
      "çłĶç©¶æīĢ": 7307,
      "ĠâĢĿ": 7308,
      "æĸ°æ¬¾": 7309,
      "èįīèİĵ": 7310,
      "è¹Ł": 7311,
      "å°±ä¸ļ": 7312,
      "ä¸Ģé¢Ĺ": 7313,
      "åĢ¦": 7314,
      "çķ¢": 7315,
      "ä¸ºæŃ¢": 7316,
      "****": 7317,
      "è¦ģæĬĬ": 7318,
      "æī¿åıĹ": 7319,
      "ä½łè¯´": 7320,
      "ä¸Ģä¸ªå°ı": 7321,
      "åĲĦå¤§": 7322,
      "åıĺçļĦ": 7323,
      "é²¨": 7324,
      "å¹½é»ĺ": 7325,
      "åīĬ": 7326,
      "æĮ«": 7327,
      "é£İäºĳ": 7328,
      "æºĥ": 7329,
      "å¹«åĬ©": 7330,
      "åħ±åĴĮ": 7331,
      "æĦıåĳ³çĿĢ": 7332,
      "éĩĳå±±": 7333,
      "ĠæīĢä»¥": 7334,
      "ĠæĪĸ": 7335,
      "ä¸ĢèĤ¡": 7336,
      "éĿŀå¸¸çļĦ": 7337,
      "éĢıæĺİ": 7338,
      "åłħ": 7339,
      "èĶĵ": 7340,
      "æį¨": 7341,
      "å½¢å®¹": 7342,
      "Ġ18": 7343,
      "çĩĴ": 7344,
      "idas": 7345,
      "èĩªè¡Įè½¦": 7346,
      "ãĢķ": 7347,
      "è¦ģåľ¨": 7348,
      "å°ıåĮĻ": 7349,
      "åıªä¼ļ": 7350,
      "è£¹": 7351,
      "æĮĩæłĩ": 7352,
      "åĲĪéĢĤ": 7353,
      "OT": 7354,
      "åıĸæ¶Ī": 7355,
      "è®¡ç®Ĺæľº": 7356,
      "èµ¶å¿«": 7357,
      "æµªè´¹": 7358,
      "çĻ½ç¾Ĭ": 7359,
      "çŀŃè§£": 7360,
      "èĲ¤": 7361,
      "çł¸": 7362,
      "çķĻåŃ¦": 7363,
      "æĭ¿åĩº": 7364,
      "çŃīçº§": 7365,
      "æľīåĪ©": 7366,
      "æ³¼": 7367,
      "åı¦ä¸Ģæĸ¹éĿ¢": 7368,
      "æ¶ĪéĻ¤": 7369,
      "åįĪå¤ľ": 7370,
      "è¡Ĺå¤´": 7371,
      "Ġv": 7372,
      "ä½¿çĶ¨èĢħ": 7373,
      "èģĮåľº": 7374,
      "èº«å½±": 7375,
      "åįĹéĥ¨": 7376,
      "åıĻ": 7377,
      "éĹ®é¢ĺçļĦ": 7378,
      "æľīäºĽäºº": 7379,
      "èĢį": 7380,
      "è¿ĩäºİ": 7381,
      "è¿ŀç»ĵ": 7382,
      "ky": 7383,
      "å¾½": 7384,
      "éĻĢ": 7385,
      "åįķèº«": 7386,
      "æ·ĩæ·ĭ": 7387,
      "åľ°çĲĨ": 7388,
      "ï¼Ļ": 7389,
      "å¤±åİ»äºĨ": 7390,
      "å¸Įå°Ķ": 7391,
      "å¤©èĿİåº§": 7392,
      "1111": 7393,
      "ä¸įå¯¹": 7394,
      "å°Īæ¥Ń": 7395,
      "ä¼°è®¡": 7396,
      "åĬ£": 7397,
      "ç´Ľ": 7398,
      "ä½ķæĹ¶": 7399,
      "ox": 7400,
      "ãĢĶ": 7401,
      "å¯¬": 7402,
      "å°ıæĹ¶åĢĻ": 7403,
      "çģ«è½¦ç«Ļ": 7404,
      "ä¸ĢèĪ¬çļĦ": 7405,
      "æķħæĦı": 7406,
      "äº§åĵģçļĦ": 7407,
      "æ°§åĮĸ": 7408,
      "Ġ13": 7409,
      "åı¯ä»¥çĶ¨": 7410,
      "ä¸Ģå¯¹": 7411,
      "ç¢Į": 7412,
      "åĳ³çļĦ": 7413,
      "ä»¿ä½Ľ": 7414,
      "ä¸Ģæĸ¹éĿ¢": 7415,
      "æĺ¯ä»İ": 7416,
      "æĽĨ": 7417,
      "è¿Ľåı£": 7418,
      "çŁ©": 7419,
      "Ġçİ°åľ¨": 7420,
      "ç¨»": 7421,
      "è»Łé«Ķ": 7422,
      "æµģçļĦ": 7423,
      "éĳ½": 7424,
      "åŃĲéĩĮ": 7425,
      "æķ°åŃ¦": 7426,
      "ä¸įæĺ¯å¾Ī": 7427,
      "åľ°æĿ¿": 7428,
      "åĪĨéħį": 7429,
      "åħ¬åŃĲ": 7430,
      "èĥĢ": 7431,
      "ood": 7432,
      "82": 7433,
      "CC": 7434,
      "ä¿¡çĶ¨åį¡": 7435,
      "å·´å·´": 7436,
      "JPG": 7437,
      "ä¸ĢåłĨ": 7438,
      "æ³¨éĩį": 7439,
      "æ°ĽåĽ´": 7440,
      "è®¯æģ¯": 7441,
      "ç§¯åĪĨ": 7442,
      "æ¡ĲèĬ±": 7443,
      "ä¸įå¼Ģ": 7444,
      "äºĨåĩł": 7445,
      "ash": 7446,
      "ç®ĢçĽ´": 7447,
      "è¶ħè¶Ĭ": 7448,
      "èµ¢å¾Ĺ": 7449,
      "çĬ¹è±«": 7450,
      "èĬĭ": 7451,
      "åı¯ä»¥çľĭåĪ°": 7452,
      "0000": 7453,
      "å°ļæľª": 7454,
      "æīįçŁ¥éģĵ": 7455,
      "ä¹°çļĦ": 7456,
      "åĨĴéĻ©": 7457,
      "æľīåħ´è¶£": 7458,
      "æĲı": 7459,
      "å¯Ĩçłģ": 7460,
      "æ¯ķä¸ļè¯ģ": 7461,
      "æº¢": 7462,
      "å©ļç¤¼": 7463,
      "ç¦ģæŃ¢": 7464,
      "è§£åĨ³æĸ¹æ¡Ī": 7465,
      "è¿ĶåĽŀ": 7466,
      "è°İ": 7467,
      "è¨ĵ": 7468,
      "å±ıä¸ľ": 7469,
      "å¾ªçİ¯": 7470,
      "éĢīæīĭ": 7471,
      "åªļ": 7472,
      "åĤ¢": 7473,
      "å°ıåĲĥ": 7474,
      "è³ŀ": 7475,
      "æĮĳéĢī": 7476,
      "åĥ¹æł¼": 7477,
      "ear": 7478,
      "pt": 7479,
      "çļĦåŃ©åŃĲ": 7480,
      "åħĥçļĦ": 7481,
      "éĵŃ": 7482,
      "é¡¶çº§": 7483,
      "Ġx": 7484,
      "èµ°èµ°": 7485,
      "è¢Ńåĩ»": 7486,
      "åŃ¦åİĨ": 7487,
      "èĳ¬": 7488,
      "ç¨ĭå¼ı": 7489,
      "æĿ¥çľĭçľĭ": 7490,
      "èīĩ": 7491,
      "æİĴéĺŁ": 7492,
      "äºĨä¸ª": 7493,
      "èĬĻ": 7494,
      "åĸī": 7495,
      "æīĭä¸Ĭ": 7496,
      "ç²¹": 7497,
      "è¯·æķĻ": 7498,
      "åŀ¦": 7499,
      "å¥³çļĦ": 7500,
      "äººå·¥": 7501,
      "è¨»": 7502,
      "éªĦ": 7503,
      "åĽ¾ä¹¦": 7504,
      "å¥ĸåĬ±": 7505,
      "å¿ħçĦ¶": 7506,
      "å®łçī©": 7507,
      "è¶´": 7508,
      "æľ¬åľ°": 7509,
      "ï¿¥": 7510,
      "åİŁå§ĭ": 7511,
      "çĻ¾å¹´": 7512,
      "çļĦåĨħå®¹": 7513,
      "ä¹ĭæīĢä»¥": 7514,
      "éļ±": 7515,
      "å¼Ĭ": 7516,
      "æ¸©é¦¨": 7517,
      "éĩįè¦ģçļĦæĺ¯": 7518,
      "æĺ¯åĲ¦æľī": 7519,
      "åįıè°ĥ": 7520,
      "BC": 7521,
      "ç±³åħ°": 7522,
      "åħĳ": 7523,
      "å§Ķä¼ļ": 7524,
      "è¦ģæľī": 7525,
      "æĴ¤": 7526,
      "æŀķ": 7527,
      "ä¸īå¤©": 7528,
      "é¢ĦæľŁ": 7529,
      "çĿģ": 7530,
      "æīĵå·¥": 7531,
      "ä½łæľī": 7532,
      "æ·±åº¦": 7533,
      "è¿ĩå¹´": 7534,
      "çĸ¼çĹĽ": 7535,
      "æľįåĬ¡åĻ¨": 7536,
      "å¼Ģå¥ĸ": 7537,
      "è´µçļĦ": 7538,
      "é¢Ħç®Ĺ": 7539,
      "æīĵçł´": 7540,
      "Â©": 7541,
      "å¹´åºķ": 7542,
      "æ¯ıåĳ¨": 7543,
      "æľªçŁ¥": 7544,
      "ä¾Ŀæį®": 7545,
      "çļĦåĳ³éģĵ": 7546,
      "èµ·åºĬ": 7547,
      "çľ¼ä¸Ń": 7548,
      "å¥Ĺé¤Ĳ": 7549,
      "æĹ¥åľ¨": 7550,
      "æıĲäº¤": 7551,
      "é£İåħī": 7552,
      "ä¿ĿèŃ·": 7553,
      "è¿ŀéĶģ": 7554,
      "ç¾¡": 7555,
      "åĽĽå¹´": 7556,
      "ä¸ĭçıŃ": 7557,
      "é¡ı": 7558,
      "æ»¡äºĨ": 7559,
      "ĠæĹł": 7560,
      "è©¢": 7561,
      "63": 7562,
      "Ġk": 7563,
      "æµ·è¾¹": 7564,
      "æĪļ": 7565,
      "éĺŁéķ¿": 7566,
      "æį®è¯´": 7567,
      "çĳŀå£«": 7568,
      "ãĢĤãĢĬ": 7569,
      "éħ¬": 7570,
      "å¤±æľĽ": 7571,
      "çº¢çļĦ": 7572,
      "çªģåĩº": 7573,
      "ç¾İäºº": 7574,
      "èĻļæĭŁ": 7575,
      "åŃ¸æł¡": 7576,
      "çıįæĥľ": 7577,
      "Ġå°Ĩ": 7578,
      "åıĳåĬ¨": 7579,
      "è´¢åĬ¡": 7580,
      "æļĤæĹ¶": 7581,
      "Ġçľĭ": 7582,
      "åįĹäº¬": 7583,
      "icro": 7584,
      "å´İ": 7585,
      "å¼ĤæĢ§": 7586,
      "å±±ä¸ľ": 7587,
      "å®ĩå®Ļ": 7588,
      "äºĳåįĹ": 7589,
      "ä¿®çĤ¼": 7590,
      "åĲĮæŃ¥": 7591,
      "æ±Ģ": 7592,
      "æ´Ĺæ·¨": 7593,
      "ä¸įæ¸ħ": 7594,
      "å½¿": 7595,
      "æµĻæ±Ł": 7596,
      "çļĦä½įç½®": 7597,
      "å¾Ĺä»¥": 7598,
      "ç©¿èĳĹ": 7599,
      "åħļçļĦ": 7600,
      "è´§å¸ģ": 7601,
      "ä¸Ģä¸Ģ": 7602,
      "è±Ķ": 7603,
      "ä¸įç®¡æĺ¯": 7604,
      "åī¥": 7605,
      "éĥ½çŁ¥éģĵ": 7606,
      "è¿ĺèĽ®": 7607,
      "æĢ»è£ģ": 7608,
      "çĤ¹çĤ¹": 7609,
      "æ±Łèĭı": 7610,
      "è®ĵäºº": 7611,
      "çŃīäºº": 7612,
      "ä¸¦ä¸Ķ": 7613,
      "åĲķ": 7614,
      "è¯ĦåĪĨ": 7615,
      "roid": 7616,
      "ite": 7617,
      "æģĲæĢĸçīĩ": 7618,
      "çļĦè½¦": 7619,
      "ç´łè´¨": 7620,
      "èĺĩ": 7621,
      "è®¸åı¯": 7622,
      "éŃĶé¬¼": 7623,
      "å¨ģå°¼æĸ¯": 7624,
      "æĪĲéĥ½": 7625,
      "æĪĳåĢĳçļĦ": 7626,
      "è´¢æĶ¿": 7627,
      "æ»ĭåĳ³": 7628,
      "ç§įç§į": 7629,
      "è¡¬": 7630,
      "åįļå®¢": 7631,
      "èĮħ": 7632,
      "ä¸ĵæ³¨": 7633,
      "éĺµåŃĲ": 7634,
      "äºĭé¡¹": 7635,
      "å½ĵä½ľ": 7636,
      "ç¬ĳäºĨ": 7637,
      "ä¸ĢåĿĹ": 7638,
      "å¥³æľĭåıĭ": 7639,
      "çĶ©": 7640,
      "å¦Ŀ": 7641,
      "èĥ½åĲ¦": 7642,
      "çĽ¼": 7643,
      "ä¸Ĭè¯¾": 7644,
      "åıĹæ¬¢è¿İ": 7645,
      "æľªæĿ¥çļĦ": 7646,
      "æķĮäºº": 7647,
      "æĬķè³ĩ": 7648,
      "adidas": 7649,
      "çº¦ä¼ļ": 7650,
      "æ²¡äºĭ": 7651,
      "éĹ¨ç¥¨": 7652,
      "å¼ķçĶ¨": 7653,
      "æī¹è¯Ħ": 7654,
      "çīĽæİĴ": 7655,
      "æĨ¶": 7656,
      "çħĮ": 7657,
      "å¼Ģåı£": 7658,
      "çĺ¤": 7659,
      "åĽłä¸ºä»ĸ": 7660,
      "åħ±äº§": 7661,
      "åĨĻçļĦ": 7662,
      "çĶľèľľ": 7663,
      "çĶµåŃĲåķĨåĬ¡": 7664,
      "ish": 7665,
      "åĽŀå½Ĵ": 7666,
      ".......": 7667,
      "æ±¤åĮĻ": 7668,
      "è®ºæĸĩ": 7669,
      "å¾Įä¾Ĩ": 7670,
      "è§Ħå¾ĭ": 7671,
      "opy": 7672,
      "éĴ¥åĮĻ": 7673,
      "æľĢåĪĿ": 7674,
      "åĮĹéĥ¨": 7675,
      "2004": 7676,
      "ä½£": 7677,
      "æķĹ": 7678,
      "å¤ĸè¡¨": 7679,
      "NT": 7680,
      "éĿ¢è¯ķ": 7681,
      "å®ĺåĳĺ": 7682,
      "ä¸įå·²": 7683,
      "ä¸ĭéĽ¨": 7684,
      "å¼ºåĮĸ": 7685,
      "ç§ĳåŃ¦å®¶": 7686,
      "åĨħè¡£": 7687,
      "ÃĹ": 7688,
      "å¥½å¤Ħ": 7689,
      "æ¯Ķäºļ": 7690,
      "è½¬è´´": 7691,
      "åĲŁ": 7692,
      "é«Ĵ": 7693,
      "ä½ıå®ħ": 7694,
      "ç¼ºçĤ¹": 7695,
      "å¥¹è¯´": 7696,
      "æĦļ": 7697,
      "éĢļè®¯": 7698,
      "çľ¼ç¥ŀ": 7699,
      "ib": 7700,
      "ä¹ĭè·¯": 7701,
      "Â·Â·": 7702,
      "æ¼Ĥäº®çļĦ": 7703,
      "ï¼Łï¼Ł": 7704,
      "ç¸£": 7705,
      "åĿł": 7706,
      "åį³æĹ¶æ¯ĶåĪĨ": 7707,
      "çµĦç¹Ķ": 7708,
      "åĭŀ": 7709,
      "æ·¡æ°´": 7710,
      "åĥ§": 7711,
      "éģĩè§ģ": 7712,
      "è¦ĸè¨Ĭ": 7713,
      "å¥³çİĭ": 7714,
      "éĿŀæ´²": 7715,
      "è¿Ĳè¾ĵ": 7716,
      "åĽ´ç»ķ": 7717,
      "App": 7718,
      "Ġ2010": 7719,
      "72": 7720,
      "çļĦæľī": 7721,
      "é©¬åħĭ": 7722,
      "ä½łè§īå¾Ĺ": 7723,
      "éĢĤå½ĵ": 7724,
      "Ġè¿Ļæĺ¯": 7725,
      "éĦī": 7726,
      "@@": 7727,
      "æĸ©": 7728,
      "çĤ«": 7729,
      "èĢĥçĶŁ": 7730,
      "ç¦»å¥ĩ": 7731,
      "è´º": 7732,
      "74": 7733,
      "âĦ": 7734,
      "========": 7735,
      "çĶ·äººçļĦ": 7736,
      "çļĦåĬŁèĥ½": 7737,
      "åŃĲä¸Ĭ": 7738,
      "è½¬åıĺ": 7739,
      "LE": 7740,
      "å·¥èµĦ": 7741,
      "åįģè¶³": 7742,
      "è§£çŃĶ": 7743,
      "åı¤ä»£": 7744,
      "ä¸Ĭæ¶¨": 7745,
      "å°Ĩåħ¶": 7746,
      "Ġfor": 7747,
      "èĩº": 7748,
      "83": 7749,
      "éĢĲæŃ¥": 7750,
      "å¤§åĬĽ": 7751,
      "æĹħç¨ĭ": 7752,
      "è£ħæ½¢": 7753,
      "æĸ°çĶŁ": 7754,
      "è·¯åı£": 7755,
      "ĠåıĪ": 7756,
      "å¥ķ": 7757,
      "èĤ¾": 7758,
      "å¦Ĥæŀľæĺ¯": 7759,
      "è¿Ļè¾¹": 7760,
      "å¤ļå°ĳéĴ±": 7761,
      "MA": 7762,
      "ner": 7763,
      "ä¸įåİ»": 7764,
      "å¤©ä¸Ĭ": 7765,
      "ä½ľåĩº": 7766,
      "æģĲæĢķ": 7767,
      "æĥĬæĤļ": 7768,
      "åĳĬè¯īä½ł": 7769,
      "åħ¬æ°ĳ": 7770,
      "åįķåħĥ": 7771,
      "ç»İ": 7772,
      "å¼¦": 7773,
      "è½¬æį¢": 7774,
      "ĠäºĮ": 7775,
      "ç¶ĵéģİ": 7776,
      "ä¸Ģæĺ¯": 7777,
      "åį¸": 7778,
      "ç©ºè°ĥ": 7779,
      "åģ¶å°Ķ": 7780,
      "åĴĮæĪĳ": 7781,
      "åĪļæīį": 7782,
      "å¤«äºº": 7783,
      "Ġth": 7784,
      "å¡ĺ": 7785,
      "å¤©ç§¤": 7786,
      "æ½®æµģ": 7787,
      "æ·Ģ": 7788,
      "æĿŃå·ŀ": 7789,
      "çĻ»å½ķ": 7790,
      "73": 7791,
      "æİĢ": 7792,
      "é¥º": 7793,
      "åĸĦèī¯": 7794,
      "ä¸ĭæĿ¥çļĦ": 7795,
      "äºĶå¹´": 7796,
      "èĦļæŃ¥": 7797,
      "ä½łæľĢ": 7798,
      "sw": 7799,
      "te": 7800,
      "æ¸ħæ°´": 7801,
      "çĻ½å¤©": 7802,
      "Ġst": 7803,
      "è¥¿äºļ": 7804,
      "çļĦç¥ŀ": 7805,
      "çĪ±å¥½": 7806,
      "å°±æĬĬ": 7807,
      "ä¸īä½į": 7808,
      "æīįåıĳçİ°": 7809,
      "çº²": 7810,
      "æīįæľī": 7811,
      "å¼ºå¤§çļĦ": 7812,
      "çº¤ç»´": 7813,
      "çĶ¨å¿ĥ": 7814,
      "éĻĦè¿ĳçļĦ": 7815,
      "ï¼ĺ": 7816,
      "è¿Ļåľº": 7817,
      "æł½": 7818,
      "å»ºç¯ī": 7819,
      "åĲĥè¿ĩ": 7820,
      "å®¿èĪį": 7821,
      "çīº": 7822,
      "ä¹ĭéĻħ": 7823,
      "Ġ--": 7824,
      "é«ĺè¾¾": 7825,
      "Ġon": 7826,
      "æĹłæ¯Ķ": 7827,
      "ä¼ĳéĹ²": 7828,
      "æŃ¸": 7829,
      "äºĶåįģ": 7830,
      "æľīæķĪçļĦ": 7831,
      "æ´½": 7832,
      "æĺŁæĺŁ": 7833,
      "ä¼ĺè´¨": 7834,
      "å¦ĩå¥³": 7835,
      "åĲ¼": 7836,
      "äº¨": 7837,
      "åıĹå®³": 7838,
      "ä¸ĵåįĸ": 7839,
      "å¯¹å¾ħ": 7840,
      "å½ķåĥı": 7841,
      "å¤ļå¹´çļĦ": 7842,
      "å¹¸åŃĺ": 7843,
      "å»¶ä¼¸": 7844,
      "æ°´çĵ¶åº§": 7845,
      "Br": 7846,
      "èĮĤ": 7847,
      "æĶĢ": 7848,
      "å´Ķ": 7849,
      "åıĤèµĽ": 7850,
      "èªªæĺİ": 7851,
      "Ġé«ĺ": 7852,
      "é¡Ĩ": 7853,
      "èµ·çļĦ": 7854,
      "åĲĮå¿Ĺ": 7855,
      "èĲį": 7856,
      "èĵī": 7857,
      "ç³»ç»ŁçļĦ": 7858,
      "è¿ĻéĹ´": 7859,
      "åı¯çĪ±çļĦ": 7860,
      "ä¹Łéĥ½": 7861,
      "çĸĳéĹ®": 7862,
      "èĢĮæĿ¥": 7863,
      "ç¾İå¥½çļĦ": 7864,
      "Ġæ³ķ": 7865,
      "ä¸ºäºº": 7866,
      "æ°ĶåĢĻ": 7867,
      "La": 7868,
      "å¤ıæĹ¥": 7869,
      "è¿Ļä¸ĢåĪĩ": 7870,
      "çĽ¸åħ³çļĦ": 7871,
      "ä¸ĭè¼ī": 7872,
      "å¥½æľĭåıĭ": 7873,
      "çīºçī²": 7874,
      "çĽ¸åıį": 7875,
      "éŃĶç¾¯": 7876,
      "ä¾ĿéĿł": 7877,
      "æ¸Ĺ": 7878,
      "å¹£": 7879,
      "çĤŃ": 7880,
      "ä¹Ĳè¶£": 7881,
      "èĵ¬": 7882,
      "æ´¾åĩº": 7883,
      "å¯¹ä»ĸ": 7884,
      "æįı": 7885,
      "åı®": 7886,
      "ä¸Ģèµ·åİ»": 7887,
      "åįĳ": 7888,
      "éĴī": 7889,
      "BS": 7890,
      "åĽŀå¤´": 7891,
      "æĲį": 7892,
      "è¯¥å¦Ĥä½ķ": 7893,
      "ç²¾çģµ": 7894,
      "åĨĪ": 7895,
      "åĽŀäºĭ": 7896,
      "è®¶": 7897,
      "çĶµä¿¡": 7898,
      "æ¨¡æĭŁ": 7899,
      "ä¸įåĥı": 7900,
      "éĽ¶åĶ®": 7901,
      "åĿĤ": 7902,
      "çĹĺ": 7903,
      "ä»ĸä»¬åľ¨": 7904,
      "åĺ»": 7905,
      "éĢģåĪ°": 7906,
      "æĸ°å¹´": 7907,
      "ka": 7908,
      "åłµ": 7909,
      "åį±å®³": 7910,
      "æ¯ıåĢĭ": 7911,
      "å¤§éģĵ": 7912,
      "æ¬¡çļĦ": 7913,
      "è®¾å®ļ": 7914,
      "åįĹæĸ¹": 7915,
      "éĢļä¿¡": 7916,
      "é¢¤": 7917,
      "çļĦåŁºç¡Ģ": 7918,
      "åħ¬çĽĬ": 7919,
      "åŃĺåĤ¨": 7920,
      "çĤºä»Ģéº¼": 7921,
      "æĸ°éĹ»ç½ĳ": 7922,
      "æĺ¯çļĦ": 7923,
      "ä½łçŁ¥éģĵ": 7924,
      "ä¿¡ä»°": 7925,
      "ä½įçļĦ": 7926,
      "OP": 7927,
      "åįļå¨±ä¹ĲåŁİ": 7928,
      "çĶ·æľĭåıĭ": 7929,
      "ä¸ĵé¢ĺ": 7930,
      "åı°åįĹå¸Ĥ": 7931,
      "æģŃ": 7932,
      "åĲ¬è§ģ": 7933,
      "æĬĦ": 7934,
      "æķµ": 7935,
      "å¤§åĵ¥": 7936,
      "éľĩæĴ¼": 7937,
      "çļĦå±±": 7938,
      "ä¸Ģç¬ĳ": 7939,
      "éĩĩè´Ń": 7940,
      "åĩıèĤ¥": 7941,
      "çĪ±ä¸Ĭ": 7942,
      "é¦Ļåĳ³": 7943,
      "æķ£æŃ¥": 7944,
      "æĦŁåĨĴ": 7945,
      "æĿĢæŃ»": 7946,
      "æīģ": 7947,
      "èīºäºº": 7948,
      "æĪĳè¿ĺ": 7949,
      "æĪĸèĢħæĺ¯": 7950,
      "å¤įä»ĩ": 7951,
      "oft": 7952,
      "å½·å½¿": 7953,
      "å°±æĺ¯è¦ģ": 7954,
      "å¥½åº·": 7955,
      "ç½Ĺé©¬": 7956,
      "æ³£": 7957,
      "å®ļæľŁ": 7958,
      "åħįçĸ«": 7959,
      "æĺ¯éĿŀå¸¸": 7960,
      "è§£æ±º": 7961,
      "è¡Ģèħ¥": 7962,
      "éħįå¤ĩ": 7963,
      "éļĶå£ģ": 7964,
      "èķī": 7965,
      "æĥ³çŁ¥éģĵ": 7966,
      "++": 7967,
      "å¿«éĢĴ": 7968,
      "é¡µä¹¦": 7969,
      "å¤§èĦĳ": 7970,
      "åĴĮä½ł": 7971,
      "æ¿ķ": 7972,
      "èĭ¥æĺ¯": 7973,
      "Windows": 7974,
      "ï¼ĸ": 7975,
      "æ¿ĥ": 7976,
      "çĭ¬èĩª": 7977,
      "éĤ£æĹ¶": 7978,
      "éĩĳèĬ±": 7979,
      "è·Łæľĭåıĭ": 7980,
      "çļĦè¿ĩç¨ĭ": 7981,
      "ä¸įå¿ħ": 7982,
      "æľīåĬ©": 7983,
      "æĮ½": 7984,
      "é£İæĥħ": 7985,
      "éĢļéģĵ": 7986,
      "æĺ¯ä¸Ģä½į": 7987,
      "é³Ħ": 7988,
      "çļĦåĲĹ": 7989,
      "ç»´çĶŁç´ł": 7990,
      "å¦ĻçļĦ": 7991,
      "å¦Ĥæŀľæľī": 7992,
      "é¬¥": 7993,
      "çļĦçĥŃ": 7994,
      "åĵ¼": 7995,
      "è¶ĬåįĹ": 7996,
      "åĻ©æ¢¦": 7997,
      "åĵªç§į": 7998,
      "atch": 7999,
      "éģĤ": 8000,
      "å°±å¾Ī": 8001,
      "æ¡ĥèĬ±": 8002,
      "æķ·": 8003,
      "çĿ¹": 8004,
      "ç»Ļäºº": 8005,
      "æĴ°": 8006,
      "æĦ¿æľĽ": 8007,
      "å®ŀä¹ł": 8008,
      "act": 8009,
      "èµ¢å®¶": 8010,
      "æĳĶ": 8011,
      "é¢Ħè®¢": 8012,
      "åĪĨæ³Į": 8013,
      "åħ¬åĪĨ": 8014,
      "å°ĳäºĨ": 8015,
      "è®°ä½ı": 8016,
      "æ¶Īè²»": 8017,
      "å¿ĥèĦı": 8018,
      "æĿ¥ä¸´": 8019,
      "è®²è¯Ŀ": 8020,
      "åĨ¬åŃ£": 8021,
      "æ£µ": 8022,
      "åķ¸": 8023,
      "åĲĪåĲĮ": 8024,
      "æ¾İæ¹ĸ": 8025,
      "åıĮé±¼åº§": 8026,
      "çļĦäººä»¬": 8027,
      "å¥¶å¥¶": 8028,
      "è§ħ": 8029,
      "å¹³éĿĻ": 8030,
      "ãĢĪ": 8031,
      "åİ»åģļ": 8032,
      "åĮł": 8033,
      "åŃ¤çĭ¬": 8034,
      "æĺĶ": 8035,
      "è¿ĻæĿ¡": 8036,
      "æĬ¥çº¸": 8037,
      "åĳ¨å¹´": 8038,
      "å¤§éĩıçļĦ": 8039,
      "ï¼Ĺ": 8040,
      "èĥ½åľ¨": 8041,
      "ä½ĵåĨħ": 8042,
      "æĥħå½¢": 8043,
      "åįİäºº": 8044,
      "è£ħç½®": 8045,
      "åľ¨å¤ĸ": 8046,
      "å¤§å£°": 8047,
      "æıī": 8048,
      "åľºæīĢ": 8049,
      "è°¦": 8050,
      "ĠâĨĴ": 8051,
      "åĽ½éĻħå¨±ä¹Ĳåľº": 8052,
      "æĺ¥å¤©": 8053,
      "åħ¨åĬĽ": 8054,
      "ä¸ļèĢħ": 8055,
      "æīĶ": 8056,
      "åĴ³": 8057,
      "åĲįçīĩ": 8058,
      "é¡µéĿ¢": 8059,
      "è©ŀ": 8060,
      "Ġä¸Ģä¸ª": 8061,
      "ĠæĳĦå½±": 8062,
      "çļĩåĨłè¶³çĲĥ": 8063,
      "å¥§": 8064,
      "æľĢæľī": 8065,
      "DVD": 8066,
      "II": 8067,
      "ĠåŃĲ": 8068,
      "æ©ĺ": 8069,
      "93": 8070,
      "ãĢī": 8071,
      "å¹´äºº": 8072,
      "éĻ¤éĿŀ": 8073,
      "ç¶ĵé©Ĺ": 8074,
      "æ³¨æĦıåĬĽ": 8075,
      "å®ŀçĶ¨": 8076,
      "éĵģè·¯": 8077,
      "æŀļ": 8078,
      "åħ³éĹŃ": 8079,
      "åĳĬè¨´": 8080,
      "æľīä¸Ģä½į": 8081,
      "åŃ¦çĶŁçļĦ": 8082,
      "çģµæ´»": 8083,
      "è±¹": 8084,
      "SP": 8085,
      "åĪ°çİ°åľ¨": 8086,
      "éģº": 8087,
      "åį´åıĪ": 8088,
      "æ¥ł": 8089,
      "åĸľåī§": 8090,
      "æĿ¥åĪ°äºĨ": 8091,
      "çļĦåĲİ": 8092,
      "è¿İæİ¥": 8093,
      "å¿½çķ¥": 8094,
      "éĢ»è¾ĳ": 8095,
      "æľĢåĲİçļĦ": 8096,
      "ä»Ĭå¹´çļĦ": 8097,
      "çŁ³å¤´": 8098,
      "ample": 8099,
      "ĠRes": 8100,
      "å®°": 8101,
      "ä¹Łè¢«": 8102,
      "æķ´å¤©": 8103,
      "éļ§": 8104,
      "âĢ¦âĢ¦ãĢį": 8105,
      "æĭīåħĭ": 8106,
      "åĻª": 8107,
      "ä¸«": 8108,
      "çµ¡": 8109,
      "åĤ³çµ±": 8110,
      "éĤ£è£¡": 8111,
      "è¢ľ": 8112,
      "å°ĳæķ°": 8113,
      "åĬī": 8114,
      "èĦ¾æ°Ķ": 8115,
      "ç·£": 8116,
      "çļĦç¡®": 8117,
      "çľĭåĩº": 8118,
      "åŁİåł¡": 8119,
      "æĺ¯å¯¹": 8120,
      "åİĺ": 8121,
      "å¯»æ±Ĥ": 8122,
      "ç¬ĭ": 8123,
      "æĸ¯åį¡": 8124,
      "åĶ¯ä¸ĢçļĦ": 8125,
      "å¾ĹåĪ°äºĨ": 8126,
      "ç¤ģ": 8127,
      "éĩĮåħĭ": 8128,
      "åĨ·çļĦ": 8129,
      "ä¸ĢéĿ¢": 8130,
      "è½¦çļĦ": 8131,
      "æ¦®": 8132,
      "ç¬Ķè®°": 8133,
      "ä¸įå¦¨": 8134,
      "æĶ¾ä¸ĭ": 8135,
      "çĲ¼": 8136,
      "çĽĽå¤§": 8137,
      "çĺ¾": 8138,
      "MN": 8139,
      "çĶµåĬ¨": 8140,
      "é¡¿æĹ¶": 8141,
      "çľŁå¿ĥ": 8142,
      "æĹłçĸĳ": 8143,
      "åĪ¶çļĦ": 8144,
      "ĠæĽ°": 8145,
      "ç±¤": 8146,
      "ä¸ļç»©": 8147,
      "é¦ħ": 8148,
      "ç§įç±»": 8149,
      "ĠY": 8150,
      "ä¸Ńå°ı": 8151,
      "æłª": 8152,
      "åħ¬æĸ¤": 8153,
      "èŃ¦åĳĬ": 8154,
      "è¨Ńå®ļ": 8155,
      "å¸³": 8156,
      "åĲįåı«": 8157,
      "ä¼ļçļĦ": 8158,
      "æ²¡æľīä»»ä½ķ": 8159,
      "è¯ģåĪ¸": 8160,
      "åĸ»": 8161,
      "ä»£çłģ": 8162,
      "æħ®": 8163,
      "è§£æĶ¾": 8164,
      "è¡·": 8165,
      "éķ¿æĹ¶éĹ´": 8166,
      "CP": 8167,
      "åľ¨æĸ°": 8168,
      "çķı": 8169,
      "çĹ«": 8170,
      "çļĦä»ĸ": 8171,
      "æ°ĳéĹ´": 8172,
      "ç¢°åĪ°": 8173,
      "æģĨ": 8174,
      "éľī": 8175,
      "åĬ¨æĢģ": 8176,
      "èĬ±æµ·": 8177,
      "ï¼Ŀ": 8178,
      "ç©©": 8179,
      "å¤Ħå¥³åº§": 8180,
      "ä¸įæĸ·": 8181,
      "åĮª": 8182,
      "çľĭä¸įåĪ°": 8183,
      "è½¦ä¸Ĭ": 8184,
      "æĢ»ä¼ļ": 8185,
      "ä¼¯çī¹": 8186,
      "çļĦåħ³ç³»": 8187,
      "å°ıç±³": 8188,
      "èº«å¿ĥ": 8189,
      "æ¹ĺ": 8190,
      "æŀĦæĪĲ": 8191,
      "è·ĳåİ»": 8192,
      "ä¸įç¦ģ": 8193,
      "èģĶç»ľ": 8194,
      "çļĦåĴĸåķ¡": 8195,
      "è¿Ļç¯ĩæĸĩç«ł": 8196,
      "çĲĨè´¢": 8197,
      "åĨĽéĺŁ": 8198,
      "è°ĥåĳ³æĸĻ": 8199,
      "çļĦæľĢ": 8200,
      "æĺ¯å¤§": 8201,
      "Google": 8202,
      "æĬĬèĩªå·±": 8203,
      "è¿ĳå¹´æĿ¥": 8204,
      "æ½Ķ": 8205,
      "å¯¶å¯¶": 8206,
      "èĢ³æľµ": 8207,
      "win": 8208,
      "åĲĥå®Į": 8209,
      "ç²¤": 8210,
      "æĿĥåĬĽ": 8211,
      "æ²¡äºº": 8212,
      "å±±çļĦ": 8213,
      "åķĨå®¶": 8214,
      "ä¹Łæľĥ": 8215,
      "åľ°åįĢ": 8216,
      "ç»´ä¿®": 8217,
      "é«Ķé©Ĺ": 8218,
      "è´¼": 8219,
      "æĢİæł·çļĦ": 8220,
      "è©³": 8221,
      "äºĭåĬ¡": 8222,
      "APP": 8223,
      "åĴĮåħ¶ä»ĸ": 8224,
      "æķĻç»ĥ": 8225,
      "æĴķ": 8226,
      "æĶ¹è®Ĭ": 8227,
      "OK": 8228,
      "sc": 8229,
      "æĹ¬": 8230,
      "çļĦæīĢæľī": 8231,
      "éĥĬ": 8232,
      "äº§çĶŁçļĦ": 8233,
      "é¤Ĳé¥®": 8234,
      "å¹¿æĴŃ": 8235,
      "éĽ»åŃĲ": 8236,
      "çĶŁéķ¿": 8237,
      "çīĩçļĦ": 8238,
      "åı¯æĦĽ": 8239,
      "ä¼ĺçĤ¹": 8240,
      "Ġåİ»": 8241,
      "çĻ«çĹ«": 8242,
      "è°Ń": 8243,
      "ç«ĭåįļ": 8244,
      "è¦ģåģļ": 8245,
      "èĢĥéªĮ": 8246,
      "æľīäººè¯´": 8247,
      "å¹¾ä¹İ": 8248,
      "ä¹ĭå¤ľ": 8249,
      "å·¥äºº": 8250,
      "çĽ®æ¨Ļ": 8251,
      "åº§ä½į": 8252,
      "æ²Ĳ": 8253,
      "ult": 8254,
      "é¤ĺ": 8255,
      "äº²èĩª": 8256,
      "ä¾ĭåŃĲ": 8257,
      "è¦ģæ³¨æĦı": 8258,
      "å¸ĿåĽ½": 8259,
      "å¹½çģµ": 8260,
      "ohn": 8261,
      "èĦĸ": 8262,
      "éĤ£ä½į": 8263,
      "çļĦéĩĳ": 8264,
      "å¹¹": 8265,
      "æł¹æĵļ": 8266,
      "________": 8267,
      "ç²¾åĵģ": 8268,
      "ä¸ºæŃ¤": 8269,
      "æĹ¥æľĪ": 8270,
      "Ġç¬¬": 8271,
      "åĶī": 8272,
      "æĶ¯æĴĳ": 8273,
      "è½¦è¾Ĩ": 8274,
      "æ¬£ä¼łåªĴ": 8275,
      "ç¼ħ": 8276,
      "æ©Ļ": 8277,
      "çļĦè®¾è®¡": 8278,
      "æľīéĹľ": 8279,
      "ä¸ªå°ıæĹ¶": 8280,
      "åºĶå¯¹": 8281,
      "åįī": 8282,
      "åģļäºĭ": 8283,
      "åĦĢ": 8284,
      "ä¸Ģæ¬¾": 8285,
      "èĬ±éĴ±": 8286,
      "è¿Ļä¸ªéĹ®é¢ĺ": 8287,
      "ç¦»å©ļ": 8288,
      "å©´åĦ¿": 8289,
      "æľĪäº®": 8290,
      "ç«Ń": 8291,
      "çļĦè¡Įä¸º": 8292,
      "èĲ¥éĢł": 8293,
      "å°±çŁ¥éģĵ": 8294,
      "3000": 8295,
      "åį¦": 8296,
      "éģĵåħ·": 8297,
      "å¥ĩè¿¹": 8298,
      "åŃ©åŃĲä»¬": 8299,
      "å®īéĿĻ": 8300,
      "èĴĭ": 8301,
      "ĠçĻ½": 8302,
      "åĲĦé¡¹": 8303,
      "æĤ¨åı¯ä»¥": 8304,
      "ä¼ĺéĽħ": 8305,
      "ç¤¾ä¼ļä¸»ä¹ī": 8306,
      "åŃ¦çļĦ": 8307,
      "å®īå¨ľ": 8308,
      "åĨ°æ·ĩæ·ĭ": 8309,
      "91": 8310,
      "æľīä¸Ģæ¬¡": 8311,
      "è¯·å¤§å®¶": 8312,
      "ä»ĸä¼ļ": 8313,
      "ä¹ĭç±»çļĦ": 8314,
      "çļĦé¦ĸ": 8315,
      "éĿĵ": 8316,
      "ĠåĪĨ": 8317,
      "ä¸ĵä¸ļçļĦ": 8318,
      "éĹ®æĪĳ": 8319,
      "çħ§æĺİ": 8320,
      "ale": 8321,
      "å®ŀè¡Į": 8322,
      "æ¢µ": 8323,
      "An": 8324,
      "ç¬¬ä¸īæĸ¹": 8325,
      "çħŀ": 8326,
      "æľŁæľĽ": 8327,
      "åıĮåŃĲ": 8328,
      "ä¸ĸçķĮçļĦ": 8329,
      "å¯¹æ¯Ķ": 8330,
      "ä»ħä»ħ": 8331,
      "çļĦæĸĩç«ł": 8332,
      "ä»¥ä¾¿": 8333,
      "Ġæ°´": 8334,
      "åĺ´å·´": 8335,
      "éľĢè¦ģçļĦ": 8336,
      "æģĭäºº": 8337,
      "èĬĤèĥ½": 8338,
      "çĳŀæĸ¯": 8339,
      "ç§įæ¤į": 8340,
      "EL": 8341,
      "âĸ¼": 8342,
      "ĠæľĢ": 8343,
      "ç¸®": 8344,
      "âĸł": 8345,
      "åľ¨äºĨ": 8346,
      "ä¼łæĿ¥": 8347,
      "å¸ĥå±Ģ": 8348,
      "çļĦåĲį": 8349,
      "ä¸įåĬ¨": 8350,
      "æİ¨åĩºçļĦ": 8351,
      "æ¶ĪèĢĹ": 8352,
      "å¤©çĶŁ": 8353,
      "æĹ¥èĩ³": 8354,
      "ç¼ĵç¼ĵ": 8355,
      "æį¡": 8356,
      "åįļå½©è®ºåĿĽ": 8357,
      "åĸĩ": 8358,
      "æŃ£è§Ħ": 8359,
      "å¹³åĩ¡": 8360,
      "äº¬éĥ½": 8361,
      "ç¨ħ": 8362,
      "éļıæĦı": 8363,
      "ä¸įæ¸ħæ¥ļ": 8364,
      "åıĪè¦ģ": 8365,
      "åĽĽåŃ£": 8366,
      "äº«æľī": 8367,
      "å¾Īé«ĺ": 8368,
      "è®¸å¤ļäºº": 8369,
      "az": 8370,
      "ä½łæĥ³": 8371,
      "æĸ¯åĿ¦": 8372,
      "ä¸Ģèº«": 8373,
      "æĪ®": 8374,
      "æ´¾å¯¹": 8375,
      "çļĦå®¶": 8376,
      "æķĻå®¤": 8377,
      "çī¡ç¾Ĭ": 8378,
      "å½±è§Ĩ": 8379,
      "è¡Ĺä¸Ĭ": 8380,
      "æĶ»æĵĬ": 8381,
      "ork": 8382,
      "åı¯çĶ¨": 8383,
      "æĸ°åĮĹå¸Ĥ": 8384,
      "å¯¹è¯Ŀ": 8385,
      "å¹¸åŃĺèĢħ": 8386,
      "åı¯åľ¨": 8387,
      "çĽĪåĪ©": 8388,
      "åĢĴæĺ¯": 8389,
      "åĽ½çİĭ": 8390,
      "å¾Īæĥ³": 8391,
      "Ġï¼ī": 8392,
      "çĶ¸": 8393,
      "åľ¨åĵª": 8394,
      "æĦīå¿«": 8395,
      "Ġä¸ª": 8396,
      "å¸ĺ": 8397,
      "èĩ´åĬĽ": 8398,
      "åŁ·è¡Į": 8399,
      "å¸ĥé²ģ": 8400,
      "éĢĻæ¨£çļĦ": 8401,
      "èı¸": 8402,
      "ä»¥çĤº": 8403,
      "åĲĮæ¯Ķ": 8404,
      "æľªç»ı": 8405,
      "åĨ¤": 8406,
      "å¾Īåĸľæ¬¢": 8407,
      "è§ģéĿ¢": 8408,
      "åĨ³å¿ĥ": 8409,
      "ä¹ĲéĢı": 8410,
      "è½»æĺĵ": 8411,
      "è¿Ļä»¶äºĭ": 8412,
      "å¹´åįİ": 8413,
      "å¸ĮæľĽèĥ½": 8414,
      "æĽ¿ä»£": 8415,
      "æĮĸæİĺ": 8416,
      "ĽçļĦ": 8417,
      "æ²«": 8418,
      "æĺ¨æĹ¥": 8419,
      "è¢ģ": 8420,
      "Ġ23": 8421,
      "éĹ®éģĵ": 8422,
      "ç¥ŀç§ĺçļĦ": 8423,
      "æĪĢ": 8424,
      "ä¸įä¸ĭ": 8425,
      "æ²¡åĬŀæ³ķ": 8426,
      "åİŁæĸĻ": 8427,
      "å²ģæľĪ": 8428,
      "åŀ¦ä¸ģ": 8429,
      "çīĪçļĦ": 8430,
      "è¯ĬæĸŃ": 8431,
      "è¡Įåĭķ": 8432,
      "èı©": 8433,
      "èµ°åĩº": 8434,
      "å¯¦åľ¨": 8435,
      "çļĦå¤ļ": 8436,
      "è¥¿éĥ¨": 8437,
      "è²Ŀ": 8438,
      "è®ĵæĪĳ": 8439,
      "èĢķ": 8440,
      "è¶ħéģİ": 8441,
      "ç»ĨèıĮ": 8442,
      "250": 8443,
      "æ¼Ķç»İ": 8444,
      "æľªä¾Ĩ": 8445,
      "åı£æ°Ķ": 8446,
      "æī¾åĩº": 8447,
      "ï¼Ĭï¼Ĭ": 8448,
      "Ġæĸĩ": 8449,
      "ä¸Ģåº§": 8450,
      "äº«çĶ¨": 8451,
      "æĦŁè§īåĪ°": 8452,
      "ĠAll": 8453,
      "iew": 8454,
      "ä»ĺæ¬¾": 8455,
      "æĹģçļĦ": 8456,
      "èĢģé¼ł": 8457,
      "åįĬå¤ľ": 8458,
      "åı³æīĭ": 8459,
      "å¸ĪåĤħ": 8460,
      "æŃ¦æŀĹ": 8461,
      "ĠæĿĲæĸĻ": 8462,
      "ä»ªå¼ı": 8463,
      "èĳ£äºĭéķ¿": 8464,
      "ç«¶": 8465,
      "åºĨç¥Ŀ": 8466,
      "92": 8467,
      "ä¸Ģé¡¹": 8468,
      "ä¸Ĭæ¼Ķ": 8469,
      "åıĹä¸įäºĨ": 8470,
      "åĳ¨è¾¹": 8471,
      "éģĹæĨ¾": 8472,
      "è®ĬæĪĲ": 8473,
      "OR": 8474,
      "Ġéĩĳ": 8475,
      "æľĢä¸º": 8476,
      "ï¼Łï¼ģ": 8477,
      "è½¬åŀĭ": 8478,
      "é¦ĸæŃĮ": 8479,
      "ä¹Łæĺ¯ä¸Ģ": 8480,
      "åıĳçļĦ": 8481,
      "æ¿ĢçĥĪ": 8482,
      "ï¼ļ\"": 8483,
      "æĪĳä»¬å°±": 8484,
      "æ°Ķè´¨": 8485,
      "çĽ¸éģĩ": 8486,
      "è¥¿èĹı": 8487,
      "ond": 8488,
      "å°¬": 8489,
      "çĪ·çĪ·": 8490,
      "å¸ĮæľĽå¤§å®¶": 8491,
      "è¿Ļä¸ĢçĤ¹": 8492,
      "å¥¸": 8493,
      "çĭ¬çī¹çļĦ": 8494,
      "æŃ¤åīį": 8495,
      "ä¼ļè¢«": 8496,
      "åĩºåĶ®": 8497,
      "åģ´": 8498,
      "è·¯è¾¹": 8499,
      "éģĩåĪ°äºĨ": 8500,
      "è¯´åĪ°": 8501,
      "è¿ľè¿ľ": 8502,
      "æĥħæ³ģ": 8503,
      "è¶ķ": 8504,
      "è¬Ĥ": 8505,
      "able": 8506,
      "è¦ģçĶ¨": 8507,
      "ank": 8508,
      "äºĶæľĪ": 8509,
      "å®ŀçļĦ": 8510,
      "å¹´åĲİ": 8511,
      "èīĺ": 8512,
      "ç¡¬ä»¶": 8513,
      "å±ŀæĢ§": 8514,
      "Ġ09": 8515,
      "ä¹Łä¸įèĥ½": 8516,
      "å¹²åĩĢ": 8517,
      "æĺ¯ä¸ºäºĨ": 8518,
      "åĪĨå¸ĥ": 8519,
      "èĥľåĪ©": 8520,
      "åĭĩæķ¢": 8521,
      "çļĦéķ¿": 8522,
      "æĪĳçľĭ": 8523,
      "å½¢æĢģ": 8524,
      "nbsp": 8525,
      "çī©çļĦ": 8526,
      "å¾Īä¸į": 8527,
      "è½¦åŃĲ": 8528,
      "å®īä¸ľ": 8529,
      "å®¢å®¶": 8530,
      "ICP": 8531,
      "Ġå¿ĥ": 8532,
      "Ġä¸İ": 8533,
      "çĽĳçĭ±": 8534,
      "çĦ°": 8535,
      "æ©ĭ": 8536,
      "çļĦéĺ¿": 8537,
      "è¡į": 8538,
      "çļĦçĶµå½±": 8539,
      "èĢĲå¿ĥ": 8540,
      "å®īè£Ŀ": 8541,
      "åĩĳ": 8542,
      "èĬ±äºĨ": 8543,
      "é¦Ļèķī": 8544,
      "çĶĦ": 8545,
      "æĹħéģĬ": 8546,
      "æĲħæĭĮ": 8547,
      "çĶµæºĲ": 8548,
      "æŃ£éĿ¢": 8549,
      "æŃ£ä¹ī": 8550,
      "æĢ»ç»ıçĲĨ": 8551,
      "éĢłæĪĲçļĦ": 8552,
      "Ġå¤ļ": 8553,
      "æ³ķçļĦ": 8554,
      "éħª": 8555,
      "åĨįæĿ¥": 8556,
      "name": 8557,
      "äººåĬĽ": 8558,
      "çĻ¾è´§": 8559,
      "å¾Īå¥½åĲĥ": 8560,
      "çĻĮçĹĩ": 8561,
      "èĤ¡ä¸ľ": 8562,
      "çŀª": 8563,
      "ä»¥åħį": 8564,
      "æĢİéº½åĬŀ": 8565,
      "ä¾Ŀèµĸ": 8566,
      "æ¡Įä¸Ĭ": 8567,
      "æĸ°äºº": 8568,
      "æĦ¤æĢĴ": 8569,
      "Ġby": 8570,
      "å®ĪæĬ¤": 8571,
      "åĭī": 8572,
      "å¥ĩå¹»": 8573,
      "åĽ½å®¶çļĦ": 8574,
      "åıĥåĬł": 8575,
      "é¢ĨåħĪ": 8576,
      "EN": 8577,
      "éĽĨä½ĵ": 8578,
      "ä¾Ŀçħ§": 8579,
      "æ±Łæ¹ĸ": 8580,
      "é£İåĳ³": 8581,
      "åĨ³çŃĸ": 8582,
      "è¿ĻæĹ¶åĢĻ": 8583,
      "ï¼ĮâĢĿ": 8584,
      "ä¸įæĦ¿": 8585,
      "âĹĭ": 8586,
      "çĥ¤èĤī": 8587,
      "per": 8588,
      "ç¾İæľ¯": 8589,
      "nbs": 8590,
      "éļ§éģĵ": 8591,
      "æĺ§": 8592,
      "Am": 8593,
      "ä»ĸä¹Ł": 8594,
      "ä¸Ĭæĺł": 8595,
      "soft": 8596,
      "å¤©æ´¥": 8597,
      "çģ«ç®Ń": 8598,
      "éª°": 8599,
      "åĽĽå¤Ħ": 8600,
      "å¸¦æľī": 8601,
      "æģĲæĢĸçļĦ": 8602,
      "ĠQ": 8603,
      "Ġåı¯ä»¥": 8604,
      "çĶµéĶ¯": 8605,
      "èľ¡": 8606,
      "æħ£": 8607,
      "åĲ¨": 8608,
      "ä¸Ģä½ĵ": 8609,
      "å¯¹å¤ĸ": 8610,
      "å°ĨæĿ¥": 8611,
      "å¸®ä½ł": 8612,
      "å½ĵåħµ": 8613,
      "æĿĢå®³": 8614,
      "ress": 8615,
      "åľ°éĵģ": 8616,
      "ç·©": 8617,
      "æ¨¡ç³Ĭ": 8618,
      "æłĳæŀĹ": 8619,
      "éĶ»": 8620,
      "å°Ħæīĭåº§": 8621,
      "åľ°éľĩ": 8622,
      "Ġ2011": 8623,
      "åı¯æĢķçļĦ": 8624,
      "å¸¸è§ĦèµĽ": 8625,
      "èĻĽ": 8626,
      "61": 8627,
      "å¥½çľĭ": 8628,
      "çī¹æĢ§": 8629,
      "æľĥæľī": 8630,
      "æĿĢäººçĭĤ": 8631,
      "èĳ¡èĲĦéħĴ": 8632,
      "è¿Ļä¹Łæĺ¯": 8633,
      "æĬ¥èŃ¦": 8634,
      "é´": 8635,
      "å¦Ħ": 8636,
      "éĴ®": 8637,
      "åħĪåĲİ": 8638,
      "æłĩçŃ¾": 8639,
      "éĤ£åĢĭ": 8640,
      "éĶ¡": 8641,
      "èĨĿ": 8642,
      "æĬĺæī£": 8643,
      "å±ģèĤ¡": 8644,
      "ies": 8645,
      "ç¹«": 8646,
      "äºĶä¸ª": 8647,
      "ä¸ĢæĶ¯": 8648,
      "ĠåĲį": 8649,
      "èĢĮåĩº": 8650,
      "æ²¡éĶĻ": 8651,
      "æĪĺå£«": 8652,
      "94": 8653,
      "ä¸Ģä¸ªäººçļĦ": 8654,
      "MS": 8655,
      "åĶ¸": 8656,
      "éłĵ": 8657,
      "ome": 8658,
      "AL": 8659,
      "éģ£": 8660,
      "çĶ³è«ĭ": 8661,
      "ä¸įåı¯ä»¥": 8662,
      "æ©¡": 8663,
      "èĸĽ": 8664,
      "æľºç¥¨": 8665,
      "åĪ©çİĩ": 8666,
      "åĩ¸": 8667,
      "æĹ¥è®°": 8668,
      "åīįæĿ¥": 8669,
      "æ±°": 8670,
      "æľºè½¦": 8671,
      "æĪ·å¤ĸ": 8672,
      "åĽĽåĳ¨": 8673,
      "çļĦé»ĳ": 8674,
      "èĩªåľ¨": 8675,
      "åı¬å¼Ģ": 8676,
      "å¤±çľł": 8677,
      "å£«åħµ": 8678,
      "Ġä¸ĭ": 8679,
      "ä¸Ģçķª": 8680,
      "è¯´å®Į": 8681,
      "äºīåıĸ": 8682,
      "çļĦåıĳ": 8683,
      "åľ°éĿ¢": 8684,
      "Ġinpost": 8685,
      "ç·¨è¼¯": 8686,
      "åľºçļĦ": 8687,
      "æĹĹä¸ĭ": 8688,
      "opyright": 8689,
      "å¤§æ¥¼": 8690,
      "æķŀ": 8691,
      "æ¸Ĭ": 8692,
      "æĵº": 8693,
      "ä»¥å¾Į": 8694,
      "æİĴéª¨": 8695,
      "çī¹åĪ«çļĦ": 8696,
      "è¾ľ": 8697,
      "åİŁçĲĨ": 8698,
      "ç²¾å¿ĥ": 8699,
      "æĺĩ": 8700,
      "è¿Ļå¼ł": 8701,
      "æĪĳåıª": 8702,
      "åıĭæĥħ": 8703,
      "åĽĽå¤§": 8704,
      "çªĥ": 8705,
      "åıĸä»£": 8706,
      "å°İèĩ´": 8707,
      "åĢ«": 8708,
      "èŃ¯": 8709,
      "è´Łæĭħ": 8710,
      "çłģå¤´": 8711,
      "Th": 8712,
      "åįģåŃĹ": 8713,
      "CEO": 8714,
      "æĬ¤å£«": 8715,
      "è¶ħå¸Ĥ": 8716,
      "çĽ¸ä¼¼": 8717,
      "èħ¸": 8718,
      "èİ²èĬ±": 8719,
      "åĴĮè°Ĳ": 8720,
      "ç»Ļå¥¹": 8721,
      "ä¸´æĹ¶": 8722,
      "è¾ĵåĩº": 8723,
      "éįĭ": 8724,
      "éĸ±è®Ģ": 8725,
      "çĤ¹äºĨ": 8726,
      "å¦ĤæŀľæĤ¨": 8727,
      "å®ĿçŁ³": 8728,
      "è·ĳåĪ°": 8729,
      "å½ĵæĪĳ": 8730,
      "ouse": 8731,
      "Fi": 8732,
      "ç¥ķ": 8733,
      "ä¸Ģæł·çļĦ": 8734,
      "åıĮçľ¼": 8735,
      "bsp": 8736,
      "Ġèĩª": 8737,
      "å¹¶æľª": 8738,
      "åĮºåĪ«": 8739,
      "éĽ¢éĸĭ": 8740,
      "å¼ĺ": 8741,
      "é©¬æĿ¥": 8742,
      "çļĤ": 8743,
      "åĴĮå°ı": 8744,
      "ĠæĤ¨": 8745,
      "æĪĲä¸ºäºĨ": 8746,
      "çŃīäºİ": 8747,
      "å¢ĥçķĮ": 8748,
      "å¨ģå°Ķ": 8749,
      "èľĤèľľ": 8750,
      "ï¼¢": 8751,
      "åİ»æī¾": 8752,
      "ãģ®": 8753,
      "èĬ¦": 8754,
      "æł¼åħ°": 8755,
      "ä¸ĬçıŃæĹı": 8756,
      "æłĪ": 8757,
      "çĶŁçĲĨ": 8758,
      "ä¸įè§ī": 8759,
      "ä»İæľª": 8760,
      "å¼ºå¤§": 8761,
      "ä¼¤å¿ĥ": 8762,
      "æŃ£ç¡®çļĦ": 8763,
      "æĹ¶æĬ¥": 8764,
      "ä¾Ĩèĩª": 8765,
      "æ¨Ļæºĸ": 8766,
      "Ġ22": 8767,
      "ä¹ĭåľ°": 8768,
      "éĿ¢åĲĳ": 8769,
      "ä¸Ģä¸ĭåŃĲ": 8770,
      "çļĦçĽ®çļĦ": 8771,
      "æĲŃä¹ĺ": 8772,
      "æľĢæĹ©": 8773,
      "cm": 8774,
      "ty": 8775,
      "æķ°ä½į": 8776,
      "air": 8777,
      "éĳ«": 8778,
      "ä¼ļè®¡": 8779,
      "èĩªçĦ¶çļĦ": 8780,
      "åħ¨æĸ°çļĦ": 8781,
      "æ¾Ħ": 8782,
      "éĥ¨èĲ½æł¼": 8783,
      "Ġå¯¹": 8784,
      "ä¸Ģæ®µæĹ¶éĹ´": 8785,
      "åľ¨åı°æ¹¾": 8786,
      "åħ¨æĸĩ": 8787,
      "è¯ĪéªĹ": 8788,
      "ld": 8789,
      "ton": 8790,
      "èīºæľ¯å®¶": 8791,
      "æĦıè¯ĨåĪ°": 8792,
      "çµĤæĸ¼": 8793,
      "æµ·æ»©": 8794,
      "å¹³æĹ¥": 8795,
      "å¿Ļç¢Į": 8796,
      "éĺ¿éĩĮå±±": 8797,
      "ey": 8798,
      "æĺ¯æĪĳä»¬": 8799,
      "æ²»çĲĨ": 8800,
      "åĬłå·ŀ": 8801,
      "æĦ£": 8802,
      "æĶ¶æĭ¾": 8803,
      "çłĤç³ĸ": 8804,
      "icrosoft": 8805,
      "æ°ĶçĲĥ": 8806,
      "ç»½æĶ¾": 8807,
      "æª¢æŁ¥": 8808,
      "å¯¦éļĽ": 8809,
      "æŃ¤åĪ»": 8810,
      "éķ¿å¤§": 8811,
      "éĢĻä¸Ģ": 8812,
      "æĿĥå¨ģ": 8813,
      "é«ĺæ½®": 8814,
      "åįģåĩł": 8815,
      "ä¸¤æ¬¡": 8816,
      "èĦĳè¢ĭ": 8817,
      "PM": 8818,
      "blog": 8819,
      "å¾·åįİ": 8820,
      "Ġä½ľ": 8821,
      "åıªæľīä¸Ģ": 8822,
      "çİ¯çĲĥ": 8823,
      "è°ĭæĿĢ": 8824,
      "ea": 8825,
      "å½ķå½±": 8826,
      "ç»³": 8827,
      "Ġ2015": 8828,
      "åĴĮå°ļ": 8829,
      "ĠèĢģ": 8830,
      "101": 8831,
      "åĩºçİ°çļĦ": 8832,
      "æĦŁçļĦ": 8833,
      "èĲ½çļĦ": 8834,
      "å¾®è½¯": 8835,
      "æ¢¦å¹»": 8836,
      "æĺİåįĩ": 8837,
      "çŁŃä¿¡": 8838,
      "çĪ¹": 8839,
      "æįŀ": 8840,
      "EC": 8841,
      "ake": 8842,
      "å¯¹æĬĹ": 8843,
      "åºĹéĿ¢": 8844,
      "åıªéľĢ": 8845,
      "ä¸īè§Ĵ": 8846,
      "åıĶåıĶ": 8847,
      "å®ĺæĸ¹ç½ĳ": 8848,
      "çłĶè®¨": 8849,
      "ä¸Ģè¾Ĩ": 8850,
      "èĴĻåı¤": 8851,
      "èł¢": 8852,
      "å¯¹èĩªå·±": 8853,
      "å¼Ģåħ³": 8854,
      "è¯ģå®ŀ": 8855,
      "ĠZ": 8856,
      "å°±åı¯": 8857,
      "å®¢åİħ": 8858,
      "çľ·": 8859,
      "ç¬¬ä¸ĢåŃ£": 8860,
      "ä»Ĭå¤©çļĦ": 8861,
      "çŃ±": 8862,
      "èİ¹": 8863,
      "å¹¸ç¦ıçļĦ": 8864,
      "çļĦæ¶Īæģ¯": 8865,
      "ens": 8866,
      "æĪĳçļĦå¿ĥ": 8867,
      "âĻ": 8868,
      "å®ļäºĨ": 8869,
      "è·¯æĺĵ": 8870,
      "å®īæħ°": 8871,
      "éļ¾å¾Ĺ": 8872,
      "çĶ·ä¸»è§Ĵ": 8873,
      "Ġåı°æ¹¾": 8874,
      "ä½ľçļĦ": 8875,
      "è¾ĥä¸º": 8876,
      "åĢ¡": 8877,
      "èªł": 8878,
      "æ¶Īéĺ²": 8879,
      "é¦ĸé¡µ": 8880,
      "mp": 8881,
      "ä¸ŃåŃ¦": 8882,
      "å·¥åķĨ": 8883,
      "æĮĩæķĻ": 8884,
      "æĶ¹è¿Ľ": 8885,
      "è¯ĨåĪ«": 8886,
      "ä¸įä»ħä»ħ": 8887,
      "å¤§å®¶å¥½": 8888,
      "Ġ21": 8889,
      "æ¹ĸäºº": 8890,
      "åı¯ä»¥åİ»": 8891,
      "æıĲåĲį": 8892,
      "éĨ¬": 8893,
      "æĩīçĶ¨": 8894,
      "åıĪä¸į": 8895,
      "igh": 8896,
      "æĮ£æīİ": 8897,
      "188": 8898,
      "ãĢĤãĢĮ": 8899,
      "ä¸ĢæĹ¶": 8900,
      "è§īå¾Ĺå¾Ī": 8901,
      "ç©¿çĿĢ": 8902,
      "åħļåĳĺ": 8903,
      "Wh": 8904,
      "éĻªä¼´": 8905,
      "åħīæĺİ": 8906,
      "åĦĴ": 8907,
      "æļ¨": 8908,
      "æŃ¡è¿İ": 8909,
      "æīĭæ¸¸": 8910,
      "æĮĩç¤º": 8911,
      "çķªèĮĦ": 8912,
      "ĠæīĢ": 8913,
      "æĸĩèīº": 8914,
      "æĮĩæĮ¥": 8915,
      "åı¤èĢģçļĦ": 8916,
      "ä¸ĢåĪ°": 8917,
      "æĽ´é«ĺ": 8918,
      "è½¬ç§»": 8919,
      "çķĶ": 8920,
      "åºķä¸ĭ": 8921,
      "æĸ¼æĺ¯": 8922,
      "æ¤°": 8923,
      "MB": 8924,
      "æ°´æĻ¶": 8925,
      "æľįé¥°": 8926,
      "æĪĳæľĢ": 8927,
      "ç¼¤": 8928,
      "å¤ĦçļĦ": 8929,
      "è¿Ļé¡¹": 8930,
      "éŁ¦": 8931,
      "èĬĤå¥ı": 8932,
      "èµĲ": 8933,
      "åĲİæĤĶ": 8934,
      "äº¤åıĭ": 8935,
      "èĥ½ä¸įèĥ½": 8936,
      "åħ¶ä¸ŃçļĦ": 8937,
      "ç¬¬åħŃ": 8938,
      "ä½µ": 8939,
      "æ¸ħçĲĨ": 8940,
      "é²į": 8941,
      "éĺ³åı°": 8942,
      "å¨±": 8943,
      "éĴĻ": 8944,
      "èĩªå·±åľ¨": 8945,
      "çļĦç²¾ç¥ŀ": 8946,
      "æŃ§": 8947,
      "åĢĭæľĪ": 8948,
      "äººçĶŁçļĦ": 8949,
      "æĥĬè®¶": 8950,
      "æľĢéĩįè¦ģçļĦ": 8951,
      "2001": 8952,
      "out": 8953,
      "æľīè®¸å¤ļ": 8954,
      "èİ«åĲį": 8955,
      "å¤§å®¶çļĦ": 8956,
      "æķħéļľ": 8957,
      "é¹ı": 8958,
      "å°±å¥½äºĨ": 8959,
      "ä¸»æľº": 8960,
      "çº¿çļĦ": 8961,
      "æĭ¿èµ·": 8962,
      "åħ«åįģ": 8963,
      "å¸Ĥä¸Ńå¿ĥ": 8964,
      "çĪª": 8965,
      "ä¸İæŃ¤": 8966,
      "åħ¥ä¾µ": 8967,
      "ä¹ħäºĨ": 8968,
      "èººåľ¨": 8969,
      "ĠæĿ¥": 8970,
      "æĶ¾å¤§": 8971,
      "æħ¢æħ¢çļĦ": 8972,
      "æ¢Ĺ": 8973,
      "éŃĶæľ¯å¸Ī": 8974,
      "çļĦä¿¡æģ¯": 8975,
      "æĹłæīĢ": 8976,
      "å°±å¼Ģå§ĭ": 8977,
      "lay": 8978,
      "éĩįéĩı": 8979,
      "å¾Ģä¸ĭ": 8980,
      "åĲ«éĩı": 8981,
      "Ġwww": 8982,
      "åĬłæĸ¯": 8983,
      "æ£º": 8984,
      "å¤ĸå¥Ĺ": 8985,
      "æĸ°å¢ŀ": 8986,
      "æĥ³éĹ®": 8987,
      "po": 8988,
      "Ġäºİ": 8989,
      "åĲĭ": 8990,
      "æľīä¸ī": 8991,
      "æ¸ħæĻ¨": 8992,
      "æ¾³å¤§åĪ©": 8993,
      "å§Ĩæĸ¯": 8994,
      "ï¼¤": 8995,
      "ä¸Ńç§ĭ": 8996,
      "åĬłå¤§": 8997,
      "æ£Ħ": 8998,
      "åĩłæ¬¡": 8999,
      "åĿĩåĮĢ": 9000,
      "éĢ¾": 9001,
      "çĭ¬å®¶": 9002,
      "èģļéĽĨ": 9003,
      "å½¦": 9004,
      "å¤ĸçķĮ": 9005,
      "æĮĩåįĹ": 9006,
      "åĤį": 9007,
      "é¨İ": 9008,
      "DS": 9009,
      "çļĦæĢģåº¦": 9010,
      "æĦŁæģ©": 9011,
      "åĪ°åºķæĺ¯": 9012,
      "èĤĮèĨļ": 9013,
      "æīĵæī®": 9014,
      "ä¸İäºº": 9015,
      "åı¤åħ¸": 9016,
      "åħ»çĶŁ": 9017,
      "ret": 9018,
      "å°±è¿ŀ": 9019,
      "èĳĹæĪĳ": 9020,
      "å¤ªå¤§": 9021,
      "çŁŃæļĤ": 9022,
      "ps": 9023,
      "å¥³ç¥ŀ": 9024,
      "æ²Ļåıĳ": 9025,
      "ĠäºĨ": 9026,
      "åı¯æĢľ": 9027,
      "åĲĳä¸Ĭ": 9028,
      "çĻ¼è¡¨": 9029,
      "çĭ®åŃĲ": 9030,
      "çļĦåŁºæľ¬": 9031,
      "æĳĨèĦ±": 9032,
      "çļĦå¾Ī": 9033,
      "ï¼ļ(": 9034,
      "åĲģ": 9035,
      "ä¸ĭæĸ¹": 9036,
      "æĬĬæĪĳ": 9037,
      "åĩŃåĢŁ": 9038,
      "ĠçĶŁ": 9039,
      "çļĦæľ¬": 9040,
      "åı¸æ³ķ": 9041,
      "å¯©": 9042,
      "ä¸įåĥħ": 9043,
      "å®¶å±ħ": 9044,
      "è¨Ńæĸ½": 9045,
      "éĺ¿éĩĮå·´å·´": 9046,
      "Ġæ°´æŀľæĹ¥æĬ¥": 9047,
      "åĵģåĳ³": 9048,
      "æ£ļ": 9049,
      "åĩºèī²": 9050,
      "å·²ç»ıæĺ¯": 9051,
      "-----": 9052,
      "çĻ»éĻĨ": 9053,
      "æĽ´æį¢": 9054,
      "æĸ¯ç§ĳ": 9055,
      "å©ī": 9056,
      "Ġ30": 9057,
      "çĶ¨åĬĽ": 9058,
      "éĢģå½©éĩĳ": 9059,
      "æµ·ä¸Ĭ": 9060,
      "é¢Ħçº¦": 9061,
      "ç©¿è¶Ĭ": 9062,
      "è¤²": 9063,
      "ä¸Ģåĳ¨": 9064,
      "æľīåľ¨": 9065,
      "æı®": 9066,
      "æ³¨æĦıåĪ°": 9067,
      "åīĸ": 9068,
      "å·¥ç¨ĭå¸Ī": 9069,
      "ç¼¤çº·": 9070,
      "çļĦè¿ĩç¨ĭä¸Ń": 9071,
      "åĬłä»¥": 9072,
      "è®¾ç«ĭ": 9073,
      "å°Ķå¤«": 9074,
      "ä¸Ģå®ļæĺ¯": 9075,
      "å¦ĥ": 9076,
      "æ»¡æ»¡": 9077,
      "åĥ¹åĢ¼": 9078,
      "åľ¨éĤ£éĩĮ": 9079,
      "tr": 9080,
      "åīįåĩłå¤©": 9081,
      "å¯ĨçļĦ": 9082,
      "çªĹåı£": 9083,
      "äºĮæīĭ": 9084,
      "çķĮéĿ¢": 9085,
      "èĲ¥æĶ¶": 9086,
      "ä¸Ģåº¦": 9087,
      "æ´»è·ĥ": 9088,
      "åĥ»": 9089,
      "åį³ä¾¿": 9090,
      "éº¥": 9091,
      "æĺ¯ä¸Ģéĥ¨": 9092,
      "å·´è¥¿": 9093,
      "æĬ¥å¤į": 9094,
      "å¯¹æĸ¹çļĦ": 9095,
      "å±¡": 9096,
      "æ¢³": 9097,
      "cn": 9098,
      "ä¸įçĶ±": 9099,
      "è¯ħ": 9100,
      "æĥ©": 9101,
      "è¿Ļä¸¤ä¸ª": 9102,
      "å¿ĥæĥ³": 9103,
      "è§ģè¯ģ": 9104,
      "ä½ĽæķĻ": 9105,
      ",ãĢĤ": 9106,
      "æĸ°æīĭ": 9107,
      "ana": 9108,
      "éĴĵèĻ¾": 9109,
      "æĻ¯åĮº": 9110,
      "Ġéĥ½": 9111,
      "å¯¡": 9112,
      "ä¸ĬåŃ¦": 9113,
      "åĪ¥äºº": 9114,
      "æĹ©æĻ¨": 9115,
      "éĹ®åį·": 9116,
      "ä¸¤å²¸": 9117,
      "ä»·ä½į": 9118,
      "å¹´è½»çļĦ": 9119,
      "éĻŀ": 9120,
      "çĶ¨éĢĶ": 9121,
      "è¢«ç§°ä¸º": 9122,
      "æ¸¸è®°": 9123,
      "è¥¿å®ī": 9124,
      "åĮĹæµ·": 9125,
      "äº¤åıī": 9126,
      "ç¨ļ": 9127,
      "æĿ°åħĭ": 9128,
      "åĽŀè¦Ĩ": 9129,
      "æŃ¦æ±ī": 9130,
      "éģŃåıĹ": 9131,
      "éİ®": 9132,
      "åĽŀæĶ¶": 9133,
      "TC": 9134,
      "çļĦé£Łçī©": 9135,
      "å¾Īæ£Ĵ": 9136,
      "éĩĳåĥı": 9137,
      "åı«æĪĳ": 9138,
      "æľŁéĸĵ": 9139,
      "æĪ¿åľ°äº§": 9140,
      "å¥ĹæĪ¿": 9141,
      "å¥¥è¿Ĳä¼ļ": 9142,
      "è²¸": 9143,
      "ä½ĵåĪ¶": 9144,
      "ä¸ĭä¸Ģä¸ª": 9145,
      "çģ¯åħī": 9146,
      "qq": 9147,
      "åĲĮæł·çļĦ": 9148,
      "æµ·åįĹ": 9149,
      "åĨ²çªģ": 9150,
      "å¦į": 9151,
      "åİŁæĸĩ": 9152,
      "çĶ¨æīĭ": 9153,
      "åħ¶æ¬¡": 9154,
      "éĺ¶çº§": 9155,
      "æĦıå¿Ĺ": 9156,
      "èģ²éŁ³": 9157,
      "æĬĬä»ĸ": 9158,
      "71": 9159,
      "FB": 9160,
      "åıĳè¨Ģ": 9161,
      "æīĵåį°": 9162,
      "çļĦéľĢæ±Ĥ": 9163,
      "éªĮè¯ģ": 9164,
      "åıĳçİ°èĩªå·±": 9165,
      "çļĦéĥ¨åĪĨ": 9166,
      "éĵĿ": 9167,
      "èįīåİŁ": 9168,
      "è®¢åįķ": 9169,
      "çıįçıł": 9170,
      "æªĶæ¡Ī": 9171,
      "æ¯ıäºº": 9172,
      "å¾·å·ŀ": 9173,
      "èĽĻ": 9174,
      "éĸĭçĻ¼": 9175,
      "åľ¨éĢĻ": 9176,
      "åĴı": 9177,
      "è¯´æ³ķ": 9178,
      "èªįèŃĺ": 9179,
      "ç²¾åĬĽ": 9180,
      "èĭ±åľĭ": 9181,
      "çµķå°į": 9182,
      "ç²¾ç·»": 9183,
      "å¨¶": 9184,
      "åįķè½¦": 9185,
      "å¥½åĥıæĺ¯": 9186,
      "âĦĥ": 9187,
      "åĮĸä¸º": 9188,
      "æĪªèĩ³": 9189,
      "èµ°è¿ĩ": 9190,
      "è¿Ļä»½": 9191,
      "éģĩä¸Ĭ": 9192,
      "çĭĢæ³ģ": 9193,
      "æĦŁåħ´è¶£": 9194,
      "çī¹å¾ģ": 9195,
      "æ½ĩ": 9196,
      "èĸ©": 9197,
      "Dav": 9198,
      "å¥¹åľ¨": 9199,
      "ä¸½çļĦ": 9200,
      "è¿Ļç±»": 9201,
      "èĬŃ": 9202,
      "åĦĺç®¡": 9203,
      "è¿ĺæľīä¸Ģ": 9204,
      "åĭķä½ľ": 9205,
      "æ²Ļé¾Ļ": 9206,
      "çģ¾éļ¾": 9207,
      "çĻ¾åĲĪ": 9208,
      "ime": 9209,
      "é¢ĦåĳĬ": 9210,
      "'s": 9211,
      "èµĽåŃ£NBAå¸¸è§ĦèµĽ": 9212,
      "my": 9213,
      "ä¹īåĬ¡": 9214,
      "æŃª": 9215,
      "åģ¶çĦ¶": 9216,
      "æĪĳåıĪ": 9217,
      "å¥¹æĺ¯": 9218,
      "åıįæĩī": 9219,
      "éĻĲéĩı": 9220,
      "è¯ħåĴĴ": 9221,
      "AC": 9222,
      "åıĳéĢģ": 9223,
      "åħ¨æ°ĳ": 9224,
      "åĲĪæł¼": 9225,
      "æµģåĬ¨": 9226,
      "è§īå¾Ĺèĩªå·±": 9227,
      "åĩ¯å°Ķçī¹": 9228,
      "ĠæĿİ": 9229,
      "Ġä¹ĭåīį": 9230,
      "çĮªèĤī": 9231,
      "è´ŀ": 9232,
      "åĪĩæĪĲ": 9233,
      "ef": 9234,
      "åľ¨æĦı": 9235,
      "åĵģç§į": 9236,
      "çĲī": 9237,
      "çĻ»å±±": 9238,
      "å½¢çĬ¶": 9239,
      "çĻ»è®°": 9240,
      "éĢĢåĩº": 9241,
      "æİĴåĪĹ": 9242,
      "GB": 9243,
      "Mich": 9244,
      "ï¼Ĥ": 9245,
      "æĥ³è¯·éĹ®": 9246,
      "åı°å¸ģ": 9247,
      "å¸ĮèħĬ": 9248,
      ").": 9249,
      "é¦Ļèıĩ": 9250,
      "ç®Ģç§°": 9251,
      "è¿Ŀæ³ķ": 9252,
      "å¤ĸè§Ĥ": 9253,
      "äº®çļĦ": 9254,
      "DIY": 9255,
      "æĹ±": 9256,
      "è¶³ä»¥": 9257,
      "åĵįèµ·": 9258,
      "åģ¥åº·çļĦ": 9259,
      "æ´ĽæĿī": 9260,
      "size": 9261,
      "åŃĲè£¡": 9262,
      "è§Ĩä¸º": 9263,
      "å·®è·Ŀ": 9264,
      "åªĴé«Ķ": 9265,
      "ï¼£": 9266,
      "èĩªè§ī": 9267,
      "åıĥèĢĥ": 9268,
      "å¿ħè¦ģçļĦ": 9269,
      "åįģåĽĽ": 9270,
      "ä»ĸåĢĳçļĦ": 9271,
      "example": 9272,
      "æĥħäººèĬĤ": 9273,
      "ä½įåľ¨": 9274,
      "ç¤ºèĮĥ": 9275,
      "åĵªä¸Ģç§į": 9276,
      "ä»ķ": 9277,
      "åĩºæīĭ": 9278,
      "éĥ¨ç½²": 9279,
      "ä¸¥éĩįçļĦ": 9280,
      "è¿Ļåº§": 9281,
      "é¤ħ": 9282,
      "ä½łçľĭ": 9283,
      "æĹ¥æľ¬çļĦ": 9284,
      "ä¹Łä¸įçŁ¥éģĵ": 9285,
      "ç»¼èīºèĬĤçĽ®": 9286,
      "èĩªåĭķ": 9287,
      "è¿ĩåº¦": 9288,
      "èĤĨ": 9289,
      "çī¹å®ļ": 9290,
      "æķĪçĽĬ": 9291,
      "Ġ01": 9292,
      "æĺ¯åı¯ä»¥": 9293,
      "æ¸£": 9294,
      "æ»·": 9295,
      "éĢīé¡¹": 9296,
      "çªĦ": 9297,
      "ç¾İåĽ½çļĦ": 9298,
      "éº»è¾£": 9299,
      "åĲĮåŃ¦ä»¬": 9300,
      "èµ°åľ°": 9301,
      "éĨĥ": 9302,
      "ä¿ĥéĶĢ": 9303,
      "æĻĤä»£": 9304,
      "æ´»åĬ¨çļĦ": 9305,
      "åħ¬åĬ¡åĳĺ": 9306,
      "è©©": 9307,
      "å·´å£«": 9308,
      "Ġr": 9309,
      "ç§ĳåŃ¸": 9310,
      "åħ¶ä»ĸäºº": 9311,
      "æ¾³å¤§åĪ©äºļ": 9312,
      "å¤§åİħ": 9313,
      "è¿ĻéĩĮçļĦ": 9314,
      "çļĦå¥³åĦ¿": 9315,
      "æĤ²ä¼¤": 9316,
      "æħ¶": 9317,
      "æĹ¥æĻļ": 9318,
      "è¥¿åĵ¥": 9319,
      "å°ıå¥³åŃ©": 9320,
      "ä¸ĵåĪ©": 9321,
      "è´¢äº§": 9322,
      "çº¿ä¸Ĭå¨±ä¹ĲåŁİ": 9323,
      "éģµå®Ī": 9324,
      "éĩĳé¢Ŀ": 9325,
      "å¤įåħ´": 9326,
      "åľ¨è¿Ļè£¡": 9327,
      "ĠçĪ±": 9328,
      "æĪĳå·²ç»ı": 9329,
      "ä¸Ģä¸ªä¸ª": 9330,
      "éºŁ": 9331,
      "éĥ¨éķ¿": 9332,
      "æ¨¡æł·": 9333,
      "å¤´ä¸Ĭ": 9334,
      "åº¸": 9335,
      "æĿĲè´¨": 9336,
      "è¨İè«ĸ": 9337,
      "ä¸Ģç¨®": 9338,
      "éĥµ": 9339,
      "åıªä¸įè¿ĩ": 9340,
      "éĿŀåĩ¡": 9341,
      "è«¾": 9342,
      "Ġåľ°": 9343,
      "æĬ¤çĲĨ": 9344,
      "erved": 9345,
      "å½ĵä¸ĭ": 9346,
      "èĬĤæĹ¥": 9347,
      "ç«¯çļĦ": 9348,
      "è±Ĳå¯Į": 9349,
      "è¯´è¿ĩ": 9350,
      "å·²è¢«": 9351,
      "åĩ¯å°Ķçī¹äºº": 9352,
      "å¹³çŃī": 9353,
      "åĸ§": 9354,
      "å±±åĮº": 9355,
      "ç«¥å¹´": 9356,
      "å±Ĥæ¬¡": 9357,
      "ãĢįï¼Ī": 9358,
      "åĮĹäº¬å¸Ĥ": 9359,
      "å°±æ²¡æľī": 9360,
      "æĺİéĻŀ": 9361,
      "è®¾è®¡çļĦ": 9362,
      "æİ¥æĶ¶": 9363,
      "åįĬå¤©": 9364,
      "æĹ¶æľº": 9365,
      "ä¹ĭäºº": 9366,
      "è°ĥèĬĤ": 9367,
      "å¡Į": 9368,
      "John": 9369,
      "å¹´è¼ķ": 9370,
      "ĠHotel": 9371,
      "çļĦç»ĵæŀľ": 9372,
      "å°±æŃ¤": 9373,
      "è¯¾åłĤ": 9374,
      "è¥¿åħ°": 9375,
      "å¯ĨåĪĩ": 9376,
      "play": 9377,
      "ä¹ĭä¸Ĭ": 9378,
      "å¯¹ä¸įèµ·": 9379,
      "ä¼łéĢĴ": 9380,
      "æĢ»éĥ¨": 9381,
      "çļĦæĦıæĢĿ": 9382,
      "ä¼ļè®©": 9383,
      "æ£ĢéªĮ": 9384,
      "æĪĺåľº": 9385,
      "è¿Ļåı¥è¯Ŀ": 9386,
      "éĺ±": 9387,
      "æıĲèµ·": 9388,
      "å£«å°¼": 9389,
      "è¶³çĲĥçĽĺåı£": 9390,
      "ç´§æĢ¥": 9391,
      "åıĥèĪĩ": 9392,
      "å®īå¾·": 9393,
      "ä¸Ģèµ·æĿ¥": 9394,
      "åŀ¢": 9395,
      "è¿ľçļĦ": 9396,
      "Gr": 9397,
      "ä½įæĸ¼": 9398,
      "å¤ªåŃĲ": 9399,
      "æĳ©æīĺ": 9400,
      "é£Ļ": 9401,
      "ç¥ŀçļĦ": 9402,
      "ä¾Ŀæ³ķ": 9403,
      "éĢĶå¾Ħ": 9404,
      "çļĦéĢŁåº¦": 9405,
      "åĴ§": 9406,
      "åĮ¿": 9407,
      "æĸ°æµª": 9408,
      "å¨ħ": 9409,
      "èĨł": 9410,
      "é«ĺéĢŁåħ¬è·¯": 9411,
      "çĽ´è§ī": 9412,
      "æĭ¦": 9413,
      "å»ºéĢł": 9414,
      "ç´łè¿ĺçľŁ": 9415,
      "ä»ĸè¿ĺ": 9416,
      "åĽ¾æĸĩ": 9417,
      "éļ¾åº¦": 9418,
      "æ´Ĺæīĭ": 9419,
      "è¶£åĳ³": 9420,
      "åĮĹäº¬æĹ¶éĹ´": 9421,
      "çĨŁæĤīçļĦ": 9422,
      "å¤©ç§¤åº§": 9423,
      "çĶŁæŃ»": 9424,
      "è·ª": 9425,
      "è·ŁæĪĳè¯´": 9426,
      "éħĴåºĹçļĦ": 9427,
      "ç§ĭå¤©": 9428,
      "çļĦçĻ½": 9429,
      "çļĦæķ°æį®": 9430,
      "æľĽèĳĹ": 9431,
      "è¿ªå£«å°¼": 9432,
      "ĠåĲĦä½į": 9433,
      "å®Ľ": 9434,
      "çĶŁçĶ¢": 9435,
      "åŃ¦ä½į": 9436,
      "æĭŃ": 9437,
      "èŁĳ": 9438,
      "çļĦåĲĮ": 9439,
      "çļĦç©ºéĹ´": 9440,
      "å°ıæ¸¸æĪı": 9441,
      "éģĹäº§": 9442,
      "ï½ľ": 9443,
      "å¢¨è¥¿åĵ¥": 9444,
      "min": 9445,
      "ä¸įå¥½æĦıæĢĿ": 9446,
      "æ¯ıæľĪ": 9447,
      "èĵ®": 9448,
      "å¿ĥä¸ŃçļĦ": 9449,
      "pr": 9450,
      "çĦļ": 9451,
      "é¢¨æł¼": 9452,
      "æĭĵå±ķ": 9453,
      "Ġ+": 9454,
      "åįģä¹Ŀ": 9455,
      "åħĭèİ±": 9456,
      "ä¸½ä¸Ŀ": 9457,
      "ç¬¬äºĮæ¬¡": 9458,
      "be": 9459,
      "åĪ¹": 9460,
      "ä¹Ĳè§Ĥ": 9461,
      "æĪĳä»¬æĺ¯": 9462,
      "è·ĿéĽ¢": 9463,
      "èĬĿéº»": 9464,
      "èĹīçĶ±": 9465,
      "åº«": 9466,
      "å±ĤçļĦ": 9467,
      "Un": 9468,
      "éļ¾å¿ĺ": 9469,
      "èĽĽ": 9470,
      "èº«ä¸ĬçļĦ": 9471,
      "åº¦è¿ĩ": 9472,
      "ç¼Ĩ": 9473,
      "ç§ĳçłĶ": 9474,
      "éĵ¶æ²³": 9475,
      "æ±¤å§Ĩ": 9476,
      "æĮª": 9477,
      "æĹ¥çĽĬ": 9478,
      "éĿ¢åħ·": 9479,
      "æĿĳæ°ĳ": 9480,
      "åĴĮæľĭåıĭ": 9481,
      "åĪĽå§ĭ": 9482,
      "éĻ·éĺ±": 9483,
      "å¹´åĪĿ": 9484,
      "ä¿ı": 9485,
      "èĦĬ": 9486,
      "ä¾¿å½ĵ": 9487,
      "æĸĹäºī": 9488,
      "Ġåĩº": 9489,
      "ara": 9490,
      "ä¸»æµģ": 9491,
      "åį´ä¸į": 9492,
      "åĻ¨å®ĺ": 9493,
      "äº²çĪ±çļĦ": 9494,
      "åģĩè®¾": 9495,
      "ç©¿ä¸Ĭ": 9496,
      "åħ¬è½¦": 9497,
      "å¯¿åı¸": 9498,
      "Rob": 9499,
      "çļĦæŃĮ": 9500,
      "ä¸ŃæŃ£": 9501,
      "è¾¹ç¼ĺ": 9502,
      "åģļå¾Ĺ": 9503,
      "åİŁä¾Ĩ": 9504,
      "na": 9505,
      "æ©Ħ": 9506,
      "æĢ»ä½ĵ": 9507,
      "åł±å°İ": 9508,
      "ä¿¯": 9509,
      "éĴĵçĤ¹": 9510,
      "éĢĽè¡Ĺ": 9511,
      "Ġä¼ļ": 9512,
      "æĪĳä¸Ģ": 9513,
      "ç²¾åįİ": 9514,
      "åģĩçļĦ": 9515,
      "ä¸Ģé¡µä¹¦": 9516,
      "ä¸ĭéĿ¢çļĦ": 9517,
      "æ´©": 9518,
      "æ¯Ķèµ·": 9519,
      "çīĽèĤīéºµ": 9520,
      "ä¸ĵå±ŀ": 9521,
      "çŁŃçŁŃ": 9522,
      "åĬį": 9523,
      "çļĦåı¯èĥ½": 9524,
      "æĸ°èģŀ": 9525,
      "å·®åĪ«": 9526,
      "èļģ": 9527,
      "ä¸Ńå¹´": 9528,
      "æ¯¯": 9529,
      "çº¢èī²çļĦ": 9530,
      "å¤įæ´»": 9531,
      "æĺŃ": 9532,
      "ä¿Ŀå®ī": 9533,
      "åįĥå¹´": 9534,
      "å®ŀåľ¨æĺ¯": 9535,
      "é»ĳçĻ½": 9536,
      "rt": 9537,
      "åĲįäºº": 9538,
      "èıľåįķ": 9539,
      "å¤§çīĩ": 9540,
      "åĲĮæ¨£": 9541,
      "éĽĨåĲĪ": 9542,
      "æĲŀç¬ĳ": 9543,
      "æľ¬åľŁ": 9544,
      "åĮħåĮħ": 9545,
      "123": 9546,
      "è¯Ħçº§": 9547,
      "ç²īä¸ĿåĽ¢": 9548,
      "éĢĤçĶ¨": 9549,
      "ãĦ§": 9550,
      "è¿Ŀåıį": 9551,
      "å¦ĸæĢª": 9552,
      "åĽ¾æ¡Ī": 9553,
      "Ġal": 9554,
      "è¾½": 9555,
      "å´©æºĥ": 9556,
      "çļĦå¼Ģ": 9557,
      "è®©æĤ¨": 9558,
      "æ¦Ħ": 9559,
      "åĩºæĿ¥äºĨ": 9560,
      "çĽĽå¼Ģ": 9561,
      "é¡¾éĹ®": 9562,
      "ĠThe": 9563,
      "åīįè¾Ī": 9564,
      "èĢģå¤§": 9565,
      "ä½İäºİ": 9566,
      "old": 9567,
      "blue": 9568,
      "åįģä¸ĥ": 9569,
      "ç»´å¤ļ": 9570,
      "ä¸įæĪĲ": 9571,
      "ç»Ļèĩªå·±": 9572,
      "çŁŃæľŁ": 9573,
      "VR": 9574,
      "ä¸įæĺĵ": 9575,
      "æĮĩçĶ²": 9576,
      "ä¸Ģæľ¬": 9577,
      "è£Ķ": 9578,
      "åĲĦåĽ½": 9579,
      "æĽ¾åľ¨": 9580,
      "æĭ¿èĳĹ": 9581,
      "æĲºå¸¦": 9582,
      "ä¹ĭç¾İ": 9583,
      "çīĻé½¿": 9584,
      "æĦ§": 9585,
      "................................": 9586,
      "æĮģçºĮ": 9587,
      "ence": 9588,
      "ç§¯ç´¯": 9589,
      "éĨ«éĻ¢": 9590,
      "å½¼å¾Ĺ": 9591,
[...]
