{
  "version": "1.0",
  "truncation": null,
  "padding": null,
  "added_tokens": [
    {
      "id": 0,
      "content": "<s>",
      "single_word": false,
      "lstrip": false,
      "rstrip": false,
      "normalized": false,
      "special": true
    },
    {
      "id": 1,
      "content": "<pad>",
      "single_word": false,
      "lstrip": false,
      "rstrip": false,
      "normalized": false,
      "special": true
    },
    {
      "id": 2,
      "content": "</s>",
      "single_word": false,
      "lstrip": false,
      "rstrip": false,
      "normalized": false,
      "special": true
    },
    {
      "id": 3,
      "content": "<unk>",
      "single_word": false,
      "lstrip": false,
      "rstrip": false,
      "normalized": false,
      "special": true
    },
    {
      "id": 4,
      "content": "<mask>",
      "single_word": false,
      "lstrip": false,
      "rstrip": false,
      "normalized": false,
      "special": true
    }
  ],
  "normalizer": null,
  "pre_tokenizer": {
    "type": "ByteLevel",
    "add_prefix_space": true,
    "trim_offsets": true,
    "use_regex": true
  },
  "post_processor": {
    "type": "TemplateProcessing",
    "single": [
      {
        "SpecialToken": {
          "id": "<s>",
          "type_id": 0
        }
      },
      {
        "Sequence": {
          "id": "A",
          "type_id": 0
        }
      },
      {
        "SpecialToken": {
          "id": "</s>",
          "type_id": 0
        }
      }
    ],
    "pair": [
      {
        "SpecialToken": {
          "id": "<s>",
          "type_id": 0
        }
      },
      {
        "Sequence": {
          "id": "A",
          "type_id": 0
        }
      },
      {
        "SpecialToken": {
          "id": "</s>",
          "type_id": 0
        }
      },
      {
        "SpecialToken": {
          "id": "</s>",
          "type_id": 0
        }
      },
      {
        "Sequence": {
          "id": "B",
          "type_id": 0
        }
      },
      {
        "SpecialToken": {
          "id": "</s>",
          "type_id": 0
        }
      }
    ],
    "special_tokens": {
      "</s>": {
        "id": "</s>",
        "ids": [
          2
        ],
        "tokens": [
          "</s>"
        ]
      },
      "<s>": {
        "id": "<s>",
        "ids": [
          0
        ],
        "tokens": [
          "<s>"
        ]
      }
    }
  },
  "decoder": {
    "type": "ByteLevel",
    "add_prefix_space": true,
    "trim_offsets": true,
    "use_regex": true
  },
  "model": {
    "type": "BPE",
    "dropout": null,
    "unk_token": "<unk>",
    "continuing_subword_prefix": null,
    "end_of_word_suffix": null,
    "fuse_unk": false,
    "byte_fallback": false,
    "ignore_merges": false,
    "vocab": {
      "<s>": 0,
      "<pad>": 1,
      "</s>": 2,
      "<unk>": 3,
      "<mask>": 4,
      "!": 5,
      "\"": 6,
      "#": 7,
      "$": 8,
      "%": 9,
      "&": 10,
      "'": 11,
      "(": 12,
      ")": 13,
      "*": 14,
      "+": 15,
      ",": 16,
      "-": 17,
      ".": 18,
      "/": 19,
      "0": 20,
      "1": 21,
      "2": 22,
      "3": 23,
      "4": 24,
      "5": 25,
      "6": 26,
      "7": 27,
      "8": 28,
      "9": 29,
      ":": 30,
      ";": 31,
      "<": 32,
      "=": 33,
      ">": 34,
      "?": 35,
      "@": 36,
      "A": 37,
      "B": 38,
      "C": 39,
      "D": 40,
      "E": 41,
      "F": 42,
      "G": 43,
      "H": 44,
      "I": 45,
      "J": 46,
      "K": 47,
      "L": 48,
      "M": 49,
      "N": 50,
      "O": 51,
      "P": 52,
      "Q": 53,
      "R": 54,
      "S": 55,
      "T": 56,
      "U": 57,
      "V": 58,
      "W": 59,
      "X": 60,
      "Y": 61,
      "Z": 62,
      "[": 63,
      "\\": 64,
      "]": 65,
      "^": 66,
      "_": 67,
      "`": 68,
      "a": 69,
      "b": 70,
      "c": 71,
      "d": 72,
      "e": 73,
      "f": 74,
      "g": 75,
      "h": 76,
      "i": 77,
      "j": 78,
      "k": 79,
      "l": 80,
      "m": 81,
      "n": 82,
      "o": 83,
      "p": 84,
      "q": 85,
      "r": 86,
      "s": 87,
      "t": 88,
      "u": 89,
      "v": 90,
      "w": 91,
      "x": 92,
      "y": 93,
      "z": 94,
      "{": 95,
      "|": 96,
      "}": 97,
      "~": 98,
      "¡": 99,
      "¢": 100,
      "£": 101,
      "¤": 102,
      "¥": 103,
      "¦": 104,
      "§": 105,
      "¨": 106,
      "©": 107,
      "ª": 108,
      "«": 109,
      "¬": 110,
      "®": 111,
      "¯": 112,
      "°": 113,
      "±": 114,
      "²": 115,
      "³": 116,
      "´": 117,
      "µ": 118,
      "¶": 119,
      "·": 120,
      "¸": 121,
      "¹": 122,
      "º": 123,
      "»": 124,
      "¼": 125,
      "½": 126,
      "¾": 127,
      "¿": 128,
      "À": 129,
      "Á": 130,
      "Â": 131,
      "Ã": 132,
      "Ä": 133,
      "Å": 134,
      "Æ": 135,
      "Ç": 136,
      "È": 137,
      "É": 138,
      "Ê": 139,
      "Ë": 140,
      "Ì": 141,
      "Í": 142,
      "Î": 143,
      "Ï": 144,
      "Ð": 145,
      "Ñ": 146,
      "Ò": 147,
      "Ó": 148,
      "Ô": 149,
      "Õ": 150,
      "Ö": 151,
      "×": 152,
      "Ø": 153,
      "Ù": 154,
      "Ú": 155,
      "Û": 156,
      "Ü": 157,
      "Ý": 158,
      "Þ": 159,
      "ß": 160,
      "à": 161,
      "á": 162,
      "â": 163,
      "ã": 164,
      "ä": 165,
      "å": 166,
      "æ": 167,
      "ç": 168,
      "è": 169,
      "é": 170,
      "ê": 171,
      "ë": 172,
      "ì": 173,
      "í": 174,
      "î": 175,
      "ï": 176,
      "ð": 177,
      "ñ": 178,
      "ò": 179,
      "ó": 180,
      "ô": 181,
      "õ": 182,
      "ö": 183,
      "÷": 184,
      "ø": 185,
      "ù": 186,
      "ú": 187,
      "û": 188,
      "ü": 189,
      "ý": 190,
      "þ": 191,
      "ÿ": 192,
      "Ā": 193,
      "ā": 194,
      "Ă": 195,
      "ă": 196,
      "Ą": 197,
      "ą": 198,
      "Ć": 199,
      "ć": 200,
      "Ĉ": 201,
      "ĉ": 202,
      "Ċ": 203,
      "ċ": 204,
      "Č": 205,
      "č": 206,
      "Ď": 207,
      "ď": 208,
      "Đ": 209,
      "đ": 210,
      "Ē": 211,
      "ē": 212,
      "Ĕ": 213,
      "ĕ": 214,
      "Ė": 215,
      "ė": 216,
      "Ę": 217,
      "ę": 218,
      "Ě": 219,
      "ě": 220,
      "Ĝ": 221,
      "ĝ": 222,
      "Ğ": 223,
      "ğ": 224,
      "Ġ": 225,
      "ġ": 226,
      "Ģ": 227,
      "ģ": 228,
      "Ĥ": 229,
      "ĥ": 230,
      "Ħ": 231,
      "ħ": 232,
      "Ĩ": 233,
      "ĩ": 234,
      "Ī": 235,
      "ī": 236,
      "Ĭ": 237,
      "ĭ": 238,
      "Į": 239,
      "į": 240,
      "İ": 241,
      "ı": 242,
      "Ĳ": 243,
      "ĳ": 244,
      "Ĵ": 245,
      "ĵ": 246,
      "Ķ": 247,
      "ķ": 248,
      "ĸ": 249,
      "Ĺ": 250,
      "ĺ": 251,
      "Ļ": 252,
      "ļ": 253,
      "Ľ": 254,
      "ľ": 255,
      "Ŀ": 256,
      "ŀ": 257,
      "Ł": 258,
      "ł": 259,
      "Ń": 260,
      "an": 261,
      "Ġd": 262,
      "er": 263,
      "en": 264,
      "Ġm": 265,
      "ar": 266,
      "ang": 267,
      "at": 268,
      "Ġs": 269,
      "la": 270,
      "Ġp": 271,
      "in": 272,
      "Ġk": 273,
      "ak": 274,
      "Ġb": 275,
      "Ġt": 276,
      "as": 277,
      "un": 278,
      "em": 279,
      "ah": 280,
      "ya": 281,
      "Ġdi": 282,
      "ad": 283,
      "eng": 284,
      "kan": 285,
      "Ġy": 286,
      "al": 287,
      "Ġyang": 288,
      "tu": 289,
      "Ġse": 290,
      "am": 291,
      "is": 292,
      "ap": 293,
      "ik": 294,
      "Ġdan": 295,
      "ala": 296,
      "Ġke": 297,
      "Ġmen": 298,
      "it": 299,
      "Ġber": 300,
      "on": 301,
      "ing": 302,
      "or": 303,
      "us": 304,
      "ga": 305,
      "Ġh": 306,
      "nya": 307,
      "es": 308,
      "ur": 309,
      "Ġter": 310,
      "akan": 311,
      "el": 312,
      "id": 313,
      "ĠS": 314,
      "ut": 315,
      "il": 316,
      "ĠP": 317,
      "Ġmem": 318,
      "ada": 319,
      "ari": 320,
      "um": 321,
      "ek": 322,
      "eb": 323,
      "Ġper": 324,
      "ĠA": 325,
      "ir": 326,
      "ela": 327,
      "engan": 328,
      "uk": 329,
      "Ġin": 330,
      "Ġj": 331,
      "ung": 332,
      "ti": 333,
      "ara": 334,
      "alam": 335,
      "asi": 336,
      "Ġmeng": 337,
      "Ġl": 338,
      "ĠM": 339,
      "et": 340,
      "tuk": 341,
      "Ġdengan": 342,
      "ĠK": 343,
      "ul": 344,
      "ol": 345,
      "si": 346,
      "ba": 347,
      "gi": 348,
      "ata": 349,
      "ĠB": 350,
      "ia": 351,
      "Ġr": 352,
      "Ġun": 353,
      "im": 354,
      "up": 355,
      "ih": 356,
      "Ġuntuk": 357,
      "âĢ": 358,
      "ud": 359,
      "ĠD": 360,
      "Ġpen": 361,
      "ĠT": 362,
      "Ġini": 363,
      "alah": 364,
      "Ġla": 365,
      "Ġdari": 366,
      "Ġdalam": 367,
      "itu": 368,
      "om": 369,
      "Ġc": 370,
      "uh": 371,
      "ĠI": 372,
      "Ġ(": 373,
      "ab": 374,
      "ai": 375,
      "Ġn": 376,
      "idak": 377,
      "da": 378,
      "per": 379,
      "emb": 380,
      "lah": 381,
      "eh": 382,
      "Ġtidak": 383,
      "Ġmer": 384,
      "ta": 385,
      "anya": 386,
      "wa": 387,
      "ro": 388,
      "adi": 389,
      "apat": 390,
      "Ġad": 391,
      "Ġg": 392,
      "Ġan": 393,
      "Ġba": 394,
      "angan": 395,
      "atan": 396,
      "Ġpada": 397,
      "ukan": 398,
      "ja": 399,
      "Ġitu": 400,
      "ama": 401,
      "Ġa": 402,
      "ok": 403,
      "Ġata": 404,
      "ian": 405,
      "orang": 406,
      "aya": 407,
      "ed": 408,
      "amp": 409,
      "Ġmemb": 410,
      "Ġatau": 411,
      "ep": 412,
      "Ġadalah": 413,
      "ent": 414,
      "atu": 415,
      "baga": 416,
      "ita": 417,
      "ana": 418,
      "asa": 419,
      "Ġf": 420,
      "Ġw": 421,
      "Ġpeng": 422,
      "lu": 423,
      "Ġakan": 424,
      "ikan": 425,
      "eg": 426,
      "ub": 427,
      "ĠJ": 428,
      "Ġ1": 429,
      "jadi": 430,
      "ĠH": 431,
      "ĠR": 432,
      "end": 433,
      "oleh": 434,
      "ot": 435,
      "ter": 436,
      "Ġdapat": 437,
      "bagai": 438,
      "Ġbah": 439,
      "uan": 440,
      "tr": 441,
      "ena": 442,
      "ĠN": 443,
      "seb": 444,
      "..": 445,
      "ib": 446,
      "Ġkar": 447,
      "elah": 448,
      "ĠC": 449,
      "ati": 450,
      "and": 451,
      "Ġ2": 452,
      "ika": 453,
      "yak": 454,
      "ua": 455,
      "aran": 456,
      "os": 457,
      "Ġoleh": 458,
      "apa": 459,
      "Ġkep": 460,
      "sebut": 461,
      "emp": 462,
      "uga": 463,
      "amb": 464,
      "Ġpro": 465,
      "Ġsa": 466,
      "ĠIn": 467,
      "ĠL": 468,
      "Ġmas": 469,
      "ebih": 470,
      "ali": 471,
      "isi": 472,
      "inya": 473,
      "Ġak": 474,
      "eka": 475,
      "Ġpem": 476,
      "ila": 477,
      "Ġjuga": 478,
      "ant": 479,
      "Ġsebagai": 480,
      "ahan": 481,
      "Ġsek": 482,
      "ĠâĢ": 483,
      "isa": 484,
      "Ġorang": 485,
      "00": 486,
      "cara": 487,
      "Ġmeny": 488,
      "Ġhar": 489,
      "Ġada": 490,
      "Ġlain": 491,
      "angk": 492,
      "Ġmenjadi": 493,
      "angg": 494,
      "Ġseb": 495,
      "ĠG": 496,
      "aw": 497,
      "ip": 498,
      "ĠU": 499,
      "gun": 500,
      "Ġkita": 501,
      "Ġser": 502,
      "Ġtersebut": 503,
      "Ġlebih": 504,
      "api": 505,
      "ku": 506,
      "udah": 507,
      "Ġmela": 508,
      "ĠAn": 509,
      "ula": 510,
      "Ġsem": 511,
      "Ġkarena": 512,
      "ingk": 513,
      "od": 514,
      "ma": 515,
      "Ġbisa": 516,
      "kukan": 517,
      "aan": 518,
      "ungan": 519,
      "Ġkem": 520,
      "Ġmereka": 521,
      "uat": 522,
      "iri": 523,
      "aj": 524,
      "uj": 525,
      "Ġmak": 526,
      "perti": 527,
      "ber": 528,
      "alan": 529,
      "Ġtah": 530,
      "Ġkon": 531,
      "Ġo": 532,
      "ĠAl": 533,
      "âĢĿ": 534,
      "Ġbagi": 535,
      "yar": 536,
      "Ġmend": 537,
      "ist": 538,
      "Ġmel": 539,
      "itas": 540,
      "Ġbahwa": 541,
      "Ġker": 542,
      "Ġban": 543,
      "omp": 544,
      "Ġsu": 545,
      "Ġpend": 546,
      "Ġpemb": 547,
      "Ùİ": 548,
      "utu": 549,
      "ind": 550,
      "Ġkes": 551,
      "ong": 552,
      "ri": 553,
      "Ġ:": 554,
      "atas": 555,
      "ilik": 556,
      "int": 557,
      "ingga": 558,
      "gunakan": 559,
      "angat": 560,
      "asil": 561,
      "Ġseperti": 562,
      "Ġsecara": 563,
      "Ġtelah": 564,
      "anj": 565,
      "AN": 566,
      "ĠF": 567,
      "Ġdik": 568,
      "ĠW": 569,
      "ĠPer": 570,
      "Ġsatu": 571,
      "arkan": 572,
      "ac": 573,
      "upakan": 574,
      "Ġdis": 575,
      "Ġmenc": 576,
      "Ġses": 577,
      "Ġharus": 578,
      "oh": 579,
      "ĠInd": 580,
      "Ġkepada": 581,
      "og": 582,
      "ag": 583,
      "Ġsaya": 584,
      "ami": 585,
      "Ġmerupakan": 586,
      "had": 587,
      "Ġseh": 588,
      ").": 589,
      "ones": 590,
      "Ġberk": 591,
      "entu": 592,
      "unya": 593,
      "ĠE": 594,
      "ĠO": 595,
      "Ġsudah": 596,
      "ew": 597,
      "uran": 598,
      "sa": 599,
      "onesia": 600,
      "orm": 601,
      "Ġpr": 602,
      "Ġbanyak": 603,
      "Ġag": 604,
      "iliki": 605,
      "Ġman": 606,
      "Ġsangat": 607,
      "Ġtahun": 608,
      "usia": 609,
      "Ġya": 610,
      "idup": 611,
      "elaj": 612,
      "angkan": 613,
      "akat": 614,
      "empat": 615,
      "Ġben": 616,
      "esar": 617,
      "ses": 618,
      "uah": 619,
      "ĠAnda": 620,
      "Ġhal": 621,
      "Ġtan": 622,
      "ĠY": 623,
      "Ġkeb": 624,
      "eri": 625,
      "ec": 626,
      "Ġbaik": 627,
      "Ġdib": 628,
      "aman": 629,
      "usah": 630,
      "op": 631,
      "Ġsela": 632,
      "ĠâĢľ": 633,
      "Ġsed": 634,
      "ĠIndonesia": 635,
      "Ġal": 636,
      "imp": 637,
      "Ġdit": 638,
      "arah": 639,
      "asan": 640,
      "Ġhanya": 641,
      "Ġtet": 642,
      "Ġv": 643,
      "onal": 644,
      "asih": 645,
      "Ġbeb": 646,
      "Ġbar": 647,
      "Ġsel": 648,
      "Ġmaka": 649,
      "ihat": 650,
      "elum": 651,
      "Ġma": 652,
      "ra": 653,
      "Ġant": 654,
      "uhan": 655,
      "erapa": 656,
      "lam": 657,
      "ic": 658,
      "Ġas": 659,
      "Ġdim": 660,
      "Ġanak": 661,
      "Ġmemiliki": 662,
      "ob": 663,
      "Ġtent": 664,
      "yarakat": 665,
      "Ġket": 666,
      "ungk": 667,
      "Ġdila": 668,
      "Ġdip": 669,
      "Ġyaitu": 670,
      "if": 671,
      "art": 672,
      "egara": 673,
      "Ġsaat": 674,
      "Ġsuatu": 675,
      "inan": 676,
      "san": 677,
      "Ġbers": 678,
      "Ġpert": 679,
      "ikut": 680,
      "Ġanda": 681,
      "hadap": 682,
      "hir": 683,
      "Ġberb": 684,
      "ay": 685,
      "Ġatas": 686,
      "anan": 687,
      "Ġpas": 688,
      "pa": 689,
      "ota": 690,
      "atkan": 691,
      "Ġmasyarakat": 692,
      "Ġmengh": 693,
      "gan": 694,
      "Ġpara": 695,
      "Ġ3": 696,
      "apan": 697,
      "Ġbi": 698,
      "Ġsamp": 699,
      "Ġsehingga": 700,
      "âĢĻ": 701,
      "Ġsaja": 702,
      "duk": 703,
      "ikasi": 704,
      "erah": 705,
      "upun": 706,
      "Ġmemper": 707,
      "Ġtentang": 708,
      "ef": 709,
      "Ġkec": 710,
      "Ġ19": 711,
      "mas": 712,
      "Ġbesar": 713,
      "ingan": 714,
      "he": 715,
      "Ġserta": 716,
      "tif": 717,
      "Ġterhadap": 718,
      "Ø§": 719,
      "Ġap": 720,
      "na": 721,
      "ensi": 722,
      "idikan": 723,
      "Ġbeberapa": 724,
      "Ġmemp": 725,
      "amun": 726,
      "ini": 727,
      "ingg": 728,
      "arga": 729,
      "ÙĦ": 730,
      "Ġdiper": 731,
      "unan": 732,
      "aktu": 733,
      "Ġset": 734,
      "Ġmanusia": 735,
      "Ġsend": 736,
      "ual": 737,
      "Ġantara": 738,
      "ĠAllah": 739,
      "uka": 740,
      "istem": 741,
      "Ġdilakukan": 742,
      "ont": 743,
      "angs": 744,
      "mu": 745,
      "....": 746,
      "ej": 747,
      "iran": 748,
      "),": 749,
      "Ġia": 750,
      "Ġked": 751,
      "arang": 752,
      "Ġterb": 753,
      "Ġtak": 754,
      "Ġmembuat": 755,
      "apkan": 756,
      "enc": 757,
      "ting": 758,
      "Ġmelakukan": 759,
      "Ġkel": 760,
      "osi": 761,
      "etah": 762,
      "han": 763,
      "tor": 764,
      "eda": 765,
      "Ġmember": 766,
      "ĠUn": 767,
      "Ġum": 768,
      "Ġsebuah": 769,
      "ĠIs": 770,
      "Ġsesu": 771,
      "ola": 772,
      "Ġmasih": 773,
      "ulan": 774,
      "Ġterjadi": 775,
      "tiap": 776,
      "Ġlagi": 777,
      "ui": 778,
      "isasi": 779,
      "erja": 780,
      "Ġek": 781,
      "Ġterd": 782,
      "unj": 783,
      "udian": 784,
      "gr": 785,
      "Ġsendiri": 786,
      "Ġda": 787,
      "Ġpeny": 788,
      "Ġmenggunakan": 789,
      "Ġcara": 790,
      "olah": 791,
      "Ġseorang": 792,
      "imb": 793,
      "ow": 794,
      "Ġsemua": 795,
      "annya": 796,
      "uang": 797,
      "01": 798,
      "yah": 799,
      "asar": 800,
      "Ġkeh": 801,
      "erint": 802,
      "Ġbert": 803,
      "uru": 804,
      "anc": 805,
      "Ġdid": 806,
      "Ġhari": 807,
      "man": 808,
      "Ġis": 809,
      "ima": 810,
      "ukum": 811,
      "unia": 812,
      "Ġsi": 813,
      "elas": 814,
      "Ġsej": 815,
      "umah": 816,
      "aling": 817,
      "Ġsampai": 818,
      "Ġdia": 819,
      "ilan": 820,
      "elak": 821,
      "Ġjika": 822,
      "atakan": 823,
      "Ġwaktu": 824,
      "Ġair": 825,
      "le": 826,
      "Ġmenj": 827,
      "re": 828,
      "Ġproses": 829,
      "Ġkomp": 830,
      "ingin": 831,
      "Ġbaru": 832,
      "urut": 833,
      "egi": 834,
      "Ġsama": 835,
      "Ġind": 836,
      "Ġapa": 837,
      "ulai": 838,
      "era": 839,
      "uc": 840,
      "Ġhidup": 841,
      "lui": 842,
      "st": 843,
      "ilih": 844,
      "Ġkami": 845,
      "Ġkh": 846,
      "Ġtr": 847,
      "olo": 848,
      "Ġberd": 849,
      "Ġpers": 850,
      "Ġor": 851,
      "form": 852,
      "ilai": 853,
      "mb": 854,
      "Ġtempat": 855,
      "ungkin": 856,
      "ev": 857,
      "inggi": 858,
      "Ġ200": 859,
      "Ġkons": 860,
      "engk": 861,
      "iv": 862,
      "Ġagar": 863,
      "epat": 864,
      "enis": 865,
      "ahkan": 866,
      "ungg": 867,
      "Ġnegara": 868,
      "tern": 869,
      "Ġsalah": 870,
      "Ġaku": 871,
      "Ġpun": 872,
      "ug": 873,
      "Ġdir": 874,
      "Ġdiri": 875,
      "Ġtetapi": 876,
      "umber": 877,
      "amu": 878,
      "Ġseg": 879,
      "af": 880,
      "Ġterl": 881,
      "ĠBer": 882,
      "Ġmemberikan": 883,
      "imana": 884,
      "tur": 885,
      "akar": 886,
      "Ġpendidikan": 887,
      "Ġberh": 888,
      "ons": 889,
      "Ġbukan": 890,
      "Ġkelu": 891,
      "Ġsetiap": 892,
      "Ġsistem": 893,
      "Ġdigunakan": 894,
      "inta": 895,
      "Ġdem": 896,
      "res": 897,
      "urang": 898,
      "Ġar": 899,
      "angsung": 900,
      "ĠPen": 901,
      "utan": 902,
      "yat": 903,
      "Ġmelalui": 904,
      "Ġlu": 905,
      "wan": 906,
      "Ġberp": 907,
      "ori": 908,
      "atang": 909,
      "Ġbagian": 910,
      "ologi": 911,
      "elajar": 912,
      "ĠV": 913,
      "Ġdua": 914,
      "li": 915,
      "oc": 916,
      "Ġberbagai": 917,
      "atif": 918,
      "Ġpern": 919,
      "Ġ4": 920,
      "ekerja": 921,
      "ingkat": 922,
      "ulit": 923,
      "iswa": 924,
      "ÙĲ": 925,
      "ump": 926,
      "Ġkemudian": 927,
      "Ġil": 928,
      "edia": 929,
      "ulis": 930,
      "Ġdunia": 931,
      "Ġpel": 932,
      "alau": 933,
      "aat": 934,
      "ĠIslam": 935,
      "Ġpes": 936,
      "enal": 937,
      "ĠPeng": 938,
      "Ġmendapat": 939,
      "âĢ¦": 940,
      "asional": 941,
      "Ġsen": 942,
      "Ġlainnya": 943,
      "wah": 944,
      "ubungan": 945,
      "ujuan": 946,
      "alnya": 947,
      "elit": 948,
      "Ġproduk": 949,
      "est": 950,
      "Ġrumah": 951,
      "utama": 952,
      "ubuh": 953,
      "Ġseba": 954,
      "uruh": 955,
      "Ġti": 956,
      "usaha": 957,
      "Ġst": 958,
      "Ġ201": 959,
      "aian": 960,
      "umlah": 961,
      "Ġ5": 962,
      "Ġperk": 963,
      "aja": 964,
      "Ġhasil": 965,
      "embangan": 966,
      "ĠÙ": 967,
      "ekan": 968,
      "itik": 969,
      "ÙĴ": 970,
      "ĠDi": 971,
      "Ġhukum": 972,
      "Ġbang": 973,
      "hat": 974,
      "uku": 975,
      "Ġdaerah": 976,
      "ans": 977,
      "ode": 978,
      "Ġmaupun": 979,
      "Ġmakan": 980,
      "ekn": 981,
      "me": 982,
      "ĠØ": 983,
      "Ġtinggi": 984,
      "ain": 985,
      "onom": 986,
      "Ġkata": 987,
      "Ġketika": 988,
      "formasi": 989,
      "Ġterk": 990,
      "Ġmemba": 991,
      "ĠMen": 992,
      "unc": 993,
      "Ġthe": 994,
      "Ġwa": 995,
      "ĠâĢĵ": 996,
      "ungsi": 997,
      "Ġtert": 998,
      "und": 999,
      "Ġmin": 1000,
      "Ġdil": 1001,
      "ambil": 1002,
      "Ġsekali": 1003,
      "angka": 1004,
      "ukup": 1005,
      "Ġkemb": 1006,
      "agi": 1007,
      "Ġperlu": 1008,
      "ĠPro": 1009,
      "Ġmus": 1010,
      "Ġ\"": 1011,
      "unyai": 1012,
      "Ġmod": 1013,
      "ina": 1014,
      "Ġsetelah": 1015,
      "engar": 1016,
      "yata": 1017,
      "Ġof": 1018,
      "Ġpemerint": 1019,
      "Ġtubuh": 1020,
      "ER": 1021,
      "entuk": 1022,
      "upa": 1023,
      "akin": 1024,
      "aga": 1025,
      "Ġmasalah": 1026,
      "ani": 1027,
      "ĠTer": 1028,
      "alami": 1029,
      "Ġsebelum": 1030,
      "usahaan": 1031,
      "aikan": 1032,
      "Ġmana": 1033,
      "Ġ-": 1034,
      "Ġbentuk": 1035,
      "osial": 1036,
      "uhi": 1037,
      "Ġumum": 1038,
      "ca": 1039,
      "Ġmempunyai": 1040,
      "lik": 1041,
      "mp": 1042,
      "ĠSeb": 1043,
      "Ġkal": 1044,
      "tiv": 1045,
      "Ġpos": 1046,
      "usus": 1047,
      "ikian": 1048,
      "Ġkom": 1049,
      "Ġsesuai": 1050,
      "Ġingin": 1051,
      "ij": 1052,
      "esi": 1053,
      "itar": 1054,
      "AR": 1055,
      "antu": 1056,
      "unt": 1057,
      "Ġkegi": 1058,
      "asanya": 1059,
      "Ġmat": 1060,
      "Ġtanpa": 1061,
      "Ġsep": 1062,
      "ulu": 1063,
      "Ġdih": 1064,
      "las": 1065,
      "Ġmulai": 1066,
      "Ġdisebut": 1067,
      "Ġkegiatan": 1068,
      "Ġob": 1069,
      "ĠKar": 1070,
      "Ġres": 1071,
      "aksi": 1072,
      "Ġbelajar": 1073,
      "bu": 1074,
      "Ġbelum": 1075,
      "anjut": 1076,
      "Ġkembali": 1077,
      "elajaran": 1078,
      "ĠDalam": 1079,
      "ĠPem": 1080,
      "Ġmungkin": 1081,
      "Ġpol": 1082,
      "Ġakhir": 1083,
      "Ġmasa": 1084,
      "ompok": 1085,
      "ĠDan": 1086,
      "Ġmenyeb": 1087,
      "Ġga": 1088,
      "Ġpaling": 1089,
      "Ġkerja": 1090,
      "usi": 1091,
      "eksi": 1092,
      "Ġcukup": 1093,
      "Ġmelihat": 1094,
      "gram": 1095,
      "ni": 1096,
      "EN": 1097,
      "Ġ.": 1098,
      "enar": 1099,
      "ĠAr": 1100,
      "âĢľ": 1101,
      "Ġpenting": 1102,
      "idupan": 1103,
      "Ġlangsung": 1104,
      "Ġpula": 1105,
      "fat": 1106,
      "Ġlalu": 1107,
      "ĠSe": 1108,
      "ukkan": 1109,
      "Ġdiber": 1110,
      "Ġjenis": 1111,
      "por": 1112,
      "asarkan": 1113,
      "engah": 1114,
      "ki": 1115,
      "tikan": 1116,
      "anjang": 1117,
      "Ġlingk": 1118,
      "au": 1119,
      "inggal": 1120,
      "Ġorgan": 1121,
      "Ġpertama": 1122,
      "anda": 1123,
      "ers": 1124,
      "ampu": 1125,
      "Ùı": 1126,
      "di": 1127,
      "jalan": 1128,
      "Ġib": 1129,
      "Ġberikut": 1130,
      "Ġtetap": 1131,
      "erita": 1132,
      "atur": 1133,
      "ch": 1134,
      "ĠDengan": 1135,
      "Ġselalu": 1136,
      "etu": 1137,
      "yang": 1138,
      "Ġtujuan": 1139,
      "akah": 1140,
      "Ġilmu": 1141,
      "Ġkecil": 1142,
      "abkan": 1143,
      "Ġselama": 1144,
      "etahui": 1145,
      "Ġand": 1146,
      "Ġters": 1147,
      "Ġkali": 1148,
      "ĠPada": 1149,
      "apai": 1150,
      "ern": 1151,
      "Ġbahasa": 1152,
      "Ġdasar": 1153,
      "alis": 1154,
      "aks": 1155,
      "Ġadanya": 1156,
      "emen": 1157,
      "Ġhingga": 1158,
      "ait": 1159,
      "udaya": 1160,
      "ov": 1161,
      "Ġinformasi": 1162,
      "Ġpernah": 1163,
      "Ġmengen": 1164,
      "ihak": 1165,
      "asaan": 1166,
      "ontoh": 1167,
      "Ġbahan": 1168,
      "Ġsumber": 1169,
      "aka": 1170,
      "ine": 1171,
      "Ġkehidupan": 1172,
      "Ġnamun": 1173,
      "yakit": 1174,
      "Ġmener": 1175,
      "Ġsosial": 1176,
      "SI": 1177,
      "ĠUntuk": 1178,
      "ide": 1179,
      "Ġsekolah": 1180,
      "hal": 1181,
      "Ġperusahaan": 1182,
      "ÙĨ": 1183,
      "Ġstr": 1184,
      "Ġz": 1185,
      "Ġkedua": 1186,
      "Ġkek": 1187,
      "umb": 1188,
      "Ġangg": 1189,
      "Ġterdapat": 1190,
      "onomi": 1191,
      "Ġmengg": 1192,
      "Ġmes": 1193,
      "Ġmet": 1194,
      "yi": 1195,
      "Ġmampu": 1196,
      "ĠPr": 1197,
      "arik": 1198,
      "war": 1199,
      "Ġseluruh": 1200,
      "Ġdata": 1201,
      "Ġsering": 1202,
      "AT": 1203,
      "ambar": 1204,
      "ikat": 1205,
      "adaan": 1206,
      "eks": 1207,
      "entukan": 1208,
      "Ġguru": 1209,
      "gian": 1210,
      "idang": 1211,
      "Ġtem": 1212,
      "ulang": 1213,
      "Ġfil": 1214,
      "Ġluar": 1215,
      "Ġbersama": 1216,
      "Ġmudah": 1217,
      "Ġsekitar": 1218,
      "ig": 1219,
      "ĠAp": 1220,
      "aris": 1221,
      "anita": 1222,
      "Ġsedang": 1223,
      "Ġtekn": 1224,
      "ju": 1225,
      "engg": 1226,
      "Ġkhusus": 1227,
      "Ġjalan": 1228,
      "ampuan": 1229,
      "akarta": 1230,
      "ustr": 1231,
      "ampak": 1232,
      "Ġmasuk": 1233,
      "Ġkamu": 1234,
      "Ġbenar": 1235,
      "ibat": 1236,
      "Ġterp": 1237,
      "Ġsiswa": 1238,
      "Ġto": 1239,
      "aru": 1240,
      "urat": 1241,
      "000": 1242,
      "ener": 1243,
      "Ġsp": 1244,
      "ban": 1245,
      "ulkan": 1246,
      "Ġ6": 1247,
      "ĠHal": 1248,
      "Ġtapi": 1249,
      "Ġbel": 1250,
      "alaman": 1251,
      "Ġlingkungan": 1252,
      "Ġmemang": 1253,
      "awa": 1254,
      "Ġnilai": 1255,
      "masuk": 1256,
      "etak": 1257,
      "Ġot": 1258,
      "Ġsemakin": 1259,
      "Ġef": 1260,
      "ubahan": 1261,
      "ubah": 1262,
      "Ġkr": 1263,
      "ĠSem": 1264,
      "anaan": 1265,
      "egitu": 1266,
      "eorang": 1267,
      "Ġberada": 1268,
      "tian": 1269,
      "min": 1270,
      "Ġbersi": 1271,
      "uter": 1272,
      "com": 1273,
      "mat": 1274,
      "aku": 1275,
      "ĠNamun": 1276,
      "Ġmengan": 1277,
      "emukan": 1278,
      "elitian": 1279,
      "Ġmendapatkan": 1280,
      "uda": 1281,
      "utuh": 1282,
      "etelah": 1283,
      "akai": 1284,
      "disi": 1285,
      "ĠMer": 1286,
      "asal": 1287,
      "Ġtangg": 1288,
      "Ġtertentu": 1289,
      "udara": 1290,
      "Ġtanah": 1291,
      "of": 1292,
      "Ġberl": 1293,
      "erta": 1294,
      "ehatan": 1295,
      "embang": 1296,
      "AH": 1297,
      "Ùħ": 1298,
      "sip": 1299,
      "isalnya": 1300,
      "usan": 1301,
      "Ġmengenai": 1302,
      "Ġpihak": 1303,
      "oba": 1304,
      "........": 1305,
      "Ġdic": 1306,
      "Ġnama": 1307,
      "aktor": 1308,
      "Ġpenc": 1309,
      "abi": 1310,
      "Ġdes": 1311,
      "Ġdemikian": 1312,
      "Ġterus": 1313,
      "Ġjar": 1314,
      "Ġ,": 1315,
      "ĠTuhan": 1316,
      "Ø§ÙĦ": 1317,
      "utuhan": 1318,
      "atih": 1319,
      "Ġeks": 1320,
      "ongan": 1321,
      "ĠMeng": 1322,
      "Ġput": 1323,
      "Ġkeku": 1324,
      "Ġagama": 1325,
      "Ġbaga": 1326,
      "alu": 1327,
      "Ġneg": 1328,
      "Ġlem": 1329,
      "aturan": 1330,
      "ĠJika": 1331,
      "angkat": 1332,
      "lukan": 1333,
      "Ġbahkan": 1334,
      "Ġharga": 1335,
      "Ġtel": 1336,
      "gus": 1337,
      "Ġken": 1338,
      "awab": 1339,
      "ĠAd": 1340,
      "ĠSela": 1341,
      "Ġwanita": 1342,
      "||": 1343,
      "Ġintern": 1344,
      "lim": 1345,
      "Ġpemerintah": 1346,
      "awat": 1347,
      "Ġi": 1348,
      "Per": 1349,
      "Ġalam": 1350,
      "Ġdep": 1351,
      "isme": 1352,
      "ura": 1353,
      "caya": 1354,
      "Ġberbeda": 1355,
      "Ġtangan": 1356,
      "Ġbawah": 1357,
      "apun": 1358,
      "ger": 1359,
      "Ġdiba": 1360,
      "Ġtermasuk": 1361,
      "AM": 1362,
      "omb": 1363,
      "etahuan": 1364,
      "Ġsekarang": 1365,
      "abila": 1366,
      "wal": 1367,
      "elu": 1368,
      "Ġjadi": 1369,
      "Ġkelompok": 1370,
      "ingkatkan": 1371,
      "Ġ7": 1372,
      "AL": 1373,
      "Ġhubungan": 1374,
      "Ġmenya": 1375,
      "iknya": 1376,
      "Ġkurang": 1377,
      "Ġkalau": 1378,
      "ĠMas": 1379,
      "Ġpela": 1380,
      "antung": 1381,
      "iaya": 1382,
      "ikir": 1383,
      "Ġwar": 1384,
      "Ġkemampuan": 1385,
      "Ġhak": 1386,
      "ĠAs": 1387,
      "upaya": 1388,
      "Ġlama": 1389,
      "Ġpenyakit": 1390,
      "Ġalat": 1391,
      "nis": 1392,
      "sanakan": 1393,
      "ÙĬ": 1394,
      "istr": 1395,
      "Ġmenunj": 1396,
      "Ġusaha": 1397,
      "Ġbulan": 1398,
      "Ġmata": 1399,
      "ikit": 1400,
      "faat": 1401,
      "Ġbiasanya": 1402,
      "arti": 1403,
      "Ġjumlah": 1404,
      "umi": 1405,
      "Ġhati": 1406,
      "Ġprogram": 1407,
      "oto": 1408,
      "ĠKe": 1409,
      "ember": 1410,
      "Ġkeluarga": 1411,
      "Ùĩ": 1412,
      "urun": 1413,
      "Ġab": 1414,
      "Ġjelas": 1415,
      "iman": 1416,
      "Ġbangsa": 1417,
      "Un": 1418,
      "Ġdarah": 1419,
      "Ġdatang": 1420,
      "otor": 1421,
      "Ġseseorang": 1422,
      "ĠJakarta": 1423,
      "Ġka": 1424,
      "unga": 1425,
      "Ġart": 1426,
      "Ġbila": 1427,
      "ation": 1428,
      "ksanakan": 1429,
      "arat": 1430,
      "Ġkota": 1431,
      "Ġger": 1432,
      "auh": 1433,
      "Ġsesuatu": 1434,
      "uduk": 1435,
      "Ġketer": 1436,
      "adah": 1437,
      "adan": 1438,
      "ex": 1439,
      "IN": 1440,
      "yanan": 1441,
      "adang": 1442,
      "Ġsedikit": 1443,
      "ult": 1444,
      "Ġjam": 1445,
      "ank": 1446,
      "ard": 1447,
      "Ġdin": 1448,
      "Ġmengalami": 1449,
      "angkah": 1450,
      "aki": 1451,
      "ĠKem": 1452,
      "jah": 1453,
      "ekat": 1454,
      "ĠKarena": 1455,
      "Ġmencapai": 1456,
      "tar": 1457,
      "Ġkebutuhan": 1458,
      "lo": 1459,
      "entara": 1460,
      "men": 1461,
      "AK": 1462,
      "19": 1463,
      "any": 1464,
      "Ġtingkat": 1465,
      "Ġmenja": 1466,
      "ungguh": 1467,
      "Ġmau": 1468,
      "ilayah": 1469,
      "ĠPend": 1470,
      "eli": 1471,
      "Ġekonomi": 1472,
      "ĠâĢĺ": 1473,
      "Ġperubahan": 1474,
      "Ġbagaimana": 1475,
      "Ġpekerja": 1476,
      "anding": 1477,
      "askan": 1478,
      "rat": 1479,
      "Ġutama": 1480,
      "Ġbegitu": 1481,
      "Ġbiasa": 1482,
      "iden": 1483,
      "Ġkondisi": 1484,
      "Ġsegala": 1485,
      "Ġ10": 1486,
      "Ġmakanan": 1487,
      "Ġrasa": 1488,
      "Ġmembantu": 1489,
      "Ġjawab": 1490,
      "ha": 1491,
      "ambah": 1492,
      "Ġpenggun": 1493,
      "Ġmur": 1494,
      "Ġpengetahuan": 1495,
      "Ġbidang": 1496,
      "baik": 1497,
      "akt": 1498,
      "ugas": 1499,
      "anti": 1500,
      "Ġtrans": 1501,
      "iau": 1502,
      "Ġem": 1503,
      "aranya": 1504,
      "ektif": 1505,
      "abat": 1506,
      "ord": 1507,
      "Ġ8": 1508,
      "Ġterj": 1509,
      "asilkan": 1510,
      "Ġhad": 1511,
      "Ġkesehatan": 1512,
      "Ġmenurut": 1513,
      "edi": 1514,
      "acam": 1515,
      "Ġsebaga": 1516,
      "Ġorganisasi": 1517,
      "Ġsy": 1518,
      "etika": 1519,
      "isnis": 1520,
      "mad": 1521,
      "akit": 1522,
      "ullah": 1523,
      "Ġdimana": 1524,
      "teri": 1525,
      "AS": 1526,
      ".âĢĿ": 1527,
      "impin": 1528,
      "uangan": 1529,
      "umen": 1530,
      "Ġre": 1531,
      "Ùĳ": 1532,
      "Ġkeluar": 1533,
      "Ġtahu": 1534,
      "Ber": 1535,
      "ĠAk": 1536,
      "mi": 1537,
      "isik": 1538,
      "ikiran": 1539,
      "Ġcepat": 1540,
      "Ġpolitik": 1541,
      "utuhkan": 1542,
      "anak": 1543,
      "Ġberarti": 1544,
      "Ġon": 1545,
      "Ġtiga": 1546,
      "likasi": 1547,
      "isan": 1548,
      "Ġmah": 1549,
      "Ġperm": 1550,
      "Ġ0": 1551,
      "ahun": 1552,
      "ikap": 1553,
      "ve": 1554,
      "sur": 1555,
      "Ġpenelitian": 1556,
      "Ġpembelajaran": 1557,
      "unikasi": 1558,
      "Ġkor": 1559,
      "Ġjauh": 1560,
      "Ġbarang": 1561,
      "embangkan": 1562,
      "usat": 1563,
      "Ġperkembangan": 1564,
      "Dalam": 1565,
      "Ġanggota": 1566,
      "ĠYang": 1567,
      "Ġ/": 1568,
      "jib": 1569,
      "Ġmeningkatkan": 1570,
      "ĠSel": 1571,
      "Ġmengatakan": 1572,
      "Ġlap": 1573,
      "Ġbur": 1574,
      "Ġam": 1575,
      "ark": 1576,
      "Ġpan": 1577,
      "ĠAm": 1578,
      "ht": 1579,
      "Ġkulit": 1580,
      "Ġmerasa": 1581,
      "Ġgun": 1582,
      "ĠCh": 1583,
      "ond": 1584,
      "raf": 1585,
      "Ġmenyebabkan": 1586,
      "utusan": 1587,
      "uti": 1588,
      "log": 1589,
      "obil": 1590,
      "ikuti": 1591,
      "antai": 1592,
      "anyak": 1593,
      "tim": 1594,
      "uncul": 1595,
      "ipt": 1596,
      "akyat": 1597,
      "Ġbekerja": 1598,
      "Ġsitu": 1599,
      "Ġdepan": 1600,
      "ust": 1601,
      "Ġ199": 1602,
      "lis": 1603,
      "enarnya": 1604,
      "perasi": 1605,
      "Ġbuah": 1606,
      "Ġuj": 1607,
      "rasi": 1608,
      "Nya": 1609,
      "...": 1610,
      "Ġditer": 1611,
      "elaks": 1612,
      "Ġkap": 1613,
      "ĠAb": 1614,
      "uanya": 1615,
      "Ġfungsi": 1616,
      "ukuran": 1617,
      "Ġdaya": 1618,
      "Ġkeber": 1619,
      "Ġkarya": 1620,
      "Ġwilayah": 1621,
      "eter": 1622,
      "ĠQ": 1623,
      "akhir": 1624,
      "Ġmencari": 1625,
      "alahan": 1626,
      "lalu": 1627,
      "Ġberupa": 1628,
      "Ġkas": 1629,
      "beda": 1630,
      "uatan": 1631,
      "Ġmengetahui": 1632,
      "Ġyg": 1633,
      "sia": 1634,
      "Ġkeadaan": 1635,
      "Ġakhirnya": 1636,
      "Ġtepat": 1637,
      "Ġberdasarkan": 1638,
      "anggap": 1639,
      "ĠKep": 1640,
      "lan": 1641,
      "Ġkomputer": 1642,
      "asul": 1643,
      "dang": 1644,
      "ĠDia": 1645,
      "ender": 1646,
      "ĠOr": 1647,
      "udi": 1648,
      "ĠIa": 1649,
      "Ġtugas": 1650,
      "ĠØ§ÙĦ": 1651,
      "Pada": 1652,
      "Ġpet": 1653,
      "angun": 1654,
      "ilihan": 1655,
      "dung": 1656,
      "Ġmuncul": 1657,
      "Ġuang": 1658,
      "Ġnya": 1659,
      "elakang": 1660,
      "Ġmul": 1661,
      "Ġat": 1662,
      "Ġlok": 1663,
      "ungi": 1664,
      "ĠSek": 1665,
      "lak": 1666,
      "âĢĿ.": 1667,
      "Ġte": 1668,
      "ifat": 1669,
      "Ġgambar": 1670,
      "Ġbersifat": 1671,
      "one": 1672,
      "ess": 1673,
      "aha": 1674,
      "Ġtua": 1675,
      "ver": 1676,
      "ci": 1677,
      "ly": 1678,
      "araan": 1679,
      "okok": 1680,
      "ĠJawa": 1681,
      "ĠIni": 1682,
      "Ġibu": 1683,
      "ira": 1684,
      "ikel": 1685,
      "Ġmengaj": 1686,
      "leh": 1687,
      "Ġbuku": 1688,
      "ĠBel": 1689,
      "ĠRp": 1690,
      "Ġkur": 1691,
      "ohon": 1692,
      "fa": 1693,
      "Ġdij": 1694,
      "ibadi": 1695,
      "Ġdiberikan": 1696,
      "ity": 1697,
      "ivid": 1698,
      "Ġmenunjukkan": 1699,
      "Ġberf": 1700,
      "Ġjangan": 1701,
      "enang": 1702,
      "ĠZ": 1703,
      "andang": 1704,
      "Ġtind": 1705,
      "ĠMem": 1706,
      "ate": 1707,
      "ilang": 1708,
      "Ġawal": 1709,
      "itif": 1710,
      "empuan": 1711,
      "uli": 1712,
      "iwa": 1713,
      "Ġsejak": 1714,
      "Ġterutama": 1715,
      "ANG": 1716,
      "Ġpengh": 1717,
      "Ġmasing": 1718,
      "ĠSer": 1719,
      "iter": 1720,
      "Ġpak": 1721,
      "Ġtern": 1722,
      "Ġ9": 1723,
      "uas": 1724,
      "ĠMus": 1725,
      "Ø±": 1726,
      "irkan": 1727,
      "Ġmemberi": 1728,
      "Ġsh": 1729,
      "Ġkuat": 1730,
      "isk": 1731,
      "endah": 1732,
      "ujud": 1733,
      "tivitas": 1734,
      "ĠMereka": 1735,
      "ÙĪ": 1736,
      "EM": 1737,
      "ens": 1738,
      "ĠAg": 1739,
      "Ġgi": 1740,
      "ampilan": 1741,
      "ahami": 1742,
      "hatikan": 1743,
      "Ġbudaya": 1744,
      "ea": 1745,
      "Ġmateri": 1746,
      "Men": 1747,
      "angga": 1748,
      "Ġterdiri": 1749,
      "Ġobat": 1750,
      "insip": 1751,
      "Ġmemas": 1752,
      "Ġakibat": 1753,
      "anjutnya": 1754,
      "Ġins": 1755,
      "masing": 1756,
      "Ġbin": 1757,
      "ĠDa": 1758,
      "ator": 1759,
      "Ġpanjang": 1760,
      "her": 1761,
      "ĠTim": 1762,
      "Ġmenarik": 1763,
      "aten": 1764,
      "Ġkont": 1765,
      "agai": 1766,
      "ĠKes": 1767,
      "ĠSetelah": 1768,
      "ĠSelain": 1769,
      "Ġjaringan": 1770,
      "Ġmedia": 1771,
      "entasi": 1772,
      "Ġmisalnya": 1773,
      "Ġapabila": 1774,
      "enuhi": 1775,
      "inasi": 1776,
      "Ġdirinya": 1777,
      "uman": 1778,
      "Ġprof": 1779,
      "Ġtumb": 1780,
      "Ġsebagian": 1781,
      "Ġng": 1782,
      "ingat": 1783,
      "Ġtim": 1784,
      "ualitas": 1785,
      "Ġtok": 1786,
      "ili": 1787,
      "Ġcontoh": 1788,
      "endak": 1789,
      "Ġdikenal": 1790,
      "awasan": 1791,
      "ĠTidak": 1792,
      "asakan": 1793,
      "uta": 1794,
      "inkan": 1795,
      "ert": 1796,
      "pek": 1797,
      "angunan": 1798,
      "uktur": 1799,
      "ungkan": 1800,
      "Ġsub": 1801,
      "Ġbiaya": 1802,
      "Ġwarna": 1803,
      "ry": 1804,
      "Ġditu": 1805,
      "Ġel": 1806,
      "eran": 1807,
      ",âĢĿ": 1808,
      "Ġpasti": 1809,
      "elaskan": 1810,
      "Ġpener": 1811,
      "Ġkat": 1812,
      "Ġsakit": 1813,
      "Seb": 1814,
      "Ġterlalu": 1815,
      "Ġdok": 1816,
      "pada": 1817,
      "te": 1818,
      "ĠMes": 1819,
      "Ġkepala": 1820,
      "Ġkonsep": 1821,
      "Ġterg": 1822,
      "ĠPemb": 1823,
      "ĠNegara": 1824,
      "enaga": 1825,
      "ng": 1826,
      "Ġrakyat": 1827,
      "atihan": 1828,
      "ĠMuh": 1829,
      "akni": 1830,
      "Ġindivid": 1831,
      "Ġdibuat": 1832,
      "ertian": 1833,
      "Ġteman": 1834,
      "ĠSM": 1835,
      "Ġdig": 1836,
      "Ġpekerjaan": 1837,
      "ase": 1838,
      "Ġbisnis": 1839,
      "Ġberasal": 1840,
      "Ġberkembang": 1841,
      "uri": 1842,
      "Ġaj": 1843,
      "Ġpeserta": 1844,
      "ĠTr": 1845,
      "Ġterlihat": 1846,
      "ingkatan": 1847,
      "ukaan": 1848,
      "Ġterc": 1849,
      "urkan": 1850,
      "Ġsifat": 1851,
      "adar": 1852,
      "Ġkelas": 1853,
      "line": 1854,
      "alik": 1855,
      "Ġsah": 1856,
      "untu": 1857,
      "ĠMar": 1858,
      "Ġsebelumnya": 1859,
      "edangkan": 1860,
      "Ġberm": 1861,
      "anggung": 1862,
      "Ġfaktor": 1863,
      "Ġbern": 1864,
      "yek": 1865,
      "Ġsebenarnya": 1866,
      "osa": 1867,
      "itam": 1868,
      "Ġmengak": 1869,
      "ikm": 1870,
      "ww": 1871,
      "erd": 1872,
      "ĠKeb": 1873,
      "ĠII": 1874,
      "Ġteknologi": 1875,
      "isata": 1876,
      "olog": 1877,
      "engaruhi": 1878,
      "Ġah": 1879,
      "ĠDes": 1880,
      "Di": 1881,
      "Ġkab": 1882,
      "Ġboleh": 1883,
      "elola": 1884,
      "ĠKr": 1885,
      "Ġpenj": 1886,
      "Ġmalam": 1887,
      "Ġmetode": 1888,
      "kr": 1889,
      "Ġpemba": 1890,
      "eja": 1891,
      "Ġpendapat": 1892,
      "Ġperempuan": 1893,
      "tiga": 1894,
      "ormal": 1895,
      "Ġberj": 1896,
      "Ġnegeri": 1897,
      "ĠRasul": 1898,
      "hi": 1899,
      "Ġkeper": 1900,
      "ĠSt": 1901,
      "aruh": 1902,
      "iptakan": 1903,
      "Untuk": 1904,
      "Ġmenerima": 1905,
      "Ġtanggal": 1906,
      "itab": 1907,
      "10": 1908,
      "isti": 1909,
      "Ġyakni": 1910,
      "Ġkam": 1911,
      "Ġsal": 1912,
      "ampir": 1913,
      "andar": 1914,
      "Ġnasional": 1915,
      "UN": 1916,
      "ou": 1917,
      "Ġapakah": 1918,
      "ck": 1919,
      "ipun": 1920,
      "Ġdah": 1921,
      "Ġint": 1922,
      "IK": 1923,
      "Ġinf": 1924,
      "Ġberhasil": 1925,
      "engkap": 1926,
      "Ġmemilih": 1927,
      "ewan": 1928,
      "iti": 1929,
      "Ġku": 1930,
      "ukung": 1931,
      "Ġluas": 1932,
      "ÙİÙĳ": 1933,
      "eta": 1934,
      "Ġpelaks": 1935,
      "Ġsebab": 1936,
      "urn": 1937,
      "Ġ12": 1938,
      "Ġmobil": 1939,
      "Ġtip": 1940,
      "Ġberkata": 1941,
      "Ġpot": 1942,
      "Ġdiperlukan": 1943,
      "ublik": 1944,
      "Ġtentu": 1945,
      "ĠMan": 1946,
      "upaten": 1947,
      "aik": 1948,
      "isah": 1949,
      "Ġtinggal": 1950,
      "Ġberat": 1951,
      "Ġruang": 1952,
      "Ġbadan": 1953,
      "Ġbeliau": 1954,
      "Ġsedangkan": 1955,
      "adisi": 1956,
      "ĠAku": 1957,
      "Ġ18": 1958,
      "kah": 1959,
      "aksud": 1960,
      "Ġpasar": 1961,
      "uju": 1962,
      "ĠSaya": 1963,
      "Ġkaum": 1964,
      "ekatan": 1965,
      "Ġberla": 1966,
      "empatan": 1967,
      "idur": 1968,
      "alkan": 1969,
      "Ġmengambil": 1970,
      "tion": 1971,
      "Ġik": 1972,
      "ajak": 1973,
      "gn": 1974,
      "ĠNabi": 1975,
      "ulisan": 1976,
      "Ġmengandung": 1977,
      "th": 1978,
      "Ġsegera": 1979,
      "usun": 1980,
      "Ġkekuatan": 1981,
      "Ġkualitas": 1982,
      "Ġ15": 1983,
      "ikul": 1984,
      "atuan": 1985,
      "su": 1986,
      "ce": 1987,
      "ĠMuham": 1988,
      "Ġmesin": 1989,
      "atasi": 1990,
      "ĠIb": 1991,
      "ilaku": 1992,
      "ram": 1993,
      "ĠOleh": 1994,
      "rah": 1995,
      "ivers": 1996,
      "Ġpart": 1997,
      "Ġth": 1998,
      "âĢ¢": 1999,
      "ijakan": 2000,
      "yam": 2001,
      "andangan": 2002,
      "Ġsikap": 2003,
      "Ġbelakang": 2004,
      "ĠKab": 2005,
      "ibatkan": 2006,
      "awan": 2007,
      "ial": 2008,
      "akter": 2009,
      "alaupun": 2010,
      "encana": 2011,
      "Ġberjalan": 2012,
      "Ġpenuh": 2013,
      "ĠIng": 2014,
      "ahaya": 2015,
      "Ġtindakan": 2016,
      "ĠX": 2017,
      "kipun": 2018,
      "Ġarah": 2019,
      "eles": 2020,
      "Ġbumi": 2021,
      "ĠJadi": 2022,
      "In": 2023,
      "Ġmenghasilkan": 2024,
      "Ġmodel": 2025,
      "ontr": 2026,
      "istik": 2027,
      "ewa": 2028,
      "Ġsejarah": 2029,
      "Ġpembangunan": 2030,
      "wab": 2031,
      "Ġmembawa": 2032,
      "uskan": 2033,
      "Ġmeninggal": 2034,
      "enj": 2035,
      "Ġsaling": 2036,
      "tp": 2037,
      "Ġayat": 2038,
      "ĠNo": 2039,
      "Ġisti": 2040,
      "EL": 2041,
      "lin": 2042,
      "ite": 2043,
      "umsi": 2044,
      "Ġ&": 2045,
      "ĠDari": 2046,
      "Ġtengah": 2047,
      "Ġfor": 2048,
      "Ġpunya": 2049,
      "asaran": 2050,
      "An": 2051,
      "Ġpember": 2052,
      "200": 2053,
      "luk": 2054,
      "Ġrendah": 2055,
      "Ġbat": 2056,
      "ĠAda": 2057,
      "RI": 2058,
      "tra": 2059,
      "Ġpemerintahan": 2060,
      "jemen": 2061,
      "egang": 2062,
      "Ġternyata": 2063,
      "ĠÙĪ": 2064,
      "Ġposisi": 2065,
      "eberapa": 2066,
      "Ġmenemukan": 2067,
      "ukti": 2068,
      "Ġmenuju": 2069,
      "uni": 2070,
      "utup": 2071,
      "pr": 2072,
      "Ġumumnya": 2073,
      "Ġsuara": 2074,
      "Ġko": 2075,
      "AB": 2076,
      "Ġlaut": 2077,
      "own": 2078,
      "etapi": 2079,
      "Ġinter": 2080,
      "adilan": 2081,
      "Ġmo": 2082,
      "sik": 2083,
      "alisasi": 2084,
      "Â·": 2085,
      "Ġmacam": 2086,
      "utus": 2087,
      "bedaan": 2088,
      "Ġac": 2089,
      "Ġsurat": 2090,
      "entingan": 2091,
      "Ġaktif": 2092,
      "ĠSo": 2093,
      "ĠSh": 2094,
      "eluarkan": 2095,
      "Ġmenentukan": 2096,
      "Ġmengikuti": 2097,
      "Ġdibanding": 2098,
      "Ġpenggunaan": 2099,
      "Ġdianggap": 2100,
      "omor": 2101,
      "Ġpengembangan": 2102,
      "gas": 2103,
      "its": 2104,
      "ukur": 2105,
      "Ġindividu": 2106,
      "Ġwarga": 2107,
      "ON": 2108,
      "Ġide": 2109,
      "dan": 2110,
      "pun": 2111,
      "tri": 2112,
      "oft": 2113,
      "baikan": 2114,
      "Ġdiant": 2115,
      "ĠPert": 2116,
      "Ġmemer": 2117,
      "Ġmengk": 2118,
      "Ġdiseb": 2119,
      "Ġtenaga": 2120,
      "adinya": 2121,
      "erika": 2122,
      "Ġ20": 2123,
      "Ġso": 2124,
      "lus": 2125,
      "//": 2126,
      "arapkan": 2127,
      "ort": 2128,
      "Se": 2129,
      "lem": 2130,
      "aitan": 2131,
      ",\"": 2132,
      "Ġkol": 2133,
      "anyaan": 2134,
      "Ġbayi": 2135,
      "wi": 2136,
      "Ġrel": 2137,
      "erh": 2138,
      "gen": 2139,
      "Ġmembaca": 2140,
      "Ġur": 2141,
      "Ġsar": 2142,
      "etapkan": 2143,
      "âĢ¦âĢ¦": 2144,
      "Ġkeras": 2145,
      "ser": 2146,
      "Ġselain": 2147,
      "hari": 2148,
      "Ġkaki": 2149,
      "Ġmuda": 2150,
      "ansi": 2151,
      "ros": 2152,
      "Ġala": 2153,
      "ampil": 2154,
      "anfa": 2155,
      "Ġen": 2156,
      "tumb": 2157,
      "to": 2158,
      "Ġbak": 2159,
      "://": 2160,
      "ĠTapi": 2161,
      "Ġpusat": 2162,
      "Ġtanaman": 2163,
      "Ġped": 2164,
      "etik": 2165,
      "ustri": 2166,
      "ulasi": 2167,
      "ega": 2168,
      "tus": 2169,
      "Ġmenger": 2170,
      "ment": 2171,
      "irim": 2172,
      "awatan": 2173,
      "Ġmenjalan": 2174,
      "Al": 2175,
      "Ġkasus": 2176,
      "atar": 2177,
      "Ġop": 2178,
      "ook": 2179,
      "Ġumat": 2180,
      "Ġpar": 2181,
      "ĠPres": 2182,
      "Ġdiatas": 2183,
      "ediakan": 2184,
      "rom": 2185,
      "Ġmenyatakan": 2186,
      "impinan": 2187,
      "ĠPas": 2188,
      "Ġpelayanan": 2189,
      "Ġbebas": 2190,
      "ungguhnya": 2191,
      "asiswa": 2192,
      "Ġsulit": 2193,
      "itis": 2194,
      "12": 2195,
      "Ġmenimb": 2196,
      "ame": 2197,
      "Ġkasih": 2198,
      "all": 2199,
      "itor": 2200,
      "Ġukuran": 2201,
      "iks": 2202,
      "ĠPendidikan": 2203,
      "Ġstrat": 2204,
      "inggu": 2205,
      "qu": 2206,
      "Ġusia": 2207,
      "Ġmelaksanakan": 2208,
      "angi": 2209,
      "yarat": 2210,
      "ayu": 2211,
      "untut": 2212,
      "usnya": 2213,
      "otel": 2214,
      "ost": 2215,
      "gerak": 2216,
      "Ġahli": 2217,
      "Ġdulu": 2218,
      "fer": 2219,
      "ĠPT": 2220,
      "Ġbatu": 2221,
      "Ġtidur": 2222,
      "amanya": 2223,
      "agaimana": 2224,
      "Ġsambil": 2225,
      "olusi": 2226,
      "Ġupaya": 2227,
      "ĠBarat": 2228,
      "Ġmemperoleh": 2229,
      "undang": 2230,
      "oa": 2231,
      "Ġsup": 2232,
      "Ġmati": 2233,
      "elengg": 2234,
      "Ġunsur": 2235,
      "antor": 2236,
      "Ġkini": 2237,
      "Ġmemenuhi": 2238,
      "oy": 2239,
      "Pen": 2240,
      "uasa": 2241,
      "ĠMuhammad": 2242,
      "Ġkeputusan": 2243,
      "ĠThe": 2244,
      "arian": 2245,
      "Ġkomunikasi": 2246,
      "Ġprakt": 2247,
      "Ġtradisi": 2248,
      "Ġsini": 2249,
      "ĠAmerika": 2250,
      "hadapi": 2251,
      "Ġpin": 2252,
      "icara": 2253,
      "IS": 2254,
      "iz": 2255,
      "yu": 2256,
      "Ġberg": 2257,
      "Ġataupun": 2258,
      "Ġ?": 2259,
      "Ġfisik": 2260,
      "Ġe": 2261,
      "Ġproduksi": 2262,
      "Ġus": 2263,
      "PR": 2264,
      "Ġteg": 2265,
      "ĠPol": 2266,
      "orong": 2267,
      "oga": 2268,
      "Sela": 2269,
      "Ġlangkah": 2270,
      "idik": 2271,
      "ĠAng": 2272,
      "andi": 2273,
      "Ø¨": 2274,
      "esu": 2275,
      "yataan": 2276,
      "Ġmembentuk": 2277,
      "Ġmengembangkan": 2278,
      "ĠTahun": 2279,
      "Ġut": 2280,
      "olak": 2281,
      "itan": 2282,
      "ĠSedangkan": 2283,
      "AD": 2284,
      "Ġgel": 2285,
      "Ġcerita": 2286,
      "Øª": 2287,
      "Ġsisi": 2288,
      "ekanan": 2289,
      "Ġmenimbulkan": 2290,
      "estasi": 2291,
      "buatan": 2292,
      "Ġputih": 2293,
      "tumbuhan": 2294,
      "iputi": 2295,
      "Ġinternet": 2296,
      "Ġpengalaman": 2297,
      "Ġudara": 2298,
      "Ġkontr": 2299,
      "Ġpelaksanaan": 2300,
      "ahasa": 2301,
      "Ġhampir": 2302,
      "Ġberusaha": 2303,
      "ore": 2304,
      "jalanan": 2305,
      "andung": 2306,
      "epas": 2307,
      "Ġmaj": 2308,
      "uluh": 2309,
      "Ġsur": 2310,
      "gris": 2311,
      "alisis": 2312,
      "kannya": 2313,
      "erintah": 2314,
      "uf": 2315,
      "urangi": 2316,
      "olongan": 2317,
      "Ġkepentingan": 2318,
      "ill": 2319,
      "alon": 2320,
      "Ġpat": 2321,
      "Ġlembaga": 2322,
      "sama": 2323,
      "Ġbuat": 2324,
      "ran": 2325,
      "Ġmew": 2326,
      "Ġ)": 2327,
      "Ġikan": 2328,
      "Ġhendak": 2329,
      "Ġdidik": 2330,
      "Ġdahulu": 2331,
      "arakan": 2332,
      "................": 2333,
      "load": 2334,
      "Ġlakukan": 2335,
      "jek": 2336,
      "emat": 2337,
      "US": 2338,
      "Ġim": 2339,
      "Ġdaripada": 2340,
      "50": 2341,
      "Ġdekat": 2342,
      "Ġteori": 2343,
      "ungai": 2344,
      "Ġfoto": 2345,
      "ĠKed": 2346,
      "alitas": 2347,
      "Ġweb": 2348,
      "Ġpribadi": 2349,
      "ĠBelanda": 2350,
      "hatian": 2351,
      "anyakan": 2352,
      "antan": 2353,
      "entuan": 2354,
      "Ġhi": 2355,
      "our": 2356,
      "ĠKom": 2357,
      "Ġkesempatan": 2358,
      "Ġsemp": 2359,
      "ĠKota": 2360,
      "Ġsiapa": 2361,
      "benar": 2362,
      "ĠUm": 2363,
      "apak": 2364,
      "adakan": 2365,
      "Ġtampak": 2366,
      "pen": 2367,
      "Ġbantu": 2368,
      "Ġlahir": 2369,
      "arn": 2370,
      "idah": 2371,
      "ĠMenurut": 2372,
      "Ġditemukan": 2373,
      "ĠTan": 2374,
      "ji": 2375,
      "ĠCara": 2376,
      "Ġbertu": 2377,
      "Ġsuk": 2378,
      "ambut": 2379,
      "Ġmemahami": 2380,
      "ke": 2381,
      "Ġham": 2382,
      "Ġtimb": 2383,
      "se": 2384,
      "elajari": 2385,
      "elam": 2386,
      "tinya": 2387,
      "olong": 2388,
      "elih": 2389,
      "Ġkebijakan": 2390,
      "Ġsiap": 2391,
      "Ġmenjaga": 2392,
      "ikulum": 2393,
      "Ġdisebabkan": 2394,
      "ĠSp": 2395,
      "Ġdesa": 2396,
      "ĠPak": 2397,
      "lat": 2398,
      "Ġmeliputi": 2399,
      "Ġsang": 2400,
      "utkan": 2401,
      "sp": 2402,
      "ĠRasulullah": 2403,
      "uhkan": 2404,
      "Ġmotor": 2405,
      "Ġprofesi": 2406,
      "ĠInggris": 2407,
      "Ġbenda": 2408,
      "ĠAc": 2409,
      "ida": 2410,
      "AP": 2411,
      "Dengan": 2412,
      "Ġterakhir": 2413,
      "Ġberhubungan": 2414,
      "alian": 2415,
      "Ġ|": 2416,
      "Ġsebagaimana": 2417,
      "onen": 2418,
      "Ġberma": 2419,
      "NI": 2420,
      "Ġrem": 2421,
      "Ġkarakter": 2422,
      "roduk": 2423,
      "Ġkend": 2424,
      "Ġberfungsi": 2425,
      "Ġterbaik": 2426,
      "Ġalami": 2427,
      "emikian": 2428,
      "asis": 2429,
      "Ġpilihan": 2430,
      "Ġpemimpin": 2431,
      "Ġtab": 2432,
      "ĠUU": 2433,
      "Ġev": 2434,
      "stem": 2435,
      "Ġwajah": 2436,
      "ambahan": 2437,
      "Ġmenyer": 2438,
      "Ġbe": 2439,
      "Ġmembangun": 2440,
      "Ġsk": 2441,
      "usak": 2442,
      "Ġdilihat": 2443,
      "urus": 2444,
      "egah": 2445,
      "Ġpelajaran": 2446,
      "Ġpria": 2447,
      "Ġlog": 2448,
      "Ġener": 2449,
      "Ġefektif": 2450,
      "ewasa": 2451,
      "Ġpad": 2452,
      "Ġaspek": 2453,
      "Ġaktivitas": 2454,
      "erhana": 2455,
      "gu": 2456,
      "ĠKh": 2457,
      "umat": 2458,
      "esan": 2459,
      "ice": 2460,
      "Ġberubah": 2461,
      "ge": 2462,
      "Ġempat": 2463,
      "Ġmerah": 2464,
      "Ġdiketahui": 2465,
      "Ġdimaksud": 2466,
      "ebab": 2467,
      "Ġpenduduk": 2468,
      "ĠKami": 2469,
      "Ġseni": 2470,
      "amatan": 2471,
      "uali": 2472,
      "AW": 2473,
      "Ġ=": 2474,
      "har": 2475,
      "Ġaplikasi": 2476,
      "edit": 2477,
      "asilitas": 2478,
      "udayaan": 2479,
      "elap": 2480,
      "lob": 2481,
      "Ġrah": 2482,
      "Ġantar": 2483,
      "Ġtumbuh": 2484,
      "Ġperilaku": 2485,
      "ĠSebagai": 2486,
      "ĠKabupaten": 2487,
      "Peng": 2488,
      "epang": 2489,
      "Ġpanas": 2490,
      "kar": 2491,
      "simp": 2492,
      "Ġ194": 2493,
      "sel": 2494,
      "Ġmembutuhkan": 2495,
      "Ġtertu": 2496,
      "Sem": 2497,
      "Ġkekuasaan": 2498,
      "Ġkhususnya": 2499,
      "Jika": 2500,
      "ĠSy": 2501,
      "Ġbek": 2502,
      "juan": 2503,
      "ĠIntern": 2504,
      "Ġca": 2505,
      "Ġikut": 2506,
      "ware": 2507,
      "ĠKec": 2508,
      "Ġcinta": 2509,
      "ebihan": 2510,
      "ungkinan": 2511,
      "Ġpasi": 2512,
      "Ġmencoba": 2513,
      "ĠTimur": 2514,
      "titu": 2515,
      "Ø¹": 2516,
      "Ġsehat": 2517,
      "Ġpositif": 2518,
      "ĠTetapi": 2519,
      "Ġsementara": 2520,
      "Ġperbuatan": 2521,
      "entang": 2522,
      "port": 2523,
      "Ġmenciptakan": 2524,
      "ganti": 2525,
      "Ġburung": 2526,
      "Ġperhatian": 2527,
      "11": 2528,
      "ID": 2529,
      "Ġstruktur": 2530,
      "Ġialah": 2531,
      "isip": 2532,
      "Ġ16": 2533,
      "ue": 2534,
      "isten": 2535,
      "Ġdilaksanakan": 2536,
      "inar": 2537,
      "Ġjasa": 2538,
      "Ġturun": 2539,
      "Ġberlaku": 2540,
      "istiwa": 2541,
      "Ġtanda": 2542,
      "Ø¯": 2543,
      "atis": 2544,
      "Ġpola": 2545,
      "jadikan": 2546,
      "av": 2547,
      "Ġperjalanan": 2548,
      "ejala": 2549,
      "Ġdiharapkan": 2550,
      "rop": 2551,
      "Ġgag": 2552,
      "Ġsus": 2553,
      "ĠSeh": 2554,
      "Ġ13": 2555,
      "Ġdiberi": 2556,
      "ersi": 2557,
      "ĠMod": 2558,
      "enti": 2559,
      "inginan": 2560,
      "tudi": 2561,
      "elompok": 2562,
      "Ġsuka": 2563,
      "Ġpengaruh": 2564,
      "Ġindustri": 2565,
      "ideo": 2566,
      "Ġer": 2567,
      "enda": 2568,
      "untungan": 2569,
      "Ad": 2570,
      "Ġacara": 2571,
      "Ġgerakan": 2572,
      "ith": 2573,
      "ĠMaka": 2574,
      "Ġperbedaan": 2575,
      "lasi": 2576,
      "unggu": 2577,
      "Ġfilm": 2578,
      "eliti": 2579,
      "alikan": 2580,
      "ĠKemudian": 2581,
      "osis": 2582,
      "Ġmembuka": 2583,
      "Ġsehari": 2584,
      "iku": 2585,
      "Ġkepad": 2586,
      "Ġmenulis": 2587,
      "Ġdikatakan": 2588,
      "Ġmenjelaskan": 2589,
      "Ġbet": 2590,
      "atus": 2591,
      "ratis": 2592,
      "Ġmempengaruhi": 2593,
      "poran": 2594,
      "insi": 2595,
      "put": 2596,
      "Ġsejumlah": 2597,
      "Ġselanjutnya": 2598,
      "Ġaman": 2599,
      "Ġ30": 2600,
      "Ġmuslim": 2601,
      "Ġprinsip": 2602,
      "Ø³": 2603,
      "Ġmurah": 2604,
      "elur": 2605,
      "jakan": 2606,
      "oda": 2607,
      "ĠBagi": 2608,
      "ownload": 2609,
      "Ġseks": 2610,
      "emuan": 2611,
      "Ġsederhana": 2612,
      "Ġdipakai": 2613,
      "UL": 2614,
      "str": 2615,
      "iring": 2616,
      "Setelah": 2617,
      "Ġpertumbuhan": 2618,
      "agam": 2619,
      "adahal": 2620,
      "Ġsebagainya": 2621,
      "IT": 2622,
      "Ġbernama": 2623,
      "Ġpotensi": 2624,
      "Ùĥ": 2625,
      "efin": 2626,
      "Ġberkaitan": 2627,
      "ampung": 2628,
      "ĠOrang": 2629,
      "Ġterkait": 2630,
      "anian": 2631,
      "Ġistilah": 2632,
      "wajib": 2633,
      "Ġcer": 2634,
      "Ġimp": 2635,
      "Ġpesan": 2636,
      "ll": 2637,
      "Ġmodern": 2638,
      "ĠSu": 2639,
      "Ġberlangsung": 2640,
      "Ġpenulis": 2641,
      "Ġpikiran": 2642,
      "yan": 2643,
      "Ġpengertian": 2644,
      "enangan": 2645,
      "Ġpertanyaan": 2646,
      "angguan": 2647,
      "Ġ2013": 2648,
      "tas": 2649,
      "Ġjuta": 2650,
      "Menurut": 2651,
      "ĠSi": 2652,
      "Ġpeningkatan": 2653,
      "alagi": 2654,
      "Ġpercaya": 2655,
      "Ġkompet": 2656,
      "Ġmanfaat": 2657,
      "enaran": 2658,
      "Ġshal": 2659,
      "Ġterjadinya": 2660,
      "ĠAS": 2661,
      "Ġartinya": 2662,
      "ikmati": 2663,
      "obatan": 2664,
      "Ġ14": 2665,
      "ipta": 2666,
      "ĠBi": 2667,
      "ork": 2668,
      "UM": 2669,
      "Ġdijadikan": 2670,
      "ektr": 2671,
      "20": 2672,
      "Ġwisata": 2673,
      "Ġefek": 2674,
      "Ġmanajemen": 2675,
      "Ġkanan": 2676,
      "ĠPEN": 2677,
      "Ġinv": 2678,
      "Ġteknik": 2679,
      "entar": 2680,
      "Ġenergi": 2681,
      "Ġketiga": 2682,
      "uki": 2683,
      "Ġkalian": 2684,
      "II": 2685,
      "Ġanti": 2686,
      "ĠHar": 2687,
      "ĠDis": 2688,
      "ĠBahkan": 2689,
      "ono": 2690,
      "bi": 2691,
      "edakan": 2692,
      "ES": 2693,
      "Ġzaman": 2694,
      "ologis": 2695,
      "Ġkeuangan": 2696,
      "Ġ198": 2697,
      "Ġnon": 2698,
      "aluasi": 2699,
      "Ġmendukung": 2700,
      "Ġkela": 2701,
      "Ġbangunan": 2702,
      "Ġrek": 2703,
      "inj": 2704,
      "Dari": 2705,
      "Ġbergerak": 2706,
      "amping": 2707,
      "Ġperan": 2708,
      "ĠMela": 2709,
      "timb": 2710,
      "!!": 2711,
      "Ġdewasa": 2712,
      "Ġarti": 2713,
      "Ġme": 2714,
      "Ġberc": 2715,
      "ĠSistem": 2716,
      "der": 2717,
      "indari": 2718,
      "Ġblog": 2719,
      "ĠJepang": 2720,
      "Ġdiperoleh": 2721,
      "Ġpelangg": 2722,
      "ĠAbd": 2723,
      "Ġtokoh": 2724,
      "Ġdibandingkan": 2725,
      "Ġalasan": 2726,
      "imat": 2727,
      "aca": 2728,
      "Ġsekaligus": 2729,
      "ĠMin": 2730,
      "esis": 2731,
      "Ġlaki": 2732,
      "bat": 2733,
      "Ġoperasi": 2734,
      "Ġterletak": 2735,
      "irah": 2736,
      "asilan": 2737,
      "fi": 2738,
      "uler": 2739,
      "anfaatkan": 2740,
      "ĠKons": 2741,
      "abil": 2742,
      "aji": 2743,
      "Ġjiwa": 2744,
      "Ġartikel": 2745,
      "Ġ2012": 2746,
      "ĠUt": 2747,
      "istrik": 2748,
      "Ġ11": 2749,
      "urangan": 2750,
      "ĠMa": 2751,
      "irman": 2752,
      "Ġinilah": 2753,
      "ĠDr": 2754,
      "antik": 2755,
      "erb": 2756,
      "Ġjantung": 2757,
      "Ġsat": 2758,
      "jadian": 2759,
      "ĠGun": 2760,
      "--": 2761,
      "Ġgaya": 2762,
      "Ġitulah": 2763,
      "amaan": 2764,
      "ograf": 2765,
      "Ġsitus": 2766,
      "Ġkamar": 2767,
      "Ġmenurun": 2768,
      "Ġ17": 2769,
      "umpulan": 2770,
      "epatan": 2771,
      "Ġmengurangi": 2772,
      "ahaman": 2773,
      "Ġkemungkinan": 2774,
      "Ġup": 2775,
      "Ġpokok": 2776,
      "ocok": 2777,
      "amanan": 2778,
      "ital": 2779,
      "ĠAh": 2780,
      "Ġpermukaan": 2781,
      "ĠPresiden": 2782,
      "ĠKal": 2783,
      "Ġnaf": 2784,
      "Ġlokasi": 2785,
      "bah": 2786,
      "eman": 2787,
      "ĠUnivers": 2788,
      "Ġlengkap": 2789,
      "Ġtahap": 2790,
      "ontrol": 2791,
      "uma": 2792,
      "esus": 2793,
      "UR": 2794,
      "inc": 2795,
      "amin": 2796,
      "Ġdana": 2797,
      "ect": 2798,
      "ĠKetika": 2799,
      "Ġajaran": 2800,
      "Ġ100": 2801,
      "Ġonline": 2802,
      "Ġ2010": 2803,
      "Ġmusik": 2804,
      "janj": 2805,
      "zi": 2806,
      "Ġdemi": 2807,
      "Ġ2009": 2808,
      "ĠGer": 2809,
      "ewat": 2810,
      ".\"": 2811,
      "intah": 2812,
      "laki": 2813,
      "Ġmeningkat": 2814,
      "âĢĿ,": 2815,
      "elasan": 2816,
      "Ġpah": 2817,
      "ast": 2818,
      "Ġpergi": 2819,
      "Ġtimbul": 2820,
      "masalahan": 2821,
      "manfaat": 2822,
      "gab": 2823,
      "alang": 2824,
      "rik": 2825,
      "Ġstandar": 2826,
      "co": 2827,
      "ahas": 2828,
      "Ġminim": 2829,
      "ahari": 2830,
      "Ġok": 2831,
      "Ġlanjut": 2832,
      "okrasi": 2833,
      "Ġpasien": 2834,
      "ungkinkan": 2835,
      "Ġbatas": 2836,
      "Ġminyak": 2837,
      "Ġkayu": 2838,
      "ell": 2839,
      "Ġkantor": 2840,
      "hone": 2841,
      "urah": 2842,
      "esai": 2843,
      "Ġpasangan": 2844,
      "ĠKomp": 2845,
      "Ġterh": 2846,
      "ĠBila": 2847,
      "ĠEk": 2848,
      "Ġfile": 2849,
      "ĠKalau": 2850,
      "Ġmahasiswa": 2851,
      "urna": 2852,
      "Ġyou": 2853,
      "dasarkan": 2854,
      "ĠKita": 2855,
      "OR": 2856,
      "Ġtadi": 2857,
      "Ġmeminta": 2858,
      "Ġgaris": 2859,
      "ĠKer": 2860,
      "ĠEn": 2861,
      "Ġdimiliki": 2862,
      "Ġlemb": 2863,
      "Ġrep": 2864,
      "Ġref": 2865,
      "Ġbantuan": 2866,
      "unuh": 2867,
      "Ġdibutuhkan": 2868,
      "ĠMah": 2869,
      "ilangan": 2870,
      "unting": 2871,
      "Dan": 2872,
      "Ġtulisan": 2873,
      "Ġpop": 2874,
      "Ġsemb": 2875,
      "Ġzat": 2876,
      "ho": 2877,
      "irikan": 2878,
      "ajaan": 2879,
      "Ġmemerlukan": 2880,
      "Ġabad": 2881,
      "Ġisi": 2882,
      "Ġ'": 2883,
      "entr": 2884,
      "Ġfasilitas": 2885,
      "encanaan": 2886,
      "Ġpandangan": 2887,
      "Ġbagus": 2888,
      "amat": 2889,
      "Ġhutan": 2890,
      "Ġkawasan": 2891,
      "ail": 2892,
      "Ġgener": 2893,
      "Ġpendekatan": 2894,
      "cam": 2895,
      "ĠNasional": 2896,
      "Ġterbuka": 2897,
      "okan": 2898,
      "warna": 2899,
      "Ġaliran": 2900,
      "Ġmil": 2901,
      "ĠMuslim": 2902,
      "unjung": 2903,
      "Ġ[": 2904,
      "aknya": 2905,
      "Ġtiba": 2906,
      "atatan": 2907,
      "tivasi": 2908,
      "angsa": 2909,
      "ĠPeny": 2910,
      "atuh": 2911,
      "Ġperp": 2912,
      "ĠPemerintah": 2913,
      "201": 2914,
      "ĠMemb": 2915,
      "UK": 2916,
      "Ġdag": 2917,
      "lain": 2918,
      "ĠMak": 2919,
      "ET": 2920,
      "ĠIl": 2921,
      "aliknya": 2922,
      "imia": 2923,
      "Ġny": 2924,
      "unjuk": 2925,
      "Ġkonf": 2926,
      "Ġsupaya": 2927,
      "unyi": 2928,
      "Ġmenjalankan": 2929,
      "arta": 2930,
      "Ġmengatur": 2931,
      "Ġpres": 2932,
      "Ġdidalam": 2933,
      "tifikasi": 2934,
      "abatan": 2935,
      "Ġmenit": 2936,
      "ikah": 2937,
      "ĠDAN": 2938,
      "Ġtekanan": 2939,
      "Ġtitik": 2940,
      "oni": 2941,
      "dag": 2942,
      "ulus": 2943,
      "iksaan": 2944,
      "abel": 2945,
      "edar": 2946,
      "ftar": 2947,
      "elesaikan": 2948,
      "Ġmilik": 2949,
      "Ġperl": 2950,
      "ĠKon": 2951,
      "Ġmenyediakan": 2952,
      "13": 2953,
      "nilai": 2954,
      "ĠRes": 2955,
      "Ap": 2956,
      ":||": 2957,
      "Ġlaporan": 2958,
      "mainan": 2959,
      "udul": 2960,
      "nah": 2961,
      "ĠAnak": 2962,
      "ater": 2963,
      "jau": 2964,
      "Ġsebesar": 2965,
      "Ġmor": 2966,
      "usakan": 2967,
      "ĠSaat": 2968,
      "ack": 2969,
      "Ġberpikir": 2970,
      "lahkan": 2971,
      "Ġberdiri": 2972,
      "kata": 2973,
      "Ġsamping": 2974,
      "ASI": 2975,
      "emu": 2976,
      "Ġdokter": 2977,
      "Ġmemakai": 2978,
      "Ġperang": 2979,
      "janjian": 2980,
      "ganya": 2981,
      "bagi": 2982,
      "jid": 2983,
      "Ġnaik": 2984,
      "Ġmenghadapi": 2985,
      "ei": 2986,
      "Ġduduk": 2987,
      "ka": 2988,
      "Ġpsik": 2989,
      "Ġch": 2990,
      "ĠSej": 2991,
      "Ġkerajaan": 2992,
      "Ġmodal": 2993,
      "hh": 2994,
      "Ġkan": 2995,
      "irus": 2996,
      "Ġula": 2997,
      "ultan": 2998,
      "Ġperasaan": 2999,
      "enter": 3000,
      "abis": 3001,
      "Ġbermanfaat": 3002,
      "Ġbermain": 3003,
      "ihan": 3004,
      "Ġmenjadikan": 3005,
      "Ġterkenal": 3006,
      "Ġdr": 3007,
      "Ġform": 3008,
      "ĠArab": 3009,
      "Ġkecuali": 3010,
      "Ġstrategi": 3011,
      "ustru": 3012,
      "Ġlihat": 3013,
      "OM": 3014,
      "resi": 3015,
      "Ġmembeli": 3016,
      "ĠHarga": 3017,
      "ĠTh": 3018,
      "Ġbersih": 3019,
      "Ġditerima": 3020,
      "Ġberper": 3021,
      "ĠDep": 3022,
      "Saya": 3023,
      "meng": 3024,
      "ink": 3025,
      "ĠDaerah": 3026,
      "ministr": 3027,
      "okasi": 3028,
      "Ġpembuatan": 3029,
      "baya": 3030,
      "atnya": 3031,
      "dari": 3032,
      "Ġperaturan": 3033,
      "ĠÙħ": 3034,
      "Ġindah": 3035,
      "Ġwajib": 3036,
      "Ġperb": 3037,
      "ĠMad": 3038,
      "ĠRep": 3039,
      "Ġsarana": 3040,
      "uari": 3041,
      "Ġselesai": 3042,
      "Meng": 3043,
      "Ġlamb": 3044,
      "ĠUs": 3045,
      "Ġkebudayaan": 3046,
      "Ġkebenaran": 3047,
      "Ġayah": 3048,
      "guna": 3049,
      "Ġterasa": 3050,
      "andungan": 3051,
      "Ġlayanan": 3052,
      "Ġsana": 3053,
      "Ġbunga": 3054,
      "Ġmengenal": 3055,
      "Ġby": 3056,
      "Ġsungai": 3057,
      "Ġtergantung": 3058,
      "ris": 3059,
      "jaan": 3060,
      "ĠContoh": 3061,
      "Ġasal": 3062,
      "Ġtanggung": 3063,
      "âĢĵ": 3064,
      "Ġbus": 3065,
      "ĠLa": 3066,
      "Ġkomponen": 3067,
      "ach": 3068,
      "inding": 3069,
      "Ġmakna": 3070,
      "18": 3071,
      "Ġperangkat": 3072,
      "ifikasi": 3073,
      "emahan": 3074,
      "amah": 3075,
      "Ġlima": 3076,
      "get": 3077,
      "Ġgas": 3078,
      "ĠBeberapa": 3079,
      "Ġmerasakan": 3080,
      "Ġperistiwa": 3081,
      "ebar": 3082,
      "Ġterlebih": 3083,
      "tau": 3084,
      "uksi": 3085,
      "angkap": 3086,
      "Ġ2011": 3087,
      "ĠAbu": 3088,
      "eku": 3089,
      "Ġex": 3090,
      "Ġburuk": 3091,
      "sih": 3092,
      "amakan": 3093,
      "egaw": 3094,
      "Ġistri": 3095,
      "asila": 3096,
      "Ġht": 3097,
      "ĠAnd": 3098,
      "Ġpengguna": 3099,
      "Ġnormal": 3100,
      "Ġinternasional": 3101,
      "Ġmulut": 3102,
      "Ġasing": 3103,
      "Ġpay": 3104,
      "ĠâĢĿ": 3105,
      "tahan": 3106,
      "atian": 3107,
      "Ġgangguan": 3108,
      "Ġmendengar": 3109,
      "asinya": 3110,
      "ass": 3111,
      "ĠBandung": 3112,
      "Ġkurikulum": 3113,
      "ĠMet": 3114,
      "Ġcalon": 3115,
      "ĠYesus": 3116,
      "Ġlagu": 3117,
      "fikasi": 3118,
      "Ġder": 3119,
      "asah": 3120,
      "sim": 3121,
      "udukan": 3122,
      "Ġkeinginan": 3123,
      "Ġkonsumen": 3124,
      "Ġhid": 3125,
      "ĠPara": 3126,
      "ajaran": 3127,
      "Ġdom": 3128,
      "ĠSep": 3129,
      "Ġperi": 3130,
      "ahter": 3131,
      "Ġmed": 3132,
      "Ġwalaupun": 3133,
      "elan": 3134,
      "emuk": 3135,
      "ular": 3136,
      "Ġkalangan": 3137,
      "ilaian": 3138,
      "15": 3139,
      "Ġsw": 3140,
      "Ġberita": 3141,
      "egiatan": 3142,
      "ancasila": 3143,
      "Ġrib": 3144,
      "Ġmengeluarkan": 3145,
      "Ġvari": 3146,
      "ower": 3147,
      "roduksi": 3148,
      "ĠNeg": 3149,
      "ĠDI": 3150,
      "Ġdaun": 3151,
      "YA": 3152,
      "Ġrencana": 3153,
      "lor": 3154,
      "Ġdiak": 3155,
      "Ġperc": 3156,
      "ĠHukum": 3157,
      "uci": 3158,
      "Ġpenyebab": 3159,
      "Ġlistrik": 3160,
      "hluk": 3161,
      "oritas": 3162,
      "Ġsab": 3163,
      "Ġmencegah": 3164,
      "Selain": 3165,
      "Ġmenjawab": 3166,
      "ĠTekn": 3167,
      "Ġhttp": 3168,
      "Ġrambut": 3169,
      "Ġpagi": 3170,
      "ock": 3171,
      "ĠAir": 3172,
      "oftware": 3173,
      "Kar": 3174,
      "tual": 3175,
      "30": 3176,
      "ĠSa": 3177,
      "Ġkej": 3178,
      "Ġkiri": 3179,
      "ĠSW": 3180,
      "Ġrangka": 3181,
      "ĠSelatan": 3182,
      "ĠIm": 3183,
      "Ġkomun": 3184,
      "tal": 3185,
      "Ġkorban": 3186,
      "aksa": 3187,
      "alatan": 3188,
      "uji": 3189,
      "iksa": 3190,
      "ĠMisalnya": 3191,
      "ĠSehingga": 3192,
      "sed": 3193,
      "Ġkun": 3194,
      "tah": 3195,
      "Ġsebanyak": 3196,
      "are": 3197,
      "Ġmakin": 3198,
      "Ġkewajib": 3199,
      "Ġlewat": 3200,
      "Ġpemer": 3201,
      "Ġmemungkinkan": 3202,
      "ĠSalah": 3203,
      "enderung": 3204,
      "Ġdesain": 3205,
      "Ġelektr": 3206,
      "EK": 3207,
      "unda": 3208,
      "Ġmon": 3209,
      "Ġpajak": 3210,
      "ĠMat": 3211,
      "Ġmenyimp": 3212,
      "Ġbank": 3213,
      "Ġli": 3214,
      "Ġpenderita": 3215,
      "Ġkhas": 3216,
      "ows": 3217,
      "organ": 3218,
      "Ġhitam": 3219,
      "ulitan": 3220,
      "Ġmeninggalkan": 3221,
      "ĠMala": 3222,
      "Ġsuku": 3223,
      "Ġtulang": 3224,
      "Ġdll": 3225,
      "Ġhalaman": 3226,
      "alur": 3227,
      "pon": 3228,
      "Ġsystem": 3229,
      "adis": 3230,
      "PK": 3231,
      "Ġberwarna": 3232,
      "Ar": 3233,
      "Ġjustru": 3234,
      "Ġsoal": 3235,
      "ĠBr": 3236,
      "Ġsuami": 3237,
      "Ġmeskipun": 3238,
      "Pro": 3239,
      "inter": 3240,
      "Ġmengatasi": 3241,
      "ambarkan": 3242,
      "Ġtersedia": 3243,
      "Ġjangka": 3244,
      "Ġdisini": 3245,
      "Ġsempurna": 3246,
      "safat": 3247,
      "sud": 3248,
      "Ġang": 3249,
      "enangkan": 3250,
      "Ġotak": 3251,
      "iko": 3252,
      "ahanan": 3253,
      "gak": 3254,
      "age": 3255,
      "Ġlokal": 3256,
      "Ġpemikiran": 3257,
      "Ġapapun": 3258,
      "amkan": 3259,
      "ĠApakah": 3260,
      "itung": 3261,
      "Ada": 3262,
      "Ġaw": 3263,
      "Ġdibawah": 3264,
      "Ġpemain": 3265,
      "Ġcenderung": 3266,
      "Ġes": 3267,
      "Ġkak": 3268,
      "Ġmelainkan": 3269,
      "Ġdimulai": 3270,
      "Ġpermasalahan": 3271,
      "ĠKor": 3272,
      "Ġkapal": 3273,
      "anggu": 3274,
      "az": 3275,
      "ne": 3276,
      "ilangkan": 3277,
      "de": 3278,
      "ukul": 3279,
      "ĠPER": 3280,
      "evel": 3281,
      "iling": 3282,
      "Ġtentunya": 3283,
      "intaan": 3284,
      "engaruh": 3285,
      "Ter": 3286,
      "Ġhilang": 3287,
      "DA": 3288,
      "Ġremaja": 3289,
      "14": 3290,
      "enakan": 3291,
      "itur": 3292,
      "Ġnyata": 3293,
      "Ġnot": 3294,
      "ahu": 3295,
      "Ġklik": 3296,
      "Ġid": 3297,
      "titusi": 3298,
      "Ġbola": 3299,
      "tup": 3300,
      "Ġmatahari": 3301,
      "Ġditentukan": 3302,
      "Ġsituasi": 3303,
      "ÙĤ": 3304,
      "Ġsesungguhnya": 3305,
      "antara": 3306,
      "Ġsemangat": 3307,
      "ĠRaja": 3308,
      "pro": 3309,
      "Ġpohon": 3310,
      "intang": 3311,
      "ambahkan": 3312,
      "anker": 3313,
      "opi": 3314,
      "Ġ25": 3315,
      "cayaan": 3316,
      "Ġpengelola": 3317,
      "arnya": 3318,
      "Ġtradisional": 3319,
      "jualan": 3320,
      "aring": 3321,
      "Ġvideo": 3322,
      "Ġtiap": 3323,
      "Ġpemahaman": 3324,
      "tahankan": 3325,
      "IL": 3326,
      "Ġhewan": 3327,
      "ret": 3328,
      "Ġminum": 3329,
      "Ġotot": 3330,
      "16": 3331,
      "let": 3332,
      "ĠStr": 3333,
      "arusnya": 3334,
      "Ġdiambil": 3335,
      "orma": 3336,
      "Ġkau": 3337,
      "Ġbib": 3338,
      "ajian": 3339,
      "itasi": 3340,
      "Ġsepanjang": 3341,
      "nu": 3342,
      "ĠJangan": 3343,
      "Ġtakut": 3344,
      "Ġlapangan": 3345,
      "inginkan": 3346,
      "yaran": 3347,
      "Ġraja": 3348,
      "ĠKetu": 3349,
      "ibusi": 3350,
      "Ġkre": 3351,
      "oman": 3352,
      "ĠItu": 3353,
      "ement": 3354,
      "abang": 3355,
      "uhu": 3356,
      "Ġpintu": 3357,
      "Ġaturan": 3358,
      "ĊĊ": 3359,
      "Ġinst": 3360,
      "Ġkeuntungan": 3361,
      "ĠBanyak": 3362,
      "Ġpublik": 3363,
      "ĠTujuan": 3364,
      "inal": 3365,
      "Ġkesalahan": 3366,
      "akta": 3367,
      "ĠBali": 3368,
      "ĠBank": 3369,
      "Ġbes": 3370,
      "Ġglob": 3371,
      "ĠØ¹": 3372,
      "Ġlar": 3373,
      "Ke": 3374,
      "ĠPel": 3375,
      "Ġminggu": 3376,
      "indah": 3377,
      "Ġsebaiknya": 3378,
      "Ġx": 3379,
      "Ġmenikmati": 3380,
      "Ġmemperhatikan": 3381,
      "Ġkitab": 3382,
      "Ġkematian": 3383,
      "Ġpakaian": 3384,
      "Ġnas": 3385,
      "Ġadat": 3386,
      "ĠUndang": 3387,
      "Ġdalamnya": 3388,
      "Ġjatuh": 3389,
      "angkutan": 3390,
      "miah": 3391,
      "ĠSur": 3392,
      "Ġciri": 3393,
      "Ġkin": 3394,
      "oalan": 3395,
      "Ġmengubah": 3396,
      "Ġpla": 3397,
      "mer": 3398,
      "Ġgigi": 3399,
      "akkan": 3400,
      "Ġsyarat": 3401,
      "indungi": 3402,
      "ĠØ£": 3403,
      "ĠSen": 3404,
      "Ġditetapkan": 3405,
      "Ġgolongan": 3406,
      "impi": 3407,
      "Ġkaryawan": 3408,
      "Ġkejadian": 3409,
      "Ġasam": 3410,
      "akup": 3411,
      "adu": 3412,
      "daya": 3413,
      "ĠMaha": 3414,
      "ayaan": 3415,
      "Ġfr": 3416,
      "Ġmakhluk": 3417,
      "Ġmenambah": 3418,
      "Ġagak": 3419,
      "ĠSWT": 3420,
      "top": 3421,
      "ester": 3422,
      "urabaya": 3423,
      "Ġpantai": 3424,
      "anjutkan": 3425,
      "Ġberbentuk": 3426,
      "Ġcahaya": 3427,
      "Ġolah": 3428,
      "Ġha": 3429,
      "Ġunit": 3430,
      "Ġapi": 3431,
      "Ġberisi": 3432,
      "ĠTak": 3433,
      "Pem": 3434,
      "ulau": 3435,
      "ĠÙģ": 3436,
      "sek": 3437,
      "Ġpej": 3438,
      "ĠDesa": 3439,
      "Ġduk": 3440,
      "atat": 3441,
      "Ġpenya": 3442,
      "ead": 3443,
      "Ġberbicara": 3444,
      "oo": 3445,
      "Ġmendorong": 3446,
      "erv": 3447,
      "ĠSetiap": 3448,
      "PT": 3449,
      "Ġangka": 3450,
      "otal": 3451,
      "jaga": 3452,
      "Ġdisk": 3453,
      "bit": 3454,
      "adaran": 3455,
      "andai": 3456,
      "Ġnanti": 3457,
      "angkut": 3458,
      "krip": 3459,
      "Ġmengajar": 3460,
      "ĠSementara": 3461,
      "lien": 3462,
      "Ġkewajiban": 3463,
      "ajuan": 3464,
      "indak": 3465,
      "ĠApa": 3466,
      "Ġpermainan": 3467,
      "Ġtata": 3468,
      "ĠSeperti": 3469,
      "ĠFil": 3470,
      "Ġkimia": 3471,
      "iru": 3472,
      "ĠSD": 3473,
      "Ġbertanya": 3474,
      "ĠSemua": 3475,
      "Ġobjek": 3476,
      "Ġsemuanya": 3477,
      "indows": 3478,
      "Ġsahabat": 3479,
      "jas": 3480,
      "Ġstudi": 3481,
      "utar": 3482,
      "engkapi": 3483,
      "Ġdihasilkan": 3484,
      "oll": 3485,
      "Ġharta": 3486,
      "unci": 3487,
      "Ġmenekan": 3488,
      "Ùī": 3489,
      "Ġperd": 3490,
      "uasai": 3491,
      "Ġtipe": 3492,
      "Cara": 3493,
      "andingan": 3494,
      "Ġdampak": 3495,
      "ĠTi": 3496,
      "Ġcocok": 3497,
      "Ġoper": 3498,
      "egis": 3499,
      "Ġpengg": 3500,
      "atangan": 3501,
      "Ġmengakibatkan": 3502,
      "itakan": 3503,
      "199": 3504,
      "Ġradi": 3505,
      "Ġketidak": 3506,
      "Ġkepem": 3507,
      "Ġguna": 3508,
      "jar": 3509,
      "peng": 3510,
      "lack": 3511,
      "oma": 3512,
      "Ġ50": 3513,
      "Ġulama": 3514,
      "Aku": 3515,
      "site": 3516,
      "Ġbukti": 3517,
      "ebook": 3518,
      "baiki": 3519,
      "ØŃ": 3520,
      "Ġtambahan": 3521,
      "Qur": 3522,
      "Ġsegi": 3523,
      "UT": 3524,
      "ĠMana": 3525,
      "idana": 3526,
      "udut": 3527,
      "ff": 3528,
      "ĠGuru": 3529,
      "gunaan": 3530,
      "pe": 3531,
      "Ġdiam": 3532,
      "Ġdikembangkan": 3533,
      "Ġperintah": 3534,
      "ĠNegeri": 3535,
      "Ġ197": 3536,
      "Ġterbentuk": 3537,
      "Ġmenutup": 3538,
      "hit": 3539,
      "yakarta": 3540,
      "wujud": 3541,
      "?âĢĿ": 3542,
      "Ġterbaru": 3543,
      "ĠGo": 3544,
      "bab": 3545,
      "akil": 3546,
      "ĠSecara": 3547,
      "mpaikan": 3548,
      "ombang": 3549,
      "endapat": 3550,
      "Ġakses": 3551,
      "egawai": 3552,
      "kes": 3553,
      "isipasi": 3554,
      "etr": 3555,
      "raga": 3556,
      "Ġkerusakan": 3557,
      "alas": 3558,
      "ton": 3559,
      "erahkan": 3560,
      "Ġpemberian": 3561,
      "Ġgejala": 3562,
      "indahan": 3563,
      "antas": 3564,
      "Ġsempat": 3565,
      "Ġujung": 3566,
      "17": 3567,
      "arap": 3568,
      "ĠTengah": 3569,
      "Ġmaksim": 3570,
      "Ġmusim": 3571,
      "UH": 3572,
      "ence": 3573,
      "ujan": 3574,
      "TA": 3575,
      "araf": 3576,
      "OL": 3577,
      "Ġkandungan": 3578,
      "ĠMaj": 3579,
      "Ġkesulitan": 3580,
      "ĠPancasila": 3581,
      "Ġberku": 3582,
      "negara": 3583,
      "Ġet": 3584,
      "Ġ24": 3585,
      "eluruhan": 3586,
      "udd": 3587,
      "tua": 3588,
      "Ġrum": 3589,
      "oran": 3590,
      "Ġsebelah": 3591,
      "Ġgunakan": 3592,
      "KI": 3593,
      "ĠTe": 3594,
      "Ġkalimat": 3595,
      "alisme": 3596,
      "Ġhadir": 3597,
      "Ġhotel": 3598,
      "Ġseharusnya": 3599,
      "onsumsi": 3600,
      "atasan": 3601,
      "ium": 3602,
      "ĠLalu": 3603,
      "ĠEro": 3604,
      "osisi": 3605,
      "ĠIbu": 3606,
      "Ġkonflik": 3607,
      "ĠIlmu": 3608,
      "Ġrata": 3609,
      "angkaian": 3610,
      "Ġmaksud": 3611,
      "ĠHind": 3612,
      "Ġsukses": 3613,
      "itamin": 3614,
      "Ġdiantaranya": 3615,
      "ebasan": 3616,
      "Ġketentuan": 3617,
      "Ġperencanaan": 3618,
      "andiri": 3619,
      "Ġeksp": 3620,
      "Ġnegatif": 3621,
      "use": 3622,
      "ĠBahasa": 3623,
      "asia": 3624,
      "Tidak": 3625,
      "ash": 3626,
      "Ġkeamanan": 3627,
      "elang": 3628,
      "Ġpasukan": 3629,
      "ampilkan": 3630,
      "vinsi": 3631,
      "yani": 3632,
      "Ġpilih": 3633,
      "Namun": 3634,
      "omo": 3635,
      "Ġasli": 3636,
      "IM": 3637,
      "ikmat": 3638,
      "ham": 3639,
      "ĠDir": 3640,
      "row": 3641,
      "Ġilmiah": 3642,
      "Ġseri": 3643,
      "ikahan": 3644,
      "awi": 3645,
      "ĠYa": 3646,
      "==": 3647,
      "ĠPers": 3648,
      "Ġsimp": 3649,
      "ĠUmum": 3650,
      "ĠAsia": 3651,
      "ĠJer": 3652,
      "amai": 3653,
      "siapkan": 3654,
      "Ġbukanlah": 3655,
      "EMB": 3656,
      "Ġout": 3657,
      "ogyakarta": 3658,
      "Ġtangga": 3659,
      "Ġsayang": 3660,
      "Ġterbatas": 3661,
      "amis": 3662,
      "Ġwith": 3663,
      "ogle": 3664,
      "utuskan": 3665,
      "Ġseng": 3666,
      "ĠKepala": 3667,
      "Ġcairan": 3668,
      "ongk": 3669,
      "epon": 3670,
      "erajaan": 3671,
      "Ġtop": 3672,
      "oli": 3673,
      "ona": 3674,
      "dagangan": 3675,
      "Ġkadang": 3676,
      "Ġpul": 3677,
      "Ġruangan": 3678,
      "tein": 3679,
      "ugi": 3680,
      "Ġketerampilan": 3681,
      "Ġresmi": 3682,
      "ril": 3683,
      "ĠâĢ¦": 3684,
      "Ġlapisan": 3685,
      "bo": 3686,
      "ĠAkan": 3687,
      "jasama": 3688,
      "cak": 3689,
      "Ġkeduanya": 3690,
      "Ġmenyampaikan": 3691,
      "Ġ196": 3692,
      "onton": 3693,
      "agian": 3694,
      "ĠÙĦ": 3695,
      "Ġulang": 3696,
      "Ġmempelajari": 3697,
      "Ġq": 3698,
      "ikal": 3699,
      "Ġpertanian": 3700,
      "Ġkanker": 3701,
      "iew": 3702,
      "asana": 3703,
      "Ġ1945": 3704,
      "ĠEropa": 3705,
      "Ġjarak": 3706,
      "Ġmeter": 3707,
      "tic": 3708,
      "Ġdinding": 3709,
      "fr": 3710,
      "Ġgenerasi": 3711,
      "Ġlahan": 3712,
      "Ġkeseluruhan": 3713,
      "ayakan": 3714,
      "ĠSerikat": 3715,
      "Ġkendaraan": 3716,
      "Ġpe": 3717,
      "ustak": 3718,
      "Ġanalisis": 3719,
      "endiri": 3720,
      "Ġberikutnya": 3721,
      "Ġmaju": 3722,
      "umur": 3723,
      "edung": 3724,
      "Ġdasarnya": 3725,
      "Ġsaluran": 3726,
      "Ġgen": 3727,
      "lihat": 3728,
      "Ġperalatan": 3729,
      "Ġpenilaian": 3730,
      "Ġislam": 3731,
      "Ġberkom": 3732,
      "ĠKap": 3733,
      "eral": 3734,
      "Ġkos": 3735,
      "mana": 3736,
      "pir": 3737,
      "\".": 3738,
      "iasaan": 3739,
      "Ġmencer": 3740,
      "Ġtant": 3741,
      "angnya": 3742,
      "Ġpelatihan": 3743,
      "ebr": 3744,
      "Ġpemilik": 3745,
      "ebat": 3746,
      "lic": 3747,
      "onis": 3748,
      "Ġnyaman": 3749,
      "Ġengk": 3750,
      "ema": 3751,
      "isahkan": 3752,
      "Ġefisi": 3753,
      "Ġit": 3754,
      "Ġnomor": 3755,
      "Ġkaya": 3756,
      "obat": 3757,
      "Ġemosi": 3758,
      "ĠIr": 3759,
      "Ġmengapa": 3760,
      "Ġayam": 3761,
      "Ġkepercayaan": 3762,
      "emas": 3763,
      "ĠOn": 3764,
      "ataan": 3765,
      "Ġprofesional": 3766,
      "Ġkinerja": 3767,
      "ĠPut": 3768,
      "ĠBagaimana": 3769,
      "epsi": 3770,
      "Ġibadah": 3771,
      "Ġperut": 3772,
      "ĠAL": 3773,
      "ĠAgus": 3774,
      "ĠRumah": 3775,
      "Ġmerek": 3776,
      "emukakan": 3777,
      "DI": 3778,
      "ejahter": 3779,
      "esuaikan": 3780,
      "Ġlatihan": 3781,
      "sinya": 3782,
      "abu": 3783,
      "sh": 3784,
      "ĠMo": 3785,
      "erang": 3786,
      "Ġmelawan": 3787,
      "do": 3788,
      "Ġsudut": 3789,
      "turunan": 3790,
      "Ø©": 3791,
      "Ġmoral": 3792,
      "jawab": 3793,
      "Ġbatang": 3794,
      "ĠSAW": 3795,
      "Ġmenyelesaikan": 3796,
      "Ġkompetensi": 3797,
      "ampaikan": 3798,
      "Ġmengadakan": 3799,
      "sedur": 3800,
      "amuka": 3801,
      "Ġmik": 3802,
      "amilan": 3803,
      "ografi": 3804,
      "aq": 3805,
      "ee": 3806,
      "jo": 3807,
      "yo": 3808,
      "Ġdidapat": 3809,
      "anji": 3810,
      "ade": 3811,
      "Ġge": 3812,
      "Ġkering": 3813,
      "astra": 3814,
      "Ġtelur": 3815,
      "uktikan": 3816,
      "Ġmenguasai": 3817,
      "www": 3818,
      "ĠProses": 3819,
      "Ġpulau": 3820,
      "Ġperawatan": 3821,
      "Ġbalik": 3822,
      "Ġmurid": 3823,
      "angit": 3824,
      "ĠSes": 3825,
      "ĠBaru": 3826,
      "zim": 3827,
      "Ġbertanggung": 3828,
      "ĠAli": 3829,
      "intas": 3830,
      "empatkan": 3831,
      "irip": 3832,
      "Ġhadits": 3833,
      "Ġ08": 3834,
      "ental": 3835,
      "itual": 3836,
      "Ġhalus": 3837,
      "Ġgratis": 3838,
      "ĠHasil": 3839,
      "Ġperiode": 3840,
      "OS": 3841,
      "ajat": 3842,
      "Ġtemp": 3843,
      "uruan": 3844,
      "ĠSurabaya": 3845,
      "ubang": 3846,
      "Ġthat": 3847,
      "Ġpulang": 3848,
      "Ġcoba": 3849,
      "Ġdaging": 3850,
      "ĠSam": 3851,
      "Ġtar": 3852,
      "Ġjarang": 3853,
      "ĠSekolah": 3854,
      "ambaran": 3855,
      "Ġsenang": 3856,
      "Ġjalur": 3857,
      "Ġlayak": 3858,
      "Ġdiantara": 3859,
      "ĠPerk": 3860,
      "enuh": 3861,
      "Ġmenolak": 3862,
      "Ġsadar": 3863,
      "osok": 3864,
      "ministrasi": 3865,
      "ĠNomor": 3866,
      "Ġ2008": 3867,
      "Ġbeli": 3868,
      "Ġkatanya": 3869,
      "ĠMel": 3870,
      "22": 3871,
      "Ġshalat": 3872,
      "ĠDasar": 3873,
      "ambang": 3874,
      "Ġpo": 3875,
      "ĠBat": 3876,
      "agu": 3877,
      "Ġkesadaran": 3878,
      "Ġpenjualan": 3879,
      "ight": 3880,
      "Ġreg": 3881,
      "enting": 3882,
      "Ġperjanjian": 3883,
      "osit": 3884,
      "Ùģ": 3885,
      "Ġcm": 3886,
      "Ġkehilangan": 3887,
      "tis": 3888,
      "Ġsaw": 3889,
      "ĠUS": 3890,
      "ektur": 3891,
      "Ġharapan": 3892,
      "eal": 3893,
      "pres": 3894,
      "ĠNew": 3895,
      "Ġsens": 3896,
      "PS": 3897,
      "elihara": 3898,
      "Ġengkau": 3899,
      "Ġangin": 3900,
      "no": 3901,
      "Ġpendek": 3902,
      "okoh": 3903,
      "Ġfac": 3904,
      "NS": 3905,
      "Ġsuhu": 3906,
      "Ġrelatif": 3907,
      "ĠEng": 3908,
      "awarkan": 3909,
      "ungkapkan": 3910,
      "etul": 3911,
      "Ġpartai": 3912,
      "Ġmalah": 3913,
      "ull": 3914,
      "angkit": 3915,
      "Ġtes": 3916,
      "ING": 3917,
      "epak": 3918,
      "ukai": 3919,
      "ĠProgram": 3920,
      "Ġjer": 3921,
      "asikan": 3922,
      "ĠSal": 3923,
      "PA": 3924,
      "Ġkain": 3925,
      "Ġklien": 3926,
      "wak": 3927,
      "ĠDin": 3928,
      "ĠUniversitas": 3929,
      "Ġmengal": 3930,
      "ĠRepublik": 3931,
      "oko": 3932,
      "Ġdosa": 3933,
      "Ġpengan": 3934,
      "ĠEl": 3935,
      "ĠPar": 3936,
      "Ġterbesar": 3937,
      "Ġlupa": 3938,
      "lahan": 3939,
      "jaya": 3940,
      "intai": 3941,
      "âĢĶ": 3942,
      "ĠApabila": 3943,
      "Ġsuasana": 3944,
      "Ġpenjelasan": 3945,
      "Ġmelah": 3946,
      "ood": 3947,
      "uruf": 3948,
      "Ġuc": 3949,
      "ekaan": 3950,
      "ĠKi": 3951,
      "ĠPang": 3952,
      "roid": 3953,
      "Ġ2007": 3954,
      "Ġsec": 3955,
      "Ġpesawat": 3956,
      "Ġkekurangan": 3957,
      "Ġbertujuan": 3958,
      "Ġpersoalan": 3959,
      "ĠKE": 3960,
      "Ġcantik": 3961,
      "encan": 3962,
      "unjungi": 3963,
      "otong": 3964,
      "Ġpembentukan": 3965,
      "elek": 3966,
      "ary": 3967,
      "Ġemail": 3968,
      "ĠKedua": 3969,
      "TI": 3970,
      "ENG": 3971,
      "Ġdaftar": 3972,
      "Ġkecepatan": 3973,
      "Hal": 3974,
      "Ġdiperk": 3975,
      "dalam": 3976,
      "upsi": 3977,
      "Ġbaju": 3978,
      "ĠHari": 3979,
      "Ġberbuat": 3980,
      "ĠDem": 3981,
      "epaskan": 3982,
      "ĠKa": 3983,
      "ĠJan": 3984,
      "ĠLap": 3985,
      "Ġhujan": 3986,
      "ustakaan": 3987,
      "Ġvag": 3988,
      "ĠÙĬ": 3989,
      "efinisi": 3990,
      "Ġmut": 3991,
      "ancang": 3992,
      "ĠAgama": 3993,
      "Ġpenis": 3994,
      "evisi": 3995,
      "Ġbertemu": 3996,
      "afs": 3997,
      "Ġent": 3998,
      "Ġmenikah": 3999,
      "Ġberguna": 4000,
      "lahu": 4001,
      "ĠSup": 4002,
      "gabung": 4003,
      "Ġpemeriksaan": 4004,
      "ĠKetua": 4005,
      "25": 4006,
      "old": 4007,
      "BM": 4008,
      "Sumber": 4009,
      "enom": 4010,
      "ampur": 4011,
      "Ġ40": 4012,
      "ejahteraan": 4013,
      "cana": 4014,
      "leks": 4015,
      "Ġsir": 4016,
      "tiba": 4017,
      "Ġlemah": 4018,
      "Ġdibagi": 4019,
      "ĠSumat": 4020,
      "Ġlamp": 4021,
      "Ġpenyimp": 4022,
      "Ġmemanfaatkan": 4023,
      "Ġno": 4024,
      "As": 4025,
      "urunan": 4026,
      "ĠMent": 4027,
      "Ġmempertahankan": 4028,
      "Ġapalagi": 4029,
      "Ġhat": 4030,
      "ĠSang": 4031,
      "ematika": 4032,
      "Ġhorm": 4033,
      "Ġserangan": 4034,
      "ternatif": 4035,
      "Ġpelanggan": 4036,
      "ĠDPR": 4037,
      "Ġelektron": 4038,
      "akaian": 4039,
      "Ġtotal": 4040,
      "Ġsaudara": 4041,
      "Ġberhenti": 4042,
      "ĠPan": 4043,
      "Ġpengobatan": 4044,
      "ĠPulau": 4045,
      "Ini": 4046,
      "Ġmenemp": 4047,
      "oks": 4048,
      "untuk": 4049,
      "ĠYogyakarta": 4050,
      "Ġamat": 4051,
      "Ġbertambah": 4052,
      "ear": 4053,
      "una": 4054,
      "??": 4055,
      "Ġdisampaikan": 4056,
      "ikh": 4057,
      "ĠYah": 4058,
      "Ġoptim": 4059,
      "hasilan": 4060,
      "atal": 4061,
      "ĠSultan": 4062,
      "Ġvirus": 4063,
      "Ġinfeksi": 4064,
      "eed": 4065,
      "tasi": 4066,
      "ubungkan": 4067,
      "Ġversi": 4068,
      "Ġpersen": 4069,
      "juangan": 4070,
      "pert": 4071,
      "ĠRI": 4072,
      "Ġjabatan": 4073,
      "Ġrusak": 4074,
      "etan": 4075,
      "ribadi": 4076,
      "ĠKel": 4077,
      "Ġbakteri": 4078,
      "okus": 4079,
      "siapan": 4080,
      "asitas": 4081,
      "Ġkartu": 4082,
      "ediaan": 4083,
      "Ġmekan": 4084,
      "Ġpeluang": 4085,
      "**": 4086,
      "Ġmelahirkan": 4087,
      "Ġemas": 4088,
      "asta": 4089,
      "Ġkul": 4090,
      "Ġkisah": 4091,
      "atau": 4092,
      "ker": 4093,
      "Ġfilsafat": 4094,
      "imbingan": 4095,
      "Ġmenjual": 4096,
      "ĠTrans": 4097,
      "Ġdukungan": 4098,
      "yakinan": 4099,
      "Ġpermintaan": 4100,
      "Ġhamil": 4101,
      "Ġgunung": 4102,
      "Ġketurunan": 4103,
      "BAB": 4104,
      "ĠIII": 4105,
      "PP": 4106,
      "ĠTa": 4107,
      "Ġproyek": 4108,
      "isiko": 4109,
      "adem": 4110,
      "Ġmenu": 4111,
      "Ġkertas": 4112,
      "eny": 4113,
      ".[": 4114,
      "ins": 4115,
      "Ġhidupnya": 4116,
      "Ġbakar": 4117,
      "Ġsyari": 4118,
      "Ġmassa": 4119,
      "http": 4120,
      "Ġpernikahan": 4121,
      "Yang": 4122,
      "ie": 4123,
      "vensi": 4124,
      "ĠPart": 4125,
      "ajar": 4126,
      "ysia": 4127,
      "omm": 4128,
      "Ġbarat": 4129,
      "ĠOk": 4130,
      "Ġbeban": 4131,
      "Ġberperan": 4132,
      "Kem": 4133,
      "sat": 4134,
      "Ġsusu": 4135,
      "Ġtoko": 4136,
      "ome": 4137,
      "ocial": 4138,
      "Ġdar": 4139,
      "Ġyakin": 4140,
      "ational": 4141,
      "Ġmengingat": 4142,
      "Ġpetani": 4143,
      "Ġmenunggu": 4144,
      "Ġdingin": 4145,
      "Ġmuka": 4146,
      "Ġmembahas": 4147,
      "Ġkebanyakan": 4148,
      "Ġsemacam": 4149,
      "operasi": 4150,
      "ĠÂ": 4151,
      "Ġstatus": 4152,
      "ĠProf": 4153,
      "Ġrut": 4154,
      "Ġkemajuan": 4155,
      "upacara": 4156,
      "rata": 4157,
      "ancar": 4158,
      "Ġpu": 4159,
      "Ġperdagangan": 4160,
      "ĠNov": 4161,
      "Ġmencakup": 4162,
      "ĠØ§ÙĦÙĦ": 4163,
      "umpulkan": 4164,
      "mar": 4165,
      "Ġhand": 4166,
      "ĠIN": 4167,
      "ampai": 4168,
      "ertai": 4169,
      "ewati": 4170,
      "inaan": 4171,
      "Ġdibangun": 4172,
      "TAR": 4173,
      "Ġpegawai": 4174,
      "Ġjawaban": 4175,
      "Ġmengarah": 4176,
      "Ġbekas": 4177,
      "Ġaja": 4178,
      "Ġsm": 4179,
      "ĠØ¨": 4180,
      "Ġtumbuhan": 4181,
      "egori": 4182,
      "word": 4183,
      "asang": 4184,
      "elenggarakan": 4185,
      "ĠRo": 4186,
      "elar": 4187,
      "Ġakunt": 4188,
      "kripsi": 4189,
      "isikan": 4190,
      "ĠEx": 4191,
      "mbangkan": 4192,
      "Ġterlibat": 4193,
      "Sek": 4194,
      "oris": 4195,
      "Ġanal": 4196,
      "antinya": 4197,
      "ich": 4198,
      "Ġsuci": 4199,
      "Ġumur": 4200,
      "Ġsasaran": 4201,
      "Ġpengelolaan": 4202,
      "Ġdo": 4203,
      "Ġjual": 4204,
      "Karena": 4205,
      "ĠHak": 4206,
      "Ġkehamilan": 4207,
      "Ġindonesia": 4208,
      "indungan": 4209,
      "Ġmenyemb": 4210,
      "Ġpimpinan": 4211,
      "Ġarea": 4212,
      "Ġsenj": 4213,
      "iskin": 4214,
      "ombol": 4215,
      "Ġevaluasi": 4216,
      "ahasan": 4217,
      "Mer": 4218,
      "Ġperg": 4219,
      "ĠAt": 4220,
      "Ġperanan": 4221,
      "Ġcomp": 4222,
      "truksi": 4223,
      "ĠUtara": 4224,
      "itra": 4225,
      "Ak": 4226,
      "Ġjari": 4227,
      "Ġdokumen": 4228,
      "irian": 4229,
      "otak": 4230,
      "Ġsoftware": 4231,
      "Ġteks": 4232,
      "Ġmenang": 4233,
      "Ġtransaksi": 4234,
      "cr": 4235,
      "ish": 4236,
      "fah": 4237,
      "sihkan": 4238,
      "Ġtamu": 4239,
      "phone": 4240,
      "elamatan": 4241,
      "Ġbr": 4242,
      "ingkah": 4243,
      "ĠGunung": 4244,
      "lub": 4245,
      "Ġditulis": 4246,
      "âĢ¦.": 4247,
      "dus": 4248,
      "alanya": 4249,
      "__": 4250,
      "ĠSE": 4251,
      "Ġarus": 4252,
      "Ġmengerti": 4253,
      "Ġnamanya": 4254,
      "alat": 4255,
      "elis": 4256,
      "Ġsektor": 4257,
      "Ġmenyebutkan": 4258,
      "Ġwebsite": 4259,
      "iah": 4260,
      "GA": 4261,
      "Or": 4262,
      "artemen": 4263,
      "ĠAceh": 4264,
      "Ġdicapai": 4265,
      "go": 4266,
      "Ġdimas": 4267,
      "ĠPramuka": 4268,
      "yatakan": 4269,
      "omba": 4270,
      "Ġmengirim": 4271,
      "masalah": 4272,
      "Ġnggak": 4273,
      "ĠKerja": 4274,
      "sigen": 4275,
      "Ġroh": 4276,
      "Ġbul": 4277,
      "Ġunik": 4278,
      "Ġsatunya": 4279,
      "arikan": 4280,
      "Ġmenghilangkan": 4281,
      "eluarga": 4282,
      "Ġmenurunkan": 4283,
      "Ġmemegang": 4284,
      "tidak": 4285,
      "Ġhalnya": 4286,
      "ner": 4287,
      "Ġteb": 4288,
      "Ġsebaliknya": 4289,
      "omatis": 4290,
      "Ġtahan": 4291,
      "ihi": 4292,
      "etakkan": 4293,
      "Ġwas": 4294,
      "tinggi": 4295,
      "arket": 4296,
      "ĠKesehatan": 4297,
      "ĠKerajaan": 4298,
      "erbal": 4299,
      "Ġmenganggap": 4300,
      "Ġdiperhatikan": 4301,
      "Ġlaku": 4302,
      "Ġdisimp": 4303,
      "Ġpernyataan": 4304,
      "Ġmandi": 4305,
      "ĠPR": 4306,
      "23": 4307,
      "Ġpri": 4308,
      "Ġmemasuki": 4309,
      "Ġpingg": 4310,
      "Ġringan": 4311,
      "imu": 4312,
      "Ġkarb": 4313,
      "Ġsih": 4314,
      "ĠPasal": 4315,
      "ool": 4316,
      "Ġformal": 4317,
      "ribadian": 4318,
      "ĠSing": 4319,
      "Ġdisebutkan": 4320,
      "UAN": 4321,
      "ĠPal": 4322,
      "Ġprotein": 4323,
      "ree": 4324,
      "able": 4325,
      "ĠDunia": 4326,
      "aa": 4327,
      "Ġmengin": 4328,
      "ĠHanya": 4329,
      "ĠSebab": 4330,
      "Ġmaksimal": 4331,
      "Ġtulis": 4332,
      "Ġpasal": 4333,
      "Ġkepadanya": 4334,
      "idi": 4335,
      "Ġhamba": 4336,
      "abrik": 4337,
      "Ġpenyelengg": 4338,
      "Ġtubuhnya": 4339,
      "Ġprosedur": 4340,
      "Ġmar": 4341,
      "Ġbuk": 4342,
      "Ġmemutuskan": 4343,
      "ayat": 4344,
      "Ġ+": 4345,
      "ĠKet": 4346,
      "Ġmelibatkan": 4347,
      "Ġupacara": 4348,
      "Ġbersangkutan": 4349,
      "pem": 4350,
      "Ġsungguh": 4351,
      "upuk": 4352,
      "Ġdiaj": 4353,
      "ĠSuk": 4354,
      "ĠKur": 4355,
      "Ġlubang": 4356,
      "Ġmemperk": 4357,
      "Ġsekedar": 4358,
      "Ġdiatur": 4359,
      "Ġmenawarkan": 4360,
      "anto": 4361,
      "ujudkan": 4362,
      "ĠMasyarakat": 4363,
      "Ġkomunitas": 4364,
      "Ġro": 4365,
      "Ġpakai": 4366,
      "Ġsingkat": 4367,
      "agn": 4368,
      "ĠMenteri": 4369,
      "Ġemp": 4370,
      "ĠIbnu": 4371,
      "ĠPertama": 4372,
      "Ġjah": 4373,
      "Ġterkena": 4374,
      "Ġspes": 4375,
      "Ġ22": 4376,
      "Ġkedalam": 4377,
      "Ġmelindungi": 4378,
      "identifikasi": 4379,
      "utr": 4380,
      "Ġmenetapkan": 4381,
      "uliah": 4382,
      "Ġkadar": 4383,
      "urusan": 4384,
      "ĠManusia": 4385,
      "anggil": 4386,
      "Ġberiman": 4387,
      "Ġkesejahteraan": 4388,
      "Ġmenghindari": 4389,
      "Ġluka": 4390,
      "Ġkebaikan": 4391,
      "Ġmenggambarkan": 4392,
      "eling": 4393,
      "Ġpelaku": 4394,
      "Ġmembayar": 4395,
      "ĠKen": 4396,
      "Ġdistr": 4397,
      "Ġkotor": 4398,
      "bau": 4399,
      "Ġkebiasaan": 4400,
      "Ġmiliter": 4401,
      "Ġmotivasi": 4402,
      "ĠImam": 4403,
      "ĠSub": 4404,
      "ume": 4405,
      "oro": 4406,
      "Ġfakta": 4407,
      "Sel": 4408,
      "ĠSya": 4409,
      "etapan": 4410,
      "Ġgr": 4411,
      "irakan": 4412,
      "Ġpertemuan": 4413,
      "Ġgame": 4414,
      "ĠSw": 4415,
      "Ġmemulai": 4416,
      "ĠInternet": 4417,
      "Ġpengend": 4418,
      "Ġdipilih": 4419,
      "Ġberpengaruh": 4420,
      "PM": 4421,
      "Ġmeneg": 4422,
      "kadang": 4423,
      "Ġdikeluarkan": 4424,
      "Ġkeker": 4425,
      "ĠMed": 4426,
      "imbangan": 4427,
      "ĠPenelitian": 4428,
      "embaga": 4429,
      "Ġsenjata": 4430,
      "Ġamp": 4431,
      "sb": 4432,
      "ance": 4433,
      "ĠMalaysia": 4434,
      "Ġkamp": 4435,
      "Ġmiskin": 4436,
      "ĠBar": 4437,
      "arif": 4438,
      "Ġpendapatan": 4439,
      "iarkan": 4440,
      "Ġsil": 4441,
      "Ġmemandang": 4442,
      "les": 4443,
      "ĠKecamatan": 4444,
      "Ġgagal": 4445,
      "Mas": 4446,
      "UNG": 4447,
      "Ġdita": 4448,
      "Ġminuman": 4449,
      "Ġpec": 4450,
      "ĠMei": 4451,
      "Ġmenerapkan": 4452,
      "can": 4453,
      "Ġberani": 4454,
      "Ġkonteks": 4455,
      "Ġed": 4456,
      "Ġpeneliti": 4457,
      "ĠFr": 4458,
      "ĠKristen": 4459,
      "onj": 4460,
      "ĠPa": 4461,
      "olis": 4462,
      "Ġpemuda": 4463,
      "ĠTerb": 4464,
      "Ġanaknya": 4465,
      "Ġkedudukan": 4466,
      "Ġsay": 4467,
      "zin": 4468,
      "ĠAN": 4469,
      "Ġbertindak": 4470,
      "ips": 4471,
      "Ġditerapkan": 4472,
      "Ġkaf": 4473,
      "Ġreaksi": 4474,
      "ative": 4475,
      "erm": 4476,
      "ĠBadan": 4477,
      "Ġcatatan": 4478,
      "ĠJam": 4479,
      "Ġberbasis": 4480,
      "ekuensi": 4481,
      "Ġbapak": 4482,
      "irinya": 4483,
      "Ġmental": 4484,
      "ĠTah": 4485,
      "Ġpengajaran": 4486,
      "Ġmutu": 4487,
      "ĠOrgan": 4488,
      "sit": 4489,
      "Ind": 4490,
      "ihatan": 4491,
      "ujur": 4492,
      "ektor": 4493,
      "ambilan": 4494,
      "Ġpetunjuk": 4495,
      "Ġkepemimpinan": 4496,
      "iq": 4497,
      "Ġist": 4498,
      "arin": 4499,
      "ingkungan": 4500,
      "ps": 4501,
      "stik": 4502,
      "edag": 4503,
      "ĠKris": 4504,
      "ĠIsra": 4505,
      "Ġbut": 4506,
      "ĠTV": 4507,
      "ahagi": 4508,
      "anjutan": 4509,
      "ory": 4510,
      "Ġpejabat": 4511,
      "Beberapa": 4512,
      "mem": 4513,
      "Ø£": 4514,
      "Ġmenyebut": 4515,
      "Ġmahal": 4516,
      "ĠMasalah": 4517,
      "ĠSMA": 4518,
      "Ġ21": 4519,
      "kuat": 4520,
      "Ġvitamin": 4521,
      "ĠCina": 4522,
      "Ġaud": 4523,
      "hy": 4524,
      "Ġmemperbaiki": 4525,
      "Ġdini": 4526,
      "ĠRam": 4527,
      "Ġvol": 4528,
      "Ġkub": 4529,
      "adai": 4530,
      "ĠBerikut": 4531,
      "Ġlemak": 4532,
      "ĠEd": 4533,
      "erdekaan": 4534,
      "Ġbersab": 4535,
      "Ġ...": 4536,
      "entangan": 4537,
      "ox": 4538,
      "Mem": 4539,
      "alia": 4540,
      "Ġterm": 4541,
      "Ġhijau": 4542,
      "Ġpidana": 4543,
      "Kami": 4544,
      "ĠPenc": 4545,
      "Ġpembaca": 4546,
      "yakan": 4547,
      "hirnya": 4548,
      "Ġlangit": 4549,
      "ĠAlam": 4550,
      "ĠPusat": 4551,
      "timbangan": 4552,
      "arahan": 4553,
      "acu": 4554,
      "hak": 4555,
      "Ġbud": 4556,
      "Ġhuruf": 4557,
      "Ġnyeri": 4558,
      "Ġterbuat": 4559,
      "Ġtik": 4560,
      "ĠPadahal": 4561,
      "Ġkesatuan": 4562,
      "Ġserv": 4563,
      "eliling": 4564,
      "za": 4565,
      "ĠBlack": 4566,
      "ambu": 4567,
      "ejak": 4568,
      "ĠTNI": 4569,
      "Ketika": 4570,
      "ESI": 4571,
      "âĢ¦âĢ¦âĢ¦âĢ¦": 4572,
      "Ġwah": 4573,
      "ĠData": 4574,
      "ancangan": 4575,
      "awinan": 4576,
      "Ġinvestasi": 4577,
      "ingkali": 4578,
      "Ġ2006": 4579,
      "alil": 4580,
      "tober": 4581,
      "enomena": 4582,
      "Ġmirip": 4583,
      "Ġakal": 4584,
      "Ġdikar": 4585,
      "Ġalternatif": 4586,
      "Ġberikan": 4587,
      "Ġle": 4588,
      "Ġident": 4589,
      "waktu": 4590,
      "Ġsetempat": 4591,
      "ikirkan": 4592,
      "ĠMeskipun": 4593,
      "ĠProduk": 4594,
      "okter": 4595,
      "Ġparu": 4596,
      "ĠIndia": 4597,
      "Ġdinyatakan": 4598,
      "ĠBukan": 4599,
      "Ġseper": 4600,
      "Ġkejah": 4601,
      "imak": 4602,
      "Ġkunci": 4603,
      "opy": 4604,
      "Ġare": 4605,
      "ition": 4606,
      "Ġdemokrasi": 4607,
      "umpul": 4608,
      "Ġgelombang": 4609,
      "tan": 4610,
      "ambat": 4611,
      "ler": 4612,
      "Ġpor": 4613,
      "usunan": 4614,
      "Ġrup": 4615,
      "ling": 4616,
      "ĠInformasi": 4617,
      "Ġundang": 4618,
      "Ġcita": 4619,
      "Ġ23": 4620,
      "Ġsengaja": 4621,
      "Ġsign": 4622,
      "utang": 4623,
      "ewi": 4624,
      "Ġkeberhasilan": 4625,
      "Ġberagam": 4626,
      "egal": 4627,
      "Ġsilahkan": 4628,
      "inci": 4629,
      "Ġtertarik": 4630,
      "Ġglobal": 4631,
      "Ġkalah": 4632,
      "ĠAtau": 4633,
      "lok": 4634,
      "Ġlam": 4635,
      "Undang": 4636,
      "Ġgar": 4637,
      "uara": 4638,
      "aih": 4639,
      "out": 4640,
      "ĠKat": 4641,
      "Ġresiko": 4642,
      "Ġlib": 4643,
      "ucu": 4644,
      "Ġmendek": 4645,
      "etes": 4646,
      "Ġhanyalah": 4647,
      "Ġlampu": 4648,
      "keb": 4649,
      "ĠDemikian": 4650,
      "Mes": 4651,
      "Ġperbaikan": 4652,
      "Ġpraktek": 4653,
      "ĠLebih": 4654,
      "hati": 4655,
      "iat": 4656,
      "ED": 4657,
      "wat": 4658,
      "Ġkeyakinan": 4659,
      "Ġkebebasan": 4660,
      "dengan": 4661,
      "enya": 4662,
      "Ġhabis": 4663,
      "entrasi": 4664,
      "Ġgerak": 4665,
      "Ġlebar": 4666,
      "Ġ2005": 4667,
      "Ġkeberadaan": 4668,
      "ebaran": 4669,
      "Ġ2004": 4670,
      "bor": 4671,
      "onc": 4672,
      "Ġnasi": 4673,
      "ubung": 4674,
      "Ġdisertai": 4675,
      "olahan": 4676,
      "ebut": 4677,
      "Ġlatar": 4678,
      "Ġgambaran": 4679,
      "ĠKeh": 4680,
      "Berdasarkan": 4681,
      "rig": 4682,
      "Ġbab": 4683,
      "Ġdibawa": 4684,
      "Contoh": 4685,
      "Ġir": 4686,
      "ĠTel": 4687,
      "antiasa": 4688,
      "Ġkenyataan": 4689,
      "OT": 4690,
      "Ġmenahan": 4691,
      "sy": 4692,
      ".,": 4693,
      "esta": 4694,
      "Ġkekayaan": 4695,
      "Ġmenyenangkan": 4696,
      "Ġsinar": 4697,
      "Ġlayar": 4698,
      "Ġkejahatan": 4699,
      "alin": 4700,
      "ujuh": 4701,
      "Jadi": 4702,
      "illah": 4703,
      "Ġpayudara": 4704,
      "Ġsastra": 4705,
      "ĠAhmad": 4706,
      "Ġmis": 4707,
      "Ġcac": 4708,
      "Ġpembayaran": 4709,
      "ĠSurat": 4710,
      "ingatan": 4711,
      "Si": 4712,
      "Ġterima": 4713,
      "ĠWindows": 4714,
      "unggal": 4715,
      "Ġinternal": 4716,
      "pos": 4717,
      "tember": 4718,
      "Ġdibentuk": 4719,
      "Ġsiang": 4720,
      "Ġmewujudkan": 4721,
      "Ġsis": 4722,
      "Ġdiikuti": 4723,
      "ĠHotel": 4724,
      "ĠAdapun": 4725,
      "tik": 4726,
      "ĠMetode": 4727,
      "Ġdijelaskan": 4728,
      "Ġminimal": 4729,
      "ĠDewan": 4730,
      "ĠJalan": 4731,
      "Ġbibir": 4732,
      "ĠJenis": 4733,
      "QS": 4734,
      "Ġkeg": 4735,
      "Ġkelah": 4736,
      "ĠFungsi": 4737,
      "entuh": 4738,
      "Ġprestasi": 4739,
      "land": 4740,
      "ny": 4741,
      "Saat": 4742,
      "yangkan": 4743,
      "elian": 4744,
      "Ġmenyadari": 4745,
      "21": 4746,
      "ugian": 4747,
      "Ġbaca": 4748,
      "ĠTanah": 4749,
      "Ġminta": 4750,
      "Ġpetu": 4751,
      "Ġmengangkat": 4752,
      "Ġlepas": 4753,
      "Ġmaterial": 4754,
      "pirasi": 4755,
      "Ġperek": 4756,
      "Ġoksigen": 4757,
      "Ġkelahiran": 4758,
      "ĠSumatera": 4759,
      "Ġtun": 4760,
      "udahan": 4761,
      "Ġmelewati": 4762,
      "ihkan": 4763,
      "Ġotomatis": 4764,
      "inga": 4765,
      "Ġurusan": 4766,
      "Ġkreatif": 4767,
      "Ġmeja": 4768,
      "Ġberapa": 4769,
      "Ġmenyel": 4770,
      "ĠBegitu": 4771,
      "ogen": 4772,
      "ĠMesir": 4773,
      "iksi": 4774,
      "Ġbertahan": 4775,
      "Is": 4776,
      "idan": 4777,
      "ĠSebelum": 4778,
      "ĠKata": 4779,
      "hab": 4780,
      "Ġtep": 4781,
      "ĠMic": 4782,
      "ĠMeny": 4783,
      "Ġmenyus": 4784,
      "jer": 4785,
      "Ġmengaku": 4786,
      "gantikan": 4787,
      "ĠSumber": 4788,
      "Ġpemilihan": 4789,
      "ive": 4790,
      "Ġdownload": 4791,
      "engarkan": 4792,
      "ovasi": 4793,
      "aktif": 4794,
      "Ġperjuangan": 4795,
      "imbol": 4796,
      "teman": 4797,
      "Ġdada": 4798,
      "Ġsin": 4799,
      "asti": 4800,
      "ile": 4801,
      "24": 4802,
      "ble": 4803,
      "ering": 4804,
      "Ġdial": 4805,
      "gag": 4806,
      "ĠPh": 4807,
      "ĠMaret": 4808,
      "ery": 4809,
      "untutan": 4810,
      "ĠAgustus": 4811,
      "Ġiman": 4812,
      "Ġgula": 4813,
      "Ġberkurang": 4814,
      "Ġsaham": 4815,
      "imantan": 4816,
      "Ġhendaknya": 4817,
      "ĠSula": 4818,
      "ĠBesar": 4819,
      "................................": 4820,
      "ĠSosial": 4821,
      "way": 4822,
      "so": 4823,
      "ĠPajak": 4824,
      "Ġmikro": 4825,
      "ĠSab": 4826,
      "akaran": 4827,
      "elaki": 4828,
      "Ya": 4829,
      "Ġadil": 4830,
      "ick": 4831,
      "PU": 4832,
      "Ġusah": 4833,
      "usantara": 4834,
      "Sebagai": 4835,
      "IR": 4836,
      "ucapkan": 4837,
      "erensi": 4838,
      "Ġpresiden": 4839,
      "Ø°": 4840,
      "Ġbinatang": 4841,
      "leksi": 4842,
      "iteria": 4843,
      "Ġpukul": 4844,
      "Ġmenuntut": 4845,
      "waan": 4846,
      "Ġpuasa": 4847,
      "Ġmenyimpan": 4848,
      "ĠHindu": 4849,
      "Ġmembunuh": 4850,
      "ĠKas": 4851,
      "elapan": 4852,
      "Ġseksual": 4853,
      "Ġsila": 4854,
      "Ġdilengkapi": 4855,
      "Ġtra": 4856,
      "angani": 4857,
      "ancis": 4858,
      "Ġspesi": 4859,
      "artikan": 4860,
      "Ġsenantiasa": 4861,
      "Ġsun": 4862,
      "Ġbanyaknya": 4863,
      "Ġkew": 4864,
      "ĠWah": 4865,
      "Ġpaket": 4866,
      "Ġband": 4867,
      "Ġkese": 4868,
      "ampuran": 4869,
      "Ġkabel": 4870,
      "spot": 4871,
      "Ġinteraksi": 4872,
      "edagang": 4873,
      "Ġberlebihan": 4874,
      "Ġbimbingan": 4875,
      "Ġberakhir": 4876,
      "Ġpengawasan": 4877,
      "ĠNah": 4878,
      "onomian": 4879,
      "Ġpadahal": 4880,
      "Ġkarakteristik": 4881,
      "esa": 4882,
      "luas": 4883,
      "ĠBeliau": 4884,
      "bel": 4885,
      "ubungi": 4886,
      "yaratan": 4887,
      "ĠSebuah": 4888,
      "Keb": 4889,
      "angsang": 4890,
      "encanakan": 4891,
      "Ġ28": 4892,
      "Gambar": 4893,
      "olek": 4894,
      "ĠIk": 4895,
      "Ġthis": 4896,
      "ĠPat": 4897,
      "ilu": 4898,
      "aria": 4899,
      "Ġmenyerang": 4900,
      "ĠWar": 4901,
      "Ġkeadilan": 4902,
      "ĠKegiatan": 4903,
      "Ġsemoga": 4904,
      "ĠDapat": 4905,
      "ubern": 4906,
      "Ġrutin": 4907,
      "ading": 4908,
      "ikator": 4909,
      "Ġrev": 4910,
      "Ġalamat": 4911,
      "Ġtingkah": 4912,
      "mail": 4913,
      "Ġsepenuh": 4914,
      "ĠAngg": 4915,
      "ĠGoogle": 4916,
      "Ġteratur": 4917,
      "Ġenam": 4918,
      "Ġketerangan": 4919,
      "pan": 4920,
      "egan": 4921,
      "Ġribu": 4922,
      "ĠSeorang": 4923,
      "Ġlun": 4924,
      "Ġnikmat": 4925,
      "Ġbag": 4926,
      "mm": 4927,
      "yer": 4928,
      "Ġseja": 4929,
      "imbing": 4930,
      "unggulan": 4931,
      "Ġtampil": 4932,
      "apus": 4933,
      "son": 4934,
      "Ġsetengah": 4935,
      "Ġdipengaruhi": 4936,
      "BB": 4937,
      "SM": 4938,
      "Ġadministrasi": 4939,
      "Ġfrom": 4940,
      "lang": 4941,
      "Ġland": 4942,
      "Ġberharap": 4943,
      "tip": 4944,
      "etail": 4945,
      "Ġolahraga": 4946,
      "arm": 4947,
      "akna": 4948,
      "Ġmenilai": 4949,
      "embalikan": 4950,
      "Ġ2000": 4951,
      "Ġtaw": 4952,
      "Ġmenyangkut": 4953,
      "Ġ2014": 4954,
      "Ġsolusi": 4955,
      "Ġkapan": 4956,
      "Ġbergabung": 4957,
      "Ġrisiko": 4958,
      "Ġmatematika": 4959,
      "Ġkapasitas": 4960,
      "utip": 4961,
      "Ġtidaklah": 4962,
      "Ġwh": 4963,
      "ĠIns": 4964,
      "ubernur": 4965,
      "NA": 4966,
      "ĠBu": 4967,
      "ven": 4968,
      "ĠHam": 4969,
      "Ġali": 4970,
      "Ġmelayani": 4971,
      "Ġbeserta": 4972,
      "nas": 4973,
      "etakan": 4974,
      "ĠJanuari": 4975,
      "lian": 4976,
      "oot": 4977,
      "Ġkompleks": 4978,
      "Ġterang": 4979,
      "ĠAlat": 4980,
      "AJ": 4981,
      "IV": 4982,
      "Ġend": 4983,
      "Ġmanis": 4984,
      "Ġhasilnya": 4985,
      "ĠJoh": 4986,
      "ibut": 4987,
      "xx": 4988,
      "Ġtegas": 4989,
      "ĠBapak": 4990,
      "ĠJuni": 4991,
      "Ġdidasarkan": 4992,
      "Ġep": 4993,
      "Ġlo": 4994,
      "ecil": 4995,
      "engkapan": 4996,
      "Ġlah": 4997,
      "Ġgak": 4998,
      "ace": 4999,
      "uransi": 5000,
      "ontin": 5001,
      "tren": 5002,
      "Kalau": 5003,
      "Ġ60": 5004,
      "UP": 5005,
      "ĠSatu": 5006,
      "ĠPC": 5007,
      "osan": 5008,
      "Ġmendatang": 5009,
      "porkan": 5010,
      "ĠApril": 5011,
      "Ġtombol": 5012,
      "Ġmengend": 5013,
      "Pert": 5014,
      "Ġtertulis": 5015,
      "emui": 5016,
      "umuskan": 5017,
      "bagian": 5018,
      "Ġcel": 5019,
      "Ġbaw": 5020,
      "Ġpuncak": 5021,
      "ext": 5022,
      "ĠMungkin": 5023,
      "Ġtemb": 5024,
      "ĠPur": 5025,
      "Ġkepribadian": 5026,
      "emar": 5027,
      "ĠSelanjutnya": 5028,
      "Apa": 5029,
      "IB": 5030,
      "Ġingat": 5031,
      "ĠBuk": 5032,
      "Ġaksi": 5033,
      "Ġtersendiri": 5034,
      "ATAN": 5035,
      "ft": 5036,
      "entikan": 5037,
      "kitab": 5038,
      "Ġdek": 5039,
      "Ġcabang": 5040,
      "ĠUN": 5041,
      "Ġmerusak": 5042,
      "blog": 5043,
      "Ġjan": 5044,
      "Ġkuliah": 5045,
      "Ġangk": 5046,
      "Ġpant": 5047,
      "Ġbesi": 5048,
      "itmen": 5049,
      "Ġmakalah": 5050,
      "ĠDesember": 5051,
      "Ġgedung": 5052,
      "imaan": 5053,
      "enalkan": 5054,
      "Ġtimur": 5055,
      "Ġtelepon": 5056,
      "Ġsisa": 5057,
      "lasan": 5058,
      "ĠAmb": 5059,
      "aluan": 5060,
      "Pr": 5061,
      "cess": 5062,
      "Ġerat": 5063,
      "Ġnafsu": 5064,
      "Ġgadis": 5065,
      "Ġketah": 5066,
      "Ġlantai": 5067,
      "ĠLu": 5068,
      "Ġperlindungan": 5069,
      "ĠSeptember": 5070,
      "ĠKristus": 5071,
      "Ġdisip": 5072,
      "ech": 5073,
      "Ġpopuler": 5074,
      "Ġunivers": 5075,
      "Ġhukuman": 5076,
      "Ġgagasan": 5077,
      "SP": 5078,
      "Ġdoa": 5079,
      "Ġrapat": 5080,
      "Ġserius": 5081,
      "ĠSun": 5082,
      "empurn": 5083,
      "Ġjudul": 5084,
      "egr": 5085,
      "ordinasi": 5086,
      "Ġberkualitas": 5087,
      "hu": 5088,
      "Ø¬": 5089,
      "ĠBerdasarkan": 5090,
      "vari": 5091,
      "Ġ27": 5092,
      "Ġlembut": 5093,
      "imbah": 5094,
      "Ġtema": 5095,
      "lementasi": 5096,
      "Ġprim": 5097,
      "Ġkelebihan": 5098,
      "Ġmembedakan": 5099,
      "Ġnorma": 5100,
      "llahu": 5101,
      "Ġnabi": 5102,
      "Ġzakat": 5103,
      "Ġkode": 5104,
      "Ġu": 5105,
      "Ġrangkaian": 5106,
      "ĠUUD": 5107,
      "hlak": 5108,
      "epan": 5109,
      "upati": 5110,
      "Ġsemata": 5111,
      "Ġanggaran": 5112,
      "kota": 5113,
      "ĠPela": 5114,
      "asiat": 5115,
      "Ġpengambilan": 5116,
      "agama": 5117,
      "Ġbencana": 5118,
      "Ġsta": 5119,
      "Ġpip": 5120,
      "ask": 5121,
      "Ġstabil": 5122,
      "Ġkredit": 5123,
      "UD": 5124,
      "Ġmenyusun": 5125,
      "set": 5126,
      "ĠSri": 5127,
      "ous": 5128,
      "ĠRe": 5129,
      "ĠPengertian": 5130,
      "Ġpus": 5131,
      "Ġera": 5132,
      "Ġtuk": 5133,
      "Ġkeselamatan": 5134,
      "Ġ2003": 5135,
      "langkah": 5136,
      "ĠGr": 5137,
      "ĠQur": 5138,
      "dul": 5139,
      "28": 5140,
      "60": 5141,
      "Ġkerjasama": 5142,
      "Ġdijual": 5143,
      "Ġdisiplin": 5144,
      "Ġiklan": 5145,
      "Ses": 5146,
      "Ġmelanjutkan": 5147,
      "ical": 5148,
      "Secara": 5149,
      "atik": 5150,
      "ĠMu": 5151,
      "asy": 5152,
      "anggar": 5153,
      "Berikut": 5154,
      "owo": 5155,
      "sumber": 5156,
      "Ġinti": 5157,
      "odoh": 5158,
      "truktur": 5159,
      "onsel": 5160,
      "adaban": 5161,
      "ĠJuli": 5162,
      "ĠHad": 5163,
      "Ġkenapa": 5164,
      "Ġmenambahkan": 5165,
      "udahkan": 5166,
      "Ġletak": 5167,
      "ĠOktober": 5168,
      "uasan": 5169,
      "Ġsan": 5170,
      "ĠMurah": 5171,
      "Ġsampah": 5172,
      "Ġterbukti": 5173,
      "Ġradio": 5174,
      "ĠBisa": 5175,
      "jak": 5176,
      "abah": 5177,
      "Ġberbahaya": 5178,
      "Ġ>": 5179,
      "obati": 5180,
      "uddin": 5181,
      "lakukan": 5182,
      "luan": 5183,
      "ĠUsaha": 5184,
      "ĠBahan": 5185,
      "arto": 5186,
      "Ġsol": 5187,
      "Ġner": 5188,
      "adz": 5189,
      "Ġhip": 5190,
      "Ġmengganggu": 5191,
      "ĠGe": 5192,
      "ĠSay": 5193,
      "PD": 5194,
      "Ġpandang": 5195,
      "Ġta": 5196,
      "Ġfitur": 5197,
      "ĠRah": 5198,
      "Ġderajat": 5199,
      "Ġmengalir": 5200,
      "kat": 5201,
      "aftar": 5202,
      "anusia": 5203,
      "ewek": 5204,
      "Ġpertimbangan": 5205,
      "work": 5206,
      "Ġlawan": 5207,
      "27": 5208,
      "iki": 5209,
      "angkal": 5210,
      "Ġmasjid": 5211,
      "injal": 5212,
      "Ġdikarenakan": 5213,
      "onda": 5214,
      "Ġtali": 5215,
      "Ġdiadakan": 5216,
      "eluaran": 5217,
      "adiah": 5218,
      "!âĢĿ": 5219,
      "Ġcuma": 5220,
      "Ġsesama": 5221,
      "sis": 5222,
      "endidikan": 5223,
      "ĠIsrael": 5224,
      "Ġujar": 5225,
      "bar": 5226,
      "Ġkeag": 5227,
      "inf": 5228,
      "Ġtantangan": 5229,
      "Salah": 5230,
      "Ġpenerapan": 5231,
      "ĠBiasanya": 5232,
      "Ġtujuh": 5233,
      "Ġberusia": 5234,
      "hitungan": 5235,
      "Ġpentingnya": 5236,
      "iet": 5237,
      "org": 5238,
      "Ġkategori": 5239,
      "Ġmendirikan": 5240,
      "ĠNama": 5241,
      "Ġmala": 5242,
      "40": 5243,
      "Ġmenderita": 5244,
      "Ġtentara": 5245,
      "Ġkuning": 5246,
      "elai": 5247,
      "Ġsatuan": 5248,
      "Ġsekitarnya": 5249,
      "Ġantaranya": 5250,
      "ora": 5251,
      "ĠAustr": 5252,
      "tin": 5253,
      "Ġpembahasan": 5254,
      "Anda": 5255,
      "Ġtertinggi": 5256,
      "Ġmenjamin": 5257,
      "ĠJerman": 5258,
      "Ġlelaki": 5259,
      "ĠAgung": 5260,
      "Ġtengg": 5261,
      "Ġteknis": 5262,
      "board": 5263,
      "Ġkopi": 5264,
      "ĠLi": 5265,
      "Ġseringkali": 5266,
      "Ġspir": 5267,
      "tem": 5268,
      "Ġnantinya": 5269,
      "Ġdipahami": 5270,
      "ening": 5271,
      "ĠLe": 5272,
      "Ġperkawinan": 5273,
      "ĠBur": 5274,
      "Ġsuam": 5275,
      "Ġkabar": 5276,
      "satunya": 5277,
      "jam": 5278,
      "Ġul": 5279,
      "Ġinduk": 5280,
      "ciri": 5281,
      "Ġpemasaran": 5282,
      "macam": 5283,
      "Ġkamera": 5284,
      "Mu": 5285,
      "Ġde": 5286,
      "air": 5287,
      "ype": 5288,
      "akwah": 5289,
      "Sementara": 5290,
      "ĠKalimantan": 5291,
      "Ġsocial": 5292,
      "Ġmengej": 5293,
      "Ġrupa": 5294,
      "Ġkajian": 5295,
      "Ġfit": 5296,
      "Ġtips": 5297,
      "ĠBanj": 5298,
      "Ġbersabda": 5299,
      "ĠMul": 5300,
      "Ġkok": 5301,
      "PEN": 5302,
      "Ġhangat": 5303,
      "arankan": 5304,
      "Kes": 5305,
      "Ġkemaluan": 5306,
      "ergi": 5307,
      "eni": 5308,
      "Ġjas": 5309,
      "Ġpil": 5310,
      "Ġbaku": 5311,
      "Ġpenurunan": 5312,
      "iklus": 5313,
      "Ġmarah": 5314,
      "unjukkan": 5315,
      "Ġperpustakaan": 5316,
      "Ġkaca": 5317,
      "sifat": 5318,
      "GI": 5319,
      "Ġdisusun": 5320,
      "26": 5321,
      "ĠPK": 5322,
      "Ġkesimp": 5323,
      "Ġakar": 5324,
      "Ġtenang": 5325,
      "olehkan": 5326,
      "Ġpl": 5327,
      "Ġmengungkapkan": 5328,
      "faktor": 5329,
      "isar": 5330,
      "inyal": 5331,
      "apaian": 5332,
      "Ġkira": 5333,
      "Ġminat": 5334,
      "Ãĺ": 5335,
      "osen": 5336,
      "imbang": 5337,
      "Ġekstr": 5338,
      "ĠModel": 5339,
      "Ġkampung": 5340,
      "Ġseolah": 5341,
      "ĠAC": 5342,
      "Ġberak": 5343,
      "omosi": 5344,
      "Ġkelemahan": 5345,
      "Ġawalnya": 5346,
      "ĠTeori": 5347,
      "Ġobyek": 5348,
      "Ġefisien": 5349,
      "AC": 5350,
      "Ġdif": 5351,
      "Ġmisi": 5352,
      "Ġperekonomian": 5353,
      "Ġpersa": 5354,
      "pertimbangkan": 5355,
      "Ġperkara": 5356,
      "Ġgereja": 5357,
      "Ġmenampilkan": 5358,
      "Ġteh": 5359,
      "wancara": 5360,
      "Ġkeperawatan": 5361,
      "ambing": 5362,
      "ĠAbdul": 5363,
      "Ġpabrik": 5364,
      "Ġtat": 5365,
      "eher": 5366,
      "ogor": 5367,
      "sin": 5368,
      "sunting": 5369,
      "Ġgo": 5370,
      "unsur": 5371,
      "antikan": 5372,
      "ĠKek": 5373,
      "Ġkeperluan": 5374,
      "portasi": 5375,
      "caman": 5376,
      "ĠUp": 5377,
      "ĠMakan": 5378,
      "Ġmain": 5379,
      "arno": 5380,
      "ĠSuatu": 5381,
      "enek": 5382,
      "ujian": 5383,
      "lakuan": 5384,
      "erjakan": 5385,
      "Ġprot": 5386,
      "Ġpendukung": 5387,
      "ĠOt": 5388,
      "Ġpal": 5389,
      "oner": 5390,
      "ĠObat": 5391,
      "toran": 5392,
      "Ġmenjalani": 5393,
      "Ġmay": 5394,
      "ĠTinggi": 5395,
      "Ġkorupsi": 5396,
      "Ku": 5397,
      "kau": 5398,
      "ĠWalaupun": 5399,
      "Ġselamat": 5400,
      "ungkap": 5401,
      "Ġrespon": 5402,
      "Ġsepenuhnya": 5403,
      "olat": 5404,
      "Ġcari": 5405,
      "Ġmengajarkan": 5406,
      "arut": 5407,
      "isis": 5408,
      "Ġkerugian": 5409,
      "andingkan": 5410,
      "irahat": 5411,
      "Ġbatik": 5412,
      "AI": 5413,
      "OD": 5414,
      "Ġpengunjung": 5415,
      "Ġkonsumsi": 5416,
      "ĠManfaat": 5417,
      "Ġpemas": 5418,
      "ino": 5419,
      "dapat": 5420,
      "ingatkan": 5421,
      "Ġsesudah": 5422,
      "ĠTeknik": 5423,
      "ld": 5424,
      "Ġsimbol": 5425,
      "Ġtau": 5426,
      "endaki": 5427,
      "Ġrahasia": 5428,
      "Apakah": 5429,
      "ĠNovember": 5430,
      "gerakan": 5431,
      "Ġsegar": 5432,
      "Ġdipergunakan": 5433,
      "Ġputra": 5434,
      "ating": 5435,
      "Ġkotak": 5436,
      "Ġaneh": 5437,
      "Ġdijalan": 5438,
      "OP": 5439,
      "ĠNur": 5440,
      "Ġkemerdekaan": 5441,
      "Ġgelar": 5442,
      "Ġmengakui": 5443,
      "urutan": 5444,
      "Ġpost": 5445,
      "jikan": 5446,
      "Ġkari": 5447,
      "wanan": 5448,
      "ĠTanpa": 5449,
      "kandung": 5450,
      "ĠSum": 5451,
      "Ġmenerus": 5452,
      "egrasi": 5453,
      "anten": 5454,
      "urnal": 5455,
      "Ġkesimpulan": 5456,
      "Oleh": 5457,
      "indahkan": 5458,
      "Ġberpendapat": 5459,
      "----": 5460,
      "Ġpenyelenggaraan": 5461,
      "Ġ;": 5462,
      "abut": 5463,
      "ĠâĢ¢": 5464,
      "Ġmusuh": 5465,
      "Øµ": 5466,
      "argai": 5467,
      "uth": 5468,
      "Ġenak": 5469,
      "AAN": 5470,
      "wisata": 5471,
      "alak": 5472,
      "Ġrela": 5473,
      "The": 5474,
      "airan": 5475,
      "Ġmeraih": 5476,
      "erti": 5477,
      "laim": 5478,
      "embangunan": 5479,
      "Ġpedagang": 5480,
      "bahan": 5481,
      "kep": 5482,
      "ahnya": 5483,
      "Ġberhak": 5484,
      "iptaan": 5485,
      "jen": 5486,
      "va": 5487,
      "Ġakadem": 5488,
      "Ġkabupaten": 5489,
      "atin": 5490,
      "adhan": 5491,
      "ĠPos": 5492,
      "ĠYahudi": 5493,
      "aba": 5494,
      "anam": 5495,
      "otol": 5496,
      "Ġdipimpin": 5497,
      "ĠAkibat": 5498,
      "Ġyour": 5499,
      "Ġmeski": 5500,
      "ĠPP": 5501,
      "Ġcan": 5502,
      "empa": 5503,
      "ĠPember": 5504,
      "inggalan": 5505,
      "ondok": 5506,
      "Ġmemasukkan": 5507,
      "Ġmengerjakan": 5508,
      "Ġkekerasan": 5509,
      "Ġpeg": 5510,
      "Ġtarget": 5511,
      "idaknya": 5512,
      "Ġmembuktikan": 5513,
      "Ġtertutup": 5514,
      "jukan": 5515,
      "iwayat": 5516,
      "erdasan": 5517,
      "Adapun": 5518,
      "ĠUnit": 5519,
      "Ġmulia": 5520,
      "ilitas": 5521,
      "ĠPet": 5522,
      "Ġnampak": 5523,
      "Ġ1999": 5524,
      "ml": 5525,
      "Ġketahui": 5526,
      "Ġtek": 5527,
      "Ġtaj": 5528,
      "Ġtuntutan": 5529,
      "Ġmemec": 5530,
      "irm": 5531,
      "Ġfenomena": 5532,
      "Ġoptimal": 5533,
      "ilis": 5534,
      "Ġgug": 5535,
      "Ġtelevisi": 5536,
      "ĠØ§": 5537,
      "Ġhebat": 5538,
      "Ġselatan": 5539,
      "Orang": 5540,
      "OK": 5541,
      "Ġkelam": 5542,
      "ĠBentuk": 5543,
      "ternal": 5544,
      "Ġmemudahkan": 5545,
      "Ġmengus": 5546,
      "Ġlink": 5547,
      "ibu": 5548,
      "rosoft": 5549,
      "elahan": 5550,
      "itus": 5551,
      "Ġmendes": 5552,
      "umpai": 5553,
      "oid": 5554,
      "Ġ26": 5555,
      "Ġkeindahan": 5556,
      "Ġmenekankan": 5557,
      "ĠGerakan": 5558,
      "Kita": 5559,
      "Ġetika": 5560,
      "Ġpikir": 5561,
      "lasifikasi": 5562,
      "apura": 5563,
      "ĠBag": 5564,
      "unani": 5565,
      "TP": 5566,
      "Ġmelepaskan": 5567,
      "Ġkenc": 5568,
      "ukis": 5569,
      "ĠFac": 5570,
      "Ġri": 5571,
      "33": 5572,
      "xy": 5573,
      "enanya": 5574,
      "akuan": 5575,
      "Ġdiinginkan": 5576,
      "ĠMesin": 5577,
      "erahan": 5578,
      "Ġwujud": 5579,
      "Ġbintang": 5580,
      "Ġlunak": 5581,
      "amaian": 5582,
      "Ġrasanya": 5583,
      "Ġcor": 5584,
      "trans": 5585,
      "Ġbesarnya": 5586,
      "lihatkan": 5587,
      "Ġjanin": 5588,
      "bak": 5589,
      "Ġujian": 5590,
      "Ġakuntansi": 5591,
      "Ġsejenis": 5592,
      "ii": 5593,
      "Ġmuk": 5594,
      "ĠSed": 5595,
      "Ġmemelihara": 5596,
      "awatir": 5597,
      "Ġsignif": 5598,
      "jem": 5599,
      "Ġdiartikan": 5600,
      "angku": 5601,
      "versi": 5602,
      "tia": 5603,
      "Ġmelakukannya": 5604,
      "Ġpraktis": 5605,
      "Ġdeb": 5606,
      "Ġsam": 5607,
      "Seperti": 5608,
      "Ġdikirim": 5609,
      "ĠOb": 5610,
      "Ġbir": 5611,
      "organisasi": 5612,
      "sal": 5613,
      "lash": 5614,
      "ĠSeg": 5615,
      "Ġpeman": 5616,
      "ĠBay": 5617,
      "HR": 5618,
      "ormasi": 5619,
      "ĠPartai": 5620,
      "ĠBER": 5621,
      "ĠPerusahaan": 5622,
      "Dia": 5623,
      "anfaatan": 5624,
      "Ġkm": 5625,
      "Ġmengam": 5626,
      "Ġkaw": 5627,
      "Ġdiku": 5628,
      "agar": 5629,
      "ĠArtinya": 5630,
      "ĠApalagi": 5631,
      "Ġeng": 5632,
      "daft": 5633,
      "Ġditambah": 5634,
      "Ġmemastikan": 5635,
      "ikin": 5636,
      "Ġsapi": 5637,
      "bankan": 5638,
      "ĠLaut": 5639,
      "Ġpetugas": 5640,
      "ĠJuga": 5641,
      "Ġalias": 5642,
      "Ġtampilan": 5643,
      "Ġbersamaan": 5644,
      "Sebelum": 5645,
      "Ġstrategis": 5646,
      "kom": 5647,
      "yakini": 5648,
      "Ġpengendalian": 5649,
      "mur": 5650,
      "etwork": 5651,
      "Ġhatinya": 5652,
      "Ġlevel": 5653,
      "indung": 5654,
      "icarakan": 5655,
      "ĠMotor": 5656,
      "ĠØ¥": 5657,
      "Ġorganik": 5658,
      "ĠSemarang": 5659,
      "Ġmekanisme": 5660,
      "TR": 5661,
      "Ġjaman": 5662,
      "Ġdimanfaatkan": 5663,
      "Ġdinamakan": 5664,
      "Ġleher": 5665,
      "Ġ%": 5666,
      "itah": 5667,
      "Sedangkan": 5668,
      "Ġdiangkat": 5669,
      "ĠMur": 5670,
      "ĠDar": 5671,
      "egahan": 5672,
      "Ġpembuluh": 5673,
      "Ġjaminan": 5674,
      "ĠAndroid": 5675,
      "Ġdefinisi": 5676,
      "dukung": 5677,
      "anja": 5678,
      "otik": 5679,
      "kem": 5680,
      "ĠAz": 5681,
      "Ġginjal": 5682,
      "ormati": 5683,
      "Ġmengajak": 5684,
      "Ġelemen": 5685,
      "Ġij": 5686,
      "Ġpersyaratan": 5687,
      "ĠKol": 5688,
      "tahun": 5689,
      "esaran": 5690,
      "dis": 5691,
      "Ġbal": 5692,
      "ĠKam": 5693,
      "acun": 5694,
      "onjol": 5695,
      "Th": 5696,
      "Ġpangg": 5697,
      "Ġturut": 5698,
      "80": 5699,
      "ahul": 5700,
      "Ġpengusaha": 5701,
      "ake": 5702,
      "awal": 5703,
      "Ġdidirikan": 5704,
      "ebruari": 5705,
      "Ġdihadapi": 5706,
      "Ġ29": 5707,
      "Ġpembelian": 5708,
      "Ġhakikat": 5709,
      "wanya": 5710,
      "Ġmandiri": 5711,
      "ĠTER": 5712,
      "Ġdirasakan": 5713,
      "angkau": 5714,
      "Ġdimaksudkan": 5715,
      "Ġpaham": 5716,
      "Ġfirman": 5717,
      "ĠSelama": 5718,
      "cepat": 5719,
      "atim": 5720,
      "Ġdidukung": 5721,
      "ĠPenyakit": 5722,
      "Ġsepeda": 5723,
      "ene": 5724,
      "ejarah": 5725,
      "ĠBelajar": 5726,
      "Ġrec": 5727,
      "ĠProvinsi": 5728,
      "Ab": 5729,
      "Ġswasta": 5730,
      "Ġklas": 5731,
      "Ġlip": 5732,
      "ĠNg": 5733,
      "Ġbicara": 5734,
      "Ġplastik": 5735,
      "Ġpembinaan": 5736,
      "etap": 5737,
      "Ġco": 5738,
      "elakaan": 5739,
      "Ġlidah": 5740,
      "Ġoperasional": 5741,
      "Ġpengolahan": 5742,
      "ĠFor": 5743,
      "Ġucapan": 5744,
      "Ġberbagi": 5745,
      "Ġhib": 5746,
      "lek": 5747,
      "jian": 5748,
      "aden": 5749,
      "ĠPap": 5750,
      "Ġbu": 5751,
      "Ġ195": 5752,
      "blem": 5753,
      "Ġmu": 5754,
      "Ġhard": 5755,
      "Ġbuatan": 5756,
      "ader": 5757,
      "Ġancaman": 5758,
      "ĠFaktor": 5759,
      "Ġkoperasi": 5760,
      "Ġsunting": 5761,
      "idat": 5762,
      "vasi": 5763,
      "ĠMal": 5764,
      "barang": 5765,
      "yal": 5766,
      "unkan": 5767,
      "Bagi": 5768,
      "45": 5769,
      "ele": 5770,
      "orit": 5771,
      "Ġpadat": 5772,
      "Ġbulu": 5773,
      "ustaka": 5774,
      "ĠSMP": 5775,
      "Ġtol": 5776,
      "Ġmengisi": 5777,
      "Ġpuisi": 5778,
      "date": 5779,
      "ĠSekarang": 5780,
      "Ġkolam": 5781,
      "ĠBatu": 5782,
      "Ġutara": 5783,
      "Kep": 5784,
      "Ġperlahan": 5785,
      "ĠCD": 5786,
      "Banyak": 5787,
      "igh": 5788,
      "ambatan": 5789,
      "IF": 5790,
      "Para": 5791,
      "duc": 5792,
      "tikel": 5793,
      "wesi": 5794,
      "adat": 5795,
      "Ked": 5796,
      "Ġgraf": 5797,
      "ĠWaj": 5798,
      "ĠBagian": 5799,
      "tara": 5800,
      "Ġsak": 5801,
      "ĠGambar": 5802,
      "ĠPerubahan": 5803,
      "Ġbetapa": 5804,
      "Ġki": 5805,
      "Ġpenerimaan": 5806,
      "Ġinstr": 5807,
      "Ġvolume": 5808,
      "Ġkeagamaan": 5809,
      "ĠMenc": 5810,
      "baca": 5811,
      "Ġfokus": 5812,
      "Allah": 5813,
      "Ġvagina": 5814,
      "Ġgelap": 5815,
      "Ġkenal": 5816,
      "Ġtelinga": 5817,
      "gar": 5818,
      "endam": 5819,
      "otensi": 5820,
      "ĠØ§ÙĦÙĦÙĩ": 5821,
      "anah": 5822,
      "ugikan": 5823,
      "Ġinform": 5824,
      "Ġwaris": 5825,
      "Demikian": 5826,
      "Ġtangannya": 5827,
      "anganan": 5828,
      "Ġpendidik": 5829,
      "Ġdimensi": 5830,
      "Ġterkadang": 5831,
      "tanda": 5832,
      "wasan": 5833,
      "ĠKo": 5834,
      "ĠRaya": 5835,
      "untungkan": 5836,
      "Ġterpisah": 5837,
      "here": 5838,
      ",,": 5839,
      "zah": 5840,
      "Ġleg": 5841,
      "roup": 5842,
      "Ġgue": 5843,
      "Ġizin": 5844,
      "Ġmedis": 5845,
      "ike": 5846,
      "Ġtindak": 5847,
      "Ġpenyimpanan": 5848,
      "29": 5849,
      "Ġvis": 5850,
      "rahim": 5851,
      "lar": 5852,
      "Ġdisesuaikan": 5853,
      "Ġcon": 5854,
      "Ġpolisi": 5855,
      "argaan": 5856,
      "Ġdiskusi": 5857,
      "Ġbasah": 5858,
      "eluk": 5859,
      "Ġvisi": 5860,
      "Ġ70": 5861,
      "Pemb": 5862,
      "ĠMend": 5863,
      "Ġwww": 5864,
      "Ġ2002": 5865,
      "Ġne": 5866,
      "Nah": 5867,
      "sem": 5868,
      "ategi": 5869,
      "IP": 5870,
      "Jangan": 5871,
      "Ġsosi": 5872,
      "Bagaimana": 5873,
      "ĠBogor": 5874,
      "gantian": 5875,
      "ÙĪØ§": 5876,
      "Ġdialami": 5877,
      "epakatan": 5878,
      "iriman": 5879,
      "Ġputri": 5880,
      "ix": 5881,
      "adwal": 5882,
      "ĠPeraturan": 5883,
      "alal": 5884,
      "irik": 5885,
      "Ġvariabel": 5886,
      "esaan": 5887,
      "Ġraya": 5888,
      "Ġdiminta": 5889,
      "Ġ80": 5890,
      "ĠSejarah": 5891,
      "luar": 5892,
      "anduan": 5893,
      "ujuk": 5894,
      "ekah": 5895,
      "Ġformat": 5896,
      "antum": 5897,
      "Ġpelanggaran": 5898,
      "Ġpengaturan": 5899,
      "ĠAkhirnya": 5900,
      "we": 5901,
      "Ġmembuatnya": 5902,
      "ĠSet": 5903,
      "ilm": 5904,
      "ĠAP": 5905,
      "ĠDewi": 5906,
      "ĠTern": 5907,
      "Tujuan": 5908,
      "caan": 5909,
      "Ġistr": 5910,
      "ARA": 5911,
      "Ġamal": 5912,
      "\",": 5913,
      "Ġdian": 5914,
      "Ġmemakan": 5915,
      "terior": 5916,
      "eliharaan": 5917,
      "ĠEv": 5918,
      "ĠEkonomi": 5919,
      "ilmu": 5920,
      "Ġkehendak": 5921,
      "Ġelektronik": 5922,
      "Ġsusah": 5923,
      "Ġpenguasa": 5924,
      "ĠPerd": 5925,
      "Ġbunyi": 5926,
      "mata": 5927,
      "Ġcampuran": 5928,
      "Ġditujukan": 5929,
      "Ġdap": 5930,
      "ensif": 5931,
      "enyum": 5932,
      "utrisi": 5933,
      "Ġdibedakan": 5934,
      "usa": 5935,
      "ĠJumlah": 5936,
      "istensi": 5937,
      "uhur": 5938,
      "Ġmendengarkan": 5939,
      "ifi": 5940,
      "adangan": 5941,
      "Ġdipandang": 5942,
      "Ġlambat": 5943,
      "lay": 5944,
      "Ġdikemukakan": 5945,
      "Ġmembersihkan": 5946,
      "ĠPangeran": 5947,
      "Ġkil": 5948,
      "egak": 5949,
      "Ġbermakna": 5950,
      "jir": 5951,
      "Ġdef": 5952,
      "Ġph": 5953,
      "daerah": 5954,
      "ecahan": 5955,
      "Ġkursi": 5956,
      "enderal": 5957,
      "Ġbahagi": 5958,
      "Ġsekalipun": 5959,
      "ĠSemoga": 5960,
      "Ġdigital": 5961,
      "frika": 5962,
      "48": 5963,
      "adari": 5964,
      "Ġmemadai": 5965,
      "Ġpenulisan": 5966,
      "ogn": 5967,
      "Ġdiciptakan": 5968,
      "Ġtaman": 5969,
      "itatif": 5970,
      "ĠLingkungan": 5971,
      "over": 5972,
      "umpang": 5973,
      "cal": 5974,
      "Ġambil": 5975,
      "asnya": 5976,
      "icu": 5977,
      "Dis": 5978,
      "Ġbuka": 5979,
      "elesaian": 5980,
      "Ġsaran": 5981,
      "akult": 5982,
      "Ġberangkat": 5983,
      "vid": 5984,
      "Ġmengelola": 5985,
      "sihan": 5986,
      "Ġperadaban": 5987,
      "ations": 5988,
      "Ġdiakui": 5989,
      "Ġmenceritakan": 5990,
      "Bila": 5991,
      "Ġponsel": 5992,
      "ĠOnline": 5993,
      "KAN": 5994,
      "buhan": 5995,
      "arak": 5996,
      "orld": 5997,
      "ĠTentu": 5998,
      "ampang": 5999,
      "Ġpower": 6000,
      "Ġmengumpulkan": 6001,
      "Ġmurni": 6002,
      "ĠFoto": 6003,
      "undangan": 6004,
      "ath": 6005,
      "ĠInt": 6006,
      "berry": 6007,
      "anjung": 6008,
      "Ġlaptop": 6009,
      "ahagiaan": 6010,
      "ey": 6011,
      "lebih": 6012,
      "Ġbed": 6013,
      "Setiap": 6014,
      "Ġtahapan": 6015,
      "Ġpembicara": 6016,
      "Ġbahaya": 6017,
      "naf": 6018,
      "unggung": 6019,
      "Ġsignifikan": 6020,
      "Ġmemu": 6021,
      "Ġdiperb": 6022,
      "ĠDinas": 6023,
      "Ġlintas": 6024,
      "gagalan": 6025,
      "Ġanj": 6026,
      "Ġbakal": 6027,
      "Ġkontrol": 6028,
      "tempat": 6029,
      "ahabat": 6030,
      "ĠDua": 6031,
      "Ġkalo": 6032,
      "Ġidentitas": 6033,
      "ose": 6034,
      "Ġdimasukkan": 6035,
      "kali": 6036,
      "sikan": 6037,
      "dy": 6038,
      "ahit": 6039,
      "ĠSK": 6040,
      "ĠAB": 6041,
      "ĠDit": 6042,
      "ĠDip": 6043,
      "ress": 6044,
      "ĠNilai": 6045,
      "Ġkesan": 6046,
      "Ġdisediakan": 6047,
      "Ġmemat": 6048,
      "uant": 6049,
      "ĠKorea": 6050,
      "MA": 6051,
      "Ġpuas": 6052,
      "tum": 6053,
      "ĠHer": 6054,
      "act": 6055,
      "Ġagen": 6056,
      "ĠYunani": 6057,
      "blogspot": 6058,
      "alinan": 6059,
      "ure": 6060,
      "alasan": 6061,
      "Ġreal": 6062,
      "Ġcelana": 6063,
      "Ġmenengah": 6064,
      "ĠPENG": 6065,
      "kh": 6066,
      "ĠWeb": 6067,
      "engkapnya": 6068,
      "aham": 6069,
      "omer": 6070,
      "ĠNas": 6071,
      "70": 6072,
      "ĠØª": 6073,
      "Ġsamb": 6074,
      "Ġris": 6075,
      "ajin": 6076,
      "reen": 6077,
      "ture": 6078,
      "Ġjanji": 6079,
      "Ġgizi": 6080,
      "Ġpasir": 6081,
      "akultas": 6082,
      "'s": 6083,
      "alahkan": 6084,
      "Ġbangun": 6085,
      "Ġintelek": 6086,
      "ject": 6087,
      "ĠMelayu": 6088,
      "Ġtanya": 6089,
      "Ġkehad": 6090,
      "unjungan": 6091,
      "ĠEngkau": 6092,
      "Ġkeseimbangan": 6093,
      "Tapi": 6094,
      "Ġmengajukan": 6095,
      "dusen": 6096,
      "ĠSar": 6097,
      "Ġbiji": 6098,
      "olekul": 6099,
      "ĠMobil": 6100,
      "Ġbanget": 6101,
      "Ġdipenuhi": 6102,
      "Ġterbang": 6103,
      "Ġekor": 6104,
      "bitkan": 6105,
      "banyak": 6106,
      "Ġpelaksana": 6107,
      "ĠBanjar": 6108,
      "Ġhas": 6109,
      "ĠAM": 6110,
      "omend": 6111,
      "Ġditandai": 6112,
      "Ġkelapa": 6113,
      "Ġneraka": 6114,
      "indakan": 6115,
      "Ġmembagi": 6116,
      "Ġkelamin": 6117,
      "35": 6118,
      "paru": 6119,
      "ĠPes": 6120,
      "Ġlurus": 6121,
      "ĠMedia": 6122,
      "ikmatan": 6123,
      "imen": 6124,
      "entral": 6125,
      "rogen": 6126,
      "Ġdeh": 6127,
      "ĠBumi": 6128,
      "Ġbersikap": 6129,
      "ARI": 6130,
      "ĠMembuat": 6131,
      "ism": 6132,
      "Ġlimbah": 6133,
      "Ġadik": 6134,
      "ĠRatu": 6135,
      "ĠRakyat": 6136,
      "EC": 6137,
      "Ġ!": 6138,
      "enan": 6139,
      "Ġbersa": 6140,
      "itia": 6141,
      "Ġbanjir": 6142,
      "ungkapan": 6143,
      "ĠMalang": 6144,
      "Ġmasukan": 6145,
      "Ġmenyamb": 6146,
      "JA": 6147,
      "Ġibunya": 6148,
      "elamatkan": 6149,
      "jana": 6150,
      "lemen": 6151,
      "sional": 6152,
      "cita": 6153,
      "Ġmens": 6154,
      "Ġsifatnya": 6155,
      "arning": 6156,
      "Ġpersiapan": 6157,
      "ole": 6158,
      "Ġoff": 6159,
      "esign": 6160,
      "Ġsinyal": 6161,
      "Ġmendalam": 6162,
      "ĠManajemen": 6163,
      "ony": 6164,
      "Ġkontak": 6165,
      "Ġrelev": 6166,
      "Ġsiklus": 6167,
      "ahlian": 6168,
      "ĠInter": 6169,
      "Ġtiada": 6170,
      "Ġrahim": 6171,
      "ĠAustralia": 6172,
      "yawa": 6173,
      "ise": 6174,
      "lig": 6175,
      "ĠTeknologi": 6176,
      "Ġmenangis": 6177,
      "Ġbilang": 6178,
      "Ġtunggal": 6179,
      "Ġfot": 6180,
      "Ġmanajer": 6181,
      "Ġbergantung": 6182,
      "ĠDik": 6183,
      "Ġpromosi": 6184,
      "mani": 6185,
      "ph": 6186,
      "Ġpeta": 6187,
      "wakilan": 6188,
      "Ġpemakaian": 6189,
      "roses": 6190,
      "Ġpengadilan": 6191,
      "Ġterapi": 6192,
      "Quran": 6193,
      "Ùĭ": 6194,
      "ĠTab": 6195,
      "ĠKarya": 6196,
      "ĠCinta": 6197,
      "Ġuji": 6198,
      "Ġberjudul": 6199,
      "inum": 6200,
      "eteksi": 6201,
      "uny": 6202,
      "Ġditemp": 6203,
      "198": 6204,
      "ĠInilah": 6205,
      "Ġkafir": 6206,
      "Ġtambah": 6207,
      "Ġperhitungan": 6208,
      "500": 6209,
      "Ġkuc": 6210,
      "ifik": 6211,
      "Ġberdua": 6212,
      "ĠChina": 6213,
      "Ġdetik": 6214,
      "akapan": 6215,
      "Ġmemimpin": 6216,
      "Ġjil": 6217,
      "ĠWanita": 6218,
      "Ġcek": 6219,
      "Ġpraktik": 6220,
      "Ġayahnya": 6221,
      "Ġbahagia": 6222,
      "bang": 6223,
      "kira": 6224,
      "ĠCir": 6225,
      "Ġkhawatir": 6226,
      "Ġsurga": 6227,
      "Ġhidung": 6228,
      "Ġserver": 6229,
      "Ġjamur": 6230,
      "Ġlandasan": 6231,
      "ĠBet": 6232,
      "Ġtransportasi": 6233,
      "Ġmutlak": 6234,
      "Ġpap": 6235,
      "Ġmenempatkan": 6236,
      "Ø§Ø": 6237,
      "yanya": 6238,
      "ekor": 6239,
      "Ġpencapaian": 6240,
      "Ġkelak": 6241,
      "Ġdisek": 6242,
      "Ġpeduli": 6243,
      "eck": 6244,
      "atori": 6245,
      "Ġpam": 6246,
      "ĠAD": 6247,
      "ĠBak": 6248,
      "Ġmempersiapkan": 6249,
      "Ġtajam": 6250,
      "Ġpac": 6251,
      "Ġmenguntungkan": 6252,
      "Ġaktifitas": 6253,
      "aton": 6254,
      "Ġmiliki": 6255,
      "Ġmimpi": 6256,
      "lallahu": 6257,
      "Ġtarik": 6258,
      "ĠIV": 6259,
      "ĠNusantara": 6260,
      "Ġpub": 6261,
      "ĠTaman": 6262,
      "Ġpengikut": 6263,
      "efinisikan": 6264,
      "Ġberkomunikasi": 6265,
      "pers": 6266,
      "indo": 6267,
      "Ġpertandingan": 6268,
      "under": 6269,
      "Ġsaraf": 6270,
      "Ġund": 6271,
      "ĠAgar": 6272,
      "Ġlogam": 6273,
      "Ġhormon": 6274,
      "Ġjujur": 6275,
      "Ġmalu": 6276,
      "Ġpenampilan": 6277,
      "EG": 6278,
      "EAN": 6279,
      "Ġmenginginkan": 6280,
      "ĠTengg": 6281,
      "Ġganti": 6282,
      "ormatan": 6283,
      "ated": 6284,
      "etulan": 6285,
      "Kemudian": 6286,
      "ĠRamadhan": 6287,
      "ariwisata": 6288,
      "omi": 6289,
      "Ġkarbon": 6290,
      "hasil": 6291,
      "Ġplan": 6292,
      "ĠSus": 6293,
      "Ġkepuasan": 6294,
      "ĠInf": 6295,
      "utur": 6296,
      "Ġdipercaya": 6297,
      "IKAN": 6298,
      "ĠUmar": 6299,
      "ukses": 6300,
      "older": 6301,
      "ĠBe": 6302,
      "Ġrat": 6303,
      "jaran": 6304,
      "awas": 6305,
      "ĠBuku": 6306,
      "ĠIS": 6307,
      "ĠCar": 6308,
      "Ġbertentangan": 6309,
      "net": 6310,
      ",-": 6311,
      "ĠSr": 6312,
      "Ġlum": 6313,
      "Ġterdengar": 6314,
      "Ġaudit": 6315,
      "andu": 6316,
      "Ġwajar": 6317,
      "sung": 6318,
      "zat": 6319,
      "Ġpertahanan": 6320,
      "ĠAfrika": 6321,
      "ĠEr": 6322,
      "emaran": 6323,
      "apas": 6324,
      "Ġterseb": 6325,
      "enteng": 6326,
      "Ġideal": 6327,
      "Ġkeluarganya": 6328,
      "Ġdisimpan": 6329,
      "upan": 6330,
      "Ġkritis": 6331,
      "Ġsuaminya": 6332,
      "Ġkasar": 6333,
      "ĠKu": 6334,
      "ĠYANG": 6335,
      "Ġpenyusunan": 6336,
      "emberikan": 6337,
      "Ġpedoman": 6338,
      "Ġkumpulan": 6339,
      "Ġtersenyum": 6340,
      "Ġterkandung": 6341,
      "ĠMEN": 6342,
      "Ġpasang": 6343,
      "Ġkenaikan": 6344,
      "deka": 6345,
      "ĠCor": 6346,
      "orial": 6347,
      "arch": 6348,
      "ĠBBM": 6349,
      "ĠFebruari": 6350,
      "Ġmenyi": 6351,
      "odi": 6352,
      "graf": 6353,
      "AY": 6354,
      "Ġhadiah": 6355,
      "ebalan": 6356,
      "Ġcr": 6357,
      "Ġpengeluaran": 6358,
      "Ġmineral": 6359,
      "alaihi": 6360,
      "angannya": 6361,
      "ÙĲÙĳ": 6362,
      "dik": 6363,
      "Ġtas": 6364,
      "ayan": 6365,
      "otaan": 6366,
      "ĠMemper": 6367,
      "Ġikatan": 6368,
      "wit": 6369,
      "Ġmenyukai": 6370,
      "Ġdibahas": 6371,
      "enjar": 6372,
      "ĠPelaks": 6373,
      "udang": 6374,
      "Ġmelebih": 6375,
      "warkan": 6376,
      "Ġkecerdasan": 6377,
      "Ġpenyemb": 6378,
      "etujuan": 6379,
      "ĠPS": 6380,
      "Ġrekan": 6381,
      "ody": 6382,
      "ĠWi": 6383,
      "Ġmenghubungkan": 6384,
      "Ġmengger": 6385,
      "Ġkewenangan": 6386,
      "Ġpersaingan": 6387,
      "Ġdiab": 6388,
      "Ġkosong": 6389,
      "ining": 6390,
      "ĠBlog": 6391,
      "Ġkelihatan": 6392,
      "ĠPengembangan": 6393,
      "Ġikh": 6394,
      "Ġwakil": 6395,
      "Ġarsip": 6396,
      "Ġkriteria": 6397,
      "iliar": 6398,
      "Ġsya": 6399,
      "inah": 6400,
      "ĠPembangunan": 6401,
      "Ġkomitmen": 6402,
      "ATI": 6403,
      "Ġstat": 6404,
      "TER": 6405,
      "Ġorangtua": 6406,
      "ĠAll": 6407,
      "prinsip": 6408,
      "Ġserupa": 6409,
      "Ġberulang": 6410,
      "ĠSk": 6411,
      "Ġmengukur": 6412,
      "ulusan": 6413,
      "ebon": 6414,
      "ĠBus": 6415,
      "umbu": 6416,
      "iner": 6417,
      "ĠPasar": 6418,
      "ĠPerang": 6419,
      "Ġdinilai": 6420,
      "Ġmunculnya": 6421,
      "ĠMelalui": 6422,
      "ĠHP": 6423,
      "umkan": 6424,
      "Ġkenikmatan": 6425,
      "Ġcok": 6426,
      "ĠØ±": 6427,
      "ungsinya": 6428,
      "Ġkebahagiaan": 6429,
      "Ġjag": 6430,
      "ning": 6431,
      "ĠSan": 6432,
      "iayaan": 6433,
      "Ġhadapan": 6434,
      "ĠOrganisasi": 6435,
      "Ġbertugas": 6436,
      "Ġcap": 6437,
      "alem": 6438,
      "Ġlancar": 6439,
      "ativ": 6440,
      "for": 6441,
      "Ġsore": 6442,
      "Ġbrow": 6443,
      "onel": 6444,
      "ĠKali": 6445,
      "rot": 6446,
      "ĠGubernur": 6447,
      "====": 6448,
      "Ġpupuk": 6449,
      "Ġmenangkap": 6450,
      "Ġberukuran": 6451,
      "usuf": 6452,
      "Ġnenek": 6453,
      "Ġakhlak": 6454,
      "Ġpenghasilan": 6455,
      "36": 6456,
      "ĠBanten": 6457,
      "Ġmaaf": 6458,
      "Ġsaksi": 6459,
      "Ġmenak": 6460,
      "Ġmemain": 6461,
      "olik": 6462,
      "Ġcaranya": 6463,
      "Ġrupiah": 6464,
      "ahap": 6465,
      "Ġmenolong": 6466,
      "Ġkemarin": 6467,
      "Ġmotif": 6468,
      "Ġmendekati": 6469,
      "ĠBerbagai": 6470,
      "umput": 6471,
      "Ġnafas": 6472,
      "Ġpadi": 6473,
      "Ġbelak": 6474,
      "isika": 6475,
      "ĠKitab": 6476,
      "Ġmencintai": 6477,
      "Ġmemperlihatkan": 6478,
      "ingung": 6479,
      "uraikan": 6480,
      "Ġberdoa": 6481,
      "ontinue": 6482,
      "Ġ1998": 6483,
      "ĠMengapa": 6484,
      "ĠMateri": 6485,
      "Ġ).": 6486,
      "Ġbutuh": 6487,
      "ante": 6488,
      "ĠSebaliknya": 6489,
      "afsir": 6490,
      "daftar": 6491,
      "Ġbau": 6492,
      "Ġpuluh": 6493,
      "ĠMandiri": 6494,
      "ĠHidup": 6495,
      "tive": 6496,
      "uasaan": 6497,
      "ĠPL": 6498,
      "embatan": 6499,
      "Ġfase": 6500,
      "âĢĻ.": 6501,
      "Ġsosok": 6502,
      "Ġketat": 6503,
      "ĠGereja": 6504,
      "Ġhaji": 6505,
      "ohol": 6506,
      "aktunya": 6507,
      "uatu": 6508,
      "Ġkegagalan": 6509,
      "ĠSm": 6510,
      "Ġkesepakatan": 6511,
      "lama": 6512,
      "iskinan": 6513,
      "bawa": 6514,
      "Ġmerubah": 6515,
      "Ġwadah": 6516,
      "ĠSejak": 6517,
      "Ġmantan": 6518,
      "ĠBudaya": 6519,
      "impulan": 6520,
      "ĠPerkembangan": 6521,
      "sitektur": 6522,
      "ĠTempat": 6523,
      "mewa": 6524,
      "Ġakhirat": 6525,
      "ASAN": 6526,
      "Ġher": 6527,
      "Ġred": 6528,
      "ĠJohn": 6529,
      "Ġport": 6530,
      "Ġsetidaknya": 6531,
      "Ġdapatkan": 6532,
      "Ġasuransi": 6533,
      "oan": 6534,
      "paran": 6535,
      "Ġsper": 6536,
      "Ġsetu": 6537,
      "elus": 6538,
      "Ġtegangan": 6539,
      "Ġbend": 6540,
      "Ġmenghadap": 6541,
      "ĠJual": 6542,
      "Ġkecelakaan": 6543,
      "anaman": 6544,
      "Ġakr": 6545,
      "Ġsemula": 6546,
      "Ġketerb": 6547,
      "Ġpunggung": 6548,
      "ĠKelompok": 6549,
      "otan": 6550,
      "AND": 6551,
      "ology": 6552,
      "ĠSulawesi": 6553,
      "ĠBupati": 6554,
      "enderungan": 6555,
      "Ġdiperkirakan": 6556,
      "sus": 6557,
      "ĠKeter": 6558,
      "ĠKantor": 6559,
      "ĠÙĤ": 6560,
      "ĠIbrahim": 6561,
      "ĠAngk": 6562,
      "ĠInternasional": 6563,
      "Ġkehadiran": 6564,
      "lm": 6565,
      "Ġpelajar": 6566,
      "Ġmenghad": 6567,
      "Ġ2001": 6568,
      "Ġinstitusi": 6569,
      "ras": 6570,
      "tib": 6571,
      "tilah": 6572,
      "Ġsebutan": 6573,
      "ĠSMS": 6574,
      "ĠBek": 6575,
      "ĠKonsep": 6576,
      "LAH": 6577,
      "Ġgemb": 6578,
      "ric": 6579,
      "osiasi": 6580,
      "Ġkonsentrasi": 6581,
      "asai": 6582,
      "Ġkala": 6583,
      "etensi": 6584,
      "ĠBangsa": 6585,
      "Ġkuno": 6586,
      "ewenang": 6587,
      "hadapan": 6588,
      "Ġwawancara": 6589,
      "EP": 6590,
      "erintahan": 6591,
      "Ġkomentar": 6592,
      "ĠTentang": 6593,
      "abowo": 6594,
      "ĠSunda": 6595,
      "ĠHonda": 6596,
      "ipil": 6597,
      "Ġresp": 6598,
      "Ġpenerb": 6599,
      "ĠUniversity": 6600,
      "Ġsedemikian": 6601,
      "Ġkrisis": 6602,
      "ĠAdanya": 6603,
      "99": 6604,
      "Ġurutan": 6605,
      "ĠAri": 6606,
      "Ġatom": 6607,
      "ĠMA": 6608,
      "udus": 6609,
      "ajikan": 6610,
      "komp": 6611,
      "Ġsemesta": 6612,
      "Peny": 6613,
      "epend": 6614,
      "Ġdiselenggarakan": 6615,
      "ALAM": 6616,
      "Indonesia": 6617,
      "Ġpindah": 6618,
      "Ġbis": 6619,
      "alih": 6620,
      "Ġdipelajari": 6621,
      "Ġdijalankan": 6622,
      "gma": 6623,
      "aringan": 6624,
      "ĠHubungan": 6625,
      "Ġudah": 6626,
      "Ġkl": 6627,
      "Ġberharga": 6628,
      "Ġinginkan": 6629,
      "ĠKhusus": 6630,
      "ĠFacebook": 6631,
      "Ġbatin": 6632,
      "abiskan": 6633,
      "kop": 6634,
      "ĠBab": 6635,
      "ĠKomunikasi": 6636,
      "Ġsetan": 6637,
      "Ġisu": 6638,
      "Ġpembagian": 6639,
      "Ġkac": 6640,
      "Ġbiru": 6641,
      "Ġjahat": 6642,
      "ĠDana": 6643,
      "Ġberfikir": 6644,
      "erdas": 6645,
      "ĠKan": 6646,
      "empuran": 6647,
      "Ġpersepsi": 6648,
      "Ġkemenangan": 6649,
      "ĠMemang": 6650,
      "Ġberas": 6651,
      "atorium": 6652,
      "Ġselam": 6653,
      "Ġkuasa": 6654,
      "Ġmelebihi": 6655,
      "erai": 6656,
      "Ġmengunjungi": 6657,
      "ote": 6658,
      "Ġkoleksi": 6659,
      "Ġdiajarkan": 6660,
      "Ġtest": 6661,
      "Ġmenangani": 6662,
      "ĠOp": 6663,
      "seperti": 6664,
      "ĠPBB": 6665,
      "iber": 6666,
      "Ġdirancang": 6667,
      "Ġnaskah": 6668,
      "Ġkambing": 6669,
      "orongan": 6670,
      "Ġmemecahkan": 6671,
      "ten": 6672,
      "inja": 6673,
      "ĠPrinsip": 6674,
      "Ġherbal": 6675,
      "ĠComp": 6676,
      "Ġdikerjakan": 6677,
      "Ġdistribusi": 6678,
      "BI": 6679,
      "Ġheran": 6680,
      "ĠMasa": 6681,
      "Ġget": 6682,
      "ĠUr": 6683,
      "Ġpur": 6684,
      "Ġkag": 6685,
      "emia": 6686,
      "ompa": 6687,
      "umpah": 6688,
      "ĠKeuangan": 6689,
      "Ġspesifik": 6690,
      "Ġkotoran": 6691,
      "umusan": 6692,
      "ĠBah": 6693,
      "Ġmerugikan": 6694,
      "Ġsepak": 6695,
      "Ġ90": 6696,
      "okteran": 6697,
      "onya": 6698,
      "tawa": 6699,
      "ÙĦØ§": 6700,
      "Ġindividual": 6701,
      "Ġmm": 6702,
      "Ġkeempat": 6703,
      "ĠPD": 6704,
      "Ġskala": 6705,
      "Ġmengaw": 6706,
      "ĠEf": 6707,
      "ohonan": 6708,
      "Ġgaram": 6709,
      "?\"": 6710,
      "Ġmatang": 6711,
      "Ġparah": 6712,
      "ijaks": 6713,
      "Ġtipis": 6714,
      "Ġmenyiapkan": 6715,
      "ĠSungai": 6716,
      "Ġkatakan": 6717,
      "ĠSudah": 6718,
      "itr": 6719,
      "Ġdri": 6720,
      "app": 6721,
      "Ġmengganti": 6722,
      "ĠTingkat": 6723,
      "OG": 6724,
      "ĠSP": 6725,
      "Ġroda": 6726,
      "ĠRoh": 6727,
      "ĠJaya": 6728,
      "Ġprovinsi": 6729,
      "Ġpenghargaan": 6730,
      "Ġmenyak": 6731,
      "antang": 6732,
      "Ġterpaksa": 6733,
      "io": 6734,
      "Ġkeahlian": 6735,
      "Ġmenggantikan": 6736,
      "osof": 6737,
      "Ġmemproduksi": 6738,
      "orientasi": 6739,
      "asari": 6740,
      "gih": 6741,
      "Ġsangatlah": 6742,
      "Ø¶": 6743,
      "ayang": 6744,
      "Ġmengemukakan": 6745,
      "ĠKamu": 6746,
      "ĠBisnis": 6747,
      "Ġtopik": 6748,
      "Ġsetia": 6749,
      "Ġditawarkan": 6750,
      "Ġcat": 6751,
      "ample": 6752,
      "Ġall": 6753,
      "Ġ35": 6754,
      "Ġsempit": 6755,
      "ĠMicrosoft": 6756,
      "Ġtersebar": 6757,
      "Jenis": 6758,
      "Ġkup": 6759,
      "Ġbotol": 6760,
      "Ġbervari": 6761,
      "Ġemosional": 6762,
      "ubur": 6763,
      "Ġuraian": 6764,
      "ĠMis": 6765,
      "Ġpenutup": 6766,
      "Ġpengamatan": 6767,
      "endela": 6768,
      "ĠGar": 6769,
      "obot": 6770,
      "be": 6771,
      "ks": 6772,
      "red": 6773,
      "itanya": 6774,
      "Ġmengacu": 6775,
      "Ġkontol": 6776,
      "Ġmemainkan": 6777,
      "Ġmemperkuat": 6778,
      "ĠSystem": 6779,
      "lima": 6780,
      "adanya": 6781,
      "Ġsewaktu": 6782,
      "Ġlengan": 6783,
      "Ġpembeli": 6784,
      "ection": 6785,
      "Ġlingkup": 6786,
      "TM": 6787,
      "ĠTur": 6788,
      "Ġmelanggar": 6789,
      "Ġmengkonsumsi": 6790,
      "iaan": 6791,
      "onsep": 6792,
      "Pasal": 6793,
      "Ġkey": 6794,
      "Ġrokok": 6795,
      "Ġkepadamu": 6796,
      "Ġdalil": 6797,
      "onf": 6798,
      "Sistem": 6799,
      "Ġpi": 6800,
      "Ġbetul": 6801,
      "Ġliter": 6802,
      "ĠJenderal": 6803,
      "ĠWaktu": 6804,
      "ahi": 6805,
      "Ġback": 6806,
      "Ġpesta": 6807,
      "html": 6808,
      "Ġgram": 6809,
      "egaraan": 6810,
      "ĠASEAN": 6811,
      "Ġmemori": 6812,
      "Ġdibaca": 6813,
      "Ġklasik": 6814,
      "ometer": 6815,
      "obi": 6816,
      "umentasi": 6817,
      "Ġmengucapkan": 6818,
      "Ġriwayat": 6819,
      "lambat": 6820,
      "Ġternak": 6821,
      "Mereka": 6822,
      "kas": 6823,
      "ibuk": 6824,
      "Ġketak": 6825,
      "Ġutuh": 6826,
      "Ġseakan": 6827,
      "apasan": 6828,
      "Ġmemikirkan": 6829,
      "abar": 6830,
      "Ġprodusen": 6831,
      "ĠMedan": 6832,
      "ĠASI": 6833,
      "obaan": 6834,
      "ye": 6835,
      "ĠBaik": 6836,
      "Ġmengendalikan": 6837,
      "Ġistrinya": 6838,
      "astikan": 6839,
      "Ġmemuat": 6840,
      "ĠSebagian": 6841,
      "Ġpenjual": 6842,
      "Ġbingung": 6843,
      "Ġperingatan": 6844,
      "Ġfir": 6845,
      "ÙĬÙĨ": 6846,
      "DAH": 6847,
      "ĠJl": 6848,
      "ĠRom": 6849,
      "ream": 6850,
      "Ġtransfer": 6851,
      "ĠHAM": 6852,
      "Ġsenyawa": 6853,
      "jil": 6854,
      "mo": 6855,
      "Ġhe": 6856,
      "Ġperawat": 6857,
      "tawan": 6858,
      "Ġcewek": 6859,
      "Ġinves": 6860,
      "siapa": 6861,
      "aib": 6862,
      "tung": 6863,
      "Ġpras": 6864,
      "aitkan": 6865,
      "Ġhadis": 6866,
      "ĠKondisi": 6867,
      "Dep": 6868,
      "alisa": 6869,
      "isir": 6870,
      "Ġberga": 6871,
      "Ġgempa": 6872,
      "ĠHab": 6873,
      "ĠCo": 6874,
      "ANGAN": 6875,
      "ĠItulah": 6876,
      "Ġinovasi": 6877,
      "08": 6878,
      "awar": 6879,
      "Ġval": 6880,
      "Ġperguruan": 6881,
      "55": 6882,
      "Ġputus": 6883,
      "ĠAre": 6884,
      "olok": 6885,
      "Ġniat": 6886,
      "ulatan": 6887,
      "Ġnutrisi": 6888,
      "ĠHasan": 6889,
      "Ġtebal": 6890,
      "31": 6891,
      "Ġdakwah": 6892,
      "engahan": 6893,
      "umor": 6894,
      "Ġkomb": 6895,
      "sor": 6896,
      "Ġwaktunya": 6897,
      "Ġkereta": 6898,
      "Ġkontrak": 6899,
      "Ġmemuaskan": 6900,
      "pet": 6901,
      "Ġmeres": 6902,
      "Ġmenyentuh": 6903,
      "ĠWakil": 6904,
      "ancing": 6905,
      "Ġsejauh": 6906,
      "PER": 6907,
      "enalan": 6908,
      "iranya": 6909,
      "Ġharganya": 6910,
      "Ġribuan": 6911,
      "Ġtingkatan": 6912,
      "ild": 6913,
      "bert": 6914,
      "Ġberkomentar": 6915,
      "ukisan": 6916,
      "ĠWal": 6917,
      "Ġperkataan": 6918,
      "injau": 6919,
      "abaran": 6920,
      "ĠPapua": 6921,
      "Maka": 6922,
      "Ġdsb": 6923,
      "Ġberedar": 6924,
      "andan": 6925,
      "janya": 6926,
      "akili": 6927,
      "Ġdibuka": 6928,
      "Ġpencarian": 6929,
      "Ġmenyebar": 6930,
      "memb": 6931,
      "Ġdamai": 6932,
      "ĠBo": 6933,
      "Ġkerap": 6934,
      "retaris": 6935,
      "inst": 6936,
      "Ġcar": 6937,
      "Ġmerawat": 6938,
      "Ġpengakuan": 6939,
      "ĠSch": 6940,
      "alifah": 6941,
      "ĠSoek": 6942,
      "ĠAbdullah": 6943,
      "Ġdgn": 6944,
      "ĠMengh": 6945,
      "wang": 6946,
      "Ġmedi": 6947,
      "34": 6948,
      "likasikan": 6949,
      "Ġsuper": 6950,
      "karena": 6951,
      "yyah": 6952,
      "inu": 6953,
      "ĠIT": 6954,
      "ontal": 6955,
      "Ġterlepas": 6956,
      "anusiaan": 6957,
      "by": 6958,
      "Ġmengenakan": 6959,
      "atangkan": 6960,
      "isap": 6961,
      "esanan": 6962,
      "ukah": 6963,
      "St": 6964,
      "tengah": 6965,
      "ĠMon": 6966,
      "anye": 6967,
      "ĠSesungguhnya": 6968,
      "Ġmengarahkan": 6969,
      "Ġterbagi": 6970,
      "rid": 6971,
      "yaw": 6972,
      "rol": 6973,
      "uy": 6974,
      "ongga": 6975,
      "Ġ500": 6976,
      "Ġeksternal": 6977,
      ");": 6978,
      "Ġproblem": 6979,
      "Ġpenyelesaian": 6980,
      "ĠPolitik": 6981,
      "Ġwisatawan": 6982,
      "Ġketu": 6983,
      "ĠKeluarga": 6984,
      "Ġberfirman": 6985,
      "enjang": 6986,
      "Ġdiganti": 6987,
      "Ġpesantren": 6988,
      "Ġspiritual": 6989,
      "Ġlucu": 6990,
      "omunikasi": 6991,
      "Ġkerangka": 6992,
      "ĠBerb": 6993,
      "Tak": 6994,
      "mudah": 6995,
      "Ġbervariasi": 6996,
      "nik": 6997,
      "Ġasas": 6998,
      "Ġdilanjutkan": 6999,
      "daftaran": 7000,
      "Ġintelektual": 7001,
      "Ġaf": 7002,
      "hanc": 7003,
      "Ġmengant": 7004,
      "Ġpsikologis": 7005,
      "Ġhave": 7006,
      "nam": 7007,
      "ĠPus": 7008,
      "Ġpemeliharaan": 7009,
      "Ġgaji": 7010,
      "elly": 7011,
      "Ġsebut": 7012,
      "name": 7013,
      "yai": 7014,
      "illa": 7015,
      "ĠRS": 7016,
      "unjukan": 7017,
      "emi": 7018,
      "Ġpengukuran": 7019,
      "Ġhakim": 7020,
      "Semua": 7021,
      "ĠDepartemen": 7022,
      "Ġsop": 7023,
      "Ġplas": 7024,
      "inder": 7025,
      "ĠPenggunaan": 7026,
      "Ġmalaikat": 7027,
      "Ġsetuju": 7028,
      "BA": 7029,
      "OH": 7030,
      "ĠLembaga": 7031,
      "Ġdisajikan": 7032,
      "Ġberkel": 7033,
      "CD": 7034,
      "fungsi": 7035,
      "Ġmenemb": 7036,
      "anggal": 7037,
      "estinya": 7038,
      "ĠMasjid": 7039,
      "esuaian": 7040,
      "Ġratusan": 7041,
      "yangan": 7042,
      "Ġusus": 7043,
      "ahulu": 7044,
      "Ġfrekuensi": 7045,
      "ria": 7046,
      "Ġmengobati": 7047,
      "ultasi": 7048,
      "ĠStudi": 7049,
      "olar": 7050,
      "ancarkan": 7051,
      "enterian": 7052,
      "Ġrohani": 7053,
      "Ġmenyerahkan": 7054,
      "IA": 7055,
      "Ġberta": 7056,
      "ancurkan": 7057,
      "ĠÙĥ": 7058,
      "Ġkombinasi": 7059,
      "32": 7060,
      "Ġklin": 7061,
      "Ġdiluar": 7062,
      "asiun": 7063,
      "Ġkonvensi": 7064,
      "erintahkan": 7065,
      "Ġsholat": 7066,
      "ĠPembelajaran": 7067,
      "ferensi": 7068,
      "Ġrasional": 7069,
      "Ġmad": 7070,
      "Ġterwujud": 7071,
      "sion": 7072,
      "Ġaut": 7073,
      "Ġdisamping": 7074,
      "ĠKetiga": 7075,
      "Ġkn": 7076,
      "arahkan": 7077,
      "Itu": 7078,
      "Ġmenonjol": 7079,
      "Kel": 7080,
      "led": 7081,
      "Ġdev": 7082,
      "Ġplus": 7083,
      "Ġberagama": 7084,
      "ĠIP": 7085,
      "ĠRusia": 7086,
      "urasi": 7087,
      "ĠSunan": 7088,
      "ĠTar": 7089,
      "enai": 7090,
      "esin": 7091,
      "ebunan": 7092,
      "ĠBuah": 7093,
      "Ġkuant": 7094,
      "ĠAlkitab": 7095,
      "Ġbro": 7096,
      "Ġmengembalikan": 7097,
      "Ġsejati": 7098,
      "Sesungguhnya": 7099,
      "04": 7100,
      "Ġmal": 7101,
      "ĠSampai": 7102,
      "ire": 7103,
      "ĠDian": 7104,
      "dayaan": 7105,
      "ife": 7106,
      "Ġpangan": 7107,
      "Ġbelas": 7108,
      "Ġhel": 7109,
      "ĠPor": 7110,
      "Ġiklim": 7111,
      "yamanan": 7112,
      "Ġtiket": 7113,
      "Ġwartawan": 7114,
      "Ġmengirimkan": 7115,
      "gement": 7116,
      "Ġdetail": 7117,
      "uruk": 7118,
      "Ġpenanganan": 7119,
      "ulauan": 7120,
      "Ġbermacam": 7121,
      "editasi": 7122,
      "38": 7123,
      "jenis": 7124,
      "ĠPi": 7125,
      "uluhan": 7126,
      "Ġpadanya": 7127,
      "usikan": 7128,
      "Ġlulus": 7129,
      "Ġgur": 7130,
      "ĠRev": 7131,
      "Ġterpenting": 7132,
      "besar": 7133,
      "kk": 7134,
      "inggian": 7135,
      "Lalu": 7136,
      "iland": 7137,
      "undur": 7138,
      "ĠMeski": 7139,
      "idaya": 7140,
      "Ġpenja": 7141,
      "ĠLihat": 7142,
      "Ġmenghargai": 7143,
      "Ġpersalinan": 7144,
      "Ġsabar": 7145,
      "cel": 7146,
      "Ø®": 7147,
      "ado": 7148,
      "Ġkeunggulan": 7149,
      "ĠYo": 7150,
      "ARAN": 7151,
      "Ia": 7152,
      "Ġmolekul": 7153,
      "Ġ31": 7154,
      "Ġindikator": 7155,
      "ove": 7156,
      "baru": 7157,
      "Ġseiring": 7158,
      "eban": 7159,
      "Ġ32": 7160,
      "ĠSemakin": 7161,
      "lish": 7162,
      "Ġmewakili": 7163,
      "alasi": 7164,
      "Ġprofes": 7165,
      "assar": 7166,
      "ĠCirebon": 7167,
      "Ġdidalamnya": 7168,
      "po": 7169,
      "servasi": 7170,
      "Ġdikuasai": 7171,
      "Ġkucing": 7172,
      "Tr": 7173,
      "Ġbakat": 7174,
      "madi": 7175,
      "Ġsangg": 7176,
      "Ġpesat": 7177,
      "erasi": 7178,
      "elor": 7179,
      "ĠSiswa": 7180,
      "Ġ45": 7181,
      "aras": 7182,
      "Ġpek": 7183,
      "uch": 7184,
      "ĠKeputusan": 7185,
      "Ġditur": 7186,
      "eser": 7187,
      "utaan": 7188,
      "Ġmenunjukan": 7189,
      "ron": 7190,
      "ss": 7191,
      "ĠDewa": 7192,
      "Ġkedatangan": 7193,
      "fik": 7194,
      "ĠRef": 7195,
      "Wah": 7196,
      "Ġsim": 7197,
      "ĠTata": 7198,
      "ĠWIB": 7199,
      "ijat": 7200,
      "pinsi": 7201,
      "Ġsibuk": 7202,
      "ĠMulai": 7203,
      "etuj": 7204,
      "Ġliar": 7205,
      "ĠMag": 7206,
      "Ġpemandangan": 7207,
      "Ġgab": 7208,
      "Ġpatung": 7209,
      "Ġberi": 7210,
      "gaulan": 7211,
      "ernaan": 7212,
      "Ġcair": 7213,
      "press": 7214,
      "ognitif": 7215,
      "ashi": 7216,
      "Ġrad": 7217,
      "amaah": 7218,
      "Ġmendidik": 7219,
      "onstr": 7220,
      "Ø§ÙĨ": 7221,
      "Ġwalau": 7222,
      "onor": 7223,
      "odel": 7224,
      "Ġdilarang": 7225,
      "Ġprimer": 7226,
      "buku": 7227,
      "low": 7228,
      "Ġungg": 7229,
      "ĠST": 7230,
      "Ġlaba": 7231,
      "Ġgam": 7232,
      "tural": 7233,
      "akn": 7234,
      "ĠMerah": 7235,
      "ĠMinggu": 7236,
      "andatangan": 7237,
      "Ġpenyel": 7238,
      "rasah": 7239,
      "Ġkg": 7240,
      "Ġbad": 7241,
      "Ġketua": 7242,
      "ĠJo": 7243,
      "Ġaset": 7244,
      "enam": 7245,
      "Ġekonom": 7246,
      "Ġdiduga": 7247,
      "pol": 7248,
      "Ġseter": 7249,
      "Ġpersetujuan": 7250,
      "Ġreferensi": 7251,
      "Ġsc": 7252,
      "Ġmemerintahkan": 7253,
      "ĠKH": 7254,
      "ugh": 7255,
      "rosir": 7256,
      "Ġsusunan": 7257,
      "ĠIND": 7258,
      "Ġdiubah": 7259,
      "Ġmenyesuaikan": 7260,
      "benda": 7261,
      "Ġest": 7262,
      "Ġbeda": 7263,
      "Ġragu": 7264,
      "ervasi": 7265,
      "IC": 7266,
      "ovel": 7267,
      "Ġartis": 7268,
      "Ġpartisipasi": 7269,
      "iro": 7270,
      "Ġdidapatkan": 7271,
      "ts": 7272,
      "ipe": 7273,
      "Ġberkumpul": 7274,
      "Ġhiburan": 7275,
      "pemb": 7276,
      "ĠBarang": 7277,
      "antungan": 7278,
      "Ġmencatat": 7279,
      "ultanan": 7280,
      "Ġrelevan": 7281,
      "din": 7282,
      "uw": 7283,
      "Ġcontrol": 7284,
      "Ġpemanfaatan": 7285,
      "Ġkemiskinan": 7286,
      "ector": 7287,
      "angkitkan": 7288,
      "empurnaan": 7289,
      "Ġkawan": 7290,
      "ĠSolo": 7291,
      "ehe": 7292,
      "Ġtercapai": 7293,
      "Ġkampus": 7294,
      "lock": 7295,
      "Ġjantan": 7296,
      "lahirkan": 7297,
      "Ġbetina": 7298,
      "Ġterper": 7299,
      "Ġharinya": 7300,
      "Ġbulat": 7301,
      "Ġpakan": 7302,
      "evelop": 7303,
      "Ġperundang": 7304,
      "ambi": 7305,
      "Ġmenumb": 7306,
      "ĠSat": 7307,
      "Ġnark": 7308,
      "intar": 7309,
      "Ġtergolong": 7310,
      "Ġkunjungan": 7311,
      "ape": 7312,
      "Ġpenemuan": 7313,
      "Ġharuslah": 7314,
      "Ġmenjelang": 7315,
      "%.": 7316,
      "bum": 7317,
      "Ġmengingatkan": 7318,
      "Ġcerdas": 7319,
      "isang": 7320,
      "ĠIran": 7321,
      "earch": 7322,
      "Ġsepertinya": 7323,
      "ikatan": 7324,
      "osh": 7325,
      "asarana": 7326,
      "Ġmesti": 7327,
      "Ġmedan": 7328,
      "Proses": 7329,
      "):": 7330,
      "Ġwewenang": 7331,
      "Ġsepatu": 7332,
      "Ġmonitor": 7333,
      "Ġmenyaksikan": 7334,
      "Ġwill": 7335,
      "AKA": 7336,
      "Ġmenegaskan": 7337,
      "Ġdel": 7338,
      "Ġpapan": 7339,
      "ulangan": 7340,
      "ĠHan": 7341,
      "Ġbengk": 7342,
      "ĠAdam": 7343,
      "Ġmajalah": 7344,
      "Ġperhatikan": 7345,
      "Ġpengantin": 7346,
      "ĠSingapura": 7347,
      "ĠTenggara": 7348,
      "Ġsul": 7349,
      "Ġbaiknya": 7350,
      "yataannya": 7351,
      "pes": 7352,
      "SD": 7353,
      "iam": 7354,
      "ko": 7355,
      "ĠBas": 7356,
      "Ġpemegang": 7357,
      "Ġwawasan": 7358,
      "mos": 7359,
      "Ġrak": 7360,
      "Ġbon": 7361,
      "etode": 7362,
      "Ġritual": 7363,
      "adigma": 7364,
      "rav": 7365,
      "Ġberw": 7366,
      "AHAN": 7367,
      "Ġsmart": 7368,
      "mus": 7369,
      "ebaskan": 7370,
      "Ġperoleh": 7371,
      "Ùį": 7372,
      "Ġmiliar": 7373,
      "arangan": 7374,
      "Ġcetak": 7375,
      "Jakarta": 7376,
      "sun": 7377,
      "Ġsurve": 7378,
      "Ġglobalisasi": 7379,
      "jemahkan": 7380,
      "ĠId": 7381,
      "Ġori": 7382,
      "Ġsukar": 7383,
      "enian": 7384,
      "ensa": 7385,
      "Ġmi": 7386,
      "ĠMil": 7387,
      "ĠTK": 7388,
      "Berry": 7389,
      "ĠAkibatnya": 7390,
      "kohol": 7391,
      "mah": 7392,
      "ĠAK": 7393,
      "otanya": 7394,
      "Ġberumur": 7395,
      "Ġwal": 7396,
      "Ġjumlahnya": 7397,
      "eligi": 7398,
      "Ġlambung": 7399,
      "Ġsobat": 7400,
      "ĠKart": 7401,
      "Ġmembiarkan": 7402,
      "Ġproduktif": 7403,
      "anyol": 7404,
      "Ġefisiensi": 7405,
      "tugas": 7406,
      "utif": 7407,
      "Ġmenghancurkan": 7408,
      "ĠKemampuan": 7409,
      "salam": 7410,
      "ĠMeningkatkan": 7411,
      "Ġmarket": 7412,
      "ĠSaw": 7413,
      "enaan": 7414,
      "bukan": 7415,
      "Ġqu": 7416,
      "aduan": 7417,
      "alangan": 7418,
      "Apabila": 7419,
      "Ġmeman": 7420,
      "Ġpenguasaan": 7421,
      "DAHUL": 7422,
      "ral": 7423,
      "Ġprinter": 7424,
      "Semoga": 7425,
      "Ġpakar": 7426,
      "ekerjaan": 7427,
      "ombongan": 7428,
      "ewajib": 7429,
      "UST": 7430,
      "ĠTerbaru": 7431,
      "apahit": 7432,
      "Ġmempertimbangkan": 7433,
      "ĠKun": 7434,
      "angkatan": 7435,
      "Ġmenghabiskan": 7436,
      "Ġpatut": 7437,
      "aptasi": 7438,
      "Ġdibayar": 7439,
      "ĠMusa": 7440,
      "ĠServ": 7441,
      "Ġkecenderungan": 7442,
      "Ġbibit": 7443,
      "Ġbersaing": 7444,
      "75": 7445,
      "ion": 7446,
      "Ġtari": 7447,
      "Ġjanganlah": 7448,
      "ĠTernyata": 7449,
      "Ġmemanggil": 7450,
      "Ġresep": 7451,
      "Ġditutup": 7452,
      "ket": 7453,
      "Ġperairan": 7454,
      "nama": 7455,
      "ĠMari": 7456,
      "ijaksanaan": 7457,
      "Nama": 7458,
      "ĠPantai": 7459,
      "eki": 7460,
      "Ġperlakuan": 7461,
      "Ġmengab": 7462,
      "hailand": 7463,
      "DAHULUAN": 7464,
      "Ġkrim": 7465,
      "FTAR": 7466,
      "ĠDo": 7467,
      "Ġdituntut": 7468,
      "count": 7469,
      "Ġbaginya": 7470,
      "Ġdiabetes": 7471,
      "MP": 7472,
      "Ġmom": 7473,
      "MI": 7474,
      "lib": 7475,
      "Ġkarenanya": 7476,
      "Ġdisana": 7477,
      "Ġbentuknya": 7478,
      "esuai": 7479,
      "pu": 7480,
      "Ġtur": 7481,
      "ĠPadang": 7482,
      "ebak": 7483,
      "ĠRaden": 7484,
      "kulasi": 7485,
      "Ġemb": 7486,
      "Ġketa": 7487,
      "ĠRos": 7488,
      "Ġkoneksi": 7489,
      "Ġover": 7490,
      "Kedua": 7491,
      "Man": 7492,
      "Ġbasis": 7493,
      "Ġpergerakan": 7494,
      "tions": 7495,
      "ĠBud": 7496,
      "Ġmenunjang": 7497,
      "Ġnasib": 7498,
      "Ġdilahirkan": 7499,
      "Ġyah": 7500,
      "Ġdapur": 7501,
      "Ġbikin": 7502,
      "ikip": 7503,
      "eld": 7504,
      "Ġpass": 7505,
      "Ġsebaik": 7506,
      "Ġtutup": 7507,
      "ĠBidang": 7508,
      "Ġpenerima": 7509,
      "ĠJasa": 7510,
      "example": 7511,
      "ze": 7512,
      "Ġmenemui": 7513,
      "ily": 7514,
      "udaranya": 7515,
      "ĠDownload": 7516,
      "Ġcom": 7517,
      "stname": 7518,
      "Ġimam": 7519,
      "etujui": 7520,
      "orangan": 7521,
      "ĠDe": 7522,
      "Ġaudi": 7523,
      "Ġfungsinya": 7524,
      "turut": 7525,
      "yekh": 7526,
      "IAN": 7527,
      "Ġharm": 7528,
      "Ġdemok": 7529,
      "Ġpopulasi": 7530,
      "Ġhist": 7531,
      "Ġhambatan": 7532,
      "ivisi": 7533,
      "Ġkenyamanan": 7534,
      "Ġseterusnya": 7535,
      "Ġdewa": 7536,
      "Ġpengiriman": 7537,
      "Ġmelarang": 7538,
      "âĢĻ,": 7539,
      "Ġkemanusiaan": 7540,
      "Ġberdampak": 7541,
      "Ġberkuasa": 7542,
      ".(": 7543,
      "ĠBiaya": 7544,
      "ominasi": 7545,
      "reasi": 7546,
      "evaluasi": 7547,
      "Ġseimbang": 7548,
      "other": 7549,
      "mener": 7550,
      "sungguh": 7551,
      "ĠJumat": 7552,
      "Ġperbandingan": 7553,
      "integrasi": 7554,
      "Ġkecamatan": 7555,
      "Ġmatanya": 7556,
      "ĠiP": 7557,
      "Ġtimbulnya": 7558,
      "eum": 7559,
      "ĠUk": 7560,
      "ĠOper": 7561,
      "Ġisinya": 7562,
      "ENT": 7563,
      "ikipedia": 7564,
      "Jual": 7565,
      "Ġberkat": 7566,
      "Ġdosen": 7567,
      "akukan": 7568,
      "usuk": 7569,
      "ĠBa": 7570,
      "Ġpencernaan": 7571,
      "ĠMelakukan": 7572,
      "Ġkemudahan": 7573,
      "Ġdikenakan": 7574,
      "III": 7575,
      "yawarah": 7576,
      "100": 7577,
      "EW": 7578,
      "Seorang": 7579,
      "idasi": 7580,
      "omod": 7581,
      "Ġakun": 7582,
      "kala": 7583,
      "roke": 7584,
      "ongg": 7585,
      "interaksi": 7586,
      "ĠHa": 7587,
      "PNS": 7588,
      "utnya": 7589,
      "omat": 7590,
      "ĠComm": 7591,
      "ormat": 7592,
      "esterol": 7593,
      "Ġbawahan": 7594,
      "Ġ..": 7595,
      "Ġmohon": 7596,
      "lawanan": 7597,
      "Ġintegr": 7598,
      "van": 7599,
      "Ġtermin": 7600,
      "utamakan": 7601,
      "ehat": 7602,
      "ĠCon": 7603,
      "antap": 7604,
      "ingginya": 7605,
      "eknik": 7606,
      "Ġikhlas": 7607,
      "Ġmari": 7608,
      "Ġbuang": 7609,
      "Ġwat": 7610,
      "Ġmenempel": 7611,
      "ĠKurikulum": 7612,
      "aktur": 7613,
      "Ġdinamis": 7614,
      "Ġtekan": 7615,
      "Ġjendela": 7616,
      "Ġmengec": 7617,
      "Ġkelainan": 7618,
      "kal": 7619,
      "Ġpew": 7620,
      "ilat": 7621,
      "ĠAf": 7622,
      "Ġserat": 7623,
      "ĠPerancis": 7624,
      "Ġmenghambat": 7625,
      "Ġharian": 7626,
      "oper": 7627,
      "Ġdengannya": 7628,
      "Ġ300": 7629,
      "Ġsubjek": 7630,
      "Ġutang": 7631,
      "ĠBlackBerry": 7632,
      "Ġmayoritas": 7633,
      "gin": 7634,
      "Ġinput": 7635,
      "Ġramah": 7636,
      "ensinya": 7637,
      "Kata": 7638,
      "ror": 7639,
      "ĠImp": 7640,
      "Ġdiserahkan": 7641,
      "Ġkelenjar": 7642,
      "OC": 7643,
      "ekt": 7644,
      "ĠAplikasi": 7645,
      "ilikan": 7646,
      "ekali": 7647,
      "ĠID": 7648,
      "uz": 7649,
      "Ġdiukur": 7650,
      "ĠHi": 7651,
      "ĠWil": 7652,
      "ĠSeni": 7653,
      "Ma": 7654,
      "Ġpoint": 7655,
      "].": 7656,
      "embunyi": 7657,
      "Ġsistematis": 7658,
      "Ġtampaknya": 7659,
      "Ġpalsu": 7660,
      "Ġpanggilan": 7661,
      "aker": 7662,
      "astian": 7663,
      "egangan": 7664,
      "angsaan": 7665,
      "ward": 7666,
      "Ġtepatnya": 7667,
      "ikum": 7668,
      "ĠBen": 7669,
      "ĠJawab": 7670,
      "Ġmenutupi": 7671,
      "ibutor": 7672,
      "hukum": 7673,
      "oreng": 7674,
      "Ġjadwal": 7675,
      "ĠMata": 7676,
      "ĠSDM": 7677,
      "Ġpembicaraan": 7678,
      "isinya": 7679,
      "ĠSamp": 7680,
      "ĠPo": 7681,
      "Ġjawa": 7682,
      "imasi": 7683,
      "istis": 7684,
      "Ġideologi": 7685,
      "Komp": 7686,
      "Ġplat": 7687,
      "Ġklub": 7688,
      "ĠDaya": 7689,
      "ĠDaftar": 7690,
      "Ġakurat": 7691,
      "Ġvert": 7692,
      "Ġoutput": 7693,
      "Langkah": 7694,
      "omet": 7695,
      "Ġisteri": 7696,
      "ĠApp": 7697,
      "Ġstu": 7698,
      "itch": 7699,
      "Ġ36": 7700,
      "ĠHadits": 7701,
      "NYA": 7702,
      "Pers": 7703,
      "hiri": 7704,
      "els": 7705,
      "ĠPustaka": 7706,
      "osistem": 7707,
      "Ġbukit": 7708,
      "Ġtangk": 7709,
      "ĠKela": 7710,
      "ĠPrabowo": 7711,
      "Ġgol": 7712,
      "Ġsint": 7713,
      "Ġbec": 7714,
      "alai": 7715,
      "Ġaneka": 7716,
      "Ġpemecahan": 7717,
      "Ġfactor": 7718,
      "ĠWarna": 7719,
      "lot": 7720,
      "Ġtuanya": 7721,
      "Ġnis": 7722,
      "otesis": 7723,
      "Ġbiar": 7724,
      "Ġpenjara": 7725,
      "Ġrahmat": 7726,
      "ĠSoekarno": 7727,
      "saya": 7728,
      "olisian": 7729,
      "Ġjasmani": 7730,
      "Ġditurunkan": 7731,
      "ĠDen": 7732,
      "Ġmembuang": 7733,
      "Ġmempercepat": 7734,
      "Ġistirahat": 7735,
      "ativitas": 7736,
      "enarkan": 7737,
      "ilin": 7738,
      "Ġmenyelamatkan": 7739,
      "Ġ1997": 7740,
      "Ġperlengkapan": 7741,
      "ĠContohnya": 7742,
      "yukur": 7743,
      "Ġpertengahan": 7744,
      "ean": 7745,
      "otivasi": 7746,
      "Ġpergaulan": 7747,
      "Ġrumput": 7748,
      "Ġstand": 7749,
      "Ġberjuang": 7750,
      "Ġutamanya": 7751,
      "ĠSenin": 7752,
      "Ġmenghitung": 7753,
      "Ġpersonal": 7754,
      "Ġkonsisten": 7755,
      "aksim": 7756,
      "Ġnih": 7757,
      "Ġsembuh": 7758,
      "Ġentah": 7759,
      "jaman": 7760,
      "Ø´": 7761,
      "Ġmengad": 7762,
      "____": 7763,
      "Ġom": 7764,
      "umahan": 7765,
      "indar": 7766,
      "Ġketinggian": 7767,
      "onik": 7768,
      "Ġmemf": 7769,
      "ĠTo": 7770,
      "ĠEm": 7771,
      "Ġbersumber": 7772,
      "Ġmemeriksa": 7773,
      "ĠAtas": 7774,
      "ĠRuang": 7775,
      "Selanjutnya": 7776,
      "Ġstaf": 7777,
      "ĠPelaksanaan": 7778,
      "ambangan": 7779,
      "Ġfilosof": 7780,
      "Ġamb": 7781,
      "Ġkemas": 7782,
      "Ġmetab": 7783,
      "77": 7784,
      "Ġvisual": 7785,
      "ĠSud": 7786,
      "ĠMajapahit": 7787,
      "uksesan": 7788,
      "Il": 7789,
      "hubungan": 7790,
      "jektif": 7791,
      "sium": 7792,
      "Ġmendasar": 7793,
      "Ġmanual": 7794,
      "reat": 7795,
      "Ġutk": 7796,
      "Ġhendaklah": 7797,
      "Ah": 7798,
      "Ġberupaya": 7799,
      "ĠPri": 7800,
      "Ġwork": 7801,
      "âĢĶâĢĶ": 7802,
      "Ġdorongan": 7803,
      "enak": 7804,
      "edul": 7805,
      "Ġmenghormati": 7806,
      "Ġvagin": 7807,
      "Ġservice": 7808,
      "witter": 7809,
      "iraan": 7810,
      "ĠPenegak": 7811,
      "ein": 7812,
      "Ġbacaan": 7813,
      "ĠFakultas": 7814,
      "entuhan": 7815,
      "ATA": 7816,
      "yc": 7817,
      "Ġmenyelenggarakan": 7818,
      "awang": 7819,
      "Ġpanen": 7820,
      "Bi": 7821,
      "Ġmengel": 7822,
      "Ġmengeks": 7823,
      "Ġram": 7824,
      "Ġpsikologi": 7825,
      "jual": 7826,
      "Â§": 7827,
      "Ġkognitif": 7828,
      "Ġditimb": 7829,
      "Ġsepuluh": 7830,
      "ĠPemerintahan": 7831,
      "Ġhubungannya": 7832,
      "iler": 7833,
      "Ġmengidentifikasi": 7834,
      "abr": 7835,
      "Ġilmuwan": 7836,
      "Ġpartikel": 7837,
      "Ġimun": 7838,
      "Ġdelapan": 7839,
      "Ġlong": 7840,
      "Ġfiq": 7841,
      "Ġinfo": 7842,
      "Ġjerawat": 7843,
      "lai": 7844,
      "umpur": 7845,
      "Ġlingkaran": 7846,
      "Apr": 7847,
      "dian": 7848,
      "val": 7849,
      "Ġmerangsang": 7850,
      "Ġpred": 7851,
      "Ġpertolongan": 7852,
      "ĠPener": 7853,
      "Ġsubs": 7854,
      "Ġlogika": 7855,
      "Tetapi": 7856,
      "data": 7857,
      "ĠSta": 7858,
      "ĠPasi": 7859,
      "ley": 7860,
      "Ġterpilih": 7861,
      "Ġeksek": 7862,
      "Ġinstrumen": 7863,
      "Foto": 7864,
      "âĢĺ": 7865,
      "ĠTugas": 7866,
      "ĠYusuf": 7867,
      "Ġotonomi": 7868,
      "Ġwafat": 7869,
      "Ġlingkungannya": 7870,
      "Ġistimewa": 7871,
      "ange": 7872,
      "Ġkandang": 7873,
      "ĠSin": 7874,
      "Ġpasca": 7875,
      "Ġmenyajikan": 7876,
      "Ġterganggu": 7877,
      "aruan": 7878,
      "AMA": 7879,
      "Ġfungsional": 7880,
      "Ġfacebook": 7881,
      "Ġdanau": 7882,
      "Ġcomm": 7883,
      "Ġmenghentikan": 7884,
      "aksasa": 7885,
      "Ġbelanja": 7886,
      "ĠMakassar": 7887,
      "Ġgelas": 7888,
      "Ġmembran": 7889,
      "ĠHid": 7890,
      "ĠStandar": 7891,
      "Ġanjing": 7892,
      "Ġterikat": 7893,
      "Ġseberapa": 7894,
      "Ġmelaporkan": 7895,
      "minkan": 7896,
      "Ġpotensial": 7897,
      "39": 7898,
      "ĠShal": 7899,
      "Ġkebetulan": 7900,
      "Ġinstansi": 7901,
      "ĠÂ»": 7902,
      "Ġditempuh": 7903,
      "kon": 7904,
      "rok": 7905,
      "Ġkecantikan": 7906,
      "awaran": 7907,
      "opsi": 7908,
      "Ġanalisa": 7909,
      "Ġbeg": 7910,
      "Ġsekian": 7911,
      "ayati": 7912,
      "ĠPengadilan": 7913,
      "Ġrevolusi": 7914,
      "Ġdipasang": 7915,
      "April": 7916,
      "Ġkait": 7917,
      "Ġsewa": 7918,
      "perangan": 7919,
      "ajinan": 7920,
      "Ġmempert": 7921,
      "enta": 7922,
      "Ġpantas": 7923,
      "Ġdiarahkan": 7924,
      "ĠKlik": 7925,
      "Ġberkunjung": 7926,
      "Ġditempatkan": 7927,
      "Ġpersamaan": 7928,
      "ĠLuar": 7929,
      "rit": 7930,
      "Ġwe": 7931,
      "angsungan": 7932,
      "Ġmuslimin": 7933,
      "Ġfos": 7934,
      "Ġkritik": 7935,
      "ĠTanjung": 7936,
      "ĠLangkah": 7937,
      "anjikan": 7938,
      "ĠSpanyol": 7939,
      "ĠDPRD": 7940,
      "Ġ*": 7941,
      "Ġbatuan": 7942,
      "ĠNy": 7943,
      "ewas": 7944,
      "Ġrestoran": 7945,
      "Ġmengakses": 7946,
      "iaga": 7947,
      "auan": 7948,
      "Ġketi": 7949,
      "Ġmakam": 7950,
      "Ġpembuat": 7951,
      "Ġbersedia": 7952,
      "ĠPengetahuan": 7953,
      "ĠAkunt": 7954,
      "Ġpenderitaan": 7955,
      "ĠKong": 7956,
      "Ġbukunya": 7957,
      "Ġriset": 7958,
      "Ġton": 7959,
      "ede": 7960,
      "Ġtanam": 7961,
      "Ġdrama": 7962,
      "OW": 7963,
      "Ġpanc": 7964,
      "Ġburuh": 7965,
      "Ġtela": 7966,
      "Ġlisan": 7967,
      "Ġragam": 7968,
      "Ġlarutan": 7969,
      "ĠMay": 7970,
      "ungkus": 7971,
      "Ġdijumpai": 7972,
      "Ġmemohon": 7973,
      "Ġlemp": 7974,
      "Ġraga": 7975,
      "Ġatap": 7976,
      "Ġtime": 7977,
      "Ġacuan": 7978,
      "Hasil": 7979,
      "linya": 7980,
      "ÙĮ": 7981,
      "Ġsalam": 7982,
      "ibur": 7983,
      "ugil": 7984,
      "Ġpernapasan": 7985,
      "Ġpengganti": 7986,
      "ĠLay": 7987,
      "Ġpemilu": 7988,
      "ĠPern": 7989,
      "ucian": 7990,
      "78": 7991,
      "Ti": 7992,
      "hawat": 7993,
      "emasan": 7994,
      "ĠBelakang": 7995,
      "ibah": 7996,
      "Ġ150": 7997,
      "RA": 7998,
      "bola": 7999,
      "kel": 8000,
      "atap": 8001,
      "iris": 8002,
      "ĠStrategi": 8003,
      "UB": 8004,
      "Ġrumahnya": 8005,
      "Ġtepi": 8006,
      "kelompok": 8007,
      "ikkan": 8008,
      "Ġmengikat": 8009,
      "bentuk": 8010,
      "lop": 8011,
      "ataran": 8012,
      "Ġmelatih": 8013,
      "ĠKomputer": 8014,
      "Ġrumit": 8015,
      "Ġsyariah": 8016,
      "Ġsanggup": 8017,
      "Ġsedih": 8018,
      "ONESI": 8019,
      "unungan": 8020,
      "Ġmundur": 8021,
      "Ġkus": 8022,
      "Ġperahu": 8023,
      "Ġkebersihan": 8024,
      "ĠPurw": 8025,
      "Ġungkapan": 8026,
      "Ġlelah": 8027,
      "ĠLatar": 8028,
      "Ġdipisahkan": 8029,
      "UHAN": 8030,
      "Ġmula": 8031,
      "masyarakat": 8032,
      "Ġpetern": 8033,
      "Ġmy": 8034,
      "ido": 8035,
      "ebas": 8036,
      "ĠMax": 8037,
      "nanya": 8038,
      "ĠÃ": 8039,
      "Ġdianj": 8040,
      "Ġaction": 8041,
      "Ø¥": 8042,
      "mainkan": 8043,
      "ĠKomisi": 8044,
      "Islam": 8045,
      "Ġlomba": 8046,
      "Ġrongga": 8047,
      "Ġnuk": 8048,
      "Ġmembah": 8049,
      "base": 8050,
      "usul": 8051,
      "Anak": 8052,
      "Ġdominan": 8053,
      "Ġbutir": 8054,
      "Ġganda": 8055,
      "ĠMenggunakan": 8056,
      "Ġdiaw": 8057,
      "Ġlukisan": 8058,
      "Ġistana": 8059,
      "ces": 8060,
      "ĠSakit": 8061,
      "ĠPed": 8062,
      "Ġrancangan": 8063,
      "ubuk": 8064,
      "istan": 8065,
      "Ġkoordinasi": 8066,
      "Ġpuluhan": 8067,
      "Ġpoin": 8068,
      "ound": 8069,
      "ito": 8070,
      "Ġberinteraksi": 8071,
      "ustrasi": 8072,
      "Ġkaidah": 8073,
      "Ġenzim": 8074,
      "Ġreformasi": 8075,
      "ĠLaporan": 8076,
      "ĠPla": 8077,
      "elayan": 8078,
      "Ġdipastikan": 8079,
      "Ġperkebunan": 8080,
      "meny": 8081,
      "ĠPendekatan": 8082,
      "90": 8083,
      "Ġbangs": 8084,
      "asio": 8085,
      "Ġditinggal": 8086,
      "Ġseleksi": 8087,
      "ontak": 8088,
      "stansi": 8089,
      "wanita": 8090,
      "Ġpencegahan": 8091,
      "ordin": 8092,
      "Ġbermimpi": 8093,
      "Ġmenyerap": 8094,
      "Ġdisimpulkan": 8095,
      "idato": 8096,
      "Ġkeda": 8097,
      "urit": 8098,
      "ĠTop": 8099,
      "Ġorganisme": 8100,
      "Ġketakutan": 8101,
      "Ġdianjurkan": 8102,
      "Ġberbahasa": 8103,
      "ikmah": 8104,
      "ĠSabtu": 8105,
      "hip": 8106,
      "ĠMemberikan": 8107,
      "Ġaktiv": 8108,
      "ĠSyekh": 8109,
      "Ġsekunder": 8110,
      "Ġvia": 8111,
      "VD": 8112,
      "anggih": 8113,
      "ĠKej": 8114,
      "Ġgan": 8115,
      "ujukan": 8116,
      "ews": 8117,
      "Ġuser": 8118,
      "ONESIA": 8119,
      "eo": 8120,
      "upai": 8121,
      "embali": 8122,
      "Ġprasarana": 8123,
      "Ġkaos": 8124,
      "Ġsumb": 8125,
      "ĠSim": 8126,
      "Ġarsitektur": 8127,
      "Ġsperma": 8128,
      "Ġberorientasi": 8129,
      "Ġmemeluk": 8130,
      "Ġtelanjang": 8131,
      "AYA": 8132,
      "ĠTang": 8133,
      "ĠTante": 8134,
      "ibadah": 8135,
      "!!!": 8136,
      "Ġvariasi": 8137,
      "Ġdiajukan": 8138,
      "elilingi": 8139,
      "ĠSyi": 8140,
      "ĠKulit": 8141,
      "untung": 8142,
      "56": 8143,
      "ĠSebenarnya": 8144,
      "Ġkakak": 8145,
      "lum": 8146,
      "ĠPN": 8147,
      "ilikinya": 8148,
      "erat": 8149,
      "Ġmore": 8150,
      "Ġdigambarkan": 8151,
      "UMN": 8152,
      "Ġlarangan": 8153,
      "Ġdialog": 8154,
      "Ġramai": 8155,
      "Ġdikelola": 8156,
      "Ġkuda": 8157,
      "Ġkolom": 8158,
      "Ġshallallahu": 8159,
      "Ġbendera": 8160,
      "ese": 8161,
      "ĠTubuh": 8162,
      "ĠGus": 8163,
      "misi": 8164,
      "uld": 8165,
      "Ġpercobaan": 8166,
      "Ġstim": 8167,
      "Ġprioritas": 8168,
      "Pertama": 8169,
      "Ġkandung": 8170,
      "adak": 8171,
      "Ġpenawaran": 8172,
      "Ġsekelompok": 8173,
      "Ġpenyebaran": 8174,
      "Ġdiletakkan": 8175,
      "pend": 8176,
      "bawah": 8177,
      "Ġpengurus": 8178,
      "Ker": 8179,
      "dom": 8180,
      "Ġmenentang": 8181,
      "Ġdisi": 8182,
      "ĠPesan": 8183,
      "Ġlabor": 8184,
      "ept": 8185,
      "Ġharam": 8186,
      "Ġmodem": 8187,
      "lawan": 8188,
      "ĠOS": 8189,
      "Ġindepend": 8190,
      "ombak": 8191,
      "madiyah": 8192,
      "isahan": 8193,
      "esain": 8194,
      "ĠPub": 8195,
      "Ġaq": 8196,
      "Ġbij": 8197,
      "aktek": 8198,
      "ografis": 8199,
      "Ġbusana": 8200,
      "Ġperbankan": 8201,
      "uaca": 8202,
      "Ġspesifikasi": 8203,
      "Ġpecah": 8204,
      "inet": 8205,
      "Ġpenentuan": 8206,
      "Ġnapas": 8207,
      "anksi": 8208,
      "Ġterjun": 8209,
      "aiknya": 8210,
      "Ġmemek": 8211,
      "Ġpenetapan": 8212,
      "Ġcur": 8213,
      "ĠPerlu": 8214,
      "itory": 8215,
      "ISI": 8216,
      "aket": 8217,
      "ĠBung": 8218,
      "Ġditunjukkan": 8219,
      "Ġundangan": 8220,
      "contoh": 8221,
      "Ġpembiayaan": 8222,
      "Ġdikonsumsi": 8223,
      "ĠTerdapat": 8224,
      "Ġmemperkenalkan": 8225,
      "ĠAnggota": 8226,
      "44": 8227,
      "iyah": 8228,
      "Ġsari": 8229,
      "Ġpasaran": 8230,
      "Ġkalinya": 8231,
      "atural": 8232,
      "ĠSelamat": 8233,
      "Ġmemunc": 8234,
      "Ġdemam": 8235,
      "Ġpenerbangan": 8236,
      "ĠKelas": 8237,
      "Ġmengontrol": 8238,
      "âĢ¦..": 8239,
      "Ġwayang": 8240,
      "Suatu": 8241,
      "oral": 8242,
      "ĠMe": 8243,
      "andakan": 8244,
      "Ġmendatangkan": 8245,
      "ĠPerjanjian": 8246,
      "ancur": 8247,
      "Ġbrowser": 8248,
      "Sh": 8249,
      "disk": 8250,
      "lamasi": 8251,
      "asing": 8252,
      "ĠMalik": 8253,
      "Ġberpindah": 8254,
      "ALAH": 8255,
      "abilitas": 8256,
      "Ġmencerminkan": 8257,
      "Ġnovel": 8258,
      "ĠRa": 8259,
      "Ġpemakai": 8260,
      "Ġkemasan": 8261,
      "Ġbersyukur": 8262,
      "ĠPengelola": 8263,
      "ature": 8264,
      "Ġmemasang": 8265,
      "ĠMadinah": 8266,
      "UU": 8267,
      "Ġmadu": 8268,
      "Ġmerk": 8269,
      "Ġcacat": 8270,
      "adalah": 8271,
      "imanan": 8272,
      "ADA": 8273,
      "ĠSiapa": 8274,
      "37": 8275,
      "guru": 8276,
      "lon": 8277,
      "Ġmenangg": 8278,
      "urung": 8279,
      "ĠHo": 8280,
      "Perk": 8281,
      "Ġmenyeluruh": 8282,
      "Ġmemaksa": 8283,
      "Ġlulusan": 8284,
      "ulir": 8285,
      "olisme": 8286,
      "ĠKementerian": 8287,
      "Mela": 8288,
      "bas": 8289,
      "olos": 8290,
      "trin": 8291,
      "Ġ1990": 8292,
      "Ġmembahayakan": 8293,
      "utorial": 8294,
      "ĠRem": 8295,
      "Ġcontohnya": 8296,
      "Ġjenjang": 8297,
      "Ġpertempuran": 8298,
      "Ġdipert": 8299,
      "ocal": 8300,
      "Ġdihubungkan": 8301,
      "Sebuah": 8302,
      "CO": 8303,
      "Ġputusan": 8304,
      "Ġkebun": 8305,
      "Ġtool": 8306,
      "ution": 8307,
      "incin": 8308,
      "gabungkan": 8309,
      "foto": 8310,
      "nia": 8311,
      "ĠKudus": 8312,
      "Ġwali": 8313,
      "ohan": 8314,
      "Ġdiproduksi": 8315,
      "ĠDesain": 8316,
      "ĠSikap": 8317,
      "ĠKini": 8318,
      "ĠBuat": 8319,
      "Ġmenyuruh": 8320,
      "Ġselaku": 8321,
      "inggris": 8322,
      "grasi": 8323,
      "off": 8324,
      "Ġkontribusi": 8325,
      "Ġlogis": 8326,
      "adh": 8327,
      "KM": 8328,
      "ges": 8329,
      "Ġtertawa": 8330,
      "ĠDKI": 8331,
      "Ġpenambahan": 8332,
      "Ġkehidup": 8333,
      "Ġone": 8334,
      "ĠPutih": 8335,
      "evelopment": 8336,
      "Ġbo": 8337,
      "ĠKER": 8338,
      "ĠPerp": 8339,
      "Ġcoklat": 8340,
      "Sub": 8341,
      "ĠRabu": 8342,
      "Ġujarnya": 8343,
      "ĠUtama": 8344,
      "kegiatan": 8345,
      "enuhan": 8346,
      "Ġproduktivitas": 8347,
      "AKAN": 8348,
      "Am": 8349,
      "sela": 8350,
      "Ã¼": 8351,
      "Ġseekor": 8352,
      "ĠCity": 8353,
      "pihak": 8354,
      "tika": 8355,
      "Ġjem": 8356,
      "ĠHIV": 8357,
      "ĠAnalisis": 8358,
      "Ġkebijaksanaan": 8359,
      "ĠVideo": 8360,
      "ĠSyari": 8361,
      "Ġhandphone": 8362,
      "rama": 8363,
      "akti": 8364,
      "Ġmenun": 8365,
      "Ġkonstruksi": 8366,
      "ĠKend": 8367,
      "ĠIndustri": 8368,
      "Ġtugasnya": 8369,
      "akatan": 8370,
      "arab": 8371,
      "perk": 8372,
      "round": 8373,
      "ĠPerbedaan": 8374,
      "menerus": 8375,
      "ging": 8376,
      "ias": 8377,
      "produk": 8378,
      "Ġmengundang": 8379,
      "ĠMudah": 8380,
      "ĠKamis": 8381,
      "Ġmelekat": 8382,
      "Ġmengharapkan": 8383,
      "sc": 8384,
      "Ġdong": 8385,
      "Ġdarat": 8386,
      "Ġmag": 8387,
      "yaitu": 8388,
      "ĠKUH": 8389,
      "Ġditampilkan": 8390,
      "ĠProt": 8391,
      "ĠDisamping": 8392,
      "iasa": 8393,
      "Ġtuan": 8394,
      "rof": 8395,
      "Ġtabel": 8396,
      "Ġditimbulkan": 8397,
      "Te": 8398,
      "adaannya": 8399,
      "Ġpendaftaran": 8400,
      "Ġsosialisasi": 8401,
      "2012": 8402,
      "orak": 8403,
      "iliran": 8404,
      "ĠMAN": 8405,
      "tukaran": 8406,
      "Ġditarik": 8407,
      "Ġtablet": 8408,
      "Ġsabun": 8409,
      "Hari": 8410,
      "erap": 8411,
      "ility": 8412,
      "ĠBAB": 8413,
      "ĠHe": 8414,
      "otot": 8415,
      "anggis": 8416,
      "Ġprib": 8417,
      "Ġdimakan": 8418,
      "Ġrealitas": 8419,
      "enjata": 8420,
      "Ġsampel": 8421,
      "Ġkonseling": 8422,
      "BC": 8423,
      "Ġfull": 8424,
      "ĠâĢĶ": 8425,
      "ĠWilayah": 8426,
      "ectr": 8427,
      "Ġtetangga": 8428,
      "Ġkeluhan": 8429,
      "Ġberpuasa": 8430,
      "andainya": 8431,
      "uddha": 8432,
      "yn": 8433,
      "anamkan": 8434,
      "ĠPam": 8435,
      "Ġlensa": 8436,
      "ĠBh": 8437,
      "Ġsekalian": 8438,
      "ĠMakanan": 8439,
      "Ang": 8440,
      "akwa": 8441,
      "ĠLain": 8442,
      "strak": 8443,
      "Ġinc": 8444,
      "Ġmenghar": 8445,
      "unjang": 8446,
      "ĠSelasa": 8447,
      "tle": 8448,
      "Ø«": 8449,
      "Ø·": 8450,
      "Ġkutu": 8451,
      "Ġmenaik": 8452,
      "ĠBulan": 8453,
      "udar": 8454,
      "ajah": 8455,
      "ASA": 8456,
      "Ġlambang": 8457,
      "Ġdiperbolehkan": 8458,
      "Ing": 8459,
      "enap": 8460,
      "Ġtunt": 8461,
      "ĠPEMB": 8462,
      "Ġmerokok": 8463,
      "ensasi": 8464,
      "Ġberganti": 8465,
      "Ġmeletakkan": 8466,
      "agaman": 8467,
      "gantungan": 8468,
      "ÙĪÙĨ": 8469,
      "ĠInternational": 8470,
      "unyikan": 8471,
      "bal": 8472,
      "Ġjati": 8473,
      "Ġberpeng": 8474,
      "Ġmenyebarkan": 8475,
      "Ġkonvensional": 8476,
      "49": 8477,
      "unuhan": 8478,
      "Ġmenanyakan": 8479,
      "ukota": 8480,
      "ambungan": 8481,
      "Ġmencetak": 8482,
      "Ġtujuannya": 8483,
      "uu": 8484,
      "Ġret": 8485,
      "omos": 8486,
      "Ġseny": 8487,
      "Ġterjangkau": 8488,
      "ĠINDONESIA": 8489,
      "tokoh": 8490,
      "uit": 8491,
      "ahir": 8492,
      "alaxy": 8493,
      "ĠAnti": 8494,
      "Ġkue": 8495,
      "Ġmit": 8496,
      "inim": 8497,
      "Ġkirim": 8498,
      "ĠPUST": 8499,
      "Ġrantai": 8500,
      "Ġraksasa": 8501,
      "Ġwant": 8502,
      "engketa": 8503,
      "DAFTAR": 8504,
      "Ġuniversitas": 8505,
      "eriksaan": 8506,
      "Ġmerencanakan": 8507,
      "Ġwindows": 8508,
      "ego": 8509,
      "Ġpelatih": 8510,
      "Ġditerbitkan": 8511,
      "ĠSekali": 8512,
      "hamdul": 8513,
      "Ġec": 8514,
      "Ġmenonton": 8515,
      "Ġhawa": 8516,
      "ĠSH": 8517,
      "ĠDib": 8518,
      "ĠDALAM": 8519,
      "ĠTri": 8520,
      "iver": 8521,
      "Ġbatasan": 8522,
      "Ġinvestor": 8523,
      "ilah": 8524,
      "sing": 8525,
      "ĠSB": 8526,
      "ĠBP": 8527,
      "Ġcons": 8528,
      "Ġberkisar": 8529,
      "Ġkaitannya": 8530,
      "Memb": 8531,
      "ST": 8532,
      "Ġdiolah": 8533,
      "ĠPand": 8534,
      "Ġmenyerah": 8535,
      "overn": 8536,
      "epakati": 8537,
      "dasar": 8538,
      "Ġbangkit": 8539,
      "asuh": 8540,
      "ĠDim": 8541,
      "Ġdibantu": 8542,
      "Ġsayuran": 8543,
      "Ġjilbab": 8544,
      "Pend": 8545,
      "dar": 8546,
      "Ġflash": 8547,
      "ĠBerk": 8548,
      "Ġsidang": 8549,
      "ĠRasa": 8550,
      "ĠCerita": 8551,
      "Ġproperti": 8552,
      "Ġpersatuan": 8553,
      "kesmas": 8554,
      "Ġbelah": 8555,
      "Ġmembatasi": 8556,
      "Ġtempatnya": 8557,
      "Ġpencemaran": 8558,
      "ĠMemiliki": 8559,
      "ĠKebudayaan": 8560,
      "oyo": 8561,
      "Ġspesies": 8562,
      "Ġpipa": 8563,
      "lihatan": 8564,
      "rani": 8565,
      "satu": 8566,
      "Ġinggris": 8567,
      "Ġpark": 8568,
      "Ġpisang": 8569,
      "akh": 8570,
      "ĠPsik": 8571,
      "Ġracun": 8572,
      "Ġpenumpang": 8573,
      "ĠTips": 8574,
      "Ġakademik": 8575,
      "Ġmg": 8576,
      "amik": 8577,
      "onial": 8578,
      "Ġlari": 8579,
      "ĠThailand": 8580,
      "ARTA": 8581,
      "pret": 8582,
      "Ġwarisan": 8583,
      "Ġgembira": 8584,
      "Ġmengalahkan": 8585,
      "Artinya": 8586,
      "Harga": 8587,
      "Ġhis": 8588,
      "ihad": 8589,
      "eharto": 8590,
      "ĠLib": 8591,
      "ajurit": 8592,
      "2010": 8593,
      "ĠSamsung": 8594,
      "Ġwhich": 8595,
      "Ġdisekitar": 8596,
      "Ġbudi": 8597,
      "Ġtewas": 8598,
      "ĠPark": 8599,
      "ĠPost": 8600,
      "ĠAR": 8601,
      "ĠAyah": 8602,
      "Ġrapi": 8603,
      "Ġfav": 8604,
      "yakinkan": 8605,
      "igami": 8606,
      "ĠTahap": 8607,
      "ĠBal": 8608,
      "udh": 8609,
      "Ġpengumpulan": 8610,
      "Ġserba": 8611,
      "Ġbangga": 8612,
      "ĠPrabu": 8613,
      "Ġmenyerupai": 8614,
      "Ġitem": 8615,
      "Ġunggul": 8616,
      "ĠPUSTAKA": 8617,
      "bon": 8618,
      "Ġrasul": 8619,
      "Ġberkep": 8620,
      "Ġkenyataannya": 8621,
      "hen": 8622,
      "iness": 8623,
      "ents": 8624,
      "ipat": 8625,
      "Ġkesuksesan": 8626,
      "Ġteor": 8627,
      "Selama": 8628,
      "Ġimplementasi": 8629,
      "ĠDNA": 8630,
      "Ġcandi": 8631,
      "Ġpemesanan": 8632,
      "ĠEsa": 8633,
      "2009": 8634,
      "Ġberakibat": 8635,
      "Ġmac": 8636,
      "ujung": 8637,
      "Ġsegmen": 8638,
      "Ġterkesan": 8639,
      "Ġdinas": 8640,
      "Ġmewah": 8641,
      "Ġpeperangan": 8642,
      "gambar": 8643,
      "amar": 8644,
      "ĠBI": 8645,
      "ikanan": 8646,
      "main": 8647,
      "aju": 8648,
      "Ġkekasih": 8649,
      "elapak": 8650,
      "Ġsipil": 8651,
      "lakan": 8652,
      "Ġbambu": 8653,
      "ĠBand": 8654,
      "Ġcitra": 8655,
      "Ġkedokteran": 8656,
      "ĠYaitu": 8657,
      "Ġtukang": 8658,
      "Ġberkelanjutan": 8659,
      "ĠSimp": 8660,
      "ĠOff": 8661,
      "05": 8662,
      "atika": 8663,
      "Ġbant": 8664,
      "Ġaz": 8665,
      "ĠHalaman": 8666,
      "Ġbor": 8667,
      "ĠPilih": 8668,
      "Ġseksi": 8669,
      "Ġmempermudah": 8670,
      "Ġsetahun": 8671,
      "66": 8672,
      "Ġmenimp": 8673,
      "udin": 8674,
      "endang": 8675,
      "ĠDisini": 8676,
      "Ġuniversal": 8677,
      "itahukan": 8678,
      "Ġbawa": 8679,
      "asaw": 8680,
      "Ġdikaitkan": 8681,
      "ĠVol": 8682,
      "estarian": 8683,
      "Ġseputar": 8684,
      "ĠAss": 8685,
      "Ġpemasangan": 8686,
      "gh": 8687,
      "Ġjembatan": 8688,
      "ĠMemp": 8689,
      "ĠJog": 8690,
      "tifikat": 8691,
      "Ġsampaikan": 8692,
      "Ġstasiun": 8693,
      "Ġtante": 8694,
      "Ġpariwisata": 8695,
      "ĠSifat": 8696,
      "Ġfinan": 8697,
      "Ġhukumnya": 8698,
      "Ġmenumbuhkan": 8699,
      "lahi": 8700,
      "ataram": 8701,
      "Ġmenyembuhkan": 8702,
      "Ã©": 8703,
      "Ġing": 8704,
      "dayakan": 8705,
      "Ġpengec": 8706,
      "Ġpros": 8707,
      "rium": 8708,
      "ĠWir": 8709,
      "ency": 8710,
      "88": 8711,
      "Sejak": 8712,
      "Ġjuara": 8713,
      "Ġmerdeka": 8714,
      "Ġmembela": 8715,
      "ĠHy": 8716,
      "Ġabs": 8717,
      "oksida": 8718,
      "ĠAngkatan": 8719,
      "Ġdiagn": 8720,
      "ĠMart": 8721,
      "ĠPendapat": 8722,
      "buh": 8723,
      "Ġdiyakini": 8724,
      "Ġjurusan": 8725,
      "ĠBakar": 8726,
      "ĠItal": 8727,
      "okol": 8728,
      "Ġmodifikasi": 8729,
      "Ġdicari": 8730,
      "Ġoperator": 8731,
      "Ġcomputer": 8732,
      "etas": 8733,
      "Ġsebabnya": 8734,
      "ĠSangat": 8735,
      "etis": 8736,
      "ĠFir": 8737,
      "Ġaparat": 8738,
      "Ġkonstitusi": 8739,
      "ĠDirektur": 8740,
      "Ġpandai": 8741,
      "Ġkut": 8742,
      "Ġpenonton": 8743,
      "uncurkan": 8744,
      "Ġperkembangannya": 8745,
      "Ġkakek": 8746,
      "Ġlel": 8747,
      "perimen": 8748,
      "Ġadd": 8749,
      "ĠNa": 8750,
      "Ġsebentar": 8751,
      "ica": 8752,
      "timbang": 8753,
      "OB": 8754,
      "pel": 8755,
      "otbah": 8756,
      "ĠChris": 8757,
      "Ġlembar": 8758,
      "Ġsmartphone": 8759,
      "Kon": 8760,
      "Rp": 8761,
      "dk": 8762,
      "ĠBor": 8763,
      "ehingga": 8764,
      "Ġkepalanya": 8765,
      "Ġasap": 8766,
      "zer": 8767,
      "ĠCPNS": 8768,
      "Ġdisel": 8769,
      "ĠHabib": 8770,
      "Post": 8771,
      "los": 8772,
      "Ġâ": 8773,
      "Ġtunggu": 8774,
      "ĠMasih": 8775,
      "Ġumpan": 8776,
      "Ġ1996": 8777,
      "samaan": 8778,
      "TARA": 8779,
      "Ġsetting": 8780,
      "egisl": 8781,
      "Ġkawin": 8782,
      "syat": 8783,
      "Ġmenteri": 8784,
      "ĠWorld": 8785,
      "gres": 8786,
      "Ġtemukan": 8787,
      "teriak": 8788,
      "Ġsyariat": 8789,
      "owok": 8790,
      "Ġstress": 8791,
      "inux": 8792,
      "Ġkehidupannya": 8793,
      "Mungkin": 8794,
      "ĠSuci": 8795,
      "Ġmenyes": 8796,
      "Ġkakinya": 8797,
      "Ġmini": 8798,
      "Ġjurnal": 8799,
      "ehan": 8800,
      "Ġkaret": 8801,
      "ĠInv": 8802,
      "ĠGu": 8803,
      "iput": 8804,
      "Ġjadikan": 8805,
      "Ġkurangnya": 8806,
      "Ġsubur": 8807,
      "ĠBelum": 8808,
      "Ġnada": 8809,
      "ĠLama": 8810,
      "nel": 8811,
      "Ġdesign": 8812,
      "Ġketerbatasan": 8813,
      "42": 8814,
      "Ġ$": 8815,
      "Ġhij": 8816,
      "Ġcard": 8817,
      "ayasan": 8818,
      "owongan": 8819,
      "Ġtemper": 8820,
      "Ġsiapapun": 8821,
      "dir": 8822,
      "Ġpep": 8823,
      "day": 8824,
      "Ġproduc": 8825,
      "agukan": 8826,
      "anch": 8827,
      "Ġforum": 8828,
      "hamdulillah": 8829,
      "sul": 8830,
      "Ġtand": 8831,
      "Ġdiv": 8832,
      "Ġpered": 8833,
      "Ġkerjanya": 8834,
      "ĠSMK": 8835,
      "Ġkolesterol": 8836,
      "part": 8837,
      "Ġcontinue": 8838,
      "ĠEmp": 8839,
      "Ġmengamati": 8840,
      "Ġkacang": 8841,
      "Ġlaboratorium": 8842,
      "Ġkant": 8843,
      "ĠBang": 8844,
      "ilas": 8845,
      "ĠWid": 8846,
      "ever": 8847,
      "etus": 8848,
      "Ġsumberdaya": 8849,
      "ĠRomawi": 8850,
      "BN": 8851,
      "Ġmerumuskan": 8852,
      "ĠSoeharto": 8853,
      "harma": 8854,
      "Ġplanet": 8855,
      "asawuf": 8856,
      "rap": 8857,
      "Ġfolder": 8858,
      "Ġmelengkapi": 8859,
      "Ġputing": 8860,
      "Ġukur": 8861,
      "Ġhancur": 8862,
      "Ġmemicu": 8863,
      "Ġstroke": 8864,
      "ĠØµ": 8865,
      "lusif": 8866,
      "Ġpa": 8867,
      "Ġtuhan": 8868,
      "ĠSir": 8869,
      "Ġmenga": 8870,
      "ĠMataram": 8871,
      "ĠJin": 8872,
      "yaratkan": 8873,
      "hitungkan": 8874,
      "Ġsunnah": 8875,
      "ĠFat": 8876,
      "Ġditangkap": 8877,
      "Ġseluruhnya": 8878,
      "ĠSeluruh": 8879,
      "Sudah": 8880,
      "Ġkarir": 8881,
      "Pendidikan": 8882,
      "ty": 8883,
      "uliaan": 8884,
      "ities": 8885,
      "2013": 8886,
      "ahtera": 8887,
      "ĠHindia": 8888,
      "Ġketr": 8889,
      "Ġdirimu": 8890,
      "Ġatr": 8891,
      "Ġwahyu": 8892,
      "umumkan": 8893,
      "ĠAmin": 8894,
      "Ġkesenian": 8895,
      "Ġalbum": 8896,
      "uduki": 8897,
      "Ġpahala": 8898,
      "oles": 8899,
      "abarkan": 8900,
      "ĠPerencanaan": 8901,
      "ĠEs": 8902,
      "Ġtersusun": 8903,
      "Ã¢": 8904,
      "Ġdiisi": 8905,
      "Ġmengolah": 8906,
      "Ġcuaca": 8907,
      "Ġbias": 8908,
      "Ġupah": 8909,
      "zhab": 8910,
      "Ġtir": 8911,
      "okrat": 8912,
      "Ġseminggu": 8913,
      "Ġdibatasi": 8914,
      "Ġmengand": 8915,
      "Ġsyukur": 8916,
      "Ġmenyambut": 8917,
      "EH": 8918,
      "rain": 8919,
      "pau": 8920,
      "entralisasi": 8921,
      "Ġkedaulatan": 8922,
      "gam": 8923,
      "Ġbenih": 8924,
      "Ġlumayan": 8925,
      "misalnya": 8926,
      "pektif": 8927,
      "ĠPin": 8928,
      "Ġjin": 8929,
      "Ġfe": 8930,
      "Ġkebakaran": 8931,
      "Ġmengancam": 8932,
      "Ġpenyimpangan": 8933,
      "EB": 8934,
      "Ken": 8935,
      "Ġtarif": 8936,
      "Ġhalal": 8937,
      "Ġra": 8938,
      "Ø²": 8939,
      "Ġdeng": 8940,
      "ere": 8941,
      "Ġdihadap": 8942,
      "Ġmenetap": 8943,
      "Ġtidaknya": 8944,
      "Ġalum": 8945,
      "Ġsendirinya": 8946,
      "Ġmagn": 8947,
      "ository": 8948,
      "yarakatan": 8949,
      "Ġjarum": 8950,
      "irmasi": 8951,
      "!\"": 8952,
      "jok": 8953,
      "Ġos": 8954,
      "Ġbl": 8955,
      "Ġleb": 8956,
      "Ġ2015": 8957,
      "Ġhutang": 8958,
      "ĠBambang": 8959,
      "ĠJaringan": 8960,
      "osting": 8961,
      "ĠIstilah": 8962,
      "Pengertian": 8963,
      "Ġdengar": 8964,
      "Ġdiet": 8965,
      "ugaan": 8966,
      "epatitis": 8967,
      "urangnya": 8968,
      "Ġperdamaian": 8969,
      "Ġkampanye": 8970,
      "Ġhy": 8971,
      "ĠFirman": 8972,
      "ĠMengetahui": 8973,
      "OMP": 8974,
      "Ġakrab": 8975,
      "odifikasi": 8976,
      "Ġpenyer": 8977,
      "Ġbirokrasi": 8978,
      "muk": 8979,
      "syarat": 8980,
      "ulin": 8981,
      "Ġmerujuk": 8982,
      "apainya": 8983,
      "imanapun": 8984,
      "ĠDrs": 8985,
      "ĠPengan": 8986,
      "embahan": 8987,
      "Ġmerata": 8988,
      "Ġmembicarakan": 8989,
      "Ġmembangkitkan": 8990,
      "ĠInjil": 8991,
      "Ġstres": 8992,
      "ĠThis": 8993,
      "Meskipun": 8994,
      "ĠPelayanan": 8995,
      "Ġras": 8996,
      "Ġreligi": 8997,
      "ople": 8998,
      "Ġpinjaman": 8999,
      "itungan": 9000,
      "aksana": 9001,
      "lembaga": 9002,
      "Sejarah": 9003,
      "akm": 9004,
      "ammad": 9005,
      "ĠDur": 9006,
      "ĠLog": 9007,
      "usahakan": 9008,
      "ĠMPR": 9009,
      "Ġnan": 9010,
      "ĠGlob": 9011,
      "Ġmeningkatnya": 9012,
      "Ġperf": 9013,
      "ĠIkan": 9014,
      "Ġgua": 9015,
      "atic": 9016,
      "ĠPalembang": 9017,
      "Kh": 9018,
      "ĠSoftware": 9019,
      "ĠKompetensi": 9020,
      "ahih": 9021,
      "tug": 9022,
      "sial": 9023,
      "ĠUl": 9024,
      "ĠØŃ": 9025,
      "Ġinspirasi": 9026,
      "ĠSuper": 9027,
      "BD": 9028,
      "MS": 9029,
      "ren": 9030,
      "amika": 9031,
      "Ġkarunia": 9032,
      "lit": 9033,
      "Ġten": 9034,
      "ĠPower": 9035,
      "ĠPNS": 9036,
      "ĠTenaga": 9037,
      "Ġdibiarkan": 9038,
      "Ġswt": 9039,
      "Ġdemokratis": 9040,
      "arna": 9041,
      "ĠSc": 9042,
      "Ġnelayan": 9043,
      "Ġekosistem": 9044,
      "ĠBukhari": 9045,
      "Ġmenggerakkan": 9046,
      "mel": 9047,
      "Ġtrop": 9048,
      "ĠBudi": 9049,
      "Ġpenjaga": 9050,
      "Ġpengadaan": 9051,
      "Ġberlanjut": 9052,
      "Daftar": 9053,
      "etar": 9054,
      "Ġkeringat": 9055,
      "eransi": 9056,
      "Ġtabung": 9057,
      "ĠItalia": 9058,
      "Ġimb": 9059,
      "ĠDok": 9060,
      "Ġcadangan": 9061,
      "Ġgem": 9062,
      "ĠPemimpin": 9063,
      "Ġdiakses": 9064,
      "Faktor": 9065,
      "inda": 9066,
      "Ġcuci": 9067,
      "Ġtransparan": 9068,
      "Ġrekening": 9069,
      "Ġbercerita": 9070,
      "buk": 9071,
      "ush": 9072,
      "araja": 9073,
      "Ġrasakan": 9074,
      "Ġbaris": 9075,
      "Ġsejalan": 9076,
      "och": 9077,
      "Ġmeyakinkan": 9078,
      "ashion": 9079,
      "Ġmult": 9080,
      "olan": 9081,
      "ĠRadi": 9082,
      "ĠCr": 9083,
      "Ġkedalaman": 9084,
      "atuhkan": 9085,
      "tujuan": 9086,
      "ebatan": 9087,
      "Ġperwakilan": 9088,
      "ĠMac": 9089,
      "ĠHat": 9090,
      "ĠHingga": 9091,
      "ĠLakukan": 9092,
      "Ġberkenaan": 9093,
      "oplas": 9094,
      "ray": 9095,
      "enerasi": 9096,
      "als": 9097,
      "Ġhem": 9098,
      "Ġberputar": 9099,
      "Ġbeker": 9100,
      "Ġsanksi": 9101,
      "Ġmeneruskan": 9102,
      "ulangi": 9103,
      "Ġmenunjuk": 9104,
      "Ġdomain": 9105,
      "Ġmematikan": 9106,
      "Buku": 9107,
      "pl": 9108,
      "ĠPil": 9109,
      "ĠIsa": 9110,
      "Ġbertahap": 9111,
      "Ġpermohonan": 9112,
      "BS": 9113,
      "Ġtercantum": 9114,
      "ĠPEND": 9115,
      "Ġkreativitas": 9116,
      "Ġfleksi": 9117,
      "Ġsegenap": 9118,
      "angkabau": 9119,
      "untah": 9120,
      "Ġdicer": 9121,
      "ĠKomun": 9122,
      "Ch": 9123,
      "arjo": 9124,
      "Ġkeimanan": 9125,
      "Ġregi": 9126,
      "Ġkemauan": 9127,
      "Ġbiarkan": 9128,
      "ÙıÙĳ": 9129,
      "ĠIbn": 9130,
      "Ġupdate": 9131,
      "lap": 9132,
      "entunya": 9133,
      "ĠHend": 9134,
      "Ġberhati": 9135,
      "tanya": 9136,
      "anyi": 9137,
      "Ġmuatan": 9138,
      "ĠKak": 9139,
      "Ġrugi": 9140,
      "ĠIde": 9141,
      "Ġmelepas": 9142,
      "unculan": 9143,
      "Ġkomod": 9144,
      "ALAN": 9145,
      "anaknya": 9146,
      "Ġlayaknya": 9147,
      "ĠMaluku": 9148,
      "Ġpenyembuhan": 9149,
      "Ġpassword": 9150,
      "was": 9151,
      "Ġbenang": 9152,
      "ĠMenj": 9153,
      "ĠArtikel": 9154,
      "Ġparadigma": 9155,
      "46": 9156,
      "ateg": 9157,
      "Ġster": 9158,
      "Ġpersis": 9159,
      "Ġpotongan": 9160,
      "Ġwajahnya": 9161,
      "Ġterhubung": 9162,
      "Ġketrampilan": 9163,
      "UI": 9164,
      "ebus": 9165,
      "Ġpeneg": 9166,
      "Ġtegak": 9167,
      "ĠPelatihan": 9168,
      "lir": 9169,
      "Ġberibadah": 9170,
      "indu": 9171,
      "Ġdibuktikan": 9172,
      "Ġterbakar": 9173,
      "Ġkendala": 9174,
      "Ġmenempuh": 9175,
      "ĠLiga": 9176,
      ")|": 9177,
      "Ib": 9178,
      "ez": 9179,
      "Ġbid": 9180,
      "ulator": 9181,
      "ĠIC": 9182,
      "Ġsawah": 9183,
      "ohid": 9184,
      "ĠMenjadi": 9185,
      "buahan": 9186,
      "Ġ1995": 9187,
      "Ġatmos": 9188,
      "Ġreproduksi": 9189,
      "Ġberangg": 9190,
      "Ġalkohol": 9191,
      "Ġterbiasa": 9192,
      "Ġmasuknya": 9193,
      "Ġsallam": 9194,
      "Ġkencang": 9195,
      "Ġgabungan": 9196,
[...]
