{
  "version": "1.0",
  "truncation": null,
  "padding": null,
  "added_tokens": [
    {
      "id": 0,
      "content": "<s>",
      "single_word": false,
      "lstrip": false,
      "rstrip": false,
      "normalized": false,
      "special": true
    },
    {
      "id": 1,
      "content": "<pad>",
      "single_word": false,
      "lstrip": false,
      "rstrip": false,
      "normalized": false,
      "special": true
    },
    {
      "id": 2,
      "content": "</s>",
      "single_word": false,
      "lstrip": false,
      "rstrip": false,
      "normalized": false,
      "special": true
    },
    {
      "id": 3,
      "content": "<unk>",
      "single_word": false,
      "lstrip": false,
      "rstrip": false,
      "normalized": false,
      "special": true
    },
    {
      "id": 4,
      "content": "<mask>",
      "single_word": false,
      "lstrip": false,
      "rstrip": false,
      "normalized": false,
      "special": true
    }
  ],
  "normalizer": null,
  "pre_tokenizer": {
    "type": "ByteLevel",
    "add_prefix_space": true,
    "trim_offsets": true,
    "use_regex": true
  },
  "post_processor": {
    "type": "TemplateProcessing",
    "single": [
      {
        "SpecialToken": {
          "id": "<s>",
          "type_id": 0
        }
      },
      {
        "Sequence": {
          "id": "A",
          "type_id": 0
        }
      },
      {
        "SpecialToken": {
          "id": "</s>",
          "type_id": 0
        }
      }
    ],
    "pair": [
      {
        "SpecialToken": {
          "id": "<s>",
          "type_id": 0
        }
      },
      {
        "Sequence": {
          "id": "A",
          "type_id": 0
        }
      },
      {
        "SpecialToken": {
          "id": "</s>",
          "type_id": 0
        }
      },
      {
        "SpecialToken": {
          "id": "</s>",
          "type_id": 0
        }
      },
      {
        "Sequence": {
          "id": "B",
          "type_id": 0
        }
      },
      {
        "SpecialToken": {
          "id": "</s>",
          "type_id": 0
        }
      }
    ],
    "special_tokens": {
      "</s>": {
        "id": "</s>",
        "ids": [
          2
        ],
        "tokens": [
          "</s>"
        ]
      },
      "<s>": {
        "id": "<s>",
        "ids": [
          0
        ],
        "tokens": [
          "<s>"
        ]
      }
    }
  },
  "decoder": {
    "type": "ByteLevel",
    "add_prefix_space": true,
    "trim_offsets": true,
    "use_regex": true
  },
  "model": {
    "type": "BPE",
    "dropout": null,
    "unk_token": "<unk>",
    "continuing_subword_prefix": null,
    "end_of_word_suffix": null,
    "fuse_unk": false,
    "byte_fallback": false,
    "ignore_merges": false,
    "vocab": {
      "<s>": 0,
      "<pad>": 1,
      "</s>": 2,
      "<unk>": 3,
      "<mask>": 4,
      "!": 5,
      "\"": 6,
      "#": 7,
      "$": 8,
      "%": 9,
      "&": 10,
      "'": 11,
      "(": 12,
      ")": 13,
      "*": 14,
      "+": 15,
      ",": 16,
      "-": 17,
      ".": 18,
      "/": 19,
      "0": 20,
      "1": 21,
      "2": 22,
      "3": 23,
      "4": 24,
      "5": 25,
      "6": 26,
      "7": 27,
      "8": 28,
      "9": 29,
      ":": 30,
      ";": 31,
      "<": 32,
      "=": 33,
      ">": 34,
      "?": 35,
      "@": 36,
      "A": 37,
      "B": 38,
      "C": 39,
      "D": 40,
      "E": 41,
      "F": 42,
      "G": 43,
      "H": 44,
      "I": 45,
      "J": 46,
      "K": 47,
      "L": 48,
      "M": 49,
      "N": 50,
      "O": 51,
      "P": 52,
      "Q": 53,
      "R": 54,
      "S": 55,
      "T": 56,
      "U": 57,
      "V": 58,
      "W": 59,
      "X": 60,
      "Y": 61,
      "Z": 62,
      "[": 63,
      "\\": 64,
      "]": 65,
      "^": 66,
      "_": 67,
      "`": 68,
      "a": 69,
      "b": 70,
      "c": 71,
      "d": 72,
      "e": 73,
      "f": 74,
      "g": 75,
      "h": 76,
      "i": 77,
      "j": 78,
      "k": 79,
      "l": 80,
      "m": 81,
      "n": 82,
      "o": 83,
      "p": 84,
      "q": 85,
      "r": 86,
      "s": 87,
      "t": 88,
      "u": 89,
      "v": 90,
      "w": 91,
      "x": 92,
      "y": 93,
      "z": 94,
      "{": 95,
      "|": 96,
      "}": 97,
      "~": 98,
      "¡": 99,
      "¢": 100,
      "£": 101,
      "¤": 102,
      "¥": 103,
      "¦": 104,
      "§": 105,
      "¨": 106,
      "©": 107,
      "ª": 108,
      "«": 109,
      "¬": 110,
      "®": 111,
      "¯": 112,
      "°": 113,
      "±": 114,
      "²": 115,
      "³": 116,
      "´": 117,
      "µ": 118,
      "¶": 119,
      "·": 120,
      "¸": 121,
      "¹": 122,
      "º": 123,
      "»": 124,
      "¼": 125,
      "½": 126,
      "¾": 127,
      "¿": 128,
      "À": 129,
      "Á": 130,
      "Â": 131,
      "Ã": 132,
      "Ä": 133,
      "Å": 134,
      "Æ": 135,
      "Ç": 136,
      "È": 137,
      "É": 138,
      "Ê": 139,
      "Ë": 140,
      "Ì": 141,
      "Í": 142,
      "Î": 143,
      "Ï": 144,
      "Ð": 145,
      "Ñ": 146,
      "Ò": 147,
      "Ó": 148,
      "Ô": 149,
      "Õ": 150,
      "Ö": 151,
      "×": 152,
      "Ø": 153,
      "Ù": 154,
      "Ú": 155,
      "Û": 156,
      "Ü": 157,
      "Ý": 158,
      "Þ": 159,
      "ß": 160,
      "à": 161,
      "á": 162,
      "â": 163,
      "ã": 164,
      "ä": 165,
      "å": 166,
      "æ": 167,
      "ç": 168,
      "è": 169,
      "é": 170,
      "ê": 171,
      "ë": 172,
      "ì": 173,
      "í": 174,
      "î": 175,
      "ï": 176,
      "ð": 177,
      "ñ": 178,
      "ò": 179,
      "ó": 180,
      "ô": 181,
      "õ": 182,
      "ö": 183,
      "÷": 184,
      "ø": 185,
      "ù": 186,
      "ú": 187,
      "û": 188,
      "ü": 189,
      "ý": 190,
      "þ": 191,
      "ÿ": 192,
      "Ā": 193,
      "ā": 194,
      "Ă": 195,
      "ă": 196,
      "Ą": 197,
      "ą": 198,
      "Ć": 199,
      "ć": 200,
      "Ĉ": 201,
      "ĉ": 202,
      "Ċ": 203,
      "ċ": 204,
      "Č": 205,
      "č": 206,
      "Ď": 207,
      "ď": 208,
      "Đ": 209,
      "đ": 210,
      "Ē": 211,
      "ē": 212,
      "Ĕ": 213,
      "ĕ": 214,
      "Ė": 215,
      "ė": 216,
      "Ę": 217,
      "ę": 218,
      "Ě": 219,
      "ě": 220,
      "Ĝ": 221,
      "ĝ": 222,
      "Ğ": 223,
      "ğ": 224,
      "Ġ": 225,
      "ġ": 226,
      "Ģ": 227,
      "ģ": 228,
      "Ĥ": 229,
      "ĥ": 230,
      "Ħ": 231,
      "ħ": 232,
      "Ĩ": 233,
      "ĩ": 234,
      "Ī": 235,
      "ī": 236,
      "Ĭ": 237,
      "ĭ": 238,
      "Į": 239,
      "į": 240,
      "İ": 241,
      "ı": 242,
      "Ĳ": 243,
      "ĳ": 244,
      "Ĵ": 245,
      "ĵ": 246,
      "Ķ": 247,
      "ķ": 248,
      "ĸ": 249,
      "Ĺ": 250,
      "ĺ": 251,
      "Ļ": 252,
      "ļ": 253,
      "Ľ": 254,
      "ľ": 255,
      "Ŀ": 256,
      "ŀ": 257,
      "Ł": 258,
      "ł": 259,
      "Ń": 260,
      "Ġd": 261,
      "es": 262,
      "Ã©": 263,
      "Ġl": 264,
      "en": 265,
      "on": 266,
      "Ġp": 267,
      "Ġc": 268,
      "Ġde": 269,
      "Ġs": 270,
      "ou": 271,
      "re": 272,
      "an": 273,
      "ti": 274,
      "er": 275,
      "Ġa": 276,
      "qu": 277,
      "is": 278,
      "ent": 279,
      "in": 280,
      "et": 281,
      "it": 282,
      "Ġm": 283,
      "ar": 284,
      "le": 285,
      "ur": 286,
      "âĢ": 287,
      "Ġla": 288,
      "un": 289,
      "Ġt": 290,
      "âĢĻ": 291,
      "tion": 292,
      "Ġqu": 293,
      "or": 294,
      "Ġet": 295,
      "te": 296,
      "Ġle": 297,
      "Ġf": 298,
      "ĠÃ": 299,
      "Ġn": 300,
      "il": 301,
      "Ġv": 302,
      "ra": 303,
      "our": 304,
      "om": 305,
      "ĠÃł": 306,
      "Ġles": 307,
      "ment": 308,
      "Ġdes": 309,
      "Ġun": 310,
      "el": 311,
      "rÃ©": 312,
      "Ġen": 313,
      "Ã¨": 314,
      "us": 315,
      "ro": 316,
      "al": 317,
      "ant": 318,
      "as": 319,
      "ce": 320,
      "ri": 321,
      "est": 322,
      "ation": 323,
      "ont": 324,
      "Ġb": 325,
      "Ġau": 326,
      "ans": 327,
      "au": 328,
      "ch": 329,
      "Ġpar": 330,
      "ai": 331,
      "me": 332,
      "ous": 333,
      "Ġdu": 334,
      "si": 335,
      "ĠÃ©": 336,
      "res": 337,
      "ve": 338,
      "li": 339,
      "eu": 340,
      "ĠC": 341,
      "Ġpour": 342,
      "que": 343,
      "ĠdÃ©": 344,
      "ci": 345,
      "Ġj": 346,
      "ĠL": 347,
      "se": 348,
      "oi": 349,
      "Ġg": 350,
      "ag": 351,
      "tre": 352,
      "Ġque": 353,
      "Ġcon": 354,
      "tÃ©": 355,
      "ne": 356,
      "Ġre": 357,
      "Ġcom": 358,
      "ais": 359,
      "de": 360,
      "Ġpl": 361,
      "at": 362,
      "Ġin": 363,
      "Ġpro": 364,
      "Ġdans": 365,
      "di": 366,
      "ait": 367,
      "Ġune": 368,
      "Ġsur": 369,
      "ĠrÃ©": 370,
      "Ġqui": 371,
      "os": 372,
      "mp": 373,
      "Ġest": 374,
      "itÃ©": 375,
      "ol": 376,
      "Ġch": 377,
      "ĠP": 378,
      "ĠS": 379,
      "Ġpas": 380,
      "ĠM": 381,
      "Ġe": 382,
      "pp": 383,
      "les": 384,
      "ff": 385,
      "ab": 386,
      "ac": 387,
      "Ġse": 388,
      "ie": 389,
      "Ã©e": 390,
      "ers": 391,
      "Ġ(": 392,
      "ons": 393,
      "ĠA": 394,
      "ain": 395,
      "Ġplus": 396,
      "Ġ1": 397,
      "urs": 398,
      "Ãª": 399,
      "elle": 400,
      "ouv": 401,
      "ter": 402,
      "tu": 403,
      "Ġ:": 404,
      "ĠD": 405,
      "Ġr": 406,
      "ĠÂ": 407,
      "Ġo": 408,
      "Ġ2": 409,
      "aire": 410,
      "Ġh": 411,
      "am": 412,
      "end": 413,
      "ran": 414,
      "Ġou": 415,
      "ir": 416,
      "ul": 417,
      "Ġce": 418,
      "ĠE": 419,
      "Ã©s": 420,
      "onn": 421,
      "ale": 422,
      "ui": 423,
      "Ã¨re": 424,
      "Ġne": 425,
      "tes": 426,
      "Ġave": 427,
      "ces": 428,
      "Ġtou": 429,
      "Ġil": 430,
      "ig": 431,
      "ĠB": 432,
      "Ã¨s": 433,
      "ques": 434,
      "Ġmo": 435,
      "ĠI": 436,
      "Ġdi": 437,
      "ite": 438,
      "ĠprÃ©": 439,
      "age": 440,
      "Ġavec": 441,
      "Ġvous": 442,
      "ort": 443,
      "Ġex": 444,
      "ĠT": 445,
      "ction": 446,
      "..": 447,
      "Ġtr": 448,
      "ĠF": 449,
      "Ġav": 450,
      "Ġsu": 451,
      "00": 452,
      "ge": 453,
      "Ã©es": 454,
      "pr": 455,
      "ien": 456,
      "ĠR": 457,
      "ette": 458,
      "ic": 459,
      "Ġsont": 460,
      "pe": 461,
      "ue": 462,
      "vi": 463,
      "ati": 464,
      "oir": 465,
      "pÃ©": 466,
      "Ġpr": 467,
      "Ġi": 468,
      "une": 469,
      "and": 470,
      "ot": 471,
      "mb": 472,
      "ĠJ": 473,
      "Ġpeu": 474,
      "ĠN": 475,
      "Ġra": 476,
      "che": 477,
      "ille": 478,
      "orm": 479,
      "ois": 480,
      "ier": 481,
      "ĠG": 482,
      "Ġson": 483,
      "oc": 484,
      "ique": 485,
      "Ġaux": 486,
      "st": 487,
      "du": 488,
      "av": 489,
      "otre": 490,
      "aux": 491,
      "og": 492,
      "ations": 493,
      "ence": 494,
      "Ã©n": 495,
      "Ġtra": 496,
      "ad": 497,
      "Ġac": 498,
      "Ġser": 499,
      "ux": 500,
      "Ġje": 501,
      "Ġcont": 502,
      "ance": 503,
      "Ġpo": 504,
      "mes": 505,
      "ure": 506,
      "entre": 507,
      "Ġan": 508,
      "lÃ©": 509,
      "ise": 510,
      "eux": 511,
      "Ġsi": 512,
      "Ġnous": 513,
      "Ã´": 514,
      "ist": 515,
      "ĠÂ«": 516,
      "Ġcomp": 517,
      "ens": 518,
      "Ġpu": 519,
      "ine": 520,
      "ĠÂ»": 521,
      "Ġli": 522,
      "Ġmais": 523,
      "Ġso": 524,
      "ut": 525,
      "Ġcomm": 526,
      "ate": 527,
      "ĠÃ©t": 528,
      "um": 529,
      "ĠV": 530,
      "ion": 531,
      "Ġte": 532,
      "ĠLe": 533,
      "ors": 534,
      "ap": 535,
      "able": 536,
      "aut": 537,
      "Ġparti": 538,
      "ins": 539,
      "Ġper": 540,
      "Ãł": 541,
      "ill": 542,
      "Ã§": 543,
      "sion": 544,
      "ay": 545,
      "ours": 546,
      "Ġapp": 547,
      "tions": 548,
      "Ġdis": 549,
      "Ã©r": 550,
      "Ġcette": 551,
      "ments": 552,
      "ert": 553,
      "bli": 554,
      "Ã©t": 555,
      "ants": 556,
      "Ġsa": 557,
      "Ġfait": 558,
      "aires": 559,
      "ĠIl": 560,
      "ord": 561,
      "ten": 562,
      "Ãªme": 563,
      "lis": 564,
      "Ġmon": 565,
      "sent": 566,
      "Ã©c": 567,
      "Ġcomme": 568,
      "ond": 569,
      "Ġtout": 570,
      "ĠH": 571,
      "Ġar": 572,
      "ph": 573,
      "tif": 574,
      "ex": 575,
      "Ġont": 576,
      "ace": 577,
      "Ã©ri": 578,
      "Ġme": 579,
      "Ġal": 580,
      "ser": 581,
      "ct": 582,
      "ouve": 583,
      "elles": 584,
      "bre": 585,
      "ĠO": 586,
      "ard": 587,
      "Ã©ra": 588,
      "ĠLa": 589,
      "Ġmar": 590,
      "ĠÃ©tÃ©": 591,
      "Ġbien": 592,
      "Ġses": 593,
      "ni": 594,
      "ĠdÃ©c": 595,
      "id": 596,
      "01": 597,
      "ĠÃª": 598,
      "ussi": 599,
      "Ġ!": 600,
      "Ġy": 601,
      "Ġleur": 602,
      "ore": 603,
      "eur": 604,
      "uti": 605,
      "Ġaut": 606,
      "Ġentre": 607,
      "onne": 608,
      "mi": 609,
      "alis": 610,
      "tique": 611,
      "Ġvotre": 612,
      "oy": 613,
      "Ġco": 614,
      "Ġces": 615,
      "ts": 616,
      "Ġpers": 617,
      "Ġon": 618,
      "ven": 619,
      "Ġ\"": 620,
      "Ġ?": 621,
      "ĠLes": 622,
      "Ġcons": 623,
      "Ġprop": 624,
      "ble": 625,
      "Ã¨me": 626,
      "ss": 627,
      "ĠÃªtre": 628,
      "tin": 629,
      "ĠU": 630,
      "ru": 631,
      "Le": 632,
      "Ġcar": 633,
      "Ġres": 634,
      "Ġ3": 635,
      "form": 636,
      "Ġ-": 637,
      "ĠmÃªme": 638,
      "Ġma": 639,
      "par": 640,
      "im": 641,
      "Ġfaire": 642,
      "Ġdeux": 643,
      "Ġst": 644,
      "Ġsou": 645,
      "its": 646,
      "ouver": 647,
      "teur": 648,
      "ec": 649,
      "Ġnom": 650,
      "onc": 651,
      "Ġpeut": 652,
      "...": 653,
      "jet": 654,
      "Ġfin": 655,
      "Ġtrav": 656,
      "Ã®": 657,
      "itÃ©s": 658,
      "uis": 659,
      "ang": 660,
      "Ġinter": 661,
      "Ã¢": 662,
      "Ġaussi": 663,
      "aient": 664,
      "oup": 665,
      "ture": 666,
      "met": 667,
      "Ġpre": 668,
      ").": 669,
      "Ġimp": 670,
      "Ġth": 671,
      "Ġgran": 672,
      "Ġvi": 673,
      "endre": 674,
      "ing": 675,
      "com": 676,
      "Ġ19": 677,
      "aine": 678,
      "min": 679,
      "ail": 680,
      "oire": 681,
      "Ã©g": 682,
      "lement": 683,
      "ĠÃ©c": 684,
      "prÃ¨s": 685,
      "Ġfor": 686,
      "Ġter": 687,
      "ĠW": 688,
      "ents": 689,
      "Ġpe": 690,
      "ves": 691,
      "Ġ201": 692,
      "Ġpos": 693,
      "alement": 694,
      "ĠtrÃ¨s": 695,
      "Ġat": 696,
      "ob": 697,
      "des": 698,
      "ici": 699,
      "out": 700,
      "ver": 701,
      "oit": 702,
      "ĠEn": 703,
      "ĠCh": 704,
      "app": 705,
      "cher": 706,
      "fin": 707,
      "vent": 708,
      "els": 709,
      "Ġes": 710,
      "ez": 711,
      "all": 712,
      "mps": 713,
      "cu": 714,
      "ages": 715,
      "ales": 716,
      "iss": 717,
      "Ġdiff": 718,
      "Ġ200": 719,
      "La": 720,
      "ante": 721,
      "Ġeff": 722,
      "Ġsans": 723,
      "utilis": 724,
      "enti": 725,
      "ourn": 726,
      "Ġtous": 727,
      "use": 728,
      "Ġad": 729,
      "sid": 730,
      "rer": 731,
      "tat": 732,
      "op": 733,
      "ĠâĢ": 734,
      "Ġconc": 735,
      "mis": 736,
      "Ġpersonn": 737,
      "Ġquel": 738,
      "Ã¨res": 739,
      "Ġpubli": 740,
      "vre": 741,
      "Ġsoci": 742,
      "ĠmÃ©": 743,
      "eau": 744,
      "pl": 745,
      "Ġcol": 746,
      "),": 747,
      "Ġconf": 748,
      "ĠFran": 749,
      "Ġpri": 750,
      "Ġlui": 751,
      "Les": 752,
      "Ġti": 753,
      "Ġcl": 754,
      "Ġcel": 755,
      "Ġph": 756,
      "Ġann": 757,
      "Ġmes": 758,
      "Ġpay": 759,
      "Ġdire": 760,
      "Ġsy": 761,
      "Ġdev": 762,
      "cÃ©": 763,
      "Ġca": 764,
      "Ġren": 765,
      "tic": 766,
      "Ġman": 767,
      "po": 768,
      "Ġenc": 769,
      "int": 770,
      "ass": 771,
      "ĠrÃ©g": 772,
      "opp": 773,
      "alitÃ©": 774,
      "man": 775,
      "vers": 776,
      "rai": 777,
      "ĠPar": 778,
      "nement": 779,
      "insi": 780,
      "Ġtro": 781,
      "ĠJe": 782,
      "ils": 783,
      "Ġmin": 784,
      "org": 785,
      "ong": 786,
      "Ġrec": 787,
      "Ã¹": 788,
      "Ġjus": 789,
      "titu": 790,
      "ĠK": 791,
      "ign": 792,
      "Ġpermet": 793,
      "Ã»": 794,
      "ĠgÃ©n": 795,
      "ĠcrÃ©": 796,
      "Ġmil": 797,
      "Ġ;": 798,
      "Ġprodu": 799,
      "Ġgr": 800,
      "emp": 801,
      "Ġder": 802,
      "ures": 803,
      "Ġdonn": 804,
      "ari": 805,
      "lÃ¨": 806,
      "tra": 807,
      "Ġ4": 808,
      "vel": 809,
      "Qu": 810,
      "olu": 811,
      "tiv": 812,
      "qui": 813,
      "Ġelle": 814,
      "rit": 815,
      "Ġprof": 816,
      "lle": 817,
      "ĠÃ©g": 818,
      "olog": 819,
      "ense": 820,
      "Ġcha": 821,
      "orte": 822,
      "Ġrapp": 823,
      "ĠprÃ©sent": 824,
      "lic": 825,
      "Ġnotre": 826,
      "ains": 827,
      "cip": 828,
      "Ġam": 829,
      "Ġdro": 830,
      "Ġ5": 831,
      "ĠoÃ¹": 832,
      "Ġri": 833,
      "ler": 834,
      "iques": 835,
      "Ġpays": 836,
      "Ġseu": 837,
      "puis": 838,
      "uro": 839,
      "Ġw": 840,
      "iste": 841,
      "Ġob": 842,
      "Ġpoli": 843,
      "Ġcommun": 844,
      "Ġtemps": 845,
      "ente": 846,
      "Ġservi": 847,
      "||": 848,
      "Ġtrans": 849,
      "Ġleurs": 850,
      "Ġvis": 851,
      "Ġpeti": 852,
      "Ġrep": 853,
      "gra": 854,
      "ose": 855,
      "Ġencore": 856,
      "tis": 857,
      "anis": 858,
      "Ġainsi": 859,
      "velopp": 860,
      "Ġdont": 861,
      "Ġsous": 862,
      "ĠCom": 863,
      "Ġnombre": 864,
      "tiques": 865,
      "Ġfa": 866,
      "Ġdonc": 867,
      "itu": 868,
      "Ġni": 869,
      "dÃ©": 870,
      "endant": 871,
      "Ġcas": 872,
      "Ġpart": 873,
      "Ġass": 874,
      "En": 875,
      "cep": 876,
      "em": 877,
      "tr": 878,
      "Ġform": 879,
      "ement": 880,
      "ĠrÃ©p": 881,
      "Ġcert": 882,
      "enne": 883,
      "Ġoff": 884,
      "Ġnon": 885,
      "tÃ©s": 886,
      "Ġans": 887,
      "teurs": 888,
      "anc": 889,
      "Ġlors": 890,
      "nes": 891,
      "Ġsec": 892,
      "Ġutilis": 893,
      "âĢ¦": 894,
      "igne": 895,
      "tement": 896,
      "Ġnouv": 897,
      "onom": 898,
      "Ġcontre": 899,
      "Ġfois": 900,
      "ĠdÃ©velopp": 901,
      "Ġju": 902,
      "Ġfran": 903,
      "mer": 904,
      "ĠIn": 905,
      "ĠgÃ©nÃ©ra": 906,
      "Ġacc": 907,
      "Ġmal": 908,
      "ĠÃ©tait": 909,
      "cess": 910,
      "ues": 911,
      "Ġfon": 912,
      "mbre": 913,
      "Ġmonde": 914,
      "ilitÃ©": 915,
      "Ġpuis": 916,
      "tÃ©ri": 917,
      "Ġavant": 918,
      "Ġvie": 919,
      "ies": 920,
      "ĠsÃ©": 921,
      "ateur": 922,
      "oci": 923,
      "tionn": 924,
      "ich": 925,
      "ĠÃ©galement": 926,
      "Ġcor": 927,
      "rait": 928,
      "vis": 929,
      "oul": 930,
      "Ãªtre": 931,
      "aines": 932,
      "Ã©lÃ©": 933,
      "Ġvos": 934,
      "Ġtoute": 935,
      "ites": 936,
      "Ġmoins": 937,
      "Ġexp": 938,
      "ĠFrance": 939,
      "ĠÃ©v": 940,
      "ables": 941,
      "ib": 942,
      "ĠrÃ©s": 943,
      "Un": 944,
      "ric": 945,
      "Ġsui": 946,
      "rib": 947,
      "ĠdÃ©b": 948,
      "Ġnos": 949,
      "oin": 950,
      "Ġconn": 951,
      "uer": 952,
      "Ġpremi": 953,
      "ole": 954,
      "Ġgrand": 955,
      "oute": 956,
      "Ġgra": 957,
      "Ġnouve": 958,
      "lus": 959,
      "ĠdÃ©p": 960,
      "Ġsite": 961,
      "jour": 962,
      "gn": 963,
      "Ġpouv": 964,
      "ances": 965,
      "Ġsoit": 966,
      "mand": 967,
      "Ġab": 968,
      "Ã§ais": 969,
      "ches": 970,
      "ises": 971,
      "Ġver": 972,
      "estion": 973,
      "Ġdepuis": 974,
      "iter": 975,
      "Ã©m": 976,
      "ctions": 977,
      "tÃ©g": 978,
      "Ġavait": 979,
      "pi": 980,
      "mble": 981,
      "ĠaprÃ¨s": 982,
      "Ġmet": 983,
      "ĠdÃ©f": 984,
      "agn": 985,
      "one": 986,
      "la": 987,
      "ĠCe": 988,
      "Ġmont": 989,
      "ta": 990,
      "Ġprojet": 991,
      "Ġaff": 992,
      "Ġbas": 993,
      "Ã©v": 994,
      "jours": 995,
      "Ġcli": 996,
      "dif": 997,
      "imp": 998,
      "Ġas": 999,
      "Ġ6": 1000,
      "Ġautres": 1001,
      "Ġprin": 1002,
      "ences": 1003,
      "omme": 1004,
      "tive": 1005,
      "Ã©tÃ©": 1006,
      "ĠQu": 1007,
      "oupe": 1008,
      "tel": 1009,
      "avoir": 1010,
      "Ġfil": 1011,
      "sition": 1012,
      "organis": 1013,
      "Ãī": 1014,
      "ern": 1015,
      "mÃ©": 1016,
      "Ġent": 1017,
      "ĠdiffÃ©r": 1018,
      "ĠPour": 1019,
      "Ġcap": 1020,
      "Ãªte": 1021,
      "rez": 1022,
      "Ġim": 1023,
      "Ġalors": 1024,
      "Ġpublic": 1025,
      "vir": 1026,
      "ions": 1027,
      "Ġbeau": 1028,
      "if": 1029,
      "ĠMar": 1030,
      "ellement": 1031,
      "Ġbl": 1032,
      "ĠnÃ©": 1033,
      "quer": 1034,
      "Ġno": 1035,
      "Ġcro": 1036,
      "ind": 1037,
      "antes": 1038,
      "Ġtravail": 1039,
      "Ġins": 1040,
      "Ġavoir": 1041,
      "Ġmain": 1042,
      "dic": 1043,
      "ĠDe": 1044,
      "Ġquelques": 1045,
      "acc": 1046,
      "ĠMais": 1047,
      "Ġag": 1048,
      "eure": 1049,
      "Ġsera": 1050,
      "Ġthe": 1051,
      "Ġjou": 1052,
      "lu": 1053,
      "Ġtoujours": 1054,
      "chÃ©": 1055,
      "Ġils": 1056,
      "sement": 1057,
      "ateurs": 1058,
      "arg": 1059,
      "ĠâĢĵ": 1060,
      "ann": 1061,
      "Ġtrois": 1062,
      "Åĵ": 1063,
      "Il": 1064,
      "aille": 1065,
      "Ġcour": 1066,
      "Ġfaut": 1067,
      "Ġtoutes": 1068,
      "Ġjour": 1069,
      "are": 1070,
      "Ġsc": 1071,
      "rÃ©e": 1072,
      "mier": 1073,
      "Ġintern": 1074,
      "pÃ©ci": 1075,
      "Ġtech": 1076,
      "ieurs": 1077,
      "Ġlong": 1078,
      "Ġrel": 1079,
      "per": 1080,
      "tats": 1081,
      "Ġfonction": 1082,
      "Ġconst": 1083,
      "ange": 1084,
      "Ġnation": 1085,
      "Pour": 1086,
      "ĠEt": 1087,
      "Ġprob": 1088,
      "ron": 1089,
      "Ġsal": 1090,
      "--": 1091,
      "Ġ7": 1092,
      "ration": 1093,
      "Ġmilli": 1094,
      "Ġplace": 1095,
      "aÃ®": 1096,
      "Ġpass": 1097,
      "iÃ¨re": 1098,
      "ature": 1099,
      "autres": 1100,
      "ros": 1101,
      "arge": 1102,
      "gram": 1103,
      "ticle": 1104,
      "Ġenf": 1105,
      "Ġpossi": 1106,
      "ĠdÃ©j": 1107,
      "Ġcompr": 1108,
      "Ġsyst": 1109,
      "Ġvers": 1110,
      "ĠspÃ©ci": 1111,
      "Ġmi": 1112,
      "Ġcela": 1113,
      "Ã´t": 1114,
      "Ġmis": 1115,
      "der": 1116,
      "ommes": 1117,
      "ication": 1118,
      "mo": 1119,
      "ets": 1120,
      "ire": 1121,
      "th": 1122,
      "mar": 1123,
      "ES": 1124,
      "Ġdom": 1125,
      "ori": 1126,
      "tern": 1127,
      "Â»": 1128,
      "oule": 1129,
      "rent": 1130,
      "ĠÃ§": 1131,
      "Ġrest": 1132,
      "ow": 1133,
      "hui": 1134,
      "ats": 1135,
      "ĠfranÃ§ais": 1136,
      "Ġautre": 1137,
      "Ġfond": 1138,
      "ĠÃ©le": 1139,
      "tres": 1140,
      "ĠOn": 1141,
      "Ġdoit": 1142,
      "pÃ©ri": 1143,
      "rÃª": 1144,
      "ĠÃ§a": 1145,
      "elon": 1146,
      "serv": 1147,
      "amment": 1148,
      "Ġinc": 1149,
      "Ġrecher": 1150,
      "Ġsuis": 1151,
      "Ġdit": 1152,
      "oo": 1153,
      "ress": 1154,
      "Ġ8": 1155,
      "Ġpropos": 1156,
      "Ġcet": 1157,
      "ub": 1158,
      "tant": 1159,
      "Ġdur": 1160,
      "ĠCon": 1161,
      "Ġsimp": 1162,
      "ĠUn": 1163,
      "Ġbon": 1164,
      "Ġsupp": 1165,
      "aiss": 1166,
      "Ġche": 1167,
      "uropÃ©": 1168,
      "eb": 1169,
      "agne": 1170,
      "uses": 1171,
      "Ġparticu": 1172,
      "sionn": 1173,
      "ris": 1174,
      "ĠNous": 1175,
      "ĠrÃ©f": 1176,
      "Ġfem": 1177,
      "rÃ©s": 1178,
      "Ġpartie": 1179,
      "Ġemp": 1180,
      "Ġpersonnes": 1181,
      "ĠAl": 1182,
      "entes": 1183,
      "erci": 1184,
      "Ġindi": 1185,
      "coup": 1186,
      "ĠAn": 1187,
      "Ġimport": 1188,
      "Ġmen": 1189,
      "ĠdÃ©jÃł": 1190,
      "ON": 1191,
      "Ġaur": 1192,
      "sez": 1193,
      "rÃ©sent": 1194,
      "Ġpremier": 1195,
      "Ġplusieurs": 1196,
      "Ġva": 1197,
      "Ġsitu": 1198,
      "Ġdisp": 1199,
      "Ġparticuli": 1200,
      "Ġnot": 1201,
      "Ġchaque": 1202,
      "ud": 1203,
      "ĠlÃ©g": 1204,
      "port": 1205,
      "ines": 1206,
      "Ġinform": 1207,
      "quÃ©": 1208,
      "Ġfer": 1209,
      "Ġcompte": 1210,
      "Ġderni": 1211,
      "Ġpres": 1212,
      "Ã©d": 1213,
      "Ġinst": 1214,
      "ĠtÃ©lÃ©": 1215,
      "Ġ18": 1216,
      "omb": 1217,
      "Ġmus": 1218,
      "000": 1219,
      "Ġmois": 1220,
      "Ġpeuvent": 1221,
      "Ġbi": 1222,
      "istre": 1223,
      "ode": 1224,
      "anti": 1225,
      "Ġprogram": 1226,
      "Ġgar": 1227,
      "Ġcul": 1228,
      "jourd": 1229,
      "Ġnouveau": 1230,
      "Â«": 1231,
      "Ã´le": 1232,
      "ĠÂ»,": 1233,
      "Ġk": 1234,
      "Ġci": 1235,
      "sident": 1236,
      "sions": 1237,
      "act": 1238,
      "ww": 1239,
      "Ġrapport": 1240,
      "ĠrÃ©alis": 1241,
      "Ġjusqu": 1242,
      "Ġ10": 1243,
      "ĠeuropÃ©": 1244,
      "Ġfam": 1245,
      "Ġphot": 1246,
      "Ġreg": 1247,
      "iti": 1248,
      "cont": 1249,
      "lar": 1250,
      "raph": 1251,
      "oli": 1252,
      "Ġsouv": 1253,
      "ĠpremiÃ¨re": 1254,
      "Ġcoup": 1255,
      "Ġmoy": 1256,
      "Ġloc": 1257,
      "mande": 1258,
      "ative": 1259,
      "Ġof": 1260,
      "oix": 1261,
      "ĠprÃ©c": 1262,
      "ĠTh": 1263,
      "Ġquand": 1264,
      "In": 1265,
      "Ã©cur": 1266,
      "ĠnÃ©cess": 1267,
      "adi": 1268,
      "ĠdÃ©veloppement": 1269,
      "Ġnive": 1270,
      "Ġfra": 1271,
      "fs": 1272,
      "Ġgouver": 1273,
      "Ã©b": 1274,
      "Ġmati": 1275,
      "Ġprofes": 1276,
      "erg": 1277,
      "oris": 1278,
      "Ġvol": 1279,
      "Ġbeaucoup": 1280,
      "Ġdispo": 1281,
      "ili": 1282,
      "Ġexemp": 1283,
      "atique": 1284,
      "cri": 1285,
      "Ġmom": 1286,
      "Je": 1287,
      "Ġcan": 1288,
      "ell": 1289,
      "Ġcours": 1290,
      "ĠSi": 1291,
      "pect": 1292,
      "tifs": 1293,
      "Ġro": 1294,
      "Ġafin": 1295,
      "Ã¯": 1296,
      "asse": 1297,
      "Ġgrande": 1298,
      "gl": 1299,
      "ĠÂ».": 1300,
      "ĠsystÃ¨me": 1301,
      "ath": 1302,
      "ouvez": 1303,
      "olution": 1304,
      "Ġpolitique": 1305,
      "cc": 1306,
      "ĠdÃ©s": 1307,
      "Ġtu": 1308,
      "ĠAu": 1309,
      "Ã¨ne": 1310,
      "Ġprincip": 1311,
      "Ġ9": 1312,
      "enir": 1313,
      "vous": 1314,
      "bles": 1315,
      "Ġchez": 1316,
      "az": 1317,
      "Ġceux": 1318,
      "ĠannÃ©es": 1319,
      "Ġdroit": 1320,
      "ĠÃī": 1321,
      "Ġinternation": 1322,
      "su": 1323,
      "ĠreprÃ©sent": 1324,
      "Ġorganis": 1325,
      "rir": 1326,
      "illes": 1327,
      "Ã©li": 1328,
      "Ġsoi": 1329,
      "Ġmoi": 1330,
      "ande": 1331,
      "Ġbes": 1332,
      "Ġpoint": 1333,
      "Ġentrepr": 1334,
      "pul": 1335,
      "Ã¨g": 1336,
      "unes": 1337,
      "Ġpra": 1338,
      "Ġloi": 1339,
      "Ġlib": 1340,
      "uire": 1341,
      "Ġtechn": 1342,
      "ĠUne": 1343,
      "Ġvoir": 1344,
      "Ġvrai": 1345,
      "Ġcomment": 1346,
      "ger": 1347,
      "ade": 1348,
      "Ġservices": 1349,
      "Ġnouvelle": 1350,
      "Ġjourn": 1351,
      "Ġmeille": 1352,
      "pons": 1353,
      "Ġjam": 1354,
      "ĠÃ©conom": 1355,
      "aur": 1356,
      "eurs": 1357,
      "Ġjeu": 1358,
      "anci": 1359,
      "iens": 1360,
      "Ã©l": 1361,
      "vant": 1362,
      "Ġmise": 1363,
      "ĠlÃł": 1364,
      "ĠX": 1365,
      "Ġmodif": 1366,
      "aff": 1367,
      "Ġparf": 1368,
      "Ġcelui": 1369,
      "nent": 1370,
      "Ġinf": 1371,
      "ieu": 1372,
      "ĠsÃ©cur": 1373,
      "Ġsais": 1374,
      "Ġavons": 1375,
      "ĠElle": 1376,
      "omm": 1377,
      "Ġplan": 1378,
      "Ġservice": 1379,
      "Ġmod": 1380,
      "Ã¨rement": 1381,
      "Ġpouvoir": 1382,
      "Ġpi": 1383,
      "orti": 1384,
      "Ġdou": 1385,
      "tien": 1386,
      "quipe": 1387,
      "ĠÃ©tu": 1388,
      "Ġrais": 1389,
      "Ã©p": 1390,
      "comp": 1391,
      "Ġcolle": 1392,
      "Ġligne": 1393,
      "Ġnature": 1394,
      "ribu": 1395,
      "ront": 1396,
      "Ġeffet": 1397,
      "Ġatt": 1398,
      "Ġjours": 1399,
      "Ġfut": 1400,
      "atri": 1401,
      "Ġmoment": 1402,
      "ĠCan": 1403,
      "Ġdoc": 1404,
      "ograph": 1405,
      "seil": 1406,
      "ĠDans": 1407,
      "cul": 1408,
      "Ġdirec": 1409,
      "ĠY": 1410,
      "Ġnotamment": 1411,
      "Ġdemand": 1412,
      "Ġcent": 1413,
      "ĠPro": 1414,
      "Ġlieu": 1415,
      "ĠintÃ©": 1416,
      "Ġess": 1417,
      "lig": 1418,
      "inform": 1419,
      "ach": 1420,
      "ak": 1421,
      "Ġsavoir": 1422,
      "Ã§on": 1423,
      "cle": 1424,
      "Ġquestion": 1425,
      "nier": 1426,
      "istoire": 1427,
      "Ġcontin": 1428,
      "era": 1429,
      "Ġgroupe": 1430,
      "ov": 1431,
      "Ġcad": 1432,
      "Ġret": 1433,
      "Ġtrop": 1434,
      "Ġrecherche": 1435,
      "Ġprix": 1436,
      "Ġauc": 1437,
      "Ġpor": 1438,
      "mbl": 1439,
      "Ġniveau": 1440,
      "ust": 1441,
      "Ġz": 1442,
      "Ġarri": 1443,
      "ĠRe": 1444,
      "Ġcher": 1445,
      "Ġor": 1446,
      "ada": 1447,
      "Ã»t": 1448,
      "ĠVous": 1449,
      "yp": 1450,
      "Ġeu": 1451,
      "Ã©tait": 1452,
      "ditions": 1453,
      "Ã©f": 1454,
      "Ġ199": 1455,
      "ĠcÃ´": 1456,
      "vez": 1457,
      "Ġpendant": 1458,
      "Ġand": 1459,
      "Ġdernier": 1460,
      "Ġrien": 1461,
      "jec": 1462,
      "onnement": 1463,
      "Ġjamais": 1464,
      "idÃ©": 1465,
      "Ġ15": 1466,
      "inter": 1467,
      "tÃ©e": 1468,
      "Ġproduits": 1469,
      "Ġfi": 1470,
      "til": 1471,
      "Ġenfants": 1472,
      "iÃ¨me": 1473,
      "Ġbou": 1474,
      "Ġprom": 1475,
      "rage": 1476,
      "ager": 1477,
      "Ġselon": 1478,
      "art": 1479,
      "Ġpetit": 1480,
      "xte": 1481,
      "Ġmettre": 1482,
      "ĠdÃ©m": 1483,
      "Ġid": 1484,
      "Ġto": 1485,
      "Ġpouvez": 1486,
      "Ġexemple": 1487,
      "Ġhum": 1488,
      "ĠCette": 1489,
      "ER": 1490,
      "vÃ©": 1491,
      "aud": 1492,
      "Ġrespons": 1493,
      "Ġvoy": 1494,
      "ĠmÃ©t": 1495,
      "eures": 1496,
      "Ġcontra": 1497,
      "tent": 1498,
      "antÃ©": 1499,
      "lex": 1500,
      "ĠrÃ©gion": 1501,
      "Ġ20": 1502,
      "Ġconstitu": 1503,
      "Ã©rÃ©": 1504,
      "ĠParis": 1505,
      "dition": 1506,
      "Ġdemande": 1507,
      "Ġsem": 1508,
      "tout": 1509,
      "Ġsol": 1510,
      "amb": 1511,
      "tenir": 1512,
      "Ġlog": 1513,
      "AN": 1514,
      "Ġten": 1515,
      "Ġsouvent": 1516,
      "ht": 1517,
      "Ġsau": 1518,
      "mbres": 1519,
      "Ġville": 1520,
      "iller": 1521,
      "Ġtour": 1522,
      "Ġcelle": 1523,
      "part": 1524,
      "jou": 1525,
      "Ã©rence": 1526,
      "co": 1527,
      "Ġcin": 1528,
      "ubli": 1529,
      "ĠdonnÃ©es": 1530,
      "ĠrÃ©sul": 1531,
      "Ġcomb": 1532,
      "Ġprendre": 1533,
      "ĠsÃ©curitÃ©": 1534,
      "Ġsub": 1535,
      "Ã¢ce": 1536,
      "Ġpopul": 1537,
      "onde": 1538,
      "hait": 1539,
      "Ġport": 1540,
      "ret": 1541,
      "Ġaujourd": 1542,
      "Ġouv": 1543,
      "ps": 1544,
      "Ġtant": 1545,
      "Ã¨le": 1546,
      "cien": 1547,
      "autre": 1548,
      "\",": 1549,
      "Ġris": 1550,
      "Ġ,": 1551,
      "ah": 1552,
      "Ġfais": 1553,
      "Ġ%": 1554,
      "resse": 1555,
      "cture": 1556,
      "Ġcertains": 1557,
      "Ġsouhait": 1558,
      "Ġsuite": 1559,
      "action": 1560,
      "tivitÃ©s": 1561,
      "Ġai": 1562,
      "dent": 1563,
      "Ġ.": 1564,
      "Ġpris": 1565,
      "ug": 1566,
      "mission": 1567,
      "Ġreste": 1568,
      "for": 1569,
      "uit": 1570,
      "aint": 1571,
      "EN": 1572,
      "Ġconsid": 1573,
      "ression": 1574,
      "Ġ12": 1575,
      "amp": 1576,
      "Ġseul": 1577,
      "tenant": 1578,
      "air": 1579,
      "Ġmieux": 1580,
      "//": 1581,
      "ĠrÃ©se": 1582,
      "Ġcode": 1583,
      "eff": 1584,
      "Ġ2012": 1585,
      "tivitÃ©": 1586,
      "Ġcr": 1587,
      "vec": 1588,
      "Ġgouvernement": 1589,
      "ĠprÃ©v": 1590,
      "Åĵu": 1591,
      "od": 1592,
      "Ġesp": 1593,
      "Ġactu": 1594,
      "ologie": 1595,
      "Ã©ric": 1596,
      "Ġappar": 1597,
      "venir": 1598,
      "Ġop": 1599,
      "Ce": 1600,
      "Ġparticip": 1601,
      "duc": 1602,
      "ke": 1603,
      "Ġhab": 1604,
      "Ġrencont": 1605,
      "lÃ©ment": 1606,
      "pec": 1607,
      "Ġtrouve": 1608,
      "Ġici": 1609,
      "Ġpossible": 1610,
      "Ġcou": 1611,
      "rie": 1612,
      "uc": 1613,
      "Ġple": 1614,
      "vient": 1615,
      "ĠAr": 1616,
      "tier": 1617,
      "iles": 1618,
      "Ġmondi": 1619,
      "Ġmembres": 1620,
      "Ã©qu": 1621,
      "lique": 1622,
      "Ġavez": 1623,
      "dement": 1624,
      "inst": 1625,
      "vier": 1626,
      "Ġ0": 1627,
      "Ġprofessionn": 1628,
      "cl": 1629,
      "ĠpÃ©ri": 1630,
      "ĠbÃ©n": 1631,
      "rique": 1632,
      "lication": 1633,
      "Ġremp": 1634,
      "TI": 1635,
      "ile": 1636,
      "rier": 1637,
      "cer": 1638,
      "Ġseulement": 1639,
      "Ġculture": 1640,
      "ettes": 1641,
      "Ġsens": 1642,
      "ĠDes": 1643,
      "Ġretr": 1644,
      "Ġjeunes": 1645,
      "ĊĊ": 1646,
      "ame": 1647,
      "Ġ[": 1648,
      "Ġref": 1649,
      "ĠsÃ©ri": 1650,
      "ĠÃ©p": 1651,
      "Ġsign": 1652,
      "Ġdispon": 1653,
      "Ġcadre": 1654,
      "ĠqualitÃ©": 1655,
      "atis": 1656,
      "Ġfl": 1657,
      "Ġsujet": 1658,
      "ivers": 1659,
      "oires": 1660,
      "oud": 1661,
      "Ġfac": 1662,
      "ĠgÃ©nÃ©ral": 1663,
      "je": 1664,
      "be": 1665,
      "ĠdÃ©t": 1666,
      "aly": 1667,
      "ĠsociÃ©tÃ©": 1668,
      "alitÃ©s": 1669,
      "Ġense": 1670,
      "ossi": 1671,
      "Ġdoi": 1672,
      "Ġveu": 1673,
      "ible": 1674,
      "Ġpersonne": 1675,
      "Ġ|": 1676,
      "Ã©ro": 1677,
      "Ġdocu": 1678,
      "vention": 1679,
      "Ġall": 1680,
      "Ġress": 1681,
      "Ġdroits": 1682,
      "Ġmag": 1683,
      "urope": 1684,
      "istes": 1685,
      "anger": 1686,
      "isme": 1687,
      "Ġpartir": 1688,
      "Ġlim": 1689,
      "ĠfaÃ§on": 1690,
      "ds": 1691,
      "abilitÃ©": 1692,
      "Ġbonne": 1693,
      "ĠmaniÃ¨re": 1694,
      "ote": 1695,
      "endu": 1696,
      "Ġcontr": 1697,
      "ĠprÃ©sident": 1698,
      "ges": 1699,
      "ĠsiÃ¨": 1700,
      "itaire": 1701,
      "Ġconcern": 1702,
      "Ġsour": 1703,
      "19": 1704,
      "Dans": 1705,
      "Ġcri": 1706,
      "Â°": 1707,
      "ess": 1708,
      "Ġenvir": 1709,
      "Ġcal": 1710,
      "Ġmillions": 1711,
      "intÃ©": 1712,
      "Ġenv": 1713,
      "201": 1714,
      "article": 1715,
      "uss": 1716,
      "Ġsurtout": 1717,
      "isse": 1718,
      "Ġseront": 1719,
      "Ch": 1720,
      "Ġchois": 1721,
      "illet": 1722,
      "bilitÃ©": 1723,
      "iers": 1724,
      "quoi": 1725,
      "mment": 1726,
      "ĠJean": 1727,
      "ax": 1728,
      "prise": 1729,
      "oles": 1730,
      "ĠrÃ¨g": 1731,
      "Si": 1732,
      "tention": 1733,
      "oration": 1734,
      "Ġreconn": 1735,
      "Ar": 1736,
      "suite": 1737,
      "Une": 1738,
      "Ġnum": 1739,
      "Ġpens": 1740,
      "ĠdÃ©but": 1741,
      "ĠZ": 1742,
      "Au": 1743,
      "Al": 1744,
      "att": 1745,
      "ĠdÃ©fin": 1746,
      "Ġprogramme": 1747,
      "minist": 1748,
      "vÃ©e": 1749,
      "ĠIls": 1750,
      "\".": 1751,
      "Ġexc": 1752,
      "Ġrou": 1753,
      "Ġfemmes": 1754,
      "urer": 1755,
      "ĠsantÃ©": 1756,
      "Ġtot": 1757,
      "Ġvoi": 1758,
      "ĠQ": 1759,
      "Ġtrouver": 1760,
      "Ġserait": 1761,
      "Ġforme": 1762,
      "Ġrapi": 1763,
      "Ġmer": 1764,
      "ĠdÃ©couv": 1765,
      "vres": 1766,
      "Ġconstru": 1767,
      "Ġfilm": 1768,
      "Ġsorti": 1769,
      "Ġvue": 1770,
      "fi": 1771,
      "!!": 1772,
      "Ġvale": 1773,
      "arm": 1774,
      "ĠSt": 1775,
      "Ġmul": 1776,
      "Ġbase": 1777,
      "Ġparce": 1778,
      "ordin": 1779,
      "ook": 1780,
      "oritÃ©": 1781,
      "avant": 1782,
      "yn": 1783,
      "Ġconten": 1784,
      "Ġeng": 1785,
      "pÃ©ra": 1786,
      "Ã´tel": 1787,
      "agit": 1788,
      "De": 1789,
      "Ġ17": 1790,
      "Ġmaj": 1791,
      "ition": 1792,
      "Ġ000": 1793,
      "ast": 1794,
      "ĠrÃ©c": 1795,
      "ĠgrÃ¢ce": 1796,
      "Ġgl": 1797,
      "Ġrev": 1798,
      "Ġtrouv": 1799,
      "atre": 1800,
      "ĠrÃ©pond": 1801,
      "ras": 1802,
      "Nous": 1803,
      "ack": 1804,
      "duction": 1805,
      "Ġministre": 1806,
      "tp": 1807,
      "Ġsp": 1808,
      "Ġeffec": 1809,
      "quel": 1810,
      "Ġbesoin": 1811,
      "Ġchose": 1812,
      "Ġ30": 1813,
      "Ġsep": 1814,
      "ĠÃ©lect": 1815,
      "gment": 1816,
      "ĠvidÃ©": 1817,
      "Par": 1818,
      "Ġdist": 1819,
      "Ã©ment": 1820,
      "duire": 1821,
      "ĠannÃ©e": 1822,
      "Ġtitre": 1823,
      "Ġtravers": 1824,
      "10": 1825,
      "ĠcompÃ©": 1826,
      "rom": 1827,
      "An": 1828,
      "Ġnouvelles": 1829,
      "Ġempl": 1830,
      "orer": 1831,
      "Ġdisc": 1832,
      "gu": 1833,
      "ype": 1834,
      "://": 1835,
      "ĠmarchÃ©": 1836,
      "Ġlang": 1837,
      "ĠÃ©ch": 1838,
      "isc": 1839,
      "Ġchoix": 1840,
      "Vous": 1841,
      "Ġfourn": 1842,
      "Ġassoci": 1843,
      "Ġconditions": 1844,
      "Ġnombreux": 1845,
      "IS": 1846,
      "Ġappel": 1847,
      "Ġind": 1848,
      "Ġsituation": 1849,
      "Ġchange": 1850,
      "Ġsommes": 1851,
      "pendant": 1852,
      "II": 1853,
      "Ġven": 1854,
      "aÃ®tre": 1855,
      "Ġvoit": 1856,
      "AR": 1857,
      "dit": 1858,
      "ĠprocÃ©": 1859,
      "ĠCar": 1860,
      "Ġformation": 1861,
      "aissance": 1862,
      "ablis": 1863,
      "exp": 1864,
      "Ġdevant": 1865,
      "ĠbÃ©nÃ©f": 1866,
      "ĠÃ©taient": 1867,
      "crip": 1868,
      "Ġcollec": 1869,
      "Ġeux": 1870,
      "ĠdÃ©clar": 1871,
      "lection": 1872,
      "Ġproch": 1873,
      "assi": 1874,
      "Ġis": 1875,
      "itement": 1876,
      "ĠNe": 1877,
      "UR": 1878,
      "Ġelles": 1879,
      "ĠCanada": 1880,
      "ĠdÃ©cis": 1881,
      "rÃªt": 1882,
      "ry": 1883,
      "ĠmatiÃ¨re": 1884,
      "oh": 1885,
      "Ġpoin": 1886,
      "ner": 1887,
      "ox": 1888,
      "atives": 1889,
      "ĠprÃ¨s": 1890,
      "yant": 1891,
      "Ġsuiv": 1892,
      "Ġ2011": 1893,
      "erre": 1894,
      "Ã©rer": 1895,
      "Ġfamille": 1896,
      "esp": 1897,
      "Ġsuff": 1898,
      "Ġ16": 1899,
      "ailleurs": 1900,
      "Ġfont": 1901,
      "Ġpasse": 1902,
      "ane": 1903,
      "oth": 1904,
      "ela": 1905,
      "Ġinformations": 1906,
      "Ġ/": 1907,
      "ternet": 1908,
      "Ġvoul": 1909,
      "ones": 1910,
      "----": 1911,
      "Ġface": 1912,
      "tÃ©rieur": 1913,
      "Ġheures": 1914,
      "sitions": 1915,
      "asion": 1916,
      "ĠcÃ´tÃ©": 1917,
      "sence": 1918,
      "orts": 1919,
      "vo": 1920,
      "Ġconsul": 1921,
      "val": 1922,
      "riÃ¨re": 1923,
      "lÃ¨me": 1924,
      "Ġporte": 1925,
      "lab": 1926,
      "Ġ14": 1927,
      "Ġfinanci": 1928,
      "Ġ2013": 1929,
      "issance": 1930,
      "Ġvraiment": 1931,
      "Ġdoivent": 1932,
      "Ġ11": 1933,
      "Ġparten": 1934,
      "Ġques": 1935,
      "Ġdess": 1936,
      "Ġquelque": 1937,
      "ards": 1938,
      "Ġpage": 1939,
      "Ġbr": 1940,
      "ueil": 1941,
      "atif": 1942,
      "ĠConseil": 1943,
      "ĠdÃ©ci": 1944,
      "Ã©cu": 1945,
      "Ġcamp": 1946,
      "aise": 1947,
      "nif": 1948,
      "IN": 1949,
      "gÃ©": 1950,
      "Ġfich": 1951,
      "ĠSaint": 1952,
      "ĠprÃ©cis": 1953,
      "Ġhaut": 1954,
      "Ġentreprises": 1955,
      "ĠPh": 1956,
      "Ġcir": 1957,
      "ĠprÃ©f": 1958,
      "Ġmesure": 1959,
      "mÃªme": 1960,
      "grÃ©": 1961,
      "ĠvÃ©r": 1962,
      "Ġdonner": 1963,
      "Ġraison": 1964,
      "Ġcommis": 1965,
      "ĠproblÃ¨me": 1966,
      "raient": 1967,
      "ock": 1968,
      "uri": 1969,
      "Ġproduit": 1970,
      "ice": 1971,
      "Ġassez": 1972,
      "oph": 1973,
      "chi": 1974,
      "isation": 1975,
      "ĠdÃ¨s": 1976,
      "Ġuti": 1977,
      "tection": 1978,
      "uerre": 1979,
      "osition": 1980,
      "Ġbar": 1981,
      "Ġterrit": 1982,
      "Ã¨te": 1983,
      "Ġviol": 1984,
      "information": 1985,
      "aute": 1986,
      "Ġpourrait": 1987,
      "ĠCes": 1988,
      "ital": 1989,
      "Ġsimple": 1990,
      "ĠMont": 1991,
      "orter": 1992,
      "ensemble": 1993,
      "Ġmaintenant": 1994,
      "lles": 1995,
      "Ġ13": 1996,
      "Ġbut": 1997,
      "alisation": 1998,
      "Ġmat": 1999,
      "50": 2000,
      "empl": 2001,
      "Ġmob": 2002,
      "Ġdestin": 2003,
      "âĢĿ": 2004,
      "Et": 2005,
      "Ġcer": 2006,
      "Ġversion": 2007,
      "rop": 2008,
      "Ġpropose": 2009,
      "Ġgratu": 2010,
      "Ã©rique": 2011,
      "ed": 2012,
      "ception": 2013,
      "Ġunique": 2014,
      "ĠdÃ©si": 2015,
      "ĠMon": 2016,
      "erts": 2017,
      "Ġquatre": 2018,
      "Ġvic": 2019,
      "Ġ...": 2020,
      "Ġplu": 2021,
      "Ġgestion": 2022,
      "ĠrÃ©v": 2023,
      "oses": 2024,
      "aces": 2025,
      "utÃ´t": 2026,
      "Ġanim": 2027,
      "acitÃ©": 2028,
      "off": 2029,
      "ia": 2030,
      "ĠdÃ©pl": 2031,
      "urent": 2032,
      "lir": 2033,
      "Ġquestions": 2034,
      "aÃ®t": 2035,
      "ĠrÃ©un": 2036,
      "ĠmÃ©di": 2037,
      "rain": 2038,
      "ly": 2039,
      "Ġcommen": 2040,
      "ĠsÃ©rie": 2041,
      "Ġpasser": 2042,
      "ĠeuropÃ©enne": 2043,
      "reg": 2044,
      "Ġfaci": 2045,
      "Ġgens": 2046,
      "Ã©ration": 2047,
      "ienne": 2048,
      "Ġreven": 2049,
      "annÃ©e": 2050,
      "Ã¨rent": 2051,
      "Ġhommes": 2052,
      "On": 2053,
      "cre": 2054,
      "Ġdonne": 2055,
      "issant": 2056,
      "rant": 2057,
      "Ġsus": 2058,
      "oign": 2059,
      "con": 2060,
      "ĠnÃ©g": 2061,
      "Ġcompos": 2062,
      "Ġmess": 2063,
      "Ġcit": 2064,
      "uli": 2065,
      "rement": 2066,
      "Ġaid": 2067,
      "Ġcentre": 2068,
      "rÃ¨s": 2069,
      "ĠsÃ»": 2070,
      "ĠSe": 2071,
      "ierre": 2072,
      "Ġetc": 2073,
      "pÃ©ration": 2074,
      "ting": 2075,
      "ĠdiffÃ©rents": 2076,
      "mÃ©di": 2077,
      "dez": 2078,
      "Ġlarge": 2079,
      "Ġnouveaux": 2080,
      "Ġval": 2081,
      "ĠÃ©conomique": 2082,
      "Ġpetite": 2083,
      "quelle": 2084,
      "Ã¨mes": 2085,
      "usement": 2086,
      "aul": 2087,
      "fois": 2088,
      "voir": 2089,
      "ĠrÃ´le": 2090,
      "homme": 2091,
      "ĠÃ©n": 2092,
      "200": 2093,
      "Ġminu": 2094,
      "Ã©ch": 2095,
      "Ġdivers": 2096,
      "aÃ¯": 2097,
      "Ġparc": 2098,
      "icile": 2099,
      "Ġmai": 2100,
      "agement": 2101,
      "ĠplutÃ´t": 2102,
      "ĠÅĵu": 2103,
      "Ġlorsque": 2104,
      "temps": 2105,
      "oÃ»t": 2106,
      "uel": 2107,
      "vid": 2108,
      "ensi": 2109,
      "Ġnationale": 2110,
      "Ġprog": 2111,
      "Ġ2010": 2112,
      "ĠrÃ©seau": 2113,
      "30": 2114,
      "Ġaccord": 2115,
      "12": 2116,
      "Ġach": 2117,
      "inf": 2118,
      "ĠamÃ©ric": 2119,
      "Ġmulti": 2120,
      "RE": 2121,
      "Ġpolitiques": 2122,
      "ancer": 2123,
      "Ġobjec": 2124,
      "duit": 2125,
      "Ġatte": 2126,
      "Ġstra": 2127,
      "aide": 2128,
      "men": 2129,
      "Ġfemme": 2130,
      "Ġtexte": 2131,
      "Ġobli": 2132,
      "Ġlaquelle": 2133,
      "Ġoffici": 2134,
      "Ġquoi": 2135,
      "ablement": 2136,
      "Unis": 2137,
      "Ġcause": 2138,
      "Ġvu": 2139,
      "rig": 2140,
      "onomie": 2141,
      "ft": 2142,
      "Ġrend": 2143,
      "Ã«": 2144,
      "ril": 2145,
      "Ġmaison": 2146,
      "ĠmÃ©dic": 2147,
      "Ġmodifier": 2148,
      "ĠderniÃ¨re": 2149,
      "ĠactivitÃ©s": 2150,
      "Ġpropri": 2151,
      "pÃ©rience": 2152,
      "Ġcharge": 2153,
      "Ġdomaine": 2154,
      "orme": 2155,
      "Ġlit": 2156,
      "ĠEx": 2157,
      "Ġgaranti": 2158,
      "Ġtype": 2159,
      "ime": 2160,
      "Ġconse": 2161,
      "Ġjuin": 2162,
      "TE": 2163,
      "ĠreÃ§": 2164,
      "ĠÃ©tudi": 2165,
      "Ġmot": 2166,
      "histoire": 2167,
      "oser": 2168,
      "rais": 2169,
      "Ġcorps": 2170,
      "Ġsemble": 2171,
      "Ġjuste": 2172,
      "ĠnÃ©cessaire": 2173,
      "he": 2174,
      "Ġinv": 2175,
      "hi": 2176,
      "mun": 2177,
      "ĠâĢľ": 2178,
      "ton": 2179,
      "Ġtrava": 2180,
      "Ġparticulier": 2181,
      "Ġgen": 2182,
      "Ġimportant": 2183,
      "Ġpai": 2184,
      "Ġchac": 2185,
      "20": 2186,
      "eng": 2187,
      "Ġcertaines": 2188,
      "Ġcommunau": 2189,
      "Ġcoule": 2190,
      "ule": 2191,
      "tembre": 2192,
      "dro": 2193,
      "Ġcommerci": 2194,
      "ources": 2195,
      "vision": 2196,
      "prit": 2197,
      "Ġali": 2198,
      "Ġarticle": 2199,
      "Ġconte": 2200,
      "....": 2201,
      "atiques": 2202,
      "Ġlogici": 2203,
      "ĠcrÃ©ation": 2204,
      "sse": 2205,
      "tÃ©es": 2206,
      "Ġaccomp": 2207,
      "ennes": 2208,
      "Ġterme": 2209,
      "Ġaucun": 2210,
      "obre": 2211,
      "lo": 2212,
      "oun": 2213,
      "Ġgrands": 2214,
      "ĠPrÃ©": 2215,
      "Ġchoses": 2216,
      "Ġ25": 2217,
      "utilisation": 2218,
      "dre": 2219,
      "ibles": 2220,
      "Ġayant": 2221,
      "Ġprend": 2222,
      "dess": 2223,
      "Ġpie": 2224,
      "abord": 2225,
      "Ġtourn": 2226,
      "Ġpense": 2227,
      "Ġmort": 2228,
      "anvier": 2229,
      "ĠÃĢ": 2230,
      "Ġprotection": 2231,
      "Ġjeune": 2232,
      "Ġcarte": 2233,
      "cembre": 2234,
      "Ġpratique": 2235,
      "tives": 2236,
      "ordre": 2237,
      "Ġmode": 2238,
      "Ġlivre": 2239,
      "enf": 2240,
      "Ġensuite": 2241,
      "Ġretour": 2242,
      "Cette": 2243,
      "ork": 2244,
      "ĠÃ©tran": 2245,
      "Ġconsomm": 2246,
      "Ġfav": 2247,
      "xim": 2248,
      "Ġfeu": 2249,
      "11": 2250,
      "nivers": 2251,
      "Ġseule": 2252,
      "Ġmor": 2253,
      "veur": 2254,
      "Ġgros": 2255,
      "ĠThe": 2256,
      "dio": 2257,
      "tient": 2258,
      "fr": 2259,
      "Ġblog": 2260,
      "istor": 2261,
      "ĠrÃ©serv": 2262,
      "ĠthÃ©": 2263,
      "heure": 2264,
      "ĠÃ©lÃ©": 2265,
      "Ġchi": 2266,
      "oins": 2267,
      "Ġvo": 2268,
      "Ġvari": 2269,
      "Ġnorm": 2270,
      "ĠmatÃ©ri": 2271,
      "ĠDE": 2272,
      "tie": 2273,
      "ĠGr": 2274,
      "aliste": 2275,
      "OM": 2276,
      "Ġtemp": 2277,
      "Ġsein": 2278,
      "Ã©tu": 2279,
      "son": 2280,
      "Ġsemaine": 2281,
      "Ġweb": 2282,
      "indre": 2283,
      "Ġconne": 2284,
      "ĠbÃ©nÃ©fici": 2285,
      "Ġsyn": 2286,
      "ok": 2287,
      "lise": 2288,
      "ows": 2289,
      "Ãªmes": 2290,
      "ĠcrÃ©er": 2291,
      "Ġcharg": 2292,
      "Ġproduction": 2293,
      "cteur": 2294,
      "tim": 2295,
      "ĠÃ©tant": 2296,
      "ĠstratÃ©g": 2297,
      "www": 2298,
      "Ġmesures": 2299,
      "ĠpÃ©riode": 2300,
      "ze": 2301,
      "Ġguerre": 2302,
      "chÃ©s": 2303,
      "rim": 2304,
      "Ġpropre": 2305,
      "ĠÃītats": 2306,
      "ticles": 2307,
      "vembre": 2308,
      "Ġregard": 2309,
      "urg": 2310,
      "Ġvisite": 2311,
      "Ġeffic": 2312,
      "inc": 2313,
      "Ġsuper": 2314,
      "ĠPl": 2315,
      "Ġsites": 2316,
      "occ": 2317,
      "oupes": 2318,
      "Ġrecom": 2319,
      "Ġlut": 2320,
      "Ġrepr": 2321,
      "ĠsiÃ¨cle": 2322,
      "Ġus": 2323,
      "ĠtÃªte": 2324,
      "ĠSer": 2325,
      "Ã¨tres": 2326,
      "let": 2327,
      "lier": 2328,
      "seur": 2329,
      "Ġsecond": 2330,
      "ĠcontrÃ´le": 2331,
      "ith": 2332,
      "ocra": 2333,
      "Ġaurait": 2334,
      "ses": 2335,
      "Ġvoyage": 2336,
      "IC": 2337,
      "auteur": 2338,
      "ĠÃ©quipe": 2339,
      "Ã©quipe": 2340,
      "itaires": 2341,
      "Ġmari": 2342,
      "Ġoffre": 2343,
      "Ġbout": 2344,
      "LE": 2345,
      "vement": 2346,
      "niques": 2347,
      "Ġprocess": 2348,
      "quent": 2349,
      "Ġunivers": 2350,
      "ĠfranÃ§aise": 2351,
      "ĠDieu": 2352,
      "iner": 2353,
      "oyer": 2354,
      "lÃ¨mes": 2355,
      "Ġveut": 2356,
      "Ġoct": 2357,
      "ki": 2358,
      "Ġautom": 2359,
      "Ġcommission": 2360,
      "Ġ2009": 2361,
      "ĠdiffÃ©rentes": 2362,
      "Ġautour": 2363,
      "ĠprÃª": 2364,
      "Ġbat": 2365,
      "Ġvient": 2366,
      "ĠpassÃ©": 2367,
      "Ġloin": 2368,
      "Ġfort": 2369,
      "Ġpourquoi": 2370,
      "rÃ©t": 2371,
      "Ġdevrait": 2372,
      "Ġstru": 2373,
      "Ġpoints": 2374,
      "ity": 2375,
      "Ġban": 2376,
      "tice": 2377,
      "Ġdiffic": 2378,
      "Ġnombreuses": 2379,
      "Ġrendre": 2380,
      "Com": 2381,
      "raÃ®": 2382,
      "Ġorig": 2383,
      "pond": 2384,
      "Ġdocument": 2385,
      "rand": 2386,
      "Ġprojets": 2387,
      "Ġjuillet": 2388,
      "ĠconsÃ©qu": 2389,
      "Ġparfait": 2390,
      "Ġvaleur": 2391,
      "Ġmouve": 2392,
      "Ġmars": 2393,
      "Ġjanvier": 2394,
      "Ġseptembre": 2395,
      "ĠdÃ©cembre": 2396,
      "Ġ&": 2397,
      "Ġrem": 2398,
      "Ġ24": 2399,
      "Ġadop": 2400,
      "ĠrÃ©sultats": 2401,
      "Ġparfois": 2402,
      "envir": 2403,
      "ĠInternet": 2404,
      "Mais": 2405,
      "Ġsex": 2406,
      "iance": 2407,
      "ĠauprÃ¨s": 2408,
      "AC": 2409,
      "time": 2410,
      "Ã©bec": 2411,
      "ĠÃ©qui": 2412,
      "tez": 2413,
      "onse": 2414,
      "rÃ©es": 2415,
      "iser": 2416,
      "quant": 2417,
      "ĠpÃ©n": 2418,
      "ĠvidÃ©o": 2419,
      "ĠEtats": 2420,
      "ĠDi": 2421,
      "Ġmoyens": 2422,
      "Ġprocessus": 2423,
      "vie": 2424,
      "Ġpol": 2425,
      "oti": 2426,
      "up": 2427,
      "urb": 2428,
      "ploit": 2429,
      "orig": 2430,
      "Ġaucune": 2431,
      "Ġfai": 2432,
      "Ġartis": 2433,
      "Ġliste": 2434,
      "ĠprÃ©sente": 2435,
      "ĠproblÃ¨mes": 2436,
      "ologique": 2437,
      "Ġclients": 2438,
      "Ġfix": 2439,
      "Ġchamp": 2440,
      "auche": 2441,
      "Ġiniti": 2442,
      "ĠmÃ©th": 2443,
      "Ġdoute": 2444,
      "Ġeffectu": 2445,
      "lin": 2446,
      "Ġtent": 2447,
      "ys": 2448,
      "illeurs": 2449,
      "alog": 2450,
      "__": 2451,
      "UE": 2452,
      "Ġappr": 2453,
      "aci": 2454,
      "ĠopÃ©ra": 2455,
      "Ġcompris": 2456,
      "ĠsupÃ©ri": 2457,
      "Ġtable": 2458,
      "Ġphotos": 2459,
      "Ġrisque": 2460,
      "Ġterre": 2461,
      "Ġlais": 2462,
      "cipe": 2463,
      "Ġavaient": 2464,
      "Ġprise": 2465,
      "Ġcontribu": 2466,
      "Ġsoient": 2467,
      "iÃ©": 2468,
      "phone": 2469,
      "ditionn": 2470,
      "Ġhomme": 2471,
      "eter": 2472,
      "Etat": 2473,
      "Ġtest": 2474,
      "Ġpublique": 2475,
      "Ġnovembre": 2476,
      "ome": 2477,
      "Ġpriv": 2478,
      "ĠpiÃ¨": 2479,
      "Ġmoyen": 2480,
      "Ġpetits": 2481,
      "Ġsig": 2482,
      "Ġminutes": 2483,
      "ase": 2484,
      "ysi": 2485,
      "Ġsecteur": 2486,
      "Ġtard": 2487,
      "difier": 2488,
      "entiel": 2489,
      "termin": 2490,
      "Europe": 2491,
      "Ġ2008": 2492,
      "atoire": 2493,
      "ĠBl": 2494,
      "gement": 2495,
      "Ġplais": 2496,
      "Ġoutil": 2497,
      "Ġaugment": 2498,
      "entif": 2499,
      "ĠMe": 2500,
      "cessi": 2501,
      "anche": 2502,
      "ancement": 2503,
      "cup": 2504,
      "ociation": 2505,
      "nements": 2506,
      "ĠdonnÃ©": 2507,
      "Ġautant": 2508,
      "ergie": 2509,
      "Ġrenfor": 2510,
      "ĠdeuxiÃ¨me": 2511,
      "Ġfig": 2512,
      "Ĥ¬": 2513,
      "aller": 2514,
      "Ġressources": 2515,
      "ali": 2516,
      "âĤ¬": 2517,
      "ĠSh": 2518,
      "Ġint": 2519,
      "Ġoc": 2520,
      "Ġsociale": 2521,
      "respond": 2522,
      "Ġgagn": 2523,
      "Åĵur": 2524,
      "Ã¢te": 2525,
      "ape": 2526,
      "itable": 2527,
      "ple": 2528,
      "Ġrespec": 2529,
      "vin": 2530,
      "Ġ198": 2531,
      "cription": 2532,
      "Ġtend": 2533,
      "Ġdeven": 2534,
      "did": 2535,
      "Ġnational": 2536,
      "lie": 2537,
      "ications": 2538,
      "Ġrom": 2539,
      "Ġconcernant": 2540,
      "Ġaller": 2541,
      "erce": 2542,
      "ĠspÃ©cif": 2543,
      "18": 2544,
      "Des": 2545,
      "ambre": 2546,
      "Ġpermettre": 2547,
      "Ġutiliser": 2548,
      "indows": 2549,
      "ĠintÃ©ress": 2550,
      "Ġatta": 2551,
      "Ġliber": 2552,
      "Ġtechnique": 2553,
      "alu": 2554,
      "ĠWeb": 2555,
      "af": 2556,
      "aque": 2557,
      "ĠsÃ©lection": 2558,
      "hab": 2559,
      "Ġquar": 2560,
      "Ġdossi": 2561,
      "Ġ100": 2562,
      "ĠprÃ©cÃ©": 2563,
      "ĠGo": 2564,
      "once": 2565,
      "Ġsucc": 2566,
      "roche": 2567,
      "Ġaccep": 2568,
      "Ġinstitu": 2569,
      "ĠamÃ©li": 2570,
      "Ġvolont": 2571,
      "Ġtomb": 2572,
      "Ġfab": 2573,
      "vestis": 2574,
      "Ã©tique": 2575,
      "isl": 2576,
      "Ġinternationale": 2577,
      "entreprise": 2578,
      "Ġcollab": 2579,
      "Ġcinq": 2580,
      "Ġtel": 2581,
      "Ġchef": 2582,
      "Ġrelig": 2583,
      "ĠdÃ©mar": 2584,
      "Ġlibre": 2585,
      "ducation": 2586,
      "udg": 2587,
      "Ġailleurs": 2588,
      "poque": 2589,
      "uy": 2590,
      "accÃ¨s": 2591,
      "Ġ2014": 2592,
      "gne": 2593,
      "Ġparmi": 2594,
      "olutions": 2595,
      "ĠCela": 2596,
      "Ãītat": 2597,
      "dec": 2598,
      "Ġfonctionn": 2599,
      "Ġsav": 2600,
      "inÃ©": 2601,
      "quis": 2602,
      "Ġsenti": 2603,
      "uve": 2604,
      "Ġmanif": 2605,
      "oie": 2606,
      "Ã¨de": 2607,
      "Ġoctobre": 2608,
      "occasion": 2609,
      "ament": 2610,
      "ĠmaÃ®": 2611,
      "ls": 2612,
      "Ġcorrespond": 2613,
      "Ġplupart": 2614,
      "Ġcelles": 2615,
      "ĠBar": 2616,
      "rance": 2617,
      "rec": 2618,
      "Ġmarque": 2619,
      "ĠQuÃ©bec": 2620,
      "tivement": 2621,
      "ĠcomplÃ¨": 2622,
      "Ġdate": 2623,
      "AS": 2624,
      "oritÃ©s": 2625,
      "Ġ22": 2626,
      "Ġaura": 2627,
      "ĠCommission": 2628,
      "ĠtÃ©m": 2629,
      "ĠÃªtes": 2630,
      "ĠparticuliÃ¨rement": 2631,
      "ĠdÃ©cision": 2632,
      "AL": 2633,
      "Union": 2634,
      "IT": 2635,
      "Ġforce": 2636,
      "Ġtravaux": 2637,
      "Ã«l": 2638,
      "Ġnav": 2639,
      "Ġparler": 2640,
      "ĠCor": 2641,
      "Ġrapidement": 2642,
      "ormais": 2643,
      "Ġminist": 2644,
      "Ġheure": 2645,
      "Ġcapit": 2646,
      "sp": 2647,
      "ĠCol": 2648,
      "Ġlo": 2649,
      "lications": 2650,
      "Ġbe": 2651,
      "sy": 2652,
      "ĠgÃ©": 2653,
      "Ġ50": 2654,
      "âĢĵ": 2655,
      "cience": 2656,
      "auv": 2657,
      "amen": 2658,
      "Ġmusique": 2659,
      "Ġfrais": 2660,
      "Ġajou": 2661,
      "Ġcuis": 2662,
      "alistes": 2663,
      "Ġopp": 2664,
      "Ex": 2665,
      "Ġdirectement": 2666,
      "Ã§ois": 2667,
      "Ġgrandes": 2668,
      "sements": 2669,
      "gation": 2670,
      "ĠjournÃ©e": 2671,
      "ĠprÃ©par": 2672,
      "ĠOr": 2673,
      "Ġangl": 2674,
      "ĠsÃ»r": 2675,
      "Ġproc": 2676,
      "Ġchacun": 2677,
      "ĠdÃ©l": 2678,
      "liquer": 2679,
      "Ġpap": 2680,
      "Ã©vrier": 2681,
      "rin": 2682,
      "Ġsoir": 2683,
      "Ġpermis": 2684,
      "Ġbudg": 2685,
      "ĠÃ¢": 2686,
      "onner": 2687,
      "Ġcentra": 2688,
      "Ġsimplement": 2689,
      "ĠmodÃ¨le": 2690,
      "OS": 2691,
      "arri": 2692,
      "Ġjeux": 2693,
      "ĠSu": 2694,
      "ouverture": 2695,
      "Ġadap": 2696,
      "iennent": 2697,
      "Ġlum": 2698,
      "ma": 2699,
      "Ã©tÃ©s": 2700,
      "Ġpren": 2701,
      "cientif": 2702,
      "mail": 2703,
      "erne": 2704,
      "Ġpersonnel": 2705,
      "onnes": 2706,
      "aritÃ©": 2707,
      "ĠNew": 2708,
      "dique": 2709,
      "ash": 2710,
      "actÃ©": 2711,
      "ueur": 2712,
      "Ġ+": 2713,
      "Ġpresse": 2714,
      "ĠAm": 2715,
      "Ġsac": 2716,
      "Ġtaux": 2717,
      "ĠprÃ©sence": 2718,
      "Ġcherche": 2719,
      "orie": 2720,
      "pro": 2721,
      "origine": 2722,
      "raire": 2723,
      "Ġtraitement": 2724,
      "Ġmission": 2725,
      "Ãªtes": 2726,
      "Ġavril": 2727,
      "ck": 2728,
      "Ġexiste": 2729,
      "ignement": 2730,
      "Ġsocial": 2731,
      "Ġanti": 2732,
      "ublique": 2733,
      "US": 2734,
      "Ġavis": 2735,
      "alle": 2736,
      "ĠmÃ©c": 2737,
      "ĠdÃ©couvrir": 2738,
      "Ġsignif": 2739,
      "Or": 2740,
      "arch": 2741,
      "osÃ©": 2742,
      "ĠprÃ©sid": 2743,
      "ĠgÃ©nÃ©rale": 2744,
      "nov": 2745,
      "OR": 2746,
      "rou": 2747,
      "modifier": 2748,
      "Ġlequel": 2749,
      "alif": 2750,
      "cident": 2751,
      "Ã©lÃ¨": 2752,
      "ide": 2753,
      "aprÃ¨s": 2754,
      "Ġton": 2755,
      "ctu": 2756,
      "Ġ21": 2757,
      "nÃ©": 2758,
      "Ġcandid": 2759,
      "frique": 2760,
      "illage": 2761,
      "Ġmaladi": 2762,
      "land": 2763,
      "bes": 2764,
      "Ġsty": 2765,
      "Ġcommunication": 2766,
      "ureau": 2767,
      "Ġenfin": 2768,
      "ĠSon": 2769,
      "objet": 2770,
      "Ġphysi": 2771,
      "ĠÃ©lÃ©ments": 2772,
      "yth": 2773,
      "Ġalle": 2774,
      "nies": 2775,
      "server": 2776,
      "Ġdifficile": 2777,
      "Ġrece": 2778,
      "Ġperform": 2779,
      "Ġfr": 2780,
      "face": 2781,
      "ĠCl": 2782,
      "dire": 2783,
      "dam": 2784,
      "Ġpan": 2785,
      "Ġclient": 2786,
      "Ġmatin": 2787,
      "tation": 2788,
      "ĠdÃ©termin": 2789,
      "Ġpopulation": 2790,
      "ĠRÃ©p": 2791,
      "ouverte": 2792,
      "ĠAprÃ¨s": 2793,
      "Ġsoutien": 2794,
      "Ġbelle": 2795,
      "Ġphoto": 2796,
      "otidi": 2797,
      "quÃªte": 2798,
      "ende": 2799,
      "Ġcrise": 2800,
      "Ġhistor": 2801,
      "TION": 2802,
      "ĠcommunautÃ©": 2803,
      "sÃ©": 2804,
      "Ġensemble": 2805,
      "Ġmilieu": 2806,
      "Ã¨se": 2807,
      "alyse": 2808,
      "Ġpot": 2809,
      "Ġrappel": 2810,
      "Ġenti": 2811,
      "ĠdÃ©g": 2812,
      "Ġnuit": 2813,
      "Ġplaisir": 2814,
      "ee": 2815,
      "matique": 2816,
      "enn": 2817,
      "orient": 2818,
      "Ġvont": 2819,
      "Ġdifficul": 2820,
      "ĠÃ©trang": 2821,
      "itter": 2822,
      "Ġscientif": 2823,
      "Ġfour": 2824,
      "ulation": 2825,
      "Ġsouff": 2826,
      "Ġplein": 2827,
      "Ġcontenu": 2828,
      "DE": 2829,
      "ĠSur": 2830,
      "Ġmeilleur": 2831,
      "Ġtransport": 2832,
      "issement": 2833,
      "ĠdÃ©sormais": 2834,
      "ĠfrÃ©": 2835,
      "usion": 2836,
      "Ġbois": 2837,
      "aisse": 2838,
      "ĠWindows": 2839,
      "onie": 2840,
      "reux": 2841,
      "ĠCons": 2842,
      "Ġtechniques": 2843,
      "ĠÅĵuvre": 2844,
      "ĠsuccÃ¨s": 2845,
      "ĠderniÃ¨res": 2846,
      "ĠChar": 2847,
      "ĠPlus": 2848,
      "ustri": 2849,
      "Ġarticles": 2850,
      "Ġconfir": 2851,
      "ÃĢ": 2852,
      "cteurs": 2853,
      "Â»,": 2854,
      "Ġbesoins": 2855,
      "application": 2856,
      "Ġadminist": 2857,
      "pa": 2858,
      "quÃ©e": 2859,
      "ĠfÃ©vrier": 2860,
      "Ġexig": 2861,
      "Ġdisponible": 2862,
      "Ġorigin": 2863,
      "pend": 2864,
      "Ġdiri": 2865,
      "ablissement": 2866,
      "die": 2867,
      "ades": 2868,
      "Ġlet": 2869,
      "Mar": 2870,
      "ĠTout": 2871,
      "Ġlorsqu": 2872,
      "Ġquotidi": 2873,
      "ĠdÃ©mocra": 2874,
      "ĠMich": 2875,
      "pes": 2876,
      "Ġsaison": 2877,
      "Ġgroupes": 2878,
      "ilÃł": 2879,
      "ppe": 2880,
      "ĠbÃ¢": 2881,
      "cie": 2882,
      "Ġsociaux": 2883,
      "rons": 2884,
      "Ġ2007": 2885,
      "opÃ©ration": 2886,
      "Ġtermin": 2887,
      "ogle": 2888,
      "Ġjouer": 2889,
      "ĠprotÃ©g": 2890,
      "Ġcertain": 2891,
      "avi": 2892,
      "oft": 2893,
      "ĠÃ©crit": 2894,
      "Ġaliment": 2895,
      "Ġimm": 2896,
      "mblÃ©e": 2897,
      "titude": 2898,
      "Ġinternational": 2899,
      "Ġmondiale": 2900,
      "uros": 2901,
      "Ġsoli": 2902,
      "ĠindÃ©": 2903,
      "emploi": 2904,
      "ieux": 2905,
      "Ġspect": 2906,
      "13": 2907,
      "atifs": 2908,
      "oz": 2909,
      "Ġcy": 2910,
      "ĠsupplÃ©ment": 2911,
      "Ġemb": 2912,
      "ulaire": 2913,
      "Ġsolution": 2914,
      "15": 2915,
      "Ġht": 2916,
      "fait": 2917,
      "Ġcitoy": 2918,
      "Ġlesqu": 2919,
      "istance": 2920,
      "AM": 2921,
      "Ġchiff": 2922,
      "arde": 2923,
      "acer": 2924,
      "Ġzone": 2925,
      "Ġcommande": 2926,
      "vidu": 2927,
      "ĠdÃ©part": 2928,
      "urr": 2929,
      "dure": 2930,
      "ĠdÃ©tail": 2931,
      "Ġremar": 2932,
      "avais": 2933,
      "ographie": 2934,
      "14": 2935,
      "oncÃ©": 2936,
      "Ġgauche": 2937,
      "ĠmÃ©m": 2938,
      "position": 2939,
      "ĠLi": 2940,
      "Ġposition": 2941,
      "Ġmatch": 2942,
      "Ġpatri": 2943,
      "inte": 2944,
      "Ġpermettant": 2945,
      "Ġgui": 2946,
      "ĠmÃ©dec": 2947,
      "ĠMin": 2948,
      "Ġdurant": 2949,
      "Ġsorte": 2950,
      "tiers": 2951,
      "ample": 2952,
      "book": 2953,
      "ĠdÃ©fense": 2954,
      "Ġcroissance": 2955,
      "Ġrencontre": 2956,
      "Ġparties": 2957,
      "Ġrestaur": 2958,
      "itation": 2959,
      "Ġlien": 2960,
      "oint": 2961,
      "hum": 2962,
      "ĠAvec": 2963,
      "Ġpresque": 2964,
      "Ġdirection": 2965,
      "aler": 2966,
      "Ġgu": 2967,
      "Ġrecommand": 2968,
      "Ġcertaine": 2969,
      "tenu": 2970,
      "Ġjuri": 2971,
      "avantage": 2972,
      "ĠNo": 2973,
      "Ġgenre": 2974,
      "Ġlois": 2975,
      "Ġmots": 2976,
      "Ġvit": 2977,
      "Ġsuivi": 2978,
      "ĠintÃ©g": 2979,
      "Ġmauv": 2980,
      "Ġprogrammes": 2981,
      "ĠdÃ©li": 2982,
      "Ġrespect": 2983,
      "Ġpremiers": 2984,
      "Ġyeux": 2985,
      "Ġvendre": 2986,
      "import": 2987,
      "Ġconseil": 2988,
      "Ġtelle": 2989,
      "ĠMan": 2990,
      "Ġexist": 2991,
      "ĠrÃ©pondre": 2992,
      "ĠcÅĵur": 2993,
      "Ġamb": 2994,
      "Ġpati": 2995,
      "Ġobjet": 2996,
      "ĠrÃ©ponse": 2997,
      "etÃ©": 2998,
      "sie": 2999,
      "ates": 3000,
      "Ġrue": 3001,
      "ublic": 3002,
      "aus": 3003,
      "odes": 3004,
      "accord": 3005,
      "otel": 3006,
      "Ġconsac": 3007,
      "Ġ23": 3008,
      "Ġvois": 3009,
      "Ġlire": 3010,
      "Ġrense": 3011,
      "argent": 3012,
      "Ġbord": 3013,
      "environnement": 3014,
      "AT": 3015,
      "Ġroute": 3016,
      "Ġsix": 3017,
      "ĠlibertÃ©": 3018,
      "Ġnavig": 3019,
      "Ġfisc": 3020,
      "Ġcaract": 3021,
      "Ġstat": 3022,
      "ĠidÃ©": 3023,
      "].": 3024,
      "mettre": 3025,
      "urÃ©": 3026,
      "Ġenviron": 3027,
      "Ġbo": 3028,
      "Ġve": 3029,
      "ĠPas": 3030,
      "main": 3031,
      "Ġaffir": 3032,
      "Re": 3033,
      "tal": 3034,
      "Ġconserv": 3035,
      "quÃ©s": 3036,
      "http": 3037,
      "Ġglob": 3038,
      "Ġcommand": 3039,
      "Ġvite": 3040,
      "ĠtÃ©lÃ©ch": 3041,
      "ĠrÃ©alitÃ©": 3042,
      "Ġoutre": 3043,
      "Ã©h": 3044,
      "Ġpous": 3045,
      "rimer": 3046,
      "ronique": 3047,
      "ĠpossibilitÃ©": 3048,
      "Ġsait": 3049,
      "Ġliv": 3050,
      "ariat": 3051,
      "Ġsensi": 3052,
      "pour": 3053,
      "Ġtex": 3054,
      "Ġordin": 3055,
      "Ġcop": 3056,
      "ilitÃ©s": 3057,
      "acement": 3058,
      "Ġpuisque": 3059,
      "Ġdix": 3060,
      "ĠrÃ©guli": 3061,
      "Ġlongtemps": 3062,
      "sui": 3063,
      "Ġcrois": 3064,
      "Ġoblig": 3065,
      "Ġmanque": 3066,
      "Ġpau": 3067,
      "ĠdurÃ©e": 3068,
      "Ġmanifest": 3069,
      "ĠRÃ©publique": 3070,
      "ĠfÃ©": 3071,
      "Ġ197": 3072,
      "Ġderniers": 3073,
      "Ġhttp": 3074,
      "dia": 3075,
      "ots": 3076,
      "Ġimages": 3077,
      "rist": 3078,
      "apon": 3079,
      "avait": 3080,
      "Ġcomprendre": 3081,
      "Ġmach": 3082,
      "Ġpolice": 3083,
      "Ġenreg": 3084,
      "sieur": 3085,
      "Ġkm": 3086,
      "Ġchar": 3087,
      "ĠeuropÃ©en": 3088,
      "Ġlaisser": 3089,
      "ĠcaractÃ©": 3090,
      "ĠlÃ©gisl": 3091,
      "Ġdol": 3092,
      "CE": 3093,
      "Ġconstruction": 3094,
      "Ġvir": 3095,
      "Ġtels": 3096,
      "Ġlangue": 3097,
      "16": 3098,
      "Ġprot": 3099,
      "ĠMal": 3100,
      "Ġblanc": 3101,
      "Ġmouvement": 3102,
      "Ph": 3103,
      "Ġemploy": 3104,
      "Ġpublics": 3105,
      "ĠTra": 3106,
      "ples": 3107,
      "ĠEurope": 3108,
      "Ġabs": 3109,
      "lent": 3110,
      "Ġamis": 3111,
      "Ġtri": 3112,
      "Ġcomporte": 3113,
      "tit": 3114,
      "hÃ´tel": 3115,
      "Ġparle": 3116,
      "Ġgard": 3117,
      "Ġsatis": 3118,
      "Ġbal": 3119,
      "Ġaider": 3120,
      "Ã¨nes": 3121,
      "iez": 3122,
      "Ġclassi": 3123,
      "Ġpratiques": 3124,
      "Ġrempl": 3125,
      "Ġpat": 3126,
      "ĠcoÃ»": 3127,
      "Ã¨les": 3128,
      "Ġretra": 3129,
      "Ġvoix": 3130,
      "Ġ40": 3131,
      "Ġessenti": 3132,
      "rÃ©al": 3133,
      "ll": 3134,
      "ĠSa": 3135,
      "Ġsalle": 3136,
      "Ġhabit": 3137,
      "Ġbre": 3138,
      "Ġdisposition": 3139,
      "icros": 3140,
      "Ġjustice": 3141,
      "AP": 3142,
      "entrÃ©e": 3143,
      "Ġtaille": 3144,
      "ĠFranÃ§ais": 3145,
      "isp": 3146,
      "ignements": 3147,
      "Ġcontinu": 3148,
      "Ġtyp": 3149,
      "ĠComme": 3150,
      "Ã©taire": 3151,
      "Ġhistoire": 3152,
      "aj": 3153,
      "ĠrÃª": 3154,
      "Ã©le": 3155,
      "image": 3156,
      "Ġenvironnement": 3157,
      "Ġprincipe": 3158,
      "cs": 3159,
      "ational": 3160,
      "ouse": 3161,
      "ĠrÃ©gime": 3162,
      "Ġdisponibles": 3163,
      "Ġlutte": 3164,
      "Ġpeine": 3165,
      "Ã©tat": 3166,
      "UN": 3167,
      "Ġdroite": 3168,
      "issent": 3169,
      "Ġobtenir": 3170,
      "stitu": 3171,
      "aison": 3172,
      "Ġeuros": 3173,
      "ost": 3174,
      "Ġcombat": 3175,
      "Pro": 3176,
      "rice": 3177,
      "ĠdÃ©bat": 3178,
      "Ġconfiance": 3179,
      "Ġterritoire": 3180,
      "Ġdispar": 3181,
      "Ġcouv": 3182,
      "ani": 3183,
      "ulture": 3184,
      "ĠÃ©vÃ©": 3185,
      "Ġmessage": 3186,
      "tir": 3187,
      "âĢ¢": 3188,
      "Ġpil": 3189,
      "ĠscÃ¨ne": 3190,
      "chant": 3191,
      "Ġparents": 3192,
      "Ġsuivre": 3193,
      "Ġvente": 3194,
      "Ġtransform": 3195,
      "ĠpÃ¨re": 3196,
      "Ġvac": 3197,
      "Ġjoueurs": 3198,
      "Ġvenir": 3199,
      "Ã©rif": 3200,
      "Ġdollar": 3201,
      "ĠrÃ©ussi": 3202,
      "cier": 3203,
      "Ġchambre": 3204,
      "ĠvÃ©ritable": 3205,
      "Ġcommuni": 3206,
      "Ġinstall": 3207,
      "nous": 3208,
      "Ġpal": 3209,
      "Ġdeme": 3210,
      "ĠPe": 3211,
      "Ġindustri": 3212,
      "17": 3213,
      "Ġdevient": 3214,
      "ĠCour": 3215,
      "ĠrÃ¨gles": 3216,
      "ĠrÃ©fÃ©rence": 3217,
      "Ġfils": 3218,
      "ourg": 3219,
      "serve": 3220,
      "Ġaj": 3221,
      "Ġoeu": 3222,
      "ĠaccÃ¨s": 3223,
      "ix": 3224,
      "Ġposs": 3225,
      "ministration": 3226,
      "ĠSy": 3227,
      "Ġdocuments": 3228,
      "ĠcatÃ©g": 3229,
      "lign": 3230,
      "Ġrapide": 3231,
      "Ġvia": 3232,
      "Ġdirect": 3233,
      "Ã©nergie": 3234,
      "Ġsh": 3235,
      "Ġcompagn": 3236,
      "ĠJoh": 3237,
      "ĠsystÃ¨mes": 3238,
      "cons": 3239,
      "ĠÃ©tab": 3240,
      "Ġdirecteur": 3241,
      "Ġessay": 3242,
      "Ġsuffis": 3243,
      "Ġautoris": 3244,
      "io": 3245,
      "Ġmembre": 3246,
      "Ġpromo": 3247,
      "Ġpoursui": 3248,
      "ĠAinsi": 3249,
      "Ġcampagne": 3250,
      "activitÃ©": 3251,
      "ordonn": 3252,
      "Ġmilliards": 3253,
      "uration": 3254,
      "ologies": 3255,
      "Ġdisposi": 3256,
      "organisation": 3257,
      "ĠdÃ©par": 3258,
      "tÃ©ra": 3259,
      "Ġcommerce": 3260,
      "Ġtransf": 3261,
      "Ġconcep": 3262,
      "uelle": 3263,
      "Ġpermettent": 3264,
      "Ġdistribu": 3265,
      "bum": 3266,
      "ĠdÃ©clarÃ©": 3267,
      "Ġlun": 3268,
      "car": 3269,
      "Ãªche": 3270,
      "ĠGoogle": 3271,
      "Ġplate": 3272,
      "Ġvivre": 3273,
      "Ġsembl": 3274,
      "lam": 3275,
      "rans": 3276,
      "ĠPre": 3277,
      "intÃ©rÃªt": 3278,
      "Ġmondial": 3279,
      "Ġconcerne": 3280,
      "Ġentreprise": 3281,
      "Ġfacile": 3282,
      "demment": 3283,
      "Ġcontac": 3284,
      "Ġadministra": 3285,
      "ĠPrÃ©sident": 3286,
      "Ġpages": 3287,
      "ister": 3288,
      "lÃł": 3289,
      "Ġir": 3290,
      "Ġsort": 3291,
      "fe": 3292,
      "oll": 3293,
      "Ġtravailler": 3294,
      "Ġneu": 3295,
      "Ġinstru": 3296,
      "Ã©hic": 3297,
      "ouvernement": 3298,
      "ĠTe": 3299,
      "Ġclasse": 3300,
      "Ġcompar": 3301,
      "Ġrelations": 3302,
      "ony": 3303,
      "Ġpourtant": 3304,
      "Ġgam": 3305,
      "Ġextra": 3306,
      "ĠdÃ©n": 3307,
      "ologiques": 3308,
      "Ġfichiers": 3309,
      "Ġsymp": 3310,
      "ĠaoÃ»t": 3311,
      "Ġaccompagn": 3312,
      "aie": 3313,
      "Ġsuc": 3314,
      "Ġaffaires": 3315,
      "Ġmontre": 3316,
      "Ã©ral": 3317,
      "enc": 3318,
      "Ġtoi": 3319,
      "tor": 3320,
      "Ġsemaines": 3321,
      "ĠFranÃ§ois": 3322,
      "ĠSec": 3323,
      "Ġconnaiss": 3324,
      "IL": 3325,
      "Ġprofessionnels": 3326,
      "Ġimportante": 3327,
      "Ġsource": 3328,
      "Ġactions": 3329,
      "Ġpleine": 3330,
      "este": 3331,
      "âĢĶ": 3332,
      "ĠDu": 3333,
      "AprÃ¨s": 3334,
      "Ġterrain": 3335,
      "OU": 3336,
      "ĠFor": 3337,
      "Ġcanadi": 3338,
      "ustrie": 3339,
      "ĠMus": 3340,
      "esse": 3341,
      "itez": 3342,
      "Ġfille": 3343,
      "ĠNord": 3344,
      "Ġresponsable": 3345,
      "Ġcomplex": 3346,
      "Ġappare": 3347,
      "ĠSud": 3348,
      "Ġactuellement": 3349,
      "esprit": 3350,
      "Ġdemander": 3351,
      "Ġpied": 3352,
      "ĠvÃ©hic": 3353,
      "tition": 3354,
      "crit": 3355,
      "Ġpsy": 3356,
      "Ġtraditionn": 3357,
      "Ã©conomie": 3358,
      "Ġlogiciel": 3359,
      "ĠmÃ¨re": 3360,
      "ĠAd": 3361,
      "Ġexpl": 3362,
      "ren": 3363,
      "ĠLors": 3364,
      "Ġ26": 3365,
      "Ġ27": 3366,
      "ignes": 3367,
      "ĠentraÃ®": 3368,
      "ension": 3369,
      "ĠresponsabilitÃ©": 3370,
      "Ġchau": 3371,
      "ĠIs": 3372,
      "ynam": 3373,
      "ĠComitÃ©": 3374,
      "Ġfaud": 3375,
      "oici": 3376,
      "ĠcollÃ¨": 3377,
      "Ġsortie": 3378,
      "Ġpetites": 3379,
      "25": 3380,
      "Am": 3381,
      "ĠÃ©tat": 3382,
      "Ġsoulign": 3383,
      "Ġlongue": 3384,
      "run": 3385,
      "ĠcaractÃ©ris": 3386,
      "icrosoft": 3387,
      "Ġpourra": 3388,
      "Ġcomprend": 3389,
      "bl": 3390,
      "ctures": 3391,
      "Ġsuivant": 3392,
      "ĠmÃ©dias": 3393,
      "Ġsolutions": 3394,
      "ĠApp": 3395,
      "hÃ©": 3396,
      "Ġpoi": 3397,
      "Ġsim": 3398,
      "Ġmaxim": 3399,
      "ĠtroisiÃ¨me": 3400,
      "ĠDÃ©": 3401,
      "--------": 3402,
      "ĠFace": 3403,
      "Ġscol": 3404,
      "Ġrefus": 3405,
      "veill": 3406,
      "rag": 3407,
      "Ã©cole": 3408,
      "ĠÃ©tudes": 3409,
      "ĠGu": 3410,
      "duite": 3411,
      "Ġdossier": 3412,
      "Ġmeilleure": 3413,
      "tine": 3414,
      "Ġ28": 3415,
      "Ġindividu": 3416,
      "Ġvoie": 3417,
      "idÃ©e": 3418,
      "Ġoubli": 3419,
      "ĠÃ©lÃ¨": 3420,
      "Ġfaisant": 3421,
      "Ġdevenir": 3422,
      "Ġcra": 3423,
      "enses": 3424,
      "mat": 3425,
      "ME": 3426,
      "emb": 3427,
      "Ġtermes": 3428,
      "ENT": 3429,
      "Ġstock": 3430,
      "ark": 3431,
      "ancÃ©": 3432,
      "orÃ©": 3433,
      "ĠutilisÃ©": 3434,
      "name": 3435,
      "vain": 3436,
      "Ġlab": 3437,
      "Ġhors": 3438,
      "Ġposte": 3439,
      "Ġaction": 3440,
      "ĠdÃ©lÃ©": 3441,
      "del": 3442,
      "urant": 3443,
      "Ġrisques": 3444,
      "ionn": 3445,
      "Ġchemin": 3446,
      "ĠÃ©l": 3447,
      "ĠOu": 3448,
      "ĠAlors": 3449,
      "Ġcependant": 3450,
      "Ġchangement": 3451,
      "Ġeffets": 3452,
      "Ġrelative": 3453,
      "Ġinternet": 3454,
      ".)": 3455,
      "ett": 3456,
      "Ġfonds": 3457,
      "Ġpassage": 3458,
      "prÃ©": 3459,
      "orteur": 3460,
      "Ã©ducation": 3461,
      "Ġnoir": 3462,
      "ume": 3463,
      "Ġanglais": 3464,
      "Ġciv": 3465,
      "Ã¨que": 3466,
      "Ġtrain": 3467,
      "24": 3468,
      "Ġattend": 3469,
      "ĠdÃ©cidÃ©": 3470,
      "Ġstyle": 3471,
      "exploit": 3472,
      "Ġqualif": 3473,
      "apit": 3474,
      "ĠrÃ©seaux": 3475,
      "dier": 3476,
      "ĠmÃªmes": 3477,
      "da": 3478,
      "Ġdurable": 3479,
      "Ġstructure": 3480,
      "ĠBien": 3481,
      "Ġdollars": 3482,
      "ĠautoritÃ©s": 3483,
      "ĠexpÃ©rience": 3484,
      "Ġ2005": 3485,
      "ĠrÃ©par": 3486,
      "ays": 3487,
      "quet": 3488,
      "ĠÃ©vi": 3489,
      "Ġdo": 3490,
      "example": 3491,
      "Ġcat": 3492,
      "oise": 3493,
      "Ġsom": 3494,
      "ciens": 3495,
      "Ġautomatique": 3496,
      "tionnel": 3497,
      "ingt": 3498,
      "ĠComment": 3499,
      "Ġobjectifs": 3500,
      "ĠcapacitÃ©": 3501,
      "ama": 3502,
      "Ġcommune": 3503,
      "euros": 3504,
      "ĠmalgrÃ©": 3505,
      "Ġchoisir": 3506,
      "Ġsud": 3507,
      "informations": 3508,
      "ĠnumÃ©ro": 3509,
      "ĠmajoritÃ©": 3510,
      "Ġnour": 3511,
      "iteur": 3512,
      "exc": 3513,
      "Ġfall": 3514,
      "ik": 3515,
      "60": 3516,
      "IE": 3517,
      "ĠUS": 3518,
      "Ġagric": 3519,
      "ber": 3520,
      "espace": 3521,
      ".\"": 3522,
      "ides": 3523,
      "Ġsalari": 3524,
      "Ġtrib": 3525,
      "ĠRÃ©": 3526,
      "Ġfle": 3527,
      "ĠQue": 3528,
      "Ġpartenaires": 3529,
      "itÃ©e": 3530,
      "ĠrÃ©aliser": 3531,
      "dessus": 3532,
      "ĠaccÃ©": 3533,
      "magne": 3534,
      "Ġrej": 3535,
      "ĠNic": 3536,
      "Ġperman": 3537,
      "alogue": 3538,
      "aluation": 3539,
      "Ġdispositions": 3540,
      "Ġminim": 3541,
      "Ġfichier": 3542,
      "ouis": 3543,
      "ules": 3544,
      "uff": 3545,
      "Ġenfant": 3546,
      "Ġta": 3547,
      "Ġfru": 3548,
      "Ġhabitu": 3549,
      "ĠRob": 3550,
      "atta": 3551,
      "andis": 3552,
      "Ġretrouver": 3553,
      "Ġred": 3554,
      "ĠprocÃ©dure": 3555,
      "Ġvais": 3556,
      "ĠarrÃª": 3557,
      "Ã§u": 3558,
      "App": 3559,
      "Ġconcurr": 3560,
      "Ġsang": 3561,
      "ĠPierre": 3562,
      "Ã¨ve": 3563,
      "Ġconfort": 3564,
      "endra": 3565,
      "ĠimmÃ©di": 3566,
      "Ġhy": 3567,
      "ĠapprÃ©": 3568,
      "Ġcam": 3569,
      "Ġpeuple": 3570,
      "ĠagrÃ©": 3571,
      "ĠAb": 3572,
      "Sur": 3573,
      "ĠnÃ©cessaires": 3574,
      "moine": 3575,
      "ano": 3576,
      "Ġcommence": 3577,
      "univers": 3578,
      "ination": 3579,
      "appel": 3580,
      "Ġorg": 3581,
      "ars": 3582,
      "oss": 3583,
      "ĠhÃ´tel": 3584,
      "Ġutilise": 3585,
      "ĠMontrÃ©al": 3586,
      "Ġaim": 3587,
      "lant": 3588,
      "ardin": 3589,
      "Ġconnaissance": 3590,
      "Ġvoiture": 3591,
      "Ã©rences": 3592,
      "Ġrester": 3593,
      "Ġrele": 3594,
      "Ad": 3595,
      "ira": 3596,
      "Ġbureau": 3597,
      "aume": 3598,
      "intÃ©rieur": 3599,
      "ĠcaractÃ¨re": 3600,
      "ĠJohn": 3601,
      "itant": 3602,
      "Ġpeux": 3603,
      "Ġexplique": 3604,
      "Ġ2006": 3605,
      "Ã©ma": 3606,
      "Ġpaix": 3607,
      "Ġlic": 3608,
      "Ġprochain": 3609,
      "Ġtax": 3610,
      "aliser": 3611,
      "Ġutilisateurs": 3612,
      "Ġpropres": 3613,
      "times": 3614,
      "tru": 3615,
      "Ġfaites": 3616,
      "Ġvacances": 3617,
      "Ġfacilement": 3618,
      "ĠmÃ©moire": 3619,
      "Ġtotal": 3620,
      "ĠSÃ©n": 3621,
      "administration": 3622,
      "Ġoutils": 3623,
      "Ġclub": 3624,
      "llemagne": 3625,
      "lusion": 3626,
      "ĠlumiÃ¨re": 3627,
      "Ã©tude": 3628,
      "ambres": 3629,
      "mÃ©e": 3630,
      "estre": 3631,
      "ressi": 3632,
      "ater": 3633,
      "AD": 3634,
      "Ġconsommation": 3635,
      "orde": 3636,
      "alisme": 3637,
      "Ġancien": 3638,
      "Ġliens": 3639,
      "Ġspectac": 3640,
      "Ġconnu": 3641,
      "Ġocc": 3642,
      "ĠrÃ©sultat": 3643,
      "forme": 3644,
      "ĠvolontÃ©": 3645,
      "cel": 3646,
      "Ġcontrat": 3647,
      "Ġsan": 3648,
      "Ġrelation": 3649,
      "Ã©volution": 3650,
      "ĠtrouvÃ©": 3651,
      "Ġuniquement": 3652,
      "Ġacteurs": 3653,
      "Ġfro": 3654,
      "ĠpremiÃ¨res": 3655,
      "Ġprochaine": 3656,
      "ortÃ©": 3657,
      "Ġefficace": 3658,
      "airement": 3659,
      "OL": 3660,
      "ĠconnaÃ®tre": 3661,
      "ross": 3662,
      "ĠmÃ©l": 3663,
      "Ġtab": 3664,
      "Ġcontraire": 3665,
      "Ġzones": 3666,
      "Ġcouleur": 3667,
      "anim": 3668,
      "Ġexcep": 3669,
      "we": 3670,
      "Ġ'": 3671,
      "ana": 3672,
      "ĠâĢĶ": 3673,
      "Ġpouvait": 3674,
      "Ces": 3675,
      "install": 3676,
      "enseignement": 3677,
      "Ġnord": 3678,
      "fric": 3679,
      "ĠGouvernement": 3680,
      "ĠÃ©viter": 3681,
      "iÃ©s": 3682,
      "Ġforces": 3683,
      "Ġpartage": 3684,
      "Ġdavantage": 3685,
      "ares": 3686,
      "ĠespÃ¨": 3687,
      "Ġtal": 3688,
      "Ġlieux": 3689,
      "Ã§ons": 3690,
      "appr": 3691,
      "Ġriches": 3692,
      "Ġproposition": 3693,
      "Ġlecture": 3694,
      "actions": 3695,
      "Ġpa": 3696,
      "Ġcontact": 3697,
      "OC": 3698,
      "Ġquelle": 3699,
      "trÃªme": 3700,
      "ilos": 3701,
      "amÃ©li": 3702,
      "Ġvas": 3703,
      "Ġenvoy": 3704,
      "identi": 3705,
      "ĠsociÃ©tÃ©s": 3706,
      "ĠdÃ©velopper": 3707,
      "Ġnaturel": 3708,
      "ĠvÃ©rif": 3709,
      "Ġtechnologie": 3710,
      "Ġapplication": 3711,
      "Ġtran": 3712,
      "ĠBe": 3713,
      "Ġporter": 3714,
      "40": 3715,
      "Ġdouble": 3716,
      "Ġdirige": 3717,
      "Ġconfl": 3718,
      "ĠÃ©conomiques": 3719,
      "ĠCentre": 3720,
      "mon": 3721,
      "Ġplac": 3722,
      "Ġposi": 3723,
      "ĠsÃ©jour": 3724,
      "affaires": 3725,
      "adresse": 3726,
      "agÃ©": 3727,
      "Ġcontexte": 3728,
      "ĠÃ©cl": 3729,
      "avenir": 3730,
      "do": 3731,
      "dici": 3732,
      "Ġpermettra": 3733,
      "Ġmoder": 3734,
      "ca": 3735,
      "Ġdipl": 3736,
      "ĠcoopÃ©ration": 3737,
      "ĠÃ©tablis": 3738,
      "Ġsport": 3739,
      "Ġchanger": 3740,
      "ult": 3741,
      "Comment": 3742,
      "Ġvig": 3743,
      "Ġseconde": 3744,
      "ĠministÃ¨re": 3745,
      "Ġhaute": 3746,
      "Ġphysique": 3747,
      "ource": 3748,
      "illez": 3749,
      "ĠDire": 3750,
      "ĠcontrÃ´": 3751,
      "ĠreÃ§u": 3752,
      "Ġrouge": 3753,
      "ĠBen": 3754,
      "Ġfavoris": 3755,
      "Ġul": 3756,
      "Ġobserv": 3757,
      "Ġ29": 3758,
      "cent": 3759,
      ".,": 3760,
      "ĠRoy": 3761,
      "occup": 3762,
      "credi": 3763,
      "Ġforte": 3764,
      "ĠÃ©tudiants": 3765,
      "ĠrÃ©gions": 3766,
      "Ã©poque": 3767,
      "ĠÃ©vent": 3768,
      "ID": 3769,
      "manche": 3770,
      "Ġaide": 3771,
      "Ġnu": 3772,
      "ere": 3773,
      "Ġait": 3774,
      "exist": 3775,
      "ĠnumÃ©rique": 3776,
      "seurs": 3777,
      "amour": 3778,
      "ĠLib": 3779,
      "ĠtÃ©lÃ©phone": 3780,
      "resser": 3781,
      "Ġcontinue": 3782,
      "eek": 3783,
      "aissent": 3784,
      "tionnelle": 3785,
      "Ġcouleurs": 3786,
      "Ġcircul": 3787,
      "cal": 3788,
      "sur": 3789,
      "Ġgraph": 3790,
      "Ġiss": 3791,
      "Ġidentif": 3792,
      "Ġfamili": 3793,
      "Ġmaladie": 3794,
      "ĠrÃ©flex": 3795,
      "Ġgarde": 3796,
      "ibilitÃ©": 3797,
      "Bon": 3798,
      "glise": 3799,
      "ick": 3800,
      "vice": 3801,
      "erm": 3802,
      "Ġretrouve": 3803,
      "tival": 3804,
      "Ġ60": 3805,
      "isant": 3806,
      "ĠÃ©qu": 3807,
      "sh": 3808,
      "ĠÃ©cri": 3809,
      "icro": 3810,
      "ĠÃ©vo": 3811,
      "ĠtÃ¢": 3812,
      "Ġstatut": 3813,
      "Ġinvestis": 3814,
      "cles": 3815,
      "Ġexcell": 3816,
      "oot": 3817,
      "Ġconform": 3818,
      "Ġchance": 3819,
      "Ġ2000": 3820,
      "ssemblÃ©e": 3821,
      "Ġmun": 3822,
      "ĠchaÃ®": 3823,
      "ĠbÃ¢ti": 3824,
      "ĠBel": 3825,
      "ĠdÃ©faut": 3826,
      "expÃ©rience": 3827,
      "ĠprÃ©senter": 3828,
      "ws": 3829,
      "ĠthÃ¨me": 3830,
      "ina": 3831,
      "Ġsupport": 3832,
      "Ġrepro": 3833,
      "ĠdemandÃ©": 3834,
      "to": 3835,
      "Ġraisons": 3836,
      "atrice": 3837,
      "Ġcontinuer": 3838,
      "vÃ©s": 3839,
      "Ġoui": 3840,
      "Ġfinancement": 3841,
      "tences": 3842,
      "Ġtenu": 3843,
      "Ġconstitue": 3844,
      "aime": 3845,
      "alisÃ©": 3846,
      "ĠComp": 3847,
      "ario": 3848,
      "NE": 3849,
      "toire": 3850,
      "ĠFacebook": 3851,
      "dans": 3852,
      "ini": 3853,
      "Ġpsych": 3854,
      "Ã§ant": 3855,
      "jectif": 3856,
      "Ġdynam": 3857,
      "mage": 3858,
      "autes": 3859,
      "outes": 3860,
      "oncer": 3861,
      "ĠactivitÃ©": 3862,
      "accueil": 3863,
      "ĠcÃ©lÃ¨": 3864,
      "ĠdÃ©fini": 3865,
      "Ġmobile": 3866,
      "Avec": 3867,
      "ĠrÃ©sid": 3868,
      "Ġbudget": 3869,
      "ii": 3870,
      "ĠdÃ»": 3871,
      "estival": 3872,
      "rÃªts": 3873,
      "Ġmains": 3874,
      "Ġsole": 3875,
      "rÃ©taire": 3876,
      "tiÃ©": 3877,
      "ĠexpÃ©ri": 3878,
      "MP": 3879,
      "pÃ©rer": 3880,
      "ilisation": 3881,
      "Ġjuge": 3882,
      "Ġvaleurs": 3883,
      "Ou": 3884,
      "Ġpourrez": 3885,
      "ĠHotel": 3886,
      "rog": 3887,
      "ĠfÃ©d": 3888,
      "Ġendro": 3889,
      "Ġfaits": 3890,
      "Ã©rable": 3891,
      "asses": 3892,
      "ĠÃ©lÃ¨ves": 3893,
      "Ġpuissance": 3894,
      "gence": 3895,
      "actu": 3896,
      "chement": 3897,
      "ĠrÃ©duire": 3898,
      "ĠQuand": 3899,
      "tures": 3900,
      "niversitÃ©": 3901,
      "ĠstratÃ©gie": 3902,
      "avec": 3903,
      "itesse": 3904,
      "Ġfonctionnement": 3905,
      "Ġexclus": 3906,
      "stru": 3907,
      "Ġsuffit": 3908,
      "Ġouvert": 3909,
      "ĠnÃ©goci": 3910,
      "chent": 3911,
      "Ġchambres": 3912,
      "Ġmarche": 3913,
      "Ġvilles": 3914,
      "ĠGe": 3915,
      "Ġrenseignements": 3916,
      "ĠRen": 3917,
      "Ġfonctions": 3918,
      "ropri": 3919,
      "gh": 3920,
      "Ã©ros": 3921,
      "ĠFl": 3922,
      "Ġconseils": 3923,
      "Ġforum": 3924,
      "zz": 3925,
      "ĠCont": 3926,
      "...)": 3927,
      "utÃ©": 3928,
      "Ġconj": 3929,
      "ĠJac": 3930,
      "OT": 3931,
      "bi": 3932,
      "gues": 3933,
      "anges": 3934,
      "Con": 3935,
      "ĠII": 3936,
      "Ġappro": 3937,
      "Ġfamilles": 3938,
      "Ġconnec": 3939,
      "Ġprovin": 3940,
      "Ġorient": 3941,
      "diction": 3942,
      "Ġdimanche": 3943,
      "SE": 3944,
      "itent": 3945,
      "cis": 3946,
      "mation": 3947,
      "Ġformes": 3948,
      "ute": 3949,
      "Ġsame": 3950,
      "ĠElles": 3951,
      "Ġmeilleurs": 3952,
      "Ġami": 3953,
      "indi": 3954,
      "liquÃ©": 3955,
      "Ġphotograph": 3956,
      "urance": 3957,
      "Ġprovo": 3958,
      "hy": 3959,
      "ĠâĤ¬": 3960,
      "Ġcoeur": 3961,
      "ĠcompÃ©tences": 3962,
      "Ġlocaux": 3963,
      "Ġfir": 3964,
      "Ġpatrimoine": 3965,
      "ĠidÃ©es": 3966,
      "ave": 3967,
      "Ã¨ge": 3968,
      "Ġparticipation": 3969,
      "Â».": 3970,
      "Ġlaiss": 3971,
      "ĠdÃ©pend": 3972,
      "Ġtandis": 3973,
      "Ġcalcul": 3974,
      "asser": 3975,
      "Ġmoyenne": 3976,
      "Ġsatisf": 3977,
      "Ġsoleil": 3978,
      "ĠNations": 3979,
      "Ġ2004": 3980,
      "Ġfondament": 3981,
      "Ġfacil": 3982,
      "Ġap": 3983,
      "Ġvingt": 3984,
      "Ġcu": 3985,
      "ailles": 3986,
      "bres": 3987,
      "Ġtrou": 3988,
      "ĠidÃ©e": 3989,
      "intes": 3990,
      "Ġapplications": 3991,
      "Ġquotidien": 3992,
      "iv": 3993,
      "ĠcrÃ©Ã©": 3994,
      "ĠgÃ©nÃ©ralement": 3995,
      "rup": 3996,
      "Ġurb": 3997,
      "rois": 3998,
      "ĠrÃ©uss": 3999,
      "Ġefforts": 4000,
      "ĠâĢ¦": 4001,
      "exploitation": 4002,
      "ĠNotre": 4003,
      "Ġfaveur": 4004,
      "Ġretrouv": 4005,
      "och": 4006,
      "Ġdesign": 4007,
      "adap": 4008,
      "Ġcourt": 4009,
      "ĠmatÃ©riel": 4010,
      "Ġobjectif": 4011,
      "Ġbanc": 4012,
      "Ġfaible": 4013,
      "Ġhistorique": 4014,
      "ventions": 4015,
      "Ġtravaill": 4016,
      "Ġlaisse": 4017,
      "ĠPC": 4018,
      "ĠMichel": 4019,
      "Ġenseign": 4020,
      "Ġpenser": 4021,
      "ilosoph": 4022,
      "Ġtelles": 4023,
      "industrie": 4024,
      "uisse": 4025,
      "ĠtÃ©moign": 4026,
      "Ġmariage": 4027,
      "asi": 4028,
      "Ġpuisse": 4029,
      "quez": 4030,
      "ĠGrand": 4031,
      "ĠprÃ©cÃ©d": 4032,
      "moins": 4033,
      "anes": 4034,
      "Ġprincipal": 4035,
      "oudre": 4036,
      "Ġgaz": 4037,
      "ĠmarchÃ©s": 4038,
      "Ġcommentaires": 4039,
      "Ġx": 4040,
      "**": 4041,
      "Ġgamme": 4042,
      "Ġproche": 4043,
      "env": 4044,
      "Ġfinalement": 4045,
      "Ġpreuve": 4046,
      "Ġcondam": 4047,
      "Ġmas": 4048,
      "Ġquant": 4049,
      "emple": 4050,
      "Ġquanti": 4051,
      "Ġanaly": 4052,
      "Ġgratuit": 4053,
      "Ġvendredi": 4054,
      "Ġpoids": 4055,
      "illi": 4056,
      "Ġaccessi": 4057,
      "ĠdifficultÃ©s": 4058,
      "22": 4059,
      "Ġsouhaite": 4060,
      "roy": 4061,
      "Ġpost": 4062,
      "Ġpartager": 4063,
      "enfant": 4064,
      "Ġveux": 4065,
      "ciences": 4066,
      "ĠcoÃ»t": 4067,
      "importe": 4068,
      "Ġwww": 4069,
      "Ġcollection": 4070,
      "Ġreti": 4071,
      "ĠMicrosoft": 4072,
      "Ġnote": 4073,
      "arger": 4074,
      "mm": 4075,
      "ĠMme": 4076,
      "Ġcru": 4077,
      "AU": 4078,
      "Ġproposer": 4079,
      "Ã©rant": 4080,
      "ories": 4081,
      "Ġconfig": 4082,
      "Ġjustif": 4083,
      "ĠprÃ©sentÃ©": 4084,
      "CH": 4085,
      "Ġtoutefois": 4086,
      "ĠChrist": 4087,
      "rite": 4088,
      "PS": 4089,
      "tellig": 4090,
      "Ġpartout": 4091,
      "Ġcuisine": 4092,
      "Ġmoteur": 4093,
      "ĠpiÃ¨ces": 4094,
      "ld": 4095,
      "ĠmodÃ¨les": 4096,
      "ara": 4097,
      "cemment": 4098,
      "ĠLA": 4099,
      "Ġcartes": 4100,
      "Ġsociales": 4101,
      "ader": 4102,
      "Ġparticiper": 4103,
      "Comme": 4104,
      "ĠĊ": 4105,
      "ĠConf": 4106,
      "Ġfabric": 4107,
      "ville": 4108,
      "ercice": 4109,
      "lan": 4110,
      "Ġdimin": 4111,
      "Ġconnex": 4112,
      "tiÃ¨re": 4113,
      "Ġtextes": 4114,
      "Ġdemi": 4115,
      "Ġvolu": 4116,
      "riture": 4117,
      "IR": 4118,
      "ĠPaul": 4119,
      "ĠPhili": 4120,
      "ĠTous": 4121,
      "Ġassurer": 4122,
      "Ġ31": 4123,
      "Ġdispositif": 4124,
      "no": 4125,
      "entÃ´t": 4126,
      "Ġvin": 4127,
      "eut": 4128,
      "Ġprofessionnelle": 4129,
      "tte": 4130,
      "uler": 4131,
      "Ġamen": 4132,
      "Ġrendu": 4133,
      "oto": 4134,
      "Ġpapier": 4135,
      "ĠFin": 4136,
      "utiliser": 4137,
      "gent": 4138,
      "dessous": 4139,
      "ocation": 4140,
      "Ġtechnologies": 4141,
      "Ġfavor": 4142,
      "Ġ$": 4143,
      "Ġcab": 4144,
      "Ġdesc": 4145,
      "AssemblÃ©e": 4146,
      "ĠmÃ©r": 4147,
      "ĠconfÃ©rence": 4148,
      "Ã´me": 4149,
      "23": 4150,
      "Afrique": 4151,
      "ĠopÃ©rations": 4152,
      "Ġfou": 4153,
      "Ġrapports": 4154,
      "Ġjudici": 4155,
      "Ġtypes": 4156,
      "illon": 4157,
      "Ġmontant": 4158,
      "Ġhi": 4159,
      "Ġillus": 4160,
      "Plus": 4161,
      "Ã©nom": 4162,
      "Ġmilitaire": 4163,
      "Ġcitoyens": 4164,
      "Ġaspect": 4165,
      "aw": 4166,
      "Ġpois": 4167,
      "Ġsurpr": 4168,
      "Lors": 4169,
      "tÃ©rieure": 4170,
      "ĠDepuis": 4171,
      "Ġpeur": 4172,
      "ĠreprÃ©sente": 4173,
      "Ġbonnes": 4174,
      "Ġsymb": 4175,
      "Ġdra": 4176,
      "Ġquartier": 4177,
      "Mme": 4178,
      "Ġterr": 4179,
      "ATION": 4180,
      "ĠSoci": 4181,
      "Ġviolence": 4182,
      "Ġmauvais": 4183,
      "Â´": 4184,
      "Ġrequ": 4185,
      "Ġanimaux": 4186,
      "Ġexam": 4187,
      "lÃ©g": 4188,
      "Ġcompagnie": 4189,
      "Ġsortir": 4190,
      "ĠToute": 4191,
      "Ġlivres": 4192,
      "Ġsamedi": 4193,
      "ĠDÃ©c": 4194,
      "Ġvillage": 4195,
      "Ã¢tre": 4196,
      "Ġ80": 4197,
      "'s": 4198,
      "Ġimage": 4199,
      "otte": 4200,
      "Ġdevez": 4201,
      "ĠGran": 4202,
      "Ġprofiter": 4203,
      "ĠrÃ©alisÃ©": 4204,
      "delÃł": 4205,
      "rix": 4206,
      "yon": 4207,
      "estation": 4208,
      "anisme": 4209,
      "importance": 4210,
      "Ġsoins": 4211,
      "Ġrenouv": 4212,
      "Ã¨tre": 4213,
      "ĠSal": 4214,
      "Ġnouvel": 4215,
      "Ġvictimes": 4216,
      "ĠimmÃ©diate": 4217,
      "Ġdomaines": 4218,
      "Ġmises": 4219,
      "Ġcollaboration": 4220,
      "ĠYork": 4221,
      "Ġsoumis": 4222,
      "ĠCo": 4223,
      "ĠCet": 4224,
      "Ġsug": 4225,
      "ĠderriÃ¨re": 4226,
      "ref": 4227,
      "olÃ©": 4228,
      "Ġdevait": 4229,
      "Ġerre": 4230,
      "Ã©tablissement": 4231,
      "Ġgagner": 4232,
      "ĠAss": 4233,
      "imm": 4234,
      "Ġcondition": 4235,
      "ĠcomplÃ©ment": 4236,
      "Ġdispose": 4237,
      "Ġlundi": 4238,
      "Ġpubliques": 4239,
      "Ã©rie": 4240,
      "Ġprincipaux": 4241,
      "CI": 4242,
      "Ãªt": 4243,
      "Ġarrive": 4244,
      "OP": 4245,
      "telle": 4246,
      "ertains": 4247,
      "Ġsomme": 4248,
      "parer": 4249,
      "uels": 4250,
      "ĠMac": 4251,
      "appar": 4252,
      "Ġresponsables": 4253,
      "Ġmand": 4254,
      "Ġrecevoir": 4255,
      "Ass": 4256,
      "Ġcompren": 4257,
      "Ġvoire": 4258,
      "Ġby": 4259,
      "ĠindiquÃ©": 4260,
      "Ġpourraient": 4261,
      "isÃ©": 4262,
      "iquement": 4263,
      "chir": 4264,
      "ĠprotÃ©ger": 4265,
      "ĠmÃ©thode": 4266,
      "Tout": 4267,
      "Ġbons": 4268,
      "oulez": 4269,
      "Ġpeau": 4270,
      "ĠCependant": 4271,
      "Ġimag": 4272,
      "va": 4273,
      "ombre": 4274,
      "Ġsil": 4275,
      "Ġbour": 4276,
      "ĠTw": 4277,
      "ĠChine": 4278,
      "avis": 4279,
      "itude": 4280,
      "ĠannoncÃ©": 4281,
      "Ġ500": 4282,
      "ĠBan": 4283,
      "ĠrÃ©union": 4284,
      "by": 4285,
      "net": 4286,
      "ustra": 4287,
      "ositions": 4288,
      "Ã©riques": 4289,
      "Ġcomplet": 4290,
      "ka": 4291,
      "olas": 4292,
      "ĠSte": 4293,
      "ossible": 4294,
      "Ġchoisi": 4295,
      "roit": 4296,
      "gration": 4297,
      "ĠcommencÃ©": 4298,
      "uil": 4299,
      "Ġfaite": 4300,
      "cid": 4301,
      "Ġpron": 4302,
      "Ġtari": 4303,
      "Ġentendu": 4304,
      "association": 4305,
      "ood": 4306,
      "ainte": 4307,
      "Ġmarch": 4308,
      "ĠsupÃ©rieur": 4309,
      "ĠBr": 4310,
      "Ġservir": 4311,
      "Ġpuisqu": 4312,
      "Ġcompter": 4313,
      "ĠdiffÃ©rence": 4314,
      "Ġlettre": 4315,
      "Ġsin": 4316,
      "Ġstand": 4317,
      "ive": 4318,
      "Ġbles": 4319,
      "acte": 4320,
      "ĠdÃ©partement": 4321,
      "oure": 4322,
      "Ġconcours": 4323,
      "iÃ©e": 4324,
      "Ġencou": 4325,
      "Ġvitesse": 4326,
      "Ġbil": 4327,
      "Ġfournir": 4328,
      "Ġdevraient": 4329,
      "ispens": 4330,
      "Ġentier": 4331,
      "onnÃ©": 4332,
      "gue": 4333,
      "ĠamÃ©ricain": 4334,
      "urÃ©e": 4335,
      "Ġrendez": 4336,
      "novation": 4337,
      "quÃ©es": 4338,
      "ĠÃ©lectronique": 4339,
      "user": 4340,
      "Ġfron": 4341,
      "Ã©valuation": 4342,
      "Ġ196": 4343,
      "option": 4344,
      "Ġcrit": 4345,
      "Ġmagas": 4346,
      "arrivÃ©e": 4347,
      "ĠrÃ©glement": 4348,
      "isent": 4349,
      "80": 4350,
      "Ġcontemp": 4351,
      "Ġble": 4352,
      "Ġwith": 4353,
      "ĠphÃ©nom": 4354,
      "ĠdÃ©mont": 4355,
      "ĠpubliÃ©": 4356,
      "Ġprivil": 4357,
      "Ġlignes": 4358,
      "Ġlocales": 4359,
      "osph": 4360,
      "Ġvision": 4361,
      "ĠprocÃ©d": 4362,
      "avez": 4363,
      "angÃ©": 4364,
      "analyse": 4365,
      "Ġconscience": 4366,
      "Ġdiverses": 4367,
      "Ġviv": 4368,
      "Ġprises": 4369,
      "Ġtiers": 4370,
      "anmoins": 4371,
      "ige": 4372,
      "Ġrig": 4373,
      "jouter": 4374,
      "ĠvidÃ©os": 4375,
      "Ġdiscours": 4376,
      "Ã¢teau": 4377,
      "AF": 4378,
      "rages": 4379,
      "____": 4380,
      "Ġtotalement": 4381,
      "Ġsolid": 4382,
      "Ġsources": 4383,
      "Ġcontrib": 4384,
      "blioth": 4385,
      "Ã¢ge": 4386,
      "Ġrapporteur": 4387,
      "SS": 4388,
      "ĠmÃ¨tres": 4389,
      "Ġment": 4390,
      "Ġrecherches": 4391,
      "heur": 4392,
      "ĠexÃ©cu": 4393,
      "objectif": 4394,
      "Ġparfaitement": 4395,
      "Ġperdu": 4396,
      "EL": 4397,
      "ree": 4398,
      "vage": 4399,
      "ĠrÃ¨gle": 4400,
      "ĠSelon": 4401,
      "hors": 4402,
      "unitÃ©": 4403,
      "Ġchangements": 4404,
      "oux": 4405,
      "mentation": 4406,
      "isez": 4407,
      "Ġfrom": 4408,
      "Ġinspi": 4409,
      "Ġorganisations": 4410,
      "ĠSch": 4411,
      "ĠLE": 4412,
      "ĠsÃ©par": 4413,
      "Elle": 4414,
      "Ġemail": 4415,
      "ĠAc": 4416,
      "Ġjoue": 4417,
      "ĠTV": 4418,
      "Ġlargement": 4419,
      "otes": 4420,
      "Ġfera": 4421,
      "ĠbientÃ´t": 4422,
      "ĠmoitiÃ©": 4423,
      "Ġparole": 4424,
      "ĠdÃ©ta": 4425,
      "ranger": 4426,
      "Ġbel": 4427,
      "Ġfilles": 4428,
      ".Â»": 4429,
      "ilier": 4430,
      "mont": 4431,
      "ĠParti": 4432,
      "OUR": 4433,
      "ĠrÃ©d": 4434,
      "Ġchoc": 4435,
      "Ġdisque": 4436,
      "ĠcrÃ©dit": 4437,
      "Ġenvie": 4438,
      "Ġlogiciels": 4439,
      "Ġlour": 4440,
      "rid": 4441,
      "olique": 4442,
      "Ġdistin": 4443,
      "Ġpublication": 4444,
      "ĠproposÃ©": 4445,
      "ĠLond": 4446,
      "AG": 4447,
      "ĠprÃ©cise": 4448,
      "ĠnÃ©cessitÃ©": 4449,
      "Ġ)": 4450,
      "ĠsupplÃ©mentaires": 4451,
      "oe": 4452,
      "ĠprÃ©sentation": 4453,
      "Ġoffres": 4454,
      "ĠpropriÃ©tÃ©": 4455,
      "oubli": 4456,
      "Ġmicro": 4457,
      "cieux": 4458,
      "ĠrÃ©cemment": 4459,
      "Ġabord": 4460,
      "ĠÃ©tude": 4461,
      "Ġsuivante": 4462,
      "Ġdimen": 4463,
      "¿½": 4464,
      "Ġdon": 4465,
      "ï¿½": 4466,
      "ĠcomplÃ¨te": 4467,
      "Ac": 4468,
      "ĠQuel": 4469,
      "ĠpiÃ¨ce": 4470,
      "Ġfen": 4471,
      "ĠrÃ©duction": 4472,
      "Ġcolon": 4473,
      "timis": 4474,
      "Ġrecours": 4475,
      "Ġtenir": 4476,
      "ĠsituÃ©": 4477,
      "dits": 4478,
      "Ġconvi": 4479,
      "initi": 4480,
      "veurs": 4481,
      "ĠVal": 4482,
      "lÃ©e": 4483,
      "ĠOp": 4484,
      "Ġphilosoph": 4485,
      "ĠPal": 4486,
      "ĠprivÃ©": 4487,
      "Ġclair": 4488,
      "achat": 4489,
      "Ġsent": 4490,
      "ary": 4491,
      "Ġbran": 4492,
      "Ġcourse": 4493,
      "Depuis": 4494,
      "hÃ©s": 4495,
      "ĠPR": 4496,
      "cule": 4497,
      "ient": 4498,
      "ĠDa": 4499,
      "Ġcommencer": 4500,
      "ores": 4501,
      "ĠAt": 4502,
      "Ġsujets": 4503,
      "Ġhabitants": 4504,
      "26": 4505,
      "Ġfu": 4506,
      "ĠParlement": 4507,
      "ĠdÃ©sign": 4508,
      "Ġ2003": 4509,
      "Ġfilms": 4510,
      "ĠrÃ©alisation": 4511,
      "omp": 4512,
      "ectu": 4513,
      "Ġpose": 4514,
      "Ġattention": 4515,
      "Ġcommunes": 4516,
      "Ġhom": 4517,
      "Ġcivi": 4518,
      "Ġpieds": 4519,
      "Ġniveaux": 4520,
      "Ã©cran": 4521,
      "ĠprÃ©vu": 4522,
      "Aut": 4523,
      "ĠBi": 4524,
      "Ġobjets": 4525,
      "Ġbru": 4526,
      "Ġchale": 4527,
      "ĠGen": 4528,
      "oÃ¹": 4529,
      "autant": 4530,
      "ĠAut": 4531,
      "ĠcarriÃ¨re": 4532,
      "Ġperspec": 4533,
      "ĠChe": 4534,
      "Ġtendance": 4535,
      "rip": 4536,
      "Ã©tais": 4537,
      "ĠXV": 4538,
      "ĠrÃ©guliÃ¨rement": 4539,
      "Is": 4540,
      "ĠCH": 4541,
      "ĠMo": 4542,
      "Ġ194": 4543,
      "Ġindispens": 4544,
      "tiens": 4545,
      "Ġbras": 4546,
      "Ġarm": 4547,
      "ĠrÃ©el": 4548,
      "ĠMarie": 4549,
      "iche": 4550,
      "Ġrasse": 4551,
      "anne": 4552,
      "ĠprÃªt": 4553,
      "bit": 4554,
      "rits": 4555,
      "Ġcath": 4556,
      "Ġespace": 4557,
      "bon": 4558,
      "old": 4559,
      "andes": 4560,
      "Ġalbum": 4561,
      "ĠconsÃ©quences": 4562,
      "Ġperd": 4563,
      "Ġtravaille": 4564,
      "Ġprincipes": 4565,
      "Ġpouvons": 4566,
      "ĠamÃ©liorer": 4567,
      "installation": 4568,
      "Ġfid": 4569,
      "riques": 4570,
      "igneur": 4571,
      "Ġlesquels": 4572,
      "armÃ©e": 4573,
      "ĠÃ©nerg": 4574,
      "Ġprofonde": 4575,
      "ĠtempÃ©ra": 4576,
      "Ġaffich": 4577,
      "ĠrÃ©serve": 4578,
      "ouvoir": 4579,
      "ĠBer": 4580,
      "Ġtient": 4581,
      "Ġscientifique": 4582,
      "ĠEst": 4583,
      "roph": 4584,
      "Alors": 4585,
      "Ġenregist": 4586,
      "Ġpayer": 4587,
      "UniversitÃ©": 4588,
      "hÃ´": 4589,
      "Ġconnaissances": 4590,
      "Ġyou": 4591,
      "ĠpossÃ¨de": 4592,
      "gÃ©n": 4593,
      "Ã©tro": 4594,
      "Ġprofond": 4595,
      "Ġformat": 4596,
      "ĠdÃ©tails": 4597,
      "Est": 4598,
      "ĠHar": 4599,
      "2012": 4600,
      "log": 4601,
      "Ġfoi": 4602,
      "chn": 4603,
      "gique": 4604,
      "Ġmagnif": 4605,
      "IP": 4606,
      "Ġdouce": 4607,
      "Ġmaximum": 4608,
      "lÃ¨ve": 4609,
      "ĠadoptÃ©": 4610,
      "Ġmorce": 4611,
      "iÃ¨res": 4612,
      "Ġvoulez": 4613,
      "Ġcritique": 4614,
      "onneur": 4615,
      "Ġcourant": 4616,
      "Ġfaisait": 4617,
      "Cont": 4618,
      "yc": 4619,
      "Ġprati": 4620,
      "Ġlimite": 4621,
      "Ġinstitutions": 4622,
      "onge": 4623,
      "ĠPer": 4624,
      "ĠChris": 4625,
      "Ã¨tes": 4626,
      "ĠrÃ©t": 4627,
      "ĠtraitÃ©": 4628,
      "Ġenvis": 4629,
      "Ġcircons": 4630,
      "Ġmu": 4631,
      "Ġpartis": 4632,
      "Ġcertif": 4633,
      "arc": 4634,
      "ĠÃ©d": 4635,
      "talie": 4636,
      "ĠET": 4637,
      "ĠEnfin": 4638,
      "assurer": 4639,
      "ĠpÃ©d": 4640,
      "Ġquit": 4641,
      "Ġfinal": 4642,
      "Ã©roport": 4643,
      "ĠÃ©vÃ©nements": 4644,
      "Ġstu": 4645,
      "opÃ©ra": 4646,
      "Ġdiver": 4647,
      "Ġbiens": 4648,
      "ĠSÃ©nat": 4649,
      "ĠextrÃªme": 4650,
      "Ġremer": 4651,
      "absence": 4652,
      "Ġdevoir": 4653,
      "Ġdevenu": 4654,
      "ĠÃ©volu": 4655,
      "Ġtribun": 4656,
      "ĠrÃ©cu": 4657,
      "luence": 4658,
      "Ġbus": 4659,
      "Ġrevanche": 4660,
      "Ġhumaine": 4661,
      "ĠdÃ©lai": 4662,
      "Ġgo": 4663,
      "ĠOb": 4664,
      "atoires": 4665,
      "ĠBon": 4666,
      "ung": 4667,
      "Ġsouvenir": 4668,
      "Ġlocal": 4669,
      "offre": 4670,
      "ĠrÃ©forme": 4671,
      "Ġpourront": 4672,
      "lisation": 4673,
      "Ġsignifie": 4674,
      "Ġpauvre": 4675,
      "Ġconcept": 4676,
      "Ġinformation": 4677,
      "Mon": 4678,
      "ĠLin": 4679,
      "Ġfinances": 4680,
      "Ġmachine": 4681,
      "Ġpromotion": 4682,
      "hÃ©r": 4683,
      "ĠIntern": 4684,
      "Ġmercredi": 4685,
      "Ġauteurs": 4686,
      "Ġjoli": 4687,
      "ĠprogrÃ¨s": 4688,
      "ĠespÃ¨ces": 4689,
      "unis": 4690,
      "cipl": 4691,
      "Ġavions": 4692,
      "Ġ35": 4693,
      "Ġconsulter": 4694,
      "Ġcentrale": 4695,
      "ĠvÃ©ritÃ©": 4696,
      "ĠrÃ©du": 4697,
      "Ġchans": 4698,
      "ĠfinanciÃ¨re": 4699,
      "ĠcÃ©lÃ¨bre": 4700,
      "Ġvisant": 4701,
      "ĠdÃ©cisions": 4702,
      "ĠchrÃ©": 4703,
      "Ġcroy": 4704,
      "Ġcompt": 4705,
      "venue": 4706,
      "olument": 4707,
      "Ġjeudi": 4708,
      "ĠdÃ©di": 4709,
      "icip": 4710,
      "Ġaccueil": 4711,
      "Ġparcours": 4712,
      "Ġvoici": 4713,
      "Ġutile": 4714,
      "ĠcinÃ©ma": 4715,
      "Â®": 4716,
      "osent": 4717,
      "Ġquelqu": 4718,
      "ĠBou": 4719,
      "pose": 4720,
      "Ġfaudra": 4721,
      "Ġtraite": 4722,
      "chite": 4723,
      "Ġordinateur": 4724,
      "Ġsouhaitez": 4725,
      "Ġparlement": 4726,
      "ĠCommun": 4727,
      "Ġclassique": 4728,
      "sc": 4729,
      "Ġant": 4730,
      "Ġnaissance": 4731,
      "Ġvoud": 4732,
      "tiste": 4733,
      "ĠindÃ©pend": 4734,
      "ĠFond": 4735,
      "Ġvra": 4736,
      "Ġpression": 4737,
      "ĠcompÃ©t": 4738,
      "Ġroi": 4739,
      "Ġrevenus": 4740,
      "ĠÃ©tablissements": 4741,
      "Ġ>": 4742,
      "entrer": 4743,
      "ĠCD": 4744,
      "Ġrevenir": 4745,
      "Ġoeuvre": 4746,
      "Ġatti": 4747,
      "Ġaccue": 4748,
      "Ġimportants": 4749,
      "Ġdessus": 4750,
      "ouss": 4751,
      "Ġchercher": 4752,
      "accomp": 4753,
      "Ġ2002": 4754,
      "oindre": 4755,
      "Ġtrouverez": 4756,
      "ĠNon": 4757,
      "Ġrappelle": 4758,
      "ographique": 4759,
      "21": 4760,
      "Ġconvain": 4761,
      "Ġconver": 4762,
      "ĠcollectivitÃ©s": 4763,
      "Ġfit": 4764,
      "ĠMa": 4765,
      "Ġassure": 4766,
      "Ã©rÃ©e": 4767,
      "ĠLouis": 4768,
      "agers": 4769,
      "Ġsurface": 4770,
      "Ġregr": 4771,
      "Ġjournal": 4772,
      "Ġlancer": 4773,
      "Ġmeilleures": 4774,
      "uclÃ©": 4775,
      "ĠdÃ©penses": 4776,
      "Ġprofessionnel": 4777,
      "obile": 4778,
      "Ġcliquez": 4779,
      "Ġspor": 4780,
      "ĠboÃ®": 4781,
      "Ġinfra": 4782,
      "oilÃł": 4783,
      "Ġamp": 4784,
      "Ġpersonnages": 4785,
      "29": 4786,
      "ames": 4787,
      "ĠbÃ©nÃ©ficier": 4788,
      "tements": 4789,
      "iditÃ©": 4790,
      "Ġparticipants": 4791,
      "Ġutilisant": 4792,
      "ical": 4793,
      "Ġwh": 4794,
      "Ġnul": 4795,
      "chÃ©e": 4796,
      "Ġroman": 4797,
      "Ġprim": 4798,
      "usse": 4799,
      "onses": 4800,
      "Ġcaf": 4801,
      "ilibre": 4802,
      "Ġpaiement": 4803,
      "ĠrÃ©servation": 4804,
      "The": 4805,
      "27": 4806,
      "Ġjoueur": 4807,
      "At": 4808,
      "ĠtÃ©lÃ©ph": 4809,
      "Ġvictoire": 4810,
      "ĠPuis": 4811,
      "ĠmaÃ®tr": 4812,
      "04": 4813,
      "Ġsection": 4814,
      "Ġmentionn": 4815,
      "clam": 4816,
      "Ġmilliers": 4817,
      "Ġcroire": 4818,
      "ĠÃ©videmment": 4819,
      "Ġjuridique": 4820,
      "ĠPhilippe": 4821,
      "ussion": 4822,
      "Ġryth": 4823,
      "Ã©taires": 4824,
      "entra": 4825,
      "Ġrap": 4826,
      "Ġmardi": 4827,
      "Ġsept": 4828,
      "Ġgarder": 4829,
      "Ġparam": 4830,
      "ĠsiÃ¨ge": 4831,
      "28": 4832,
      "33": 4833,
      "Merci": 4834,
      "ks": 4835,
      "Ġpou": 4836,
      "Ġvote": 4837,
      "ĠappelÃ©": 4838,
      "ha": 4839,
      "Ġvieux": 4840,
      "ky": 4841,
      "Ġapproche": 4842,
      "ĠConvention": 4843,
      "Ġlocale": 4844,
      "ĠcatÃ©gorie": 4845,
      "Ġtor": 4846,
      "Ġproxim": 4847,
      "crire": 4848,
      "Ġrenforcer": 4849,
      "spagne": 4850,
      "line": 4851,
      "Ġlu": 4852,
      "ĠCong": 4853,
      "Ġcomptes": 4854,
      "titution": 4855,
      "ĠvoilÃł": 4856,
      "Ġassociations": 4857,
      "Ġhas": 4858,
      "Ġmessages": 4859,
      "ĠcomplÃ©": 4860,
      "effic": 4861,
      "dis": 4862,
      "vitÃ©": 4863,
      "liers": 4864,
      "Ġthat": 4865,
      "yst": 4866,
      "Ġquasi": 4867,
      "Â©": 4868,
      "veux": 4869,
      "ĠrÃ©ponses": 4870,
      "mÃªmes": 4871,
      "ĠJus": 4872,
      "Ġtitres": 4873,
      "rat": 4874,
      "Ġconception": 4875,
      "Ġtouche": 4876,
      "ĠcomplÃ¨tement": 4877,
      "ĠMÃªme": 4878,
      "ĠprÃ©paration": 4879,
      "DF": 4880,
      "len": 4881,
      "usÃ©": 4882,
      "ight": 4883,
      "ssage": 4884,
      "matiques": 4885,
      "issez": 4886,
      "irs": 4887,
      "ĠWi": 4888,
      "Ġadresse": 4889,
      "ĠpÃªche": 4890,
      "Ġcm": 4891,
      "IV": 4892,
      "Ã©rÃ©s": 4893,
      "ĠliÃ©s": 4894,
      "Ġgarantie": 4895,
      "Ġ195": 4896,
      "ĠfrÃ©qu": 4897,
      "existence": 4898,
      "ĠdÃ©claration": 4899,
      "bilitÃ©s": 4900,
      "Ġperte": 4901,
      "oriz": 4902,
      "Ġremb": 4903,
      "ĠAnd": 4904,
      "arn": 4905,
      "expression": 4906,
      "Ã©rap": 4907,
      "ĠreprÃ©sentants": 4908,
      "eth": 4909,
      "Ġhan": 4910,
      "ĠRom": 4911,
      "ĠdÃ©r": 4912,
      "Ġweek": 4913,
      "Bien": 4914,
      "ruire": 4915,
      "Ġvend": 4916,
      "Ġcommunaut": 4917,
      "Ġvirtu": 4918,
      "CO": 4919,
      "aude": 4920,
      "Ġscientifiques": 4921,
      "Ġmur": 4922,
      "ĠgÃ©rer": 4923,
      "Ġnoms": 4924,
      "ĠÃ©quipes": 4925,
      "Ġcapable": 4926,
      "ĠHe": 4927,
      "ĠdÃ©couverte": 4928,
      "ĠprivÃ©e": 4929,
      "ĠrÃ©solution": 4930,
      "Ġroy": 4931,
      "Ġterritori": 4932,
      "keting": 4933,
      "ĠproximitÃ©": 4934,
      "Ġajouter": 4935,
      "Ġdemeure": 4936,
      "Ġintro": 4937,
      "investis": 4938,
      "ĠSc": 4939,
      "anie": 4940,
      "Ġseraient": 4941,
      "raÃ«l": 4942,
      "05": 4943,
      "Ġindic": 4944,
      "vices": 4945,
      "ĠJapon": 4946,
      "Ġauxqu": 4947,
      "Ġprobablement": 4948,
      "ault": 4949,
      "Ne": 4950,
      "ĠCE": 4951,
      "ancien": 4952,
      "omin": 4953,
      "Ġposer": 4954,
      "areil": 4955,
      "ĠdÃ©ch": 4956,
      "Ġaltern": 4957,
      "Ġcapac": 4958,
      "urgence": 4959,
      "Ġdos": 4960,
      "Ġpein": 4961,
      "Ġ2001": 4962,
      "ĠVi": 4963,
      "Ġchin": 4964,
      "ĠGÃ©n": 4965,
      "Ġsigne": 4966,
      "Ġbag": 4967,
      "ĠsoirÃ©e": 4968,
      "aments": 4969,
      "Ġconcert": 4970,
      "Ġrecru": 4971,
      "Ġsauf": 4972,
      "Ġconsiste": 4973,
      "orld": 4974,
      "formes": 4975,
      "Ġcre": 4976,
      "Ġphase": 4977,
      "Ġannonce": 4978,
      "Ġsuivants": 4979,
      "ĠTwitter": 4980,
      "Ġmontrer": 4981,
      "Ġdistance": 4982,
      "ĠrÃ©flexion": 4983,
      "Enfin": 4984,
      "Åĵuvre": 4985,
      "ritÃ©": 4986,
      "Ġapporter": 4987,
      "ĠentiÃ¨rement": 4988,
      "tig": 4989,
      "Ġvigueur": 4990,
      "Ġdehors": 4991,
      "rÃ©h": 4992,
      "auc": 4993,
      "Ġalli": 4994,
      "ĠÃ©levÃ©": 4995,
      "mart": 4996,
      "Ġfutur": 4997,
      "Ġviennent": 4998,
      "Ġinten": 4999,
      "ĠfÃ©min": 5000,
      "mn": 5001,
      "Ġenj": 5002,
      "Ġcorrec": 5003,
      "Ġpopulations": 5004,
      "Ġentend": 5005,
      "ocu": 5006,
      "impression": 5007,
      "Ġconcurrence": 5008,
      "Ġmoderne": 5009,
      "litÃ©": 5010,
      "ĠSuisse": 5011,
      "Ã®le": 5012,
      "09": 5013,
      "Ġproven": 5014,
      "Ġmarques": 5015,
      "Ġsyndic": 5016,
      "Ġtranspar": 5017,
      "Ġdiv": 5018,
      "Ġatteint": 5019,
      "bert": 5020,
      "king": 5021,
      "Ġtellement": 5022,
      "neur": 5023,
      "ĠÃ©tape": 5024,
      "Ġprincipalement": 5025,
      "mine": 5026,
      "ombar": 5027,
      "Ġcapitale": 5028,
      "ata": 5029,
      "esti": 5030,
      "Ġrang": 5031,
      "ĠforcÃ©": 5032,
      "03": 5033,
      "Ġdiz": 5034,
      "umer": 5035,
      "fic": 5036,
      "Ġfurent": 5037,
      "Ġsuivantes": 5038,
      "Ġlac": 5039,
      "Ġhor": 5040,
      "ĠJacques": 5041,
      "MENT": 5042,
      "SI": 5043,
      "Ġfaute": 5044,
      "Ġimpossible": 5045,
      "Ġcellu": 5046,
      "exÃ©cu": 5047,
      "euse": 5048,
      "ĠÃ©mis": 5049,
      "Ġexploit": 5050,
      "Ġarriver": 5051,
      "Ġmunicip": 5052,
      "ĠÃ©poque": 5053,
      "Ã©di": 5054,
      "Ġprofit": 5055,
      "umÃ©": 5056,
      "alisÃ©e": 5057,
      "ĠcÃ©rÃ©": 5058,
      "Ġplans": 5059,
      "ĠÃ©dition": 5060,
      "ancÃ©e": 5061,
      "III": 5062,
      "registre": 5063,
      "Ġmerci": 5064,
      "Ġclairement": 5065,
      "Ã©lect": 5066,
      "oly": 5067,
      "ĠintÃ©rÃªts": 5068,
      "ĠchargÃ©": 5069,
      "Ġdialogue": 5070,
      "ĠNouv": 5071,
      "Ġrelatives": 5072,
      "Ġactuelle": 5073,
      "Ġgross": 5074,
      "Ġconven": 5075,
      "Ġportant": 5076,
      "Ġcivile": 5077,
      "ĠVer": 5078,
      "Ġnoter": 5079,
      "view": 5080,
      "ĠdÃ©marche": 5081,
      "ĠlancÃ©": 5082,
      "Ġinternationales": 5083,
      "Ġcontribution": 5084,
      "Ġoffrir": 5085,
      "ection": 5086,
      "ĠDel": 5087,
      "Ġtiss": 5088,
      "Ġmarchand": 5089,
      "ĠsalariÃ©s": 5090,
      "ley": 5091,
      "Ġhumains": 5092,
      "ura": 5093,
      "Ġradio": 5094,
      "alisÃ©s": 5095,
      "ĠconsidÃ©rÃ©": 5096,
      "Ġpropositions": 5097,
      "allÃ©": 5098,
      "agnes": 5099,
      "ĠtÃ©lÃ©vision": 5100,
      "Ġtenue": 5101,
      "Ġlesquelles": 5102,
      "apitre": 5103,
      "atte": 5104,
      "Ġkil": 5105,
      "ĠLondres": 5106,
      "Ġcontempor": 5107,
      "Ġsurveill": 5108,
      "Ġpersonnels": 5109,
      "Ġ70": 5110,
      "enter": 5111,
      "ĠidÃ©al": 5112,
      "dir": 5113,
      "ĠcapacitÃ©s": 5114,
      "yl": 5115,
      "ourir": 5116,
      "Ġdessin": 5117,
      "ĠNicolas": 5118,
      "ĠCas": 5119,
      "Ġrur": 5120,
      "ĠgoÃ»t": 5121,
      "riculture": 5122,
      "Ġaime": 5123,
      "ste": 5124,
      "Ġvaut": 5125,
      "Ġadress": 5126,
      "agÃ©e": 5127,
      "Ġ=": 5128,
      "Ã©taient": 5129,
      "ĠprÃ©occup": 5130,
      "ĠgÃ©nÃ©ration": 5131,
      "Ġresse": 5132,
      "ĠscÃ©n": 5133,
      "Ġfonctionne": 5134,
      "liquez": 5135,
      "agent": 5136,
      "Ġcontenus": 5137,
      "Ġnormes": 5138,
      "ĠreprÃ©sentant": 5139,
      "mais": 5140,
      "Ġdistribution": 5141,
      "pital": 5142,
      "uner": 5143,
      "Ġinqui": 5144,
      "Ġ!!!": 5145,
      "Ġdiffusion": 5146,
      "xe": 5147,
      "Ġpersonnage": 5148,
      "ham": 5149,
      "raison": 5150,
      "Ġfigure": 5151,
      "Ġchauff": 5152,
      "ker": 5153,
      "sons": 5154,
      "ĠAfrique": 5155,
      "Ġhe": 5156,
      "ĠmÃ©thodes": 5157,
      "ĠimmÃ©diatement": 5158,
      "ĠÃ©coles": 5159,
      "affaire": 5160,
      "ganis": 5161,
      "ĠnuclÃ©": 5162,
      "Ġend": 5163,
      "assin": 5164,
      "Ġretourn": 5165,
      "ĠamÃ©ricaine": 5166,
      "limin": 5167,
      "ĠÃ©lÃ©ment": 5168,
      "ĠfÃªte": 5169,
      "ĠdÃ©finition": 5170,
      "ĠutilisÃ©s": 5171,
      "Ġmodification": 5172,
      "Ġhumain": 5173,
      "Ġtableau": 5174,
      "Que": 5175,
      "Ġsold": 5176,
      "vet": 5177,
      "Ø§": 5178,
      "Ã©tranger": 5179,
      "orisation": 5180,
      "apes": 5181,
      "Ġpopulaire": 5182,
      "gr": 5183,
      "veille": 5184,
      "Ãªcher": 5185,
      "appro": 5186,
      "Ġmilitaires": 5187,
      "ball": 5188,
      "ĠdÃ©v": 5189,
      "Ġcouple": 5190,
      "ĠchaÃ®ne": 5191,
      "Car": 5192,
      "Ġcontient": 5193,
      "ĠrÃ¨glement": 5194,
      "Ġconduite": 5195,
      "Ġrac": 5196,
      "stitut": 5197,
      "ouer": 5198,
      "Ġhauteur": 5199,
      "augment": 5200,
      "Ġvide": 5201,
      "Ġrecettes": 5202,
      "Ġcos": 5203,
      "ousse": 5204,
      "agog": 5205,
      "Ġmultip": 5206,
      "ĠmÃ©decin": 5207,
      "TR": 5208,
      "Ġvise": 5209,
      "Ġbra": 5210,
      "ĠdÃ©mocratie": 5211,
      "DÃ©c": 5212,
      "Pierre": 5213,
      "lah": 5214,
      "own": 5215,
      "Ġguide": 5216,
      "ĠrÃ©pÃ©": 5217,
      "EC": 5218,
      "Ġcong": 5219,
      "abil": 5220,
      "ĠBeau": 5221,
      "uelles": 5222,
      "tellectu": 5223,
      "Ġpuiss": 5224,
      "Ġ90": 5225,
      "ĠAff": 5226,
      "ĠMer": 5227,
      "ĠRes": 5228,
      "ĠinfÃ©ri": 5229,
      "ĠcritÃ¨res": 5230,
      "Ġbande": 5231,
      "cession": 5232,
      "Ã´te": 5233,
      "Ġhandic": 5234,
      "ĠSes": 5235,
      "Ġpartenaire": 5236,
      "ĠTrans": 5237,
      "Ġcade": 5238,
      "ĠapprÃ©ci": 5239,
      "orth": 5240,
      "ĠportÃ©e": 5241,
      "Ġconvient": 5242,
      "miques": 5243,
      "ĠlÃ©giti": 5244,
      "ĠSam": 5245,
      "ends": 5246,
      "Ġavantages": 5247,
      "Ġlance": 5248,
      "verse": 5249,
      "Ġriche": 5250,
      "Ġmusul": 5251,
      "Ġbio": 5252,
      "orn": 5253,
      "Ġconstruire": 5254,
      "iant": 5255,
      "anique": 5256,
      "ĠeuropÃ©ens": 5257,
      "Ġatteindre": 5258,
      "ty": 5259,
      "Ġrecette": 5260,
      "Ġorganisation": 5261,
      "heureusement": 5262,
      "Ġtes": 5263,
      "cepti": 5264,
      "Ġminimum": 5265,
      "tienne": 5266,
      "Ġara": 5267,
      "ĠCap": 5268,
      "Ġjardin": 5269,
      "Ġaffec": 5270,
      "Ġveulent": 5271,
      "Ġcandidat": 5272,
      "Ġmodes": 5273,
      "ctionn": 5274,
      "ĠcaractÃ©ristiques": 5275,
      "ĠprÃ©parer": 5276,
      "ĠUnies": 5277,
      "Ġoccu": 5278,
      "Ġchauss": 5279,
      "Ġbonheur": 5280,
      "ĠsÃ©n": 5281,
      "ĠclÃ©": 5282,
      "Ġvert": 5283,
      "35": 5284,
      "Ġperformance": 5285,
      "Ġprol": 5286,
      "fication": 5287,
      "Ġexer": 5288,
      "Ġprincipale": 5289,
      "Ġcollabor": 5290,
      "Ġ45": 5291,
      "Allemagne": 5292,
      "Ġdemandes": 5293,
      "Ġlait": 5294,
      "Ġrevient": 5295,
      "Ġallez": 5296,
      "ĠSans": 5297,
      "enture": 5298,
      "Ġfar": 5299,
      "Ġcentres": 5300,
      "Ã¨ce": 5301,
      "Ġserveur": 5302,
      "Ġferme": 5303,
      "Ġengage": 5304,
      "Ġartistes": 5305,
      "Ġsentiment": 5306,
      "Voici": 5307,
      "Ã¼": 5308,
      "tionnaire": 5309,
      "orge": 5310,
      "ray": 5311,
      "usage": 5312,
      "ols": 5313,
      "ĠTu": 5314,
      "ĠÃ©lections": 5315,
      "Ġarmes": 5316,
      "ĠpensÃ©e": 5317,
      "ĠtÃ´t": 5318,
      "Ġendroit": 5319,
      "Ã©galitÃ©": 5320,
      "riel": 5321,
      "Ġsubst": 5322,
      "Ġseuls": 5323,
      "Ġsommet": 5324,
      "Quel": 5325,
      "Ġutilisation": 5326,
      "ĠintÃ©rÃªt": 5327,
      "ĠAg": 5328,
      "Ġtrouvent": 5329,
      "pas": 5330,
      "illa": 5331,
      "Ġfournisse": 5332,
      "ĠNoÃ«l": 5333,
      "ms": 5334,
      "Ġdiscussion": 5335,
      "Ġveille": 5336,
      "ĠcoÃ»ts": 5337,
      "ĠPS": 5338,
      "Ġrub": 5339,
      "Ġstation": 5340,
      "intÃ©gration": 5341,
      "Ġlux": 5342,
      "ĠPrin": 5343,
      "entissage": 5344,
      "ĠmÃ©n": 5345,
      "Ġdevra": 5346,
      "ĠcomitÃ©": 5347,
      "Ġvolume": 5348,
      "45": 5349,
      "Ġja": 5350,
      "lation": 5351,
      "Ġpertin": 5352,
      "Ã©cri": 5353,
      "Quand": 5354,
      "ague": 5355,
      "Ġpassant": 5356,
      "ĠtÃ©lÃ©charge": 5357,
      "gi": 5358,
      "avons": 5359,
      "Ġperdre": 5360,
      "effectu": 5361,
      "Ġvoulu": 5362,
      "Ġfinanciers": 5363,
      "rich": 5364,
      "Ġintellectu": 5365,
      "Ġchasse": 5366,
      "Ã©sus": 5367,
      "PR": 5368,
      "ĠprÃ©al": 5369,
      "Ġsugg": 5370,
      "rets": 5371,
      "Ġfins": 5372,
      "Ġbrit": 5373,
      "Ġrevenu": 5374,
      "ombardier": 5375,
      "tiennent": 5376,
      "arkoz": 5377,
      "oureux": 5378,
      "Ġmig": 5379,
      "ĠmÃ©tier": 5380,
      "ĠCanadi": 5381,
      "ĠmaÃ®tre": 5382,
      "Ġofficiel": 5383,
      "ĠmÃ©dicaments": 5384,
      "astique": 5385,
      "Ġlogement": 5386,
      "Ġfruits": 5387,
      "ouvrez": 5388,
      "Ġsecteurs": 5389,
      "Ġaband": 5390,
      "Ġjournalistes": 5391,
      "truction": 5392,
      "erie": 5393,
      "Ġbate": 5394,
      "veg": 5395,
      "Ġpartenariat": 5396,
      "Ġperformances": 5397,
      "Ġcertainement": 5398,
      "range": 5399,
      "entrepr": 5400,
      "Ġsert": 5401,
      "Ġvaste": 5402,
      "Ġreb": 5403,
      "ĠAujourd": 5404,
      "ĠChaque": 5405,
      "Ġcomportement": 5406,
      "efficacitÃ©": 5407,
      "ĠMag": 5408,
      "Ġsusp": 5409,
      "ĠDavid": 5410,
      "Ġfinale": 5411,
      "ĠliÃ©es": 5412,
      "Ġadul": 5413,
      "igh": 5414,
      "tenue": 5415,
      "Ġmandat": 5416,
      "IM": 5417,
      "Ġallemand": 5418,
      "tenus": 5419,
      "Selon": 5420,
      "Ġrejet": 5421,
      "Ġconnexion": 5422,
      "ju": 5423,
      "Ġfranco": 5424,
      "Ġbiblioth": 5425,
      "Ġbless": 5426,
      "36": 5427,
      "Ġafric": 5428,
      "ussions": 5429,
      "Ġmultiples": 5430,
      "ouvrir": 5431,
      "terie": 5432,
      "Ġprofesseur": 5433,
      "Ġcontacter": 5434,
      "oeu": 5435,
      "Ġit": 5436,
      "exercice": 5437,
      "osÃ©e": 5438,
      "uellement": 5439,
      "Ġare": 5440,
      "nom": 5441,
      "Ġbelles": 5442,
      "ĠOui": 5443,
      "Ġlangues": 5444,
      "Ġappelle": 5445,
      "ĠIN": 5446,
      "ino": 5447,
      "osÃ©s": 5448,
      "utation": 5449,
      "Ġoccup": 5450,
      "ĠEl": 5451,
      "Ġprincipales": 5452,
      "ĠcafÃ©": 5453,
      "inet": 5454,
      "ĠMonsieur": 5455,
      "Ġchercheurs": 5456,
      "iteurs": 5457,
      "onte": 5458,
      "Ġexac": 5459,
      "ĠPourquoi": 5460,
      "ĠÃ©trangers": 5461,
      "Ġchiffres": 5462,
      "ĠprivilÃ©g": 5463,
      "osant": 5464,
      "Ġfallait": 5465,
      "Ã´ts": 5466,
      "ĠpossibilitÃ©s": 5467,
      "ĠQui": 5468,
      "ĠPat": 5469,
      "99": 5470,
      "Notre": 5471,
      "diques": 5472,
      "licitÃ©": 5473,
      "ertes": 5474,
      "Ġconduit": 5475,
      "ĠdÃ©cor": 5476,
      "ĠdÃ©sir": 5477,
      "Ġacheter": 5478,
      "Ġfant": 5479,
      "Ġrepas": 5480,
      "Ġfinancier": 5481,
      "ĠquantitÃ©": 5482,
      "asc": 5483,
      "ĠGal": 5484,
      "ĠaÃ©ri": 5485,
      "ĠintÃ©ressant": 5486,
      "Ġmoindre": 5487,
      "Ġesti": 5488,
      "Ġarchite": 5489,
      "assÃ©": 5490,
      "ruption": 5491,
      "06": 5492,
      "Ġmaintenir": 5493,
      "Ġneuf": 5494,
      "ĠLorsque": 5495,
      "ĠTer": 5496,
      "Ġpouvoirs": 5497,
      "Phone": 5498,
      "ĠBern": 5499,
      "Ġestime": 5500,
      "Ġcoups": 5501,
      "ĠÃ©trangÃ¨res": 5502,
      "mise": 5503,
      "Ġhuit": 5504,
      "chives": 5505,
      "Ġautomatiquement": 5506,
      "Ġsoutenir": 5507,
      "TER": 5508,
      "Ġparis": 5509,
      "Ġlogique": 5510,
      "2013": 5511,
      "??": 5512,
      "rimÃ©": 5513,
      "Ġmotiv": 5514,
      "annique": 5515,
      "Ġital": 5516,
      "Ã©lection": 5517,
      "ory": 5518,
      "attention": 5519,
      "Ġceci": 5520,
      "ĠÃ©pis": 5521,
      "ices": 5522,
      "enquÃªte": 5523,
      "ussie": 5524,
      "rÃ©sil": 5525,
      "ĠGroupe": 5526,
      "Ġhandicap": 5527,
      "Ġfoot": 5528,
      "ĠcommunautÃ©s": 5529,
      "Ġanciens": 5530,
      "Ġimportantes": 5531,
      "Ġorganismes": 5532,
      "Ġfournit": 5533,
      "utilisateur": 5534,
      "tiÃ¨res": 5535,
      "ouvertes": 5536,
      "arkozy": 5537,
      "IF": 5538,
      "Ġpassionn": 5539,
      "ĠGra": 5540,
      "Ġmenu": 5541,
      "ĠmÃ©lange": 5542,
      "ĠJourn": 5543,
      "Ġtre": 5544,
      "Ġfini": 5545,
      "ĠcÃ©lÃ©": 5546,
      "Ġfus": 5547,
      "Ġproduire": 5548,
      "Ġhier": 5549,
      "Ġfortement": 5550,
      "Ġtransp": 5551,
      "PrÃ©": 5552,
      "Ġdoule": 5553,
      "rairement": 5554,
      "glet": 5555,
      "Ġprison": 5556,
      "Ġprogressi": 5557,
      "32": 5558,
      "Ġsignal": 5559,
      "ĠspÃ©cial": 5560,
      "ĠÃ©vid": 5561,
      "istan": 5562,
      "ĠprÃ©vention": 5563,
      "Ġconflit": 5564,
      "icher": 5565,
      "last": 5566,
      "ĠDeux": 5567,
      "Ġ300": 5568,
      "ĠRich": 5569,
      "Ġrob": 5570,
      "Ġfrapp": 5571,
      "Ġattendre": 5572,
      "Ġpouvant": 5573,
      "Ġrespecter": 5574,
      "08": 5575,
      "fon": 5576,
      "ĠRobert": 5577,
      "can": 5578,
      "Ġaffaire": 5579,
      "ĠMes": 5580,
      "Ġnationaux": 5581,
      "ĠPremier": 5582,
      "ĠcollÃ¨gues": 5583,
      "07": 5584,
      "estations": 5585,
      "Ġvisiteurs": 5586,
      "ĠMad": 5587,
      "Ġsor": 5588,
      "jus": 5589,
      "Ġlecteur": 5590,
      "Ġjur": 5591,
      "entielle": 5592,
      "Ġreconnaissance": 5593,
      "Ġrestaurant": 5594,
      "Ġspectacle": 5595,
      "Ġcla": 5596,
      "tisme": 5597,
      "Ġtotale": 5598,
      "huile": 5599,
      "ml": 5600,
      "Ġrenforce": 5601,
      "Ġmou": 5602,
      "ĠTour": 5603,
      "ĠRou": 5604,
      "ĠsÃ©ance": 5605,
      "Ġoptions": 5606,
      "Ġsucre": 5607,
      "Ġlangage": 5608,
      "MS": 5609,
      "ĠMc": 5610,
      "Ġrenouvel": 5611,
      "Ġpharm": 5612,
      "ĠparticuliÃ¨re": 5613,
      "ĠbeautÃ©": 5614,
      "identitÃ©": 5615,
      "Ġregret": 5616,
      "engagement": 5617,
      "ĠdifficultÃ©": 5618,
      "ĠTor": 5619,
      "Ġmassi": 5620,
      "ausse": 5621,
      "DÃ©": 5622,
      "inion": 5623,
      "Ġrent": 5624,
      "Ġvisage": 5625,
      "Ġidenti": 5626,
      "Ġcrimin": 5627,
      "ĠspÃ©cifique": 5628,
      "ĠvÃ©hicule": 5629,
      "issait": 5630,
      "oct": 5631,
      "rick": 5632,
      "assement": 5633,
      "Ġconfront": 5634,
      "Ġabsolument": 5635,
      "Ġmine": 5636,
      "Ġdange": 5637,
      "ĠCro": 5638,
      "Ġanalyse": 5639,
      "Ġfame": 5640,
      "uves": 5641,
      "ĠpÃ©": 5642,
      "Ġajoute": 5643,
      "Ġate": 5644,
      "arr": 5645,
      "Ġcomplexe": 5646,
      "laire": 5647,
      "Ġsuit": 5648,
      "lub": 5649,
      "Ġjeunesse": 5650,
      "Ġjudiciaire": 5651,
      "Ġventes": 5652,
      "iennes": 5653,
      "ĠOff": 5654,
      "Ġbloc": 5655,
      "Ġagents": 5656,
      "Du": 5657,
      "Se": 5658,
      "inaire": 5659,
      "ĠPort": 5660,
      "assurance": 5661,
      "Ġmissions": 5662,
      "tiver": 5663,
      "Ġconnais": 5664,
      "ĠsoulignÃ©": 5665,
      "Ġquin": 5666,
      "crimin": 5667,
      "Ġdynamique": 5668,
      "entraÃ®": 5669,
      "Ġchiffre": 5670,
      "mbler": 5671,
      "ayer": 5672,
      "plus": 5673,
      "Ġlimites": 5674,
      "Ġalimentaire": 5675,
      "ĠToutefois": 5676,
      "tise": 5677,
      "Ġbaisse": 5678,
      "ĠForum": 5679,
      "Ġdiscu": 5680,
      "ĠprÃ©voit": 5681,
      "ĠprocÃ©dures": 5682,
      "Ġ1999": 5683,
      "effet": 5684,
      "Ġrenv": 5685,
      "Ġreligie": 5686,
      "gramme": 5687,
      "Ġdossiers": 5688,
      "ound": 5689,
      "Ġfabri": 5690,
      "Ġcandidats": 5691,
      "Ġrappeler": 5692,
      "ĠrÃªve": 5693,
      "ĠpÃ¢": 5694,
      "Ġmouvements": 5695,
      "Ġkilom": 5696,
      "Ġnationales": 5697,
      "ypoth": 5698,
      "Ġgratuitement": 5699,
      "Ġactuel": 5700,
      "Ġscience": 5701,
      "ĠJÃ©sus": 5702,
      "QUE": 5703,
      "tta": 5704,
      "ram": 5705,
      "avance": 5706,
      "Ã©bÃ©c": 5707,
      "Ġdanger": 5708,
      "Ġtop": 5709,
      "ĠspÃ©cifiques": 5710,
      "ĠCa": 5711,
      "ĠService": 5712,
      "Ġscolaire": 5713,
      "oue": 5714,
      "ĠdÃ©lÃ©gu": 5715,
      "Ser": 5716,
      "outil": 5717,
      "Ġpromouvoir": 5718,
      "31": 5719,
      "Ġmanger": 5720,
      "Ġstatis": 5721,
      "ĠÃ©cran": 5722,
      "ligne": 5723,
      "adame": 5724,
      "ĠÃ©tabli": 5725,
      "ĠbÃ©b": 5726,
      "Ġallons": 5727,
      "ĠpropriÃ©taire": 5728,
      "Ġappropri": 5729,
      "ĠorganisÃ©": 5730,
      "Ġcommentaire": 5731,
      "Ġenregistre": 5732,
      "moi": 5733,
      "Ġcompati": 5734,
      "Ġfaciliter": 5735,
      "instru": 5736,
      "Ġfaibles": 5737,
      "Ġtap": 5738,
      "ĠprÃ©t": 5739,
      "ĠGl": 5740,
      ".-": 5741,
      "oirs": 5742,
      "Ġdevons": 5743,
      "02": 5744,
      "Ġindispensable": 5745,
      "Ġsuscepti": 5746,
      "France": 5747,
      "Ġauquel": 5748,
      "Ġintellig": 5749,
      "...]": 5750,
      "Ġallait": 5751,
      "ĠtÃ©lÃ©charger": 5752,
      "Fran": 5753,
      "Ã©tiques": 5754,
      "agir": 5755,
      "ĠconÃ§": 5756,
      "ĠDES": 5757,
      "ĠpÃ©tro": 5758,
      "Ġsciences": 5759,
      "Ġmani": 5760,
      "Ġfroid": 5761,
      "imag": 5762,
      "Ġvivant": 5763,
      "pre": 5764,
      "autom": 5765,
      "Ġportes": 5766,
      "ĠCam": 5767,
      "Ġimpres": 5768,
      "Ġ75": 5769,
      "accep": 5770,
      "Ġapplic": 5771,
      "ĠfranÃ§aises": 5772,
      "her": 5773,
      "ĠdÃ©cide": 5774,
      "ĠÃ©lab": 5775,
      "ester": 5776,
      "Ġrestent": 5777,
      "Ã©ber": 5778,
      "ĠaccÃ©der": 5779,
      "Ġvent": 5780,
      "Ġesprit": 5781,
      "fl": 5782,
      "rime": 5783,
      "Ġconcent": 5784,
      "Ġdemain": 5785,
      "Ġtradition": 5786,
      "ĠemployÃ©s": 5787,
      "IX": 5788,
      "stname": 5789,
      "ĠmÃ©d": 5790,
      "lastname": 5791,
      "ĠcitÃ©": 5792,
      "Ġemploi": 5793,
      "ĠvÃ©rifier": 5794,
      "Ġchaud": 5795,
      "Ġbouton": 5796,
      "Ġenvers": 5797,
      "ĠCharles": 5798,
      ":||": 5799,
      "ĠagrÃ©able": 5800,
      "acÃ©": 5801,
      "examen": 5802,
      "ĠMi": 5803,
      "Ġacqu": 5804,
      "Ġlabor": 5805,
      "ĠrÃ©di": 5806,
      "ĠAir": 5807,
      "ĠDU": 5808,
      "Ġsalon": 5809,
      "ĠcompÃ©ti": 5810,
      "Bonjour": 5811,
      "Ġouverte": 5812,
      "ĩa": 5813,
      "Ġindique": 5814,
      "Ġspir": 5815,
      "Ġtabl": 5816,
      "AB": 5817,
      "Ġregarder": 5818,
      "Ġmaladies": 5819,
      "ĠutilisÃ©e": 5820,
      "Ġactes": 5821,
      "archite": 5822,
      "Su": 5823,
      "Ġjapon": 5824,
      "ĠSarkozy": 5825,
      "Ab": 5826,
      "red": 5827,
      "iler": 5828,
      "ĠRÃ©g": 5829,
      "Ġconsommateurs": 5830,
      "olf": 5831,
      "nez": 5832,
      "Ġmaisons": 5833,
      "ĠHer": 5834,
      "ĠsecrÃ©taire": 5835,
      "Ġlende": 5836,
      "Ġgri": 5837,
      "dex": 5838,
      "Ġcheval": 5839,
      "ĠmusÃ©e": 5840,
      "ĠEntre": 5841,
      "ĠlittÃ©ra": 5842,
      "ĠrÃ©ussite": 5843,
      "34": 5844,
      "Ġplat": 5845,
      "accÃ©": 5846,
      "ĠajoutÃ©": 5847,
      "ĠGrande": 5848,
      "ĠBas": 5849,
      "Ġtraduction": 5850,
      "Ġsituations": 5851,
      "ĠphÃ©nomÃ¨ne": 5852,
      "Ġthis": 5853,
      "Ġchefs": 5854,
      "aign": 5855,
      "Ġsimil": 5856,
      "isÃ©e": 5857,
      "Ġinternationaux": 5858,
      "public": 5859,
      "ĠCal": 5860,
      "Ġgrave": 5861,
      "Article": 5862,
      "citÃ©": 5863,
      "stÃ©": 5864,
      "vait": 5865,
      "Ġauront": 5866,
      "2014": 5867,
      "ationale": 5868,
      "Ġinterne": 5869,
      "Ġvertu": 5870,
      "Ġmontagne": 5871,
      "Ġpen": 5872,
      "Ġciel": 5873,
      "ĠextrÃªmement": 5874,
      "berg": 5875,
      "ĠGar": 5876,
      "anitÃ©": 5877,
      "occu": 5878,
      "Ġpassion": 5879,
      "tification": 5880,
      "ĠprÃ©sents": 5881,
      "Ġassi": 5882,
      "niversaire": 5883,
      "ĠJu": 5884,
      "Ã©nagement": 5885,
      "Ġmarketing": 5886,
      "Ġcapital": 5887,
      "Ġaccessible": 5888,
      "Ġnett": 5889,
      "Ġenne": 5890,
      "Ġconcl": 5891,
      "ney": 5892,
      "ĠtempÃ©rature": 5893,
      "inÃ©e": 5894,
      "ila": 5895,
      "cts": 5896,
      "Ġpure": 5897,
      "ties": 5898,
      "ĠTerre": 5899,
      "90": 5900,
      "ET": 5901,
      "nÃ©s": 5902,
      "Ġtirer": 5903,
      "Ġretard": 5904,
      "ĠRussie": 5905,
      "ĠCrÃ©": 5906,
      "exposition": 5907,
      "Ġpoursu": 5908,
      "Ġpros": 5909,
      "ĠEd": 5910,
      "ĠconnaÃ®t": 5911,
      "Ġdoig": 5912,
      "Ġreconnu": 5913,
      "Ġoublier": 5914,
      "Ġoccasion": 5915,
      "ko": 5916,
      "Ġdois": 5917,
      "Ġsauveg": 5918,
      "Ġpur": 5919,
      "ĠAli": 5920,
      "Ġsimples": 5921,
      "ĠCertains": 5922,
      "70": 5923,
      "ĠRome": 5924,
      "Ġconservation": 5925,
      "autÃ©": 5926,
      "agriculture": 5927,
      "opposition": 5928,
      "Ġauraient": 5929,
      "hiver": 5930,
      "ĠRo": 5931,
      "Ġdiscipl": 5932,
      "Ã©rale": 5933,
      "piration": 5934,
      "ĠplanÃ¨te": 5935,
      "38": 5936,
      "ĠIII": 5937,
      "chez": 5938,
      "Ġimmob": 5939,
      "oiles": 5940,
      "lim": 5941,
      "ĠSeigneur": 5942,
      "cte": 5943,
      "ataire": 5944,
      "ĠSp": 5945,
      "Ġheureux": 5946,
      "Ġmasse": 5947,
      "Ġvain": 5948,
      "ĠCel": 5949,
      "Ġacquis": 5950,
      "ĠconsÃ©quent": 5951,
      "ĠfrÃ¨re": 5952,
      "Ġsoin": 5953,
      "obtenir": 5954,
      "ĠâĢĺ": 5955,
      "vidus": 5956,
      "Ġappli": 5957,
      "Ã©vÃ©": 5958,
      "Ã©tudes": 5959,
      "Ġexplo": 5960,
      "investissement": 5961,
      "ĠforcÃ©ment": 5962,
      "ĠEN": 5963,
      "ica": 5964,
      "illant": 5965,
      "Ã©dÃ©ration": 5966,
      "arer": 5967,
      "Ġinstant": 5968,
      "Ġdirigeants": 5969,
      "ĠprocÃ¨s": 5970,
      "Ġlettres": 5971,
      "ĠNi": 5972,
      "ĠdiversitÃ©": 5973,
      "ala": 5974,
      "Ġchant": 5975,
      "miÃ¨re": 5976,
      "Ġconstituent": 5977,
      "ĠTur": 5978,
      "ĠapparaÃ®t": 5979,
      "fer": 5980,
      "Ġfront": 5981,
      "Ġproches": 5982,
      "mÃ©s": 5983,
      "Ġhausse": 5984,
      "Ġdomicile": 5985,
      "ĠconsidÃ©rable": 5986,
      "AI": 5987,
      "nÃ©e": 5988,
      "Ġapprendre": 5989,
      "Ġintitu": 5990,
      "Ġgarantir": 5991,
      "Ġvul": 5992,
      "Ġobtenu": 5993,
      "Ġray": 5994,
      "trÃ©": 5995,
      "ĠCN": 5996,
      "Ġcorre": 5997,
      "Ġversions": 5998,
      "Institut": 5999,
      "Ġretraite": 6000,
      "Pas": 6001,
      "ĠMartin": 6002,
      "RÃ©": 6003,
      "ĠpÃ¢te": 6004,
      "chet": 6005,
      "ĠSan": 6006,
      "Ġremise": 6007,
      "Ġcirconst": 6008,
      "Ġblo": 6009,
      "Ã©lo": 6010,
      "Ġsurveillance": 6011,
      "Ġjui": 6012,
      "ĠFer": 6013,
      "fier": 6014,
      "ĠÃ©tapes": 6015,
      "Ã§a": 6016,
      "Ġdestination": 6017,
      "75": 6018,
      "vÃ©es": 6019,
      "ommage": 6020,
      "Ġmeur": 6021,
      "ĠfonctionnalitÃ©s": 6022,
      "Ġnet": 6023,
      "Ġinnov": 6024,
      "Ãªtements": 6025,
      "ĠrÃ©fug": 6026,
      "Ġlicence": 6027,
      "Cl": 6028,
      "ott": 6029,
      "Ġpossibles": 6030,
      "Ġbilan": 6031,
      "ull": 6032,
      "Ġpolici": 6033,
      "hÃ©sion": 6034,
      "Ġlendemain": 6035,
      "ĠÃ®": 6036,
      "Ġball": 6037,
      "ĠeuropÃ©ennes": 6038,
      "Ġobligatoire": 6039,
      "Ġpoursuivre": 6040,
      "lande": 6041,
      "ĠVen": 6042,
      "ĠconsÃ©quence": 6043,
      "Ġsuffisamment": 6044,
      "honneur": 6045,
      "Ã®t": 6046,
      "Ġculturel": 6047,
      "Ġengagement": 6048,
      "Ġordre": 6049,
      "Ġinves": 6050,
      "identif": 6051,
      "Ġexter": 6052,
      "ĠnommÃ©": 6053,
      "za": 6054,
      "Ġcommercial": 6055,
      "uÃ©": 6056,
      "ĠrÃ©flÃ©": 6057,
      "Ġvraie": 6058,
      "ĠMax": 6059,
      "ĠProf": 6060,
      "Ã©qui": 6061,
      "commun": 6062,
      "Tous": 6063,
      "Ġbillet": 6064,
      "Ġracont": 6065,
      "ĠVotre": 6066,
      "Ġremont": 6067,
      "enregistre": 6068,
      "Ġeaux": 6069,
      "Ġpersonnelles": 6070,
      "Cet": 6071,
      "ware": 6072,
      "ĠrÃ©ception": 6073,
      "ĠDis": 6074,
      "intervention": 6075,
      "ĠvÃ©hicules": 6076,
      "duits": 6077,
      "Ġsecret": 6078,
      "ĠInternational": 6079,
      "onique": 6080,
      "Ġpostes": 6081,
      "ĠprÃ©cisÃ©ment": 6082,
      "issements": 6083,
      "Ġfestival": 6084,
      "Ġmauvaise": 6085,
      "Ġbac": 6086,
      "Ã©mie": 6087,
      "oste": 6088,
      "cou": 6089,
      "Ġremettre": 6090,
      "ings": 6091,
      "PE": 6092,
      "pt": 6093,
      "Ġglis": 6094,
      "ĠVoici": 6095,
      "obe": 6096,
      "Ġexperts": 6097,
      "ĠcÃ´tÃ©s": 6098,
      "Ġsurprise": 6099,
      "Ġaspects": 6100,
      "ĠMerci": 6101,
      "Ġattra": 6102,
      "Ã©lab": 6103,
      "ora": 6104,
      "ĠprÃ©cÃ©dent": 6105,
      "work": 6106,
      "Ã¨che": 6107,
      "Ġconfiguration": 6108,
      "AmÃ©rique": 6109,
      "ĠpÃ©r": 6110,
      "Ġtruc": 6111,
      "Ġtravailleurs": 6112,
      "ĠÃ©changes": 6113,
      "Ġmorts": 6114,
      "illets": 6115,
      "Ġnotes": 6116,
      "ollande": 6117,
      "Eglise": 6118,
      "Ġfre": 6119,
      "ĠRec": 6120,
      "venu": 6121,
      "Ġrencontrer": 6122,
      "Ġmoments": 6123,
      "gleterre": 6124,
      "Ġfrag": 6125,
      "Ġprofil": 6126,
      "ĠsupÃ©rieure": 6127,
      "ycl": 6128,
      "Ġmam": 6129,
      "ĠToul": 6130,
      "ĠÃ©lectrique": 6131,
      "Ġvouloir": 6132,
      "Ġjournaliste": 6133,
      "leur": 6134,
      "bourg": 6135,
      "Ġfier": 6136,
      "Ġbarre": 6137,
      "Ġlivraison": 6138,
      "Ġvoyages": 6139,
      "Ġmass": 6140,
      "roniques": 6141,
      "Ġmenace": 6142,
      "aÃ©roport": 6143,
      "ĠMonde": 6144,
      "ĠRi": 6145,
      "actualitÃ©": 6146,
      "Ġsession": 6147,
      "Ġstructures": 6148,
      "Ġlancement": 6149,
      "ĠPr": 6150,
      "ĠDr": 6151,
      "Ġru": 6152,
      "igue": 6153,
      "Ġclin": 6154,
      "ĠÅĵuvres": 6155,
      "Ġpatients": 6156,
      "Ġprovince": 6157,
      "Ġmonsieur": 6158,
      "ĠXX": 6159,
      "Ġcircu": 6160,
      "ĠrÃ©ellement": 6161,
      "aider": 6162,
      "Ġtraiter": 6163,
      "ouveau": 6164,
      "hÃ©sitez": 6165,
      "Voir": 6166,
      "Ã´mes": 6167,
      "Ġrythme": 6168,
      "ias": 6169,
      "ya": 6170,
      "ocat": 6171,
      "ĠarriÃ¨re": 6172,
      "espÃ¨re": 6173,
      "Ġappareils": 6174,
      "istant": 6175,
      "Ġspiritu": 6176,
      "riers": 6177,
      "oile": 6178,
      "ĠjouÃ©": 6179,
      "ĠamÃ©lior": 6180,
      "amÃ©liorer": 6181,
      "ĠRÃ©s": 6182,
      "Ġparticuliers": 6183,
      "Ġgouvernements": 6184,
      "44": 6185,
      "Ġplaces": 6186,
      "Ã©rir": 6187,
      "ganisation": 6188,
      "IA": 6189,
      "Ġcarb": 6190,
      "attend": 6191,
      "Ġessentiellement": 6192,
      "Ġconsult": 6193,
      "ĠdÃ©terminer": 6194,
      "ĠpÃ©dagog": 6195,
      "Ġreligion": 6196,
      "Ġbeaux": 6197,
      "auf": 6198,
      "Ġrecons": 6199,
      "ube": 6200,
      "Ġatten": 6201,
      "ĠÃ©quipements": 6202,
      "Tra": 6203,
      "ouest": 6204,
      "iness": 6205,
      "Ġbro": 6206,
      "Ġang": 6207,
      "2011": 6208,
      "pel": 6209,
      "armes": 6210,
      "Ġsecondes": 6211,
      "agÃ©s": 6212,
      "dev": 6213,
      "Ã©gÃ©t": 6214,
      "Ġboutique": 6215,
      "Ġbanque": 6216,
      "ĠdÃ©liv": 6217,
      "apprentissage": 6218,
      "ja": 6219,
      "tian": 6220,
      "ĠBra": 6221,
      "annonce": 6222,
      "azine": 6223,
      "ĠopÃ©ration": 6224,
      "Ġreprendre": 6225,
      "itions": 6226,
      "ocole": 6227,
      "autoritÃ©": 6228,
      "gar": 6229,
      "Ġaurez": 6230,
      "IG": 6231,
      "Ġasse": 6232,
      "Ġart": 6233,
      "Ġtouris": 6234,
      "ĠprÃªts": 6235,
      "Ġexigences": 6236,
      "TS": 6237,
      "ĠLu": 6238,
      "oigne": 6239,
      "ĠdonnÃ©e": 6240,
      "Ġnavigateur": 6241,
      "fort": 6242,
      "Ġusage": 6243,
      "ĠMinist": 6244,
      "Ġmille": 6245,
      "Ġbain": 6246,
      "Ġ!!": 6247,
      "Ġestim": 6248,
      "Ġoccident": 6249,
      "Ġsignific": 6250,
      "Ġmagnifique": 6251,
      "ĠWe": 6252,
      "ĠclÃ©s": 6253,
      "âĢ¦)": 6254,
      "Ġmusic": 6255,
      "Ġrencontres": 6256,
      "37": 6257,
      "ington": 6258,
      "Ġtenter": 6259,
      "gyp": 6260,
      "exemple": 6261,
      "Ã©gal": 6262,
      "Ġcentaines": 6263,
      "ĠespÃ©": 6264,
      "Ġtransfert": 6265,
      "AV": 6266,
      "rient": 6267,
      "tionnelles": 6268,
      "Ã©change": 6269,
      "ĠcommuniquÃ©": 6270,
      "ĠStra": 6271,
      "ĠMor": 6272,
      "Ġincont": 6273,
      "ĠnÃ©gociations": 6274,
      "ket": 6275,
      "Ġparall": 6276,
      "ĠCode": 6277,
      "ĠsystÃ©": 6278,
      "Ã©chelle": 6279,
      "environ": 6280,
      "ator": 6281,
      "atin": 6282,
      "visions": 6283,
      "Ġ*": 6284,
      "quette": 6285,
      "ĠdÃ©cla": 6286,
      "Ġrelativement": 6287,
      "Ġcontribuer": 6288,
      "Ġchaleur": 6289,
      "ĠÃ©duc": 6290,
      "enci": 6291,
      "Ġconserver": 6292,
      "Ġral": 6293,
      "Ġbases": 6294,
      "IB": 6295,
      "Ġcirculation": 6296,
      "ĠsolidaritÃ©": 6297,
      "ulaires": 6298,
      "Ġappareil": 6299,
      "cesseur": 6300,
      "Ġcivil": 6301,
      "Ġchapitre": 6302,
      "ĠfinanciÃ¨res": 6303,
      "Ġprennent": 6304,
      "ĠirrÃ©": 6305,
      "ĠÃ©lus": 6306,
      "ider": 6307,
      "Ġsch": 6308,
      "Ġhos": 6309,
      "ĠMarc": 6310,
      "Ġos": 6311,
      "Ġattribu": 6312,
      "Ġvenu": 6313,
      "bra": 6314,
      "aye": 6315,
      "oyen": 6316,
      "ĠsignÃ©": 6317,
      "Ġpointe": 6318,
      "cipÃ©": 6319,
      "ĠVille": 6320,
      "Ġvisiter": 6321,
      "ĠMaroc": 6322,
      "ĠdÃ©je": 6323,
      "Ã¡": 6324,
      "Ġcur": 6325,
      "ouvre": 6326,
      "ĠdÃ©fendre": 6327,
      "ake": 6328,
      "Ġespaces": 6329,
      "droid": 6330,
      "ettre": 6331,
      "illÃ©": 6332,
      "Ġaudio": 6333,
      "ĠSeu": 6334,
      "ĠprioritÃ©": 6335,
      "ĠcrÃ©e": 6336,
      "Oui": 6337,
      "ga": 6338,
      "ĠHen": 6339,
      "Ġsinon": 6340,
      "39": 6341,
      "Ġloup": 6342,
      "Ġtribunal": 6343,
      "extÃ©rieur": 6344,
      "DS": 6345,
      "Ġign": 6346,
      "Ġsing": 6347,
      "ĠChamp": 6348,
      "Ġterritoires": 6349,
      "ablir": 6350,
      "Ã©gard": 6351,
      "Ġpanne": 6352,
      "Ġdonnent": 6353,
      "Ġopport": 6354,
      "Ġenseignants": 6355,
      "Ġnormal": 6356,
      "Ġpotentiel": 6357,
      "ĠsupplÃ©mentaire": 6358,
      "ĠBelgique": 6359,
      "istÃ©": 6360,
      "Ãªtres": 6361,
      "Ġvice": 6362,
      "ĠAng": 6363,
      "Ġpisc": 6364,
      "ĠtrÃ©s": 6365,
      "ban": 6366,
      "Ġtar": 6367,
      "universitÃ©": 6368,
      "Ġaccro": 6369,
      "Ġpoly": 6370,
      "Ġofficielle": 6371,
      "Ġremis": 6372,
      "ĠÃ©vÃ©nement": 6373,
      "ĠBro": 6374,
      "Internet": 6375,
      "Ġconstat": 6376,
      "ĠbÃ¢timent": 6377,
      "gin": 6378,
      "ĠRE": 6379,
      "Ġmobil": 6380,
      "ĠrÃ©volution": 6381,
      "bo": 6382,
      "Ġflux": 6383,
      "Ġmobiles": 6384,
      "Ġmens": 6385,
      "auff": 6386,
      "Ġreli": 6387,
      "ĠTÃ©lÃ©": 6388,
      "ĠNouvelle": 6389,
      "onnÃ©e": 6390,
      "Ġentendre": 6391,
      "Ġmodifications": 6392,
      "ĠcomposÃ©": 6393,
      "Ġsouver": 6394,
      "ĠpublicitÃ©": 6395,
      "agnos": 6396,
      "impact": 6397,
      "contre": 6398,
      "ĠmodalitÃ©s": 6399,
      "osÃ©es": 6400,
      "tionnels": 6401,
      "ĠprÃ©vue": 6402,
      "tile": 6403,
      "rante": 6404,
      "Ã¨ges": 6405,
      "Ġaper": 6406,
      "deur": 6407,
      "ĠcrÃ©dits": 6408,
      "Ġplanif": 6409,
      "Ġrejoindre": 6410,
      "Off": 6411,
      "Ġpont": 6412,
      "ĠÃ©m": 6413,
      "Ġcommandes": 6414,
      "chÃ©es": 6415,
      "agence": 6416,
      "Ġfavoriser": 6417,
      "lect": 6418,
      "Ġboule": 6419,
      "aises": 6420,
      "ositÃ©": 6421,
      "ĠAlex": 6422,
      "Ġmener": 6423,
      "Ġcombin": 6424,
      "Ġfabrication": 6425,
      "ami": 6426,
      "adoption": 6427,
      "Ġargu": 6428,
      "Ġexactement": 6429,
      "onnÃ©s": 6430,
      "ĠHollande": 6431,
      "ĠnÃ©anmoins": 6432,
      "astroph": 6433,
      "inv": 6434,
      "Ġsupprimer": 6435,
      "Ġessentiel": 6436,
      "ĠRoyaume": 6437,
      "Ġplage": 6438,
      "ĠPers": 6439,
      "expl": 6440,
      "Ġverre": 6441,
      "Ġbanques": 6442,
      "----------------": 6443,
      "prÃ©t": 6444,
      "utÃ©s": 6445,
      "rasse": 6446,
      "MA": 6447,
      "Th": 6448,
      "orp": 6449,
      "ilÃ©": 6450,
      "aval": 6451,
      "dÃ©pend": 6452,
      "Ġvictime": 6453,
      "Ġdig": 6454,
      "ĠVis": 6455,
      "arme": 6456,
      "assade": 6457,
      "Ġpatron": 6458,
      "excell": 6459,
      "innovation": 6460,
      "alerie": 6461,
      "ĠlaissÃ©": 6462,
      "pit": 6463,
      "ĠdÃ©crit": 6464,
      "77": 6465,
      "Ġpierre": 6466,
      "ĠvÃ©gÃ©t": 6467,
      "Ġsaur": 6468,
      "cienne": 6469,
      "Ġtransports": 6470,
      "ial": 6471,
      "Ġsynth": 6472,
      "Ġappuy": 6473,
      "ĠdÃ©veloppÃ©": 6474,
      "ĠÃ©quip": 6475,
      "Ã´ne": 6476,
      "Ġfacteurs": 6477,
      "mosph": 6478,
      "olat": 6479,
      "Ġdimension": 6480,
      "Ġmachines": 6481,
      "ĠenquÃªte": 6482,
      "ĠDan": 6483,
      "Ġ36": 6484,
      "Ġcollectif": 6485,
      "Ġvoyageurs": 6486,
      "Ġnavigation": 6487,
      "Ġterroris": 6488,
      "lais": 6489,
      "ĠCR": 6490,
      "agraph": 6491,
      "ologue": 6492,
      "Ġcheveux": 6493,
      "ĠthÃ©Ã¢tre": 6494,
      "initiative": 6495,
      "],": 6496,
      "Ġpauvres": 6497,
      "Ġmutu": 6498,
      "Ob": 6499,
      "obli": 6500,
      "Ġconvention": 6501,
      "Ġexige": 6502,
      "Ġ(...)": 6503,
      "na": 6504,
      "ola": 6505,
      "ĠreconnaÃ®tre": 6506,
      "mans": 6507,
      "Ġcoordonn": 6508,
      "Ġcalme": 6509,
      "ĠfenÃªtre": 6510,
      "ye": 6511,
      "Ġmini": 6512,
      "ĠÃ©lector": 6513,
      "Ã©dition": 6514,
      "Ġcoin": 6515,
      "ĠÃ©cou": 6516,
      "Ġ1998": 6517,
      "Ġuns": 6518,
      "ĠrÃ©pert": 6519,
      "affir": 6520,
      "instant": 6521,
      "ĠchangÃ©": 6522,
      "Ġtrafic": 6523,
      "ĠrÃ©mun": 6524,
      "Ġfinir": 6525,
      "Ġprintemps": 6526,
      "Ġperspective": 6527,
      "ĠEuropÃ©": 6528,
      "ĠrÃ©daction": 6529,
      "Jean": 6530,
      "Ġcontrats": 6531,
      "ĠTrÃ¨s": 6532,
      "Ġchinois": 6533,
      "Ġcesse": 6534,
      "arition": 6535,
      "Ġconseiller": 6536,
      "ondu": 6537,
      "ĠrÃ©comp": 6538,
      "Ġclimat": 6539,
      "Ġoptimis": 6540,
      "hor": 6541,
      "Ġcancer": 6542,
      "ĠparaÃ®t": 6543,
      "ava": 6544,
      "comme": 6545,
      "ĠintÃ©gra": 6546,
      "Ġhuman": 6547,
      "Votre": 6548,
      "utri": 6549,
      "Ġclasses": 6550,
      "Ġbiais": 6551,
      "ĠPays": 6552,
      "alise": 6553,
      "ĠrÃ©duit": 6554,
      "illÃ©e": 6555,
      "Ġdiscrimin": 6556,
      "Ġislam": 6557,
      "ataires": 6558,
      "abilitÃ©s": 6559,
      "igu": 6560,
      "Ġnotion": 6561,
      "Ġbleu": 6562,
      "Ã³": 6563,
      "Ġrare": 6564,
      "ĠcoÃ»te": 6565,
      "ĠexpÃ©riences": 6566,
      "oyez": 6567,
      "Ġsouligne": 6568,
      "Ġsalles": 6569,
      "FR": 6570,
      "intÃ©g": 6571,
      "Ġrevue": 6572,
      "Ġexemples": 6573,
      "Ġcombien": 6574,
      "Ġmaire": 6575,
      "midi": 6576,
      "Ġinclu": 6577,
      "ĠsÃ©rieux": 6578,
      "Ġassociation": 6579,
      "Ġerreur": 6580,
      "don": 6581,
      "Ġsoldats": 6582,
      "ĠÃ©mer": 6583,
      "ĠInter": 6584,
      "ĠportÃ©": 6585,
      "ĠLinux": 6586,
      "umul": 6587,
      "ONU": 6588,
      "key": 6589,
      "Ġsexe": 6590,
      "Ġacte": 6591,
      "Ġcycle": 6592,
      "onnaie": 6593,
      "of": 6594,
      "Ġpuissent": 6595,
      "ĠBanque": 6596,
      "quait": 6597,
      "raine": 6598,
      "Ġpropor": 6599,
      "tissement": 6600,
      "ĠsituÃ©e": 6601,
      "atriÃ¨me": 6602,
      "ĠmontrÃ©": 6603,
      "Ġinflu": 6604,
      "Ġcourage": 6605,
      "iale": 6606,
      "erait": 6607,
      "itants": 6608,
      "go": 6609,
      "Ġdisting": 6610,
      "Ġrecueil": 6611,
      "ĠdÃ©couvert": 6612,
      "ĠamÃ©ricains": 6613,
      "Ġprocure": 6614,
      "Ġculturelle": 6615,
      "aites": 6616,
      "Ġapporte": 6617,
      "ĠmatiÃ¨res": 6618,
      "ĠtÃ¢ches": 6619,
      "ĠdÃ©bats": 6620,
      "ĠcrÃ¨me": 6621,
      "ĠdÃ©finir": 6622,
      "Ġmagasin": 6623,
      "Ġmol": 6624,
      "ĠCON": 6625,
      "Ã®tre": 6626,
      "ĠinstallÃ©": 6627,
      "conque": 6628,
      "ĠlÃ©gislation": 6629,
      "ĠkilomÃ¨tres": 6630,
      "ĠAs": 6631,
      "ĠVI": 6632,
      "ĠVol": 6633,
      "Ġsimpli": 6634,
      "Ġchacune": 6635,
      "Ġministres": 6636,
      "cha": 6637,
      "Ġ[...]": 6638,
      "Ġessayer": 6639,
      "box": 6640,
      "Ġmeu": 6641,
      "Ã©th": 6642,
      "Ġgraphique": 6643,
      "Ġsel": 6644,
      "Ġbouche": 6645,
      "Emp": 6646,
      "Ġrivi": 6647,
      "ĠcompÃ©tition": 6648,
      "VD": 6649,
      "ĠClub": 6650,
      "ĠJuli": 6651,
      "Ġachet": 6652,
      "Ġcommuniquer": 6653,
      "Ġtranqu": 6654,
      "Ġaccess": 6655,
      "ĠThom": 6656,
      "ĠYou": 6657,
      "Ġlecteurs": 6658,
      "ĠÃ©limin": 6659,
      "ĠNos": 6660,
      "Ġstade": 6661,
      "ÙĦ": 6662,
      "entique": 6663,
      "arrÃª": 6664,
      "ulp": 6665,
      "Ġradi": 6666,
      "ĠsÃ©qu": 6667,
      "Ils": 6668,
      "ĠtÃ¢che": 6669,
      "Ġquitter": 6670,
      "Ã©matiques": 6671,
      "ĠrÃ©gional": 6672,
      "illiam": 6673,
      "wa": 6674,
      "ĠconformÃ©ment": 6675,
      "mie": 6676,
      "Ġmaintien": 6677,
      "ĠbÃ©bÃ©": 6678,
      "dy": 6679,
      "nis": 6680,
      "ulle": 6681,
      "ĠÃ©toiles": 6682,
      "Ġexpliquer": 6683,
      "Ġcertes": 6684,
      "ĠÃ¢ge": 6685,
      "sant": 6686,
      "uni": 6687,
      "aujourd": 6688,
      "ĠAcc": 6689,
      "ĠÃ©tro": 6690,
      "ĠdÃ©fi": 6691,
      "Ġglobale": 6692,
      "Ġprolong": 6693,
      "Ġimpressionn": 6694,
      "ĠlimitÃ©": 6695,
      "tait": 6696,
      "ĠcomprÃ©h": 6697,
      "enser": 6698,
      "paravant": 6699,
      "appui": 6700,
      "Ġincl": 6701,
      "Ġmodern": 6702,
      "ĠrÃ©vÃ©l": 6703,
      "ĠvÃªtements": 6704,
      "ĠconÃ§u": 6705,
      "Ġpersonnelle": 6706,
      "ĠboÃ®te": 6707,
      "48": 6708,
      "ĠTi": 6709,
      "ĠthÃ¨mes": 6710,
      "Ġinclus": 6711,
      "rome": 6712,
      "ĠfrÃ¨res": 6713,
      "ĠÃ©missions": 6714,
      "isÃ©s": 6715,
      "ald": 6716,
      "ĠMy": 6717,
      "ĠToutes": 6718,
      "Ġpollu": 6719,
      "Ġneige": 6720,
      "ĠBur": 6721,
      "Ġannon": 6722,
      "onyme": 6723,
      "Ġauteur": 6724,
      "ĠarrivÃ©": 6725,
      "ĠcatÃ©gories": 6726,
      "Ġbritannique": 6727,
      "Ġvirus": 6728,
      "MI": 6729,
      "ricitÃ©": 6730,
      "Ġemplois": 6731,
      "ĠforÃªt": 6732,
      "2009": 6733,
      "ĠÃ¢g": 6734,
      "St": 6735,
      "Ġcoupe": 6736,
      "ita": 6737,
      "ĠVic": 6738,
      "ĠÃ©valu": 6739,
      "Ġtourisme": 6740,
      "Ġespagn": 6741,
      "Ġpeuples": 6742,
      "Ġlocation": 6743,
      "Ġnaturelle": 6744,
      "Ġtomber": 6745,
      "Ġrecommandations": 6746,
      "Ġdiplom": 6747,
      "ĠpauvretÃ©": 6748,
      "Ġmerveille": 6749,
      "hib": 6750,
      "veau": 6751,
      "ĠLyon": 6752,
      "inscription": 6753,
      "ĠexpÃ©riment": 6754,
      "199": 6755,
      "Ġparagraph": 6756,
      "Ġhumaines": 6757,
      "Ġfiscale": 6758,
      "dou": 6759,
      "ĠDÃ©f": 6760,
      "uide": 6761,
      "Ġabou": 6762,
      "Ġcharges": 6763,
      "Ġtests": 6764,
      "ĠÃ©crire": 6765,
      "cole": 6766,
      "Ġdette": 6767,
      "Ġboul": 6768,
      "ĠgÃ©nÃ©": 6769,
      "Ġformations": 6770,
      "Ġcatastroph": 6771,
      "CR": 6772,
      "Uni": 6773,
      "ution": 6774,
      "ĠdÃ©rou": 6775,
      "illages": 6776,
      "utin": 6777,
      "SA": 6778,
      "Ġsmart": 6779,
      "mages": 6780,
      "Ġcouverture": 6781,
      "Ġair": 6782,
      "rac": 6783,
      "side": 6784,
      "Ġgal": 6785,
      "uxelles": 6786,
      "!!!": 6787,
      "ĠentrÃ©e": 6788,
      "mÃ©diaire": 6789,
      "Ġremarqu": 6790,
      "Ġbillets": 6791,
      "ĠÃ©mo": 6792,
      "Ġbrut": 6793,
      "Ġfaux": 6794,
      "ĠvÃ©rit": 6795,
      "Ġnourriture": 6796,
      "Ġcellules": 6797,
      "Ġmy": 6798,
      "ĠGre": 6799,
      "Ã©curitÃ©": 6800,
      "exÃ©cution": 6801,
      "dom": 6802,
      "Ġlis": 6803,
      "Ġterres": 6804,
      "Ainsi": 6805,
      "Ġdel": 6806,
      "Ġinformatique": 6807,
      "ĠarrivÃ©e": 6808,
      "ordination": 6809,
      "Ġreligieux": 6810,
      "Ġtente": 6811,
      "Ġreprise": 6812,
      "Ġbataille": 6813,
      "Ġsemblent": 6814,
      "Ġultra": 6815,
      "Ġinstaller": 6816,
      "ael": 6817,
      "core": 6818,
      "union": 6819,
      "Ġenvoyer": 6820,
      "Ġexcellent": 6821,
      "Ġmyth": 6822,
      "cial": 6823,
      "Ġvisible": 6824,
      "Ġsensible": 6825,
      "Ġpleinement": 6826,
      "chec": 6827,
      ".|": 6828,
      "ĠdÃ©ri": 6829,
      "Ġmodu": 6830,
      "ĠclientÃ¨le": 6831,
      "uter": 6832,
      "vaux": 6833,
      "aders": 6834,
      "ĠreprÃ©sentation": 6835,
      "ĠÃ©chapp": 6836,
      "Ġaccords": 6837,
      "ĠLo": 6838,
      "ĠPrix": 6839,
      "100": 6840,
      "Ġ#": 6841,
      "cide": 6842,
      "Ġtalent": 6843,
      "RÃ©s": 6844,
      "Ġgouvern": 6845,
      "ĠMari": 6846,
      "Ġeau": 6847,
      "Ã©rations": 6848,
      "Ġlutter": 6849,
      "Ġartistique": 6850,
      "Ġcentral": 6851,
      "estes": 6852,
      "ĠÃ©gard": 6853,
      "Ġdomin": 6854,
      "Ġindividus": 6855,
      "Ġenjeux": 6856,
      "Ġrenforcement": 6857,
      "Ġdiscussions": 6858,
      "Ġpire": 6859,
      "ĠexpliquÃ©": 6860,
      "Ġvoitures": 6861,
      "Deux": 6862,
      "Ġlibres": 6863,
      "Ġminute": 6864,
      "Ġeffectuer": 6865,
      "effectuer": 6866,
      "pers": 6867,
      "yez": 6868,
      "Ġconflits": 6869,
      "ĠdÃ©lic": 6870,
      "Ã©bÃ©cois": 6871,
      "Source": 6872,
      "las": 6873,
      "ĠAllemagne": 6874,
      "aill": 6875,
      "Ġmail": 6876,
      "issante": 6877,
      "cool": 6878,
      "acif": 6879,
      "Ġaffirme": 6880,
      "Ġmanipul": 6881,
      "charge": 6882,
      "Ġjoie": 6883,
      "Ġplantes": 6884,
      "Ġinvent": 6885,
      "ĠSite": 6886,
      "andre": 6887,
      "ĠKe": 6888,
      "Ġfaudrait": 6889,
      "Ġord": 6890,
      "âĢľ": 6891,
      "adis": 6892,
      "ĠdÃ©bar": 6893,
      "ĠspÃ©ciales": 6894,
      "ĠAffaires": 6895,
      "Ġentrer": 6896,
      "Ġmettant": 6897,
      "Ã©viter": 6898,
      "ĠdiffÃ©rent": 6899,
      "Ġeffectivement": 6900,
      "Organisation": 6901,
      "ST": 6902,
      "Ġtac": 6903,
      "Ã©quilibre": 6904,
      "2010": 6905,
      "ĠchÃ´": 6906,
      "Ġdevront": 6907,
      "Ġvacc": 6908,
      "niÃ¨re": 6909,
      "Ġsouci": 6910,
      "Ġgrosse": 6911,
      "allÃ©e": 6912,
      "Ġ400": 6913,
      "Ġreprises": 6914,
      "seille": 6915,
      "ĠpÃ©riph": 6916,
      "dra": 6917,
      "rise": 6918,
      "ettez": 6919,
      "ĠTou": 6920,
      "ettement": 6921,
      "Ġrass": 6922,
      "Ġproduc": 6923,
      "Ġcalend": 6924,
      "aimer": 6925,
      "ĠImp": 6926,
      "ĠJeux": 6927,
      "ĠLeur": 6928,
      "ĠrÃ©soudre": 6929,
      "impÃ´t": 6930,
      "49": 6931,
      "Italie": 6932,
      "Ġmatern": 6933,
      "riez": 6934,
      "ĠrÃ©elle": 6935,
      "tension": 6936,
      "Ġcritiques": 6937,
      "ĠmÃ©dicament": 6938,
      "ĠConfÃ©rence": 6939,
      "ĠBernard": 6940,
      "uk": 6941,
      "ĠLab": 6942,
      "atur": 6943,
      "Ġchem": 6944,
      "Ġdiagnos": 6945,
      "ensitÃ©": 6946,
      "existe": 6947,
      "Ġmonter": 6948,
      "ries": 6949,
      "Ġapport": 6950,
      "installer": 6951,
      "Ġdure": 6952,
      "stac": 6953,
      "ĠdÃ©fis": 6954,
      "apport": 6955,
      "ĠconsidÃ¨re": 6956,
      "vages": 6957,
      "Ġtrim": 6958,
      "aster": 6959,
      "aug": 6960,
      "sec": 6961,
      "approche": 6962,
      "Ġtitu": 6963,
      "tration": 6964,
      "Ġconstater": 6965,
      "right": 6966,
      "quets": 6967,
      "ilib": 6968,
      "Ġparent": 6969,
      "ĠDÃ¨s": 6970,
      "Ġpiscine": 6971,
      "pin": 6972,
      "ouÃ©": 6973,
      "rase": 6974,
      "ĠSm": 6975,
      "Ġveuillez": 6976,
      "Ġparfaite": 6977,
      "ĠenvoyÃ©": 6978,
      "88": 6979,
      "CrÃ©": 6980,
      "erv": 6981,
      "ĠparticipÃ©": 6982,
      "Ġarr": 6983,
      "Ġpopulaires": 6984,
      "Ġcommerciale": 6985,
      "55": 6986,
      "Ġrares": 6987,
      "Ġoffrent": 6988,
      "ĠcompÃ©tence": 6989,
      "ush": 6990,
      "ĠrelÃ¨ve": 6991,
      "onnant": 6992,
      "ĠdÃ©mocratique": 6993,
      "ĠprÃ©alable": 6994,
      "arrÃªt": 6995,
      "ĠparlÃ©": 6996,
      "dien": 6997,
      "Ġrichesse": 6998,
      "Ġcommunautaire": 6999,
      "col": 7000,
      "Ġax": 7001,
      "ĠprotÃ©": 7002,
      "Ã´les": 7003,
      "Ġcontinent": 7004,
      "Ġnavi": 7005,
      "ĠConc": 7006,
      "Ġ32": 7007,
      "alestin": 7008,
      "Ġautrement": 7009,
      "esses": 7010,
      "Ġconstruit": 7011,
      "Ġinitiatives": 7012,
      "ĠMusÃ©e": 7013,
      "ĠmÃ©rite": 7014,
      "ĠhÃ©ros": 7015,
      "tons": 7016,
      "ordinateur": 7017,
      "ĠdÃ©lÃ©gation": 7018,
      "Ġaugmentation": 7019,
      "ĠdÃ©te": 7020,
      "ĠPlan": 7021,
      "ĠDonc": 7022,
      "Ã©rÃ©es": 7023,
      "Ġtombe": 7024,
      "Ġoriginal": 7025,
      "Ġtaxe": 7026,
      "LA": 7027,
      "faire": 7028,
      "aluer": 7029,
      "ĠentiÃ¨re": 7030,
      "amÃ©lioration": 7031,
      "Pl": 7032,
      "intention": 7033,
      "ĠÃĩa": 7034,
      "ĠproblÃ©": 7035,
      "Ġinvite": 7036,
      "Es": 7037,
      "Ġvoulait": 7038,
      "ĠSuper": 7039,
      "Ġcens": 7040,
      "ĠrÃ©ser": 7041,
      "Ġsavez": 7042,
      "Ġloge": 7043,
      "Ġnaturelles": 7044,
      "Association": 7045,
      "ĠHaut": 7046,
      "intro": 7047,
      "Ġamour": 7048,
      "Ġpla": 7049,
      "servation": 7050,
      "Ġattendant": 7051,
      "âĢĿ,": 7052,
      "ĠmatÃ©riaux": 7053,
      "ĠparamÃ¨tres": 7054,
      "vit": 7055,
      "ĠDani": 7056,
      "Ã©conom": 7057,
      "Ġtourner": 7058,
      "Ġpilote": 7059,
      ");": 7060,
      "Ġconduire": 7061,
      "ĠmÃ©tal": 7062,
      "Ġutilisez": 7063,
      "Avant": 7064,
      "orce": 7065,
      "Ġadvers": 7066,
      "DI": 7067,
      "Ret": 7068,
      "conte": 7069,
      "QU": 7070,
      "enant": 7071,
      "oritaire": 7072,
      "Ġleader": 7073,
      "viennent": 7074,
      "Ġcourrier": 7075,
      "ject": 7076,
      "ĠchÃ´mage": 7077,
      "Pad": 7078,
      "rÃ©d": 7079,
      "ĠWorld": 7080,
      "Ġfirstname": 7081,
      "iÃ©es": 7082,
      "nie": 7083,
      "Ãªts": 7084,
      "Inform": 7085,
      "ĠProgramme": 7086,
      "Ġutiles": 7087,
      "Ġconseill": 7088,
      "Ġtempor": 7089,
      "Ġdevenue": 7090,
      "ĠCelui": 7091,
      "89": 7092,
      "pare": 7093,
      "Ag": 7094,
      "Ġrup": 7095,
      "Ġavanc": 7096,
      "Ġ1997": 7097,
      "Ġpeinture": 7098,
      "Ġnoy": 7099,
      "appareil": 7100,
      "oseph": 7101,
      "Ġfe": 7102,
      "cevoir": 7103,
      "Ġjet": 7104,
      "Ġpaysage": 7105,
      "ĠfrontiÃ¨res": 7106,
      "Agence": 7107,
      "Di": 7108,
      "eld": 7109,
      "ĠmarquÃ©": 7110,
      "ĠdÃ©veloppe": 7111,
      "ĠthÃ©orie": 7112,
      "Ã¨lement": 7113,
      "appelle": 7114,
      "aurait": 7115,
      "Ġsympath": 7116,
      "Ġcirconstances": 7117,
      "Ġrues": 7118,
      "ĠVie": 7119,
      "ĠCeci": 7120,
      "cÃ©e": 7121,
      "Ã¶": 7122,
      "rager": 7123,
      "Ã¨nement": 7124,
      "ĠNational": 7125,
      "ĠlibÃ©ra": 7126,
      "Art": 7127,
      "ĠstratÃ©gique": 7128,
      "ĠnuclÃ©aire": 7129,
      "endue": 7130,
      "Ġdisent": 7131,
      "ĠdÃ©clen": 7132,
      "Ġengagements": 7133,
      "Cons": 7134,
      "Ġviens": 7135,
      "Ġtrom": 7136,
      "vrez": 7137,
      "ĠrÃ©sistance": 7138,
      "Ġ150": 7139,
      "reuve": 7140,
      "Ġradic": 7141,
      "Ġmorceaux": 7142,
      "Ġpes": 7143,
      "Ġactive": 7144,
      "Ġaugmenter": 7145,
      "CC": 7146,
      "trer": 7147,
      "Ġtransmission": 7148,
      "ĠreprÃ©sentent": 7149,
      "itations": 7150,
      "Ġbis": 7151,
      "Ġadj": 7152,
      "Ġbateau": 7153,
      "Ġsaint": 7154,
      "euillez": 7155,
      "ĠdÃ©gra": 7156,
      "ĠÃ©tablissement": 7157,
      "ĠprÃ©sentes": 7158,
      "pira": 7159,
      "ĠdÃ©jeuner": 7160,
      "iz": 7161,
      "Ġemprun": 7162,
      "ĠdÃ©cret": 7163,
      "ĠAuc": 7164,
      "ĠsiÃ¨cles": 7165,
      "EP": 7166,
      "Lire": 7167,
      "anda": 7168,
      "html": 7169,
      "Mal": 7170,
      "Ġclic": 7171,
      "ĠSim": 7172,
      "ĠComm": 7173,
      "retagne": 7174,
      "Ġfans": 7175,
      "rÃ©g": 7176,
      "ĠWilliam": 7177,
      "ordinaire": 7178,
      "licite": 7179,
      "ĠdÃ©fic": 7180,
      "Aujourd": 7181,
      "ĠApple": 7182,
      "artiste": 7183,
      "ĠhÃ´": 7184,
      "Ġappris": 7185,
      "Ġjustement": 7186,
      "ĠproposÃ©s": 7187,
      "Ġgratuite": 7188,
      "acteur": 7189,
      "trait": 7190,
      "Ġhasard": 7191,
      "ao": 7192,
      "lÃ©s": 7193,
      "Ã¨ques": 7194,
      "rices": 7195,
      "ĠGrÃ¢ce": 7196,
      "ĠutilisÃ©es": 7197,
      "ument": 7198,
      "olue": 7199,
      "endo": 7200,
      "Ġfeuilles": 7201,
      "ĠarrÃªtÃ©": 7202,
      "Ġluxe": 7203,
      "ouche": 7204,
      "ĠBureau": 7205,
      "ĠprÃ©sidente": 7206,
      "Ġimpli": 7207,
      "Ġplateforme": 7208,
      "alisÃ©es": 7209,
      "enfants": 7210,
      "ĠWh": 7211,
      "rs": 7212,
      "umes": 7213,
      "Ġenqu": 7214,
      "ĠÃ©cole": 7215,
      "Ġmillion": 7216,
      "ĠlÃ©gÃ¨rement": 7217,
      "Ã©laboration": 7218,
      "Ġmettent": 7219,
      "Ġinterdit": 7220,
      "Ġoption": 7221,
      "Ġher": 7222,
      "Ġesc": 7223,
      "veloppement": 7224,
      "Ġquartiers": 7225,
      "Acc": 7226,
      "aintenant": 7227,
      "ĠBrÃ©sil": 7228,
      "humanitÃ©": 7229,
      "ĠBombardier": 7230,
      "Ġsoign": 7231,
      "ĠprocÃ©dÃ©": 7232,
      "ĠSociÃ©tÃ©": 7233,
      "ĠBal": 7234,
      "ressÃ©": 7235,
      "ĠorganisÃ©e": 7236,
      "Ġouvrage": 7237,
      "gypte": 7238,
      "Te": 7239,
      "rine": 7240,
      "Ġench": 7241,
      "onto": 7242,
      "ics": 7243,
      "ĠKar": 7244,
      "Ġfixe": 7245,
      "Ġpotenti": 7246,
      "Ġfati": 7247,
      "ĠNÃ©": 7248,
      "ĠrÃ©alisÃ©e": 7249,
      "ĠresponsabilitÃ©s": 7250,
      "cy": 7251,
      "und": 7252,
      "rifi": 7253,
      "ĠFestival": 7254,
      "ĠdÃ©pÃ´t": 7255,
      "Ġlimiter": 7256,
      "Ġcanadienne": 7257,
      "Cela": 7258,
      "Ġstim": 7259,
      "ieur": 7260,
      "Ġconsultation": 7261,
      "ĠconsacrÃ©": 7262,
      "Ġchanson": 7263,
      "Ġinfrastru": 7264,
      "ĠPAR": 7265,
      "Ġanniversaire": 7266,
      "Åĵil": 7267,
      "Ġrelatif": 7268,
      "raÃ©li": 7269,
      "NU": 7270,
      "Ġcomposition": 7271,
      "ĠAndroid": 7272,
      "Ġchute": 7273,
      "ĠmÃ©decins": 7274,
      "ĠIsraÃ«l": 7275,
      "ĠintÃ©rieur": 7276,
      "usses": 7277,
      "Ġmajeur": 7278,
      "ĠfrÃ©quent": 7279,
      "Ġdouleur": 7280,
      "rouvez": 7281,
      "ĠMaur": 7282,
      "ĠTom": 7283,
      "Ġdiffus": 7284,
      "Ġobligations": 7285,
      "Lorsque": 7286,
      "Ã§ait": 7287,
      "Ġfan": 7288,
      "ĠRet": 7289,
      "ĠNet": 7290,
      "assistance": 7291,
      "ather": 7292,
      "ĠdisponibilitÃ©": 7293,
      "ĠestimÃ©": 7294,
      "ĠIP": 7295,
      "ertaines": 7296,
      "Ġcommerciales": 7297,
      "ĠsystÃ©matique": 7298,
      "rak": 7299,
      "demn": 7300,
      "avaient": 7301,
      "Ġviande": 7302,
      "Ġconclus": 7303,
      "Ġallant": 7304,
      "Ġsensib": 7305,
      "Gr": 7306,
      "dies": 7307,
      "ĠHD": 7308,
      "Ġwas": 7309,
      "ĠgÃ©nÃ©rales": 7310,
      "ĠcÃ´te": 7311,
      "ĠdÃ©tru": 7312,
      "Ġstandard": 7313,
      "Fi": 7314,
      "Ġaccus": 7315,
      "ĠspÃ©ciale": 7316,
      "Ġdifficiles": 7317,
      "Ġsit": 7318,
      "ĠPi": 7319,
      "ĠmÃ©tro": 7320,
      "ĠfÃ©dÃ©ral": 7321,
      "crits": 7322,
      "ĠÐ": 7323,
      "ĠrÃ©clam": 7324,
      "ĠextÃ©ri": 7325,
      "Ġformer": 7326,
      "Ġavantage": 7327,
      "ĠpropriÃ©taires": 7328,
      "41": 7329,
      "Ġ1994": 7330,
      "ope": 7331,
      "Ġordonn": 7332,
      "ĠDou": 7333,
      "cherche": 7334,
      "Ġtransition": 7335,
      "Ġsculp": 7336,
      "Ġlongueur": 7337,
      "Ouest": 7338,
      "rob": 7339,
      "atie": 7340,
      "aves": 7341,
      "Ã©criture": 7342,
      "ĠQuant": 7343,
      "Ġ1990": 7344,
      "architecture": 7345,
      "TA": 7346,
      "ĠPendant": 7347,
      "Ġvivent": 7348,
      "Ġrecord": 7349,
      "ĠrÃ©fÃ©rences": 7350,
      "ĠeffectuÃ©": 7351,
      "Ġagricole": 7352,
      "Ġfleurs": 7353,
      "ĠmaÃ®trise": 7354,
      "Ġstatistiques": 7355,
      "ĠquatriÃ¨me": 7356,
      "ondes": 7357,
      "Ġsocialiste": 7358,
      "Ġ48": 7359,
      "Ġefficaces": 7360,
      "Ġfootball": 7361,
      "ache": 7362,
      "Ġbeur": 7363,
      "Ġchanti": 7364,
      "Ġtrente": 7365,
      "phones": 7366,
      "Ġ1996": 7367,
      "Ġbu": 7368,
      "ĠdÃ©vo": 7369,
      "Ġlongues": 7370,
      "criptions": 7371,
      "Ġcommerciaux": 7372,
      "Ġvar": 7373,
      "ĠdÃ©cÃ¨s": 7374,
      "ĠKh": 7375,
      "Ġsignes": 7376,
      "ĠmÃª": 7377,
      "tront": 7378,
      "Ġmention": 7379,
      "Ġsaisir": 7380,
      "ĠconcernÃ©s": 7381,
      "quisition": 7382,
      "Ġauxquels": 7383,
      "tenance": 7384,
      "ĠcrÃ©Ã©e": 7385,
      "ĠgoÃ»": 7386,
      "Espagne": 7387,
      "Toute": 7388,
      "atÃ©": 7389,
      "ĠMÃ©": 7390,
      "iterran": 7391,
      "Ġinscrit": 7392,
      "habitude": 7393,
      "Ġparvenir": 7394,
      "Ġeut": 7395,
      "publicitÃ©": 7396,
      "Ġtroupes": 7397,
      "Ġ--": 7398,
      "ĠinvitÃ©s": 7399,
      "ĠcamÃ©ra": 7400,
      "Ġchers": 7401,
      "Ġconclusion": 7402,
      "ĠmÃ©canis": 7403,
      "espoir": 7404,
      "ect": 7405,
      "fgh": 7406,
      "ench": 7407,
      "audi": 7408,
      "ĠtravaillÃ©": 7409,
      "infra": 7410,
      "Ġtarifs": 7411,
      "ÃŃ": 7412,
      "ĠVoir": 7413,
      "Ġagences": 7414,
      "Ġreport": 7415,
      "olid": 7416,
      "valent": 7417,
      "Ġanne": 7418,
      "Ġwe": 7419,
      "Ġassur": 7420,
      "azz": 7421,
      "Ġvisites": 7422,
      "ĠMaison": 7423,
      "Ġsavent": 7424,
      "orable": 7425,
      "atures": 7426,
      "Ġinvestissements": 7427,
      "Â·": 7428,
      "als": 7429,
      "Ġgas": 7430,
      "Ġconcr": 7431,
      "ĠdestinÃ©": 7432,
      "Ġencourage": 7433,
      "47": 7434,
      "ires": 7435,
      "Ġcib": 7436,
      "ĠAvant": 7437,
      "Ġvols": 7438,
      "Ġinstallations": 7439,
      "ajouter": 7440,
      "ene": 7441,
      "ĠLÃ©": 7442,
      "ostÃ©": 7443,
      "Ġcontent": 7444,
      "Ġcommiss": 7445,
      "Ġremplir": 7446,
      "Ġly": 7447,
      "ĠbrÃ»": 7448,
      "ĠStu": 7449,
      "exception": 7450,
      "Ġphilosophie": 7451,
      "Ã©bergement": 7452,
      "ennent": 7453,
      "eue": 7454,
      "Ġanc": 7455,
      "Ã©rables": 7456,
      "ĠMil": 7457,
      "Ã©ni": 7458,
      "Ġchamps": 7459,
      "Ġouvrir": 7460,
      "oÃ¯": 7461,
      "Ġcommer": 7462,
      "Ġclassement": 7463,
      "Ġinternautes": 7464,
      "Ġinstruments": 7465,
      "ĠrÃ©sidence": 7466,
      "Ġaver": 7467,
      "Ġdonnant": 7468,
      "influence": 7469,
      "Ġstockage": 7470,
      "ionnat": 7471,
      "Pre": 7472,
      "entretien": 7473,
      "Ġcook": 7474,
      "ĠPourtant": 7475,
      "yste": 7476,
      "Ġsilence": 7477,
      "ji": 7478,
      "Ġvoc": 7479,
      "onnÃ©es": 7480,
      "ĠBay": 7481,
      "ĠParmi": 7482,
      "ĠÃ©volution": 7483,
      "Ġblanche": 7484,
      "ĠLoi": 7485,
      "Ġcollective": 7486,
      "istoires": 7487,
      "ĠPetit": 7488,
      "dÃ©pendance": 7489,
      "ML": 7490,
      "Non": 7491,
      "album": 7492,
      "Ġcorrespondant": 7493,
      "table": 7494,
      "Ġpain": 7495,
      "Ġinuti": 7496,
      "Ġquels": 7497,
      "ĠassociÃ©s": 7498,
      "landais": 7499,
      "Ġmanifestations": 7500,
      "Ġtransformation": 7501,
      "ĠcontrÃ´ler": 7502,
      "ĠdegrÃ©": 7503,
      "viend": 7504,
      "ĠprÃ©vues": 7505,
      "ĠServices": 7506,
      "ĠbibliothÃ¨que": 7507,
      "Ġcuri": 7508,
      "liance": 7509,
      "ĠFÃ©dÃ©ration": 7510,
      "Ġyour": 7511,
      "Ġconclu": 7512,
      "Ġcultures": 7513,
      "Ġculturelles": 7514,
      "Ġtransparence": 7515,
      "Ġraconte": 7516,
      "Ã©sie": 7517,
      "pport": 7518,
      "Ġrembour": 7519,
      "Ġutilisateur": 7520,
      "ĠSyrie": 7521,
      "Ġling": 7522,
      "tug": 7523,
      "Ġprestations": 7524,
      "oyage": 7525,
      "Ġchances": 7526,
      "PL": 7527,
      "TC": 7528,
      "Ġcondu": 7529,
      "Ġmys": 7530,
      "Ġdisait": 7531,
      "Ġfermet": 7532,
      "ĠÃ©change": 7533,
      "Ġmurs": 7534,
      "lec": 7535,
      "rien": 7536,
      "ĠlittÃ©rature": 7537,
      "rible": 7538,
      "Ġconfidenti": 7539,
      "Ġportable": 7540,
      "Ġfavorable": 7541,
      "opÃ©": 7542,
      "Ġperfe": 7543,
      "Ġtransmis": 7544,
      "annÃ©es": 7545,
      "Ġsuppression": 7546,
      "Ġpromen": 7547,
      "Ġpoursuit": 7548,
      "Ã¨dent": 7549,
      "ĠliÃ©": 7550,
      "ĠdiffÃ©rente": 7551,
      "aurais": 7552,
      "Ġsusc": 7553,
      "Ġtraitements": 7554,
      "46": 7555,
      "ĠprivÃ©s": 7556,
      "ĠAh": 7557,
      "Ġ1995": 7558,
      "Ġajout": 7559,
      "uste": 7560,
      "Ġinsuff": 7561,
      "ĠrÃ©col": 7562,
      "Ġpom": 7563,
      "Ġpoign": 7564,
      "onniers": 7565,
      "ĠJack": 7566,
      "Ġgraves": 7567,
      "Ġadultes": 7568,
      "Ġdirective": 7569,
      "ĠReg": 7570,
      "prÃ©tation": 7571,
      "Ġmm": 7572,
      "ĠvÃ©cu": 7573,
      "merce": 7574,
      "ĠlÃ©gÃ¨re": 7575,
      "olesc": 7576,
      "arre": 7577,
      "ĠlÃ©gumes": 7578,
      "Ġcontacts": 7579,
      "Ġbruit": 7580,
      "ĠcÃ©lÃ©b": 7581,
      "ĠrÃ©fugiÃ©s": 7582,
      "feu": 7583,
      "Ġquelles": 7584,
      "ĠCoupe": 7585,
      "ĠGi": 7586,
      "Entre": 7587,
      "ĠrÃ©unions": 7588,
      "Ġpiste": 7589,
      "ĠqualitÃ©s": 7590,
      "Ġcomprom": 7591,
      "ĠConstitution": 7592,
      "Ġsatisfait": 7593,
      "Ġremplacer": 7594,
      "Ġbref": 7595,
      "Ġorgan": 7596,
      "ITE": 7597,
      "Ġformulaire": 7598,
      "agerie": 7599,
      "ĠLES": 7600,
      "ĠBour": 7601,
      "ĠdÃ©veloppeurs": 7602,
      "ĠprÃ©cision": 7603,
      "Ġjaune": 7604,
      "Date": 7605,
      "orges": 7606,
      "uber": 7607,
      "ĠrencontrÃ©": 7608,
      "Ġchocolat": 7609,
      "bas": 7610,
      "Ġhave": 7611,
      "ĠallÃ©": 7612,
      "Ġmagazine": 7613,
      "ĠMinistre": 7614,
      "my": 7615,
      "igration": 7616,
      "Ġracc": 7617,
      "ayant": 7618,
      "Ġraisonn": 7619,
      "ĠprocÃ©der": 7620,
      "OG": 7621,
      "hous": 7622,
      "Ġdr": 7623,
      "Ġrepose": 7624,
      "Ġserez": 7625,
      "ĠEs": 7626,
      "âĢĿ.": 7627,
      "ĠreÃ§oit": 7628,
      "alimentation": 7629,
      "Ġfact": 7630,
      "ressions": 7631,
      "aisser": 7632,
      "olie": 7633,
      "Ġfleur": 7634,
      "Ġexclusi": 7635,
      "Ġel": 7636,
      "Ãīglise": 7637,
      "hip": 7638,
      "amendement": 7639,
      "Ġski": 7640,
      "uns": 7641,
      "rÃ©n": 7642,
      "ĠUN": 7643,
      "Ġinconn": 7644,
      "entin": 7645,
      "ĠVoilÃł": 7646,
      "ĠforÃªts": 7647,
      "the": 7648,
      "Ġmonnaie": 7649,
      "Ġfine": 7650,
      "aisons": 7651,
      "ulÃ©": 7652,
      "Ã©cl": 7653,
      "Ġdisposer": 7654,
      "essentiel": 7655,
      "ae": 7656,
      "ym": 7657,
      "Ġlin": 7658,
      "ĠSantÃ©": 7659,
      "Pourquoi": 7660,
      "Ġvoies": 7661,
      "Ġprofondeur": 7662,
      "Note": 7663,
      "Ġproposent": 7664,
      "Ġcorrectement": 7665,
      "ish": 7666,
      "ĠLire": 7667,
      "ĠextÃ©rieur": 7668,
      "ĠthÃ©rap": 7669,
      "Ġvoter": 7670,
      "ĠLuc": 7671,
      "Ġauth": 7672,
      "Ġforfait": 7673,
      "Ġentour": 7674,
      "ĠstratÃ©gies": 7675,
      "Ġmac": 7676,
      "unn": 7677,
      "osse": 7678,
      "Ġchien": 7679,
      "ĠPor": 7680,
      "Ġregroup": 7681,
      "Ġ01": 7682,
      "Ġincom": 7683,
      "ouvÃ©": 7684,
      "applique": 7685,
      "ourage": 7686,
      "Ġobstac": 7687,
      "ĠfraÃ®": 7688,
      "Ġclassiques": 7689,
      "Ġtissu": 7690,
      "nant": 7691,
      "ĠÃ©chÃ©": 7692,
      "ureaux": 7693,
      "positions": 7694,
      "Ġtroubles": 7695,
      "LES": 7696,
      "ourt": 7697,
      "ĠMoyen": 7698,
      "attaque": 7699,
      "ĠPeut": 7700,
      "ĠEm": 7701,
      "Ġincroy": 7702,
      "Ġdirecte": 7703,
      "ĠBlack": 7704,
      "Ġerreurs": 7705,
      "Can": 7706,
      "Ġplong": 7707,
      "ĠÃ©norme": 7708,
      "Ġhistoriques": 7709,
      "ĠÃ©vident": 7710,
      "ĠrÃ©cupÃ©rer": 7711,
      "ĠrÃ©action": 7712,
      "Ġadmi": 7713,
      "Ġbancaire": 7714,
      "olymp": 7715,
      "ĠcÃ¢": 7716,
      "Ġchat": 7717,
      "ĠTunis": 7718,
      "Ġprovenant": 7719,
      "Ġchaussures": 7720,
      "ĠmÃ©canismes": 7721,
      "ĠÃ©lu": 7722,
      "ĠPoli": 7723,
      "Ġinterven": 7724,
      "Ġamende": 7725,
      "Ġcommunications": 7726,
      "ĠPatrick": 7727,
      "ated": 7728,
      "Ġtester": 7729,
      "ĠbÃ¢timents": 7730,
      "ĠtÃ©lÃ©chargement": 7731,
      "gÃ©rie": 7732,
      "Ġdivision": 7733,
      "Ġimportance": 7734,
      "lage": 7735,
      "ĠDomin": 7736,
      "ĠmÃ©canisme": 7737,
      "ĠBruxelles": 7738,
      "ĠChristian": 7739,
      "anÃ©ment": 7740,
      "Ã©glise": 7741,
      "Ġisol": 7742,
      "Ġparagraphe": 7743,
      "lit": 7744,
      "ĠiPhone": 7745,
      "ĠdÃ©roul": 7746,
      "reur": 7747,
      "Ġgour": 7748,
      "agÃ©es": 7749,
      "prÃ©sent": 7750,
      "Ġparoles": 7751,
      "dients": 7752,
      "Ġconnue": 7753,
      "ĠCli": 7754,
      "ĠmobilitÃ©": 7755,
      "intendo": 7756,
      "Ġformule": 7757,
      "Ġfourni": 7758,
      "ĠMinistÃ¨re": 7759,
      "ĠcomprÃ©hension": 7760,
      "66": 7761,
      "mitÃ©": 7762,
      "Ġleaders": 7763,
      "Ġgre": 7764,
      "Ġcoordination": 7765,
      "Ġcanadien": 7766,
      "PC": 7767,
      "yr": 7768,
      "Ġmit": 7769,
      "ĠDVD": 7770,
      "Ġcorruption": 7771,
      "Ġconstate": 7772,
      "Ġbomb": 7773,
      "ĠÃ©conomie": 7774,
      "Ġcouche": 7775,
      "ĠnumÃ©riques": 7776,
      "opinion": 7777,
      "ports": 7778,
      "ĠacceptÃ©": 7779,
      "issue": 7780,
      "Ġdoux": 7781,
      "NG": 7782,
      "intern": 7783,
      "activitÃ©s": 7784,
      "ĠdÃ©cri": 7785,
      "Ġamateurs": 7786,
      "Ġmagist": 7787,
      "........": 7788,
      "enregistrement": 7789,
      "hier": 7790,
      "ĠchÃ¢teau": 7791,
      "cidents": 7792,
      "lever": 7793,
      "ĠvÃ©lo": 7794,
      "TÃ©lÃ©": 7795,
      "monie": 7796,
      "ount": 7797,
      "uation": 7798,
      "atch": 7799,
      "Ġdommage": 7800,
      "rÃ©tariat": 7801,
      "Ġprenant": 7802,
      "augmentation": 7803,
      "):": 7804,
      "ĠhÃ´tels": 7805,
      "vue": 7806,
      "treet": 7807,
      "ĠHam": 7808,
      "Ġglobal": 7809,
      "ĠVan": 7810,
      "Ã©tant": 7811,
      "ĠLaurent": 7812,
      "ĠEnsuite": 7813,
      "ĠrÃ©cente": 7814,
      "inage": 7815,
      "uster": 7816,
      "chauff": 7817,
      "Ġadmis": 7818,
      "Ġoffert": 7819,
      "ĠdÃ©putÃ©s": 7820,
      "ographiques": 7821,
      "Ġrestauration": 7822,
      "Ġpoisson": 7823,
      "Ġmorte": 7824,
      "Ġgrec": 7825,
      "ĠInc": 7826,
      "ĠmaÃ®tres": 7827,
      "ĠaccÃ©lÃ©": 7828,
      "85": 7829,
      "ĠLÃł": 7830,
      "Ġcoff": 7831,
      "Ġpeint": 7832,
      "igner": 7833,
      "ĠnÃ©cessite": 7834,
      "ĠrappelÃ©": 7835,
      "inqui": 7836,
      "Ġhypoth": 7837,
      "ĠpriÃ¨re": 7838,
      "atisation": 7839,
      "Ġvues": 7840,
      "roir": 7841,
      "ĠCOM": 7842,
      "Ġ(Â«": 7843,
      "Ġexper": 7844,
      "Ġcible": 7845,
      "ĠassociÃ©": 7846,
      "any": 7847,
      "agnement": 7848,
      "ĠfaÃ§": 7849,
      "ĠMarseille": 7850,
      "Ġsignature": 7851,
      "ĠdÃ©place": 7852,
      "OD": 7853,
      "arra": 7854,
      "Ġtoucher": 7855,
      "Ġsauver": 7856,
      "ĠintÃ©grÃ©": 7857,
      "ĠSecrÃ©taire": 7858,
      "ĠplacÃ©": 7859,
      "Ġsouverain": 7860,
      "Ġbeurre": 7861,
      "Ġdiam": 7862,
      "Ġargent": 7863,
      "affich": 7864,
      "65": 7865,
      "Ã¨ses": 7866,
      "Ã¢me": 7867,
      "ails": 7868,
      "Ġcabinet": 7869,
      "BS": 7870,
      "FA": 7871,
      "Me": 7872,
      "Nos": 7873,
      "ĠingÃ©n": 7874,
      "ĠâĢ¢": 7875,
      "Ġblan": 7876,
      "ĠrÃ©volu": 7877,
      "Ġstric": 7878,
      "titudes": 7879,
      "Ġattentes": 7880,
      "umeur": 7881,
      "ĠriviÃ¨re": 7882,
      "BC": 7883,
      "Pe": 7884,
      "Ġrepos": 7885,
      "Ġclimatique": 7886,
      "ESCO": 7887,
      "Ġaccepter": 7888,
      "Ġguit": 7889,
      "iciens": 7890,
      "Ġphrase": 7891,
      "Ġglace": 7892,
      "ĠadaptÃ©": 7893,
      "Ġsolide": 7894,
      "ĠEc": 7895,
      "Ġprogrammation": 7896,
      "Mo": 7897,
      "ĠMet": 7898,
      "iger": 7899,
      "Ġpuissant": 7900,
      "oeuvre": 7901,
      "ĠÃ©vidence": 7902,
      "arriÃ¨re": 7903,
      "Ġauparavant": 7904,
      "Ġancienne": 7905,
      "ally": 7906,
      "ĠuniversitÃ©s": 7907,
      "ĠindÃ©pendant": 7908,
      "Ġolymp": 7909,
      "ĠsÃ©ries": 7910,
      "ĠClaude": 7911,
      "Ġfur": 7912,
      "ĠPeu": 7913,
      "ĠGuerre": 7914,
      "Ġserveurs": 7915,
      "Ġcontenant": 7916,
      "Ġagricoles": 7917,
      "Ġmath": 7918,
      "ellent": 7919,
      "ĠdÃ©lais": 7920,
      "Mich": 7921,
      "cop": 7922,
      "ouff": 7923,
      "ĠillÃ©g": 7924,
      "ĠRien": 7925,
      "Ġmoteurs": 7926,
      "Ġscand": 7927,
      "ĠprÃ©cisÃ©": 7928,
      "ĠsÃ»re": 7929,
      "ĠCongrÃ¨s": 7930,
      "Conc": 7931,
      "ĠTrois": 7932,
      "Ġaccident": 7933,
      "Ġexpli": 7934,
      "ANT": 7935,
      "Ġalimentaires": 7936,
      "Ġauto": 7937,
      "Ġcalendrier": 7938,
      "Ġplaf": 7939,
      "Ġ:)": 7940,
      "ĠrÃ©alisÃ©s": 7941,
      "mosphÃ¨re": 7942,
      "ĠdÃ©putÃ©": 7943,
      "ĠterminÃ©": 7944,
      "ĠarmÃ©es": 7945,
      "UL": 7946,
      "ĠChambre": 7947,
      "ĠcÃ©": 7948,
      "ĠMos": 7949,
      "Ġoise": 7950,
      "otos": 7951,
      "Ġcauses": 7952,
      "Ġmajeure": 7953,
      "ĠTechn": 7954,
      "page": 7955,
      "endroit": 7956,
      "ĠFre": 7957,
      "truire": 7958,
      "Ġrose": 7959,
      "ĠThomas": 7960,
      "DR": 7961,
      "rants": 7962,
      "ĠprÃ©s": 7963,
      "Ã©nÃ©": 7964,
      "Åĵurs": 7965,
      "ĠconfirmÃ©": 7966,
      "Ġrubrique": 7967,
      "FranÃ§ois": 7968,
      "Ġjournaux": 7969,
      "Ġvins": 7970,
      "ĠAussi": 7971,
      "Ġcorp": 7972,
      "ĠmÃ©decine": 7973,
      "ĠDirecteur": 7974,
      "Ġregroupe": 7975,
      "Comm": 7976,
      "laires": 7977,
      "ĠAmer": 7978,
      "incent": 7979,
      "Ġdocumentation": 7980,
      "Ġcopie": 7981,
      "Ġcertific": 7982,
      "Ġfournisseurs": 7983,
      "Ġrupture": 7984,
      "Ġ00": 7985,
      "espÃ©": 7986,
      "Ġfun": 7987,
      "ĠJÃ©r": 7988,
      "Ġaliments": 7989,
      "ĠÃ©nergÃ©tique": 7990,
      "ĠFab": 7991,
      "ĠliÃ©e": 7992,
      "Ġpensez": 7993,
      "Ġtransformer": 7994,
      "Ġcomprennent": 7995,
      "Ġpoliciers": 7996,
      "way": 7997,
      "Ġharm": 7998,
      "Ġutilisent": 7999,
      "ĠspÃ©cialement": 8000,
      "Ġaient": 8001,
      "Ġsourire": 8002,
      "ĠdÃ©cider": 8003,
      "ĠaffirmÃ©": 8004,
      "Ġoccas": 8005,
      "Ġamendement": 8006,
      "Ġjuridiques": 8007,
      "ĠaimÃ©": 8008,
      "Ġgouvernance": 8009,
      "Ġpel": 8010,
      "Ġimporte": 8011,
      "Ġgenti": 8012,
      "ĠPan": 8013,
      "ĠprioritÃ©s": 8014,
      "Ġcache": 8015,
      "ĠprÃ©ciser": 8016,
      "Orient": 8017,
      "olo": 8018,
      "ĠmodÃ©": 8019,
      "Ġram": 8020,
      "ĠrÃ©vÃ¨le": 8021,
      "ĠfrontiÃ¨re": 8022,
      "sÃ©e": 8023,
      "ointe": 8024,
      "Ġ<": 8025,
      "ĠMA": 8026,
      "Ġparticipe": 8027,
      "ĠÃ©lectroniques": 8028,
      "lantique": 8029,
      "ĠdÃ©diÃ©": 8030,
      "Ġguer": 8031,
      "Ġmotifs": 8032,
      "Ġjugement": 8033,
      "iliation": 8034,
      "engage": 8035,
      "Ġreprend": 8036,
      "PI": 8037,
      "Ġlook": 8038,
      "Ġpistes": 8039,
      "orb": 8040,
      "Ġplacer": 8041,
      "ultÃ©": 8042,
      "Ġcadeau": 8043,
      "Paul": 8044,
      "Ġsalaire": 8045,
      "Ġpatient": 8046,
      "Ġtravaillent": 8047,
      "Sh": 8048,
      "Ġdiab": 8049,
      "acifique": 8050,
      "gre": 8051,
      "ĠlÃ¢": 8052,
      "Ġfinance": 8053,
      "appu": 8054,
      "conf": 8055,
      "ĠAmÃ©rique": 8056,
      "Ġmanifestation": 8057,
      "orizon": 8058,
      "Ma": 8059,
      "Ġciter": 8060,
      "ortÃ©s": 8061,
      "ĠspÃ©cialiste": 8062,
      "Ġregarde": 8063,
      "Ġpermanente": 8064,
      "Ġretourner": 8065,
      "hom": 8066,
      "Ġlyc": 8067,
      "aitre": 8068,
      "ĠJo": 8069,
      "ducteur": 8070,
      "Ġinitiative": 8071,
      "avion": 8072,
      "Ġmorceau": 8073,
      "enis": 8074,
      "ordi": 8075,
      "ral": 8076,
      "ĠdÃ©bit": 8077,
      "cides": 8078,
      "95": 8079,
      "allen": 8080,
      "accro": 8081,
      "Ġissus": 8082,
      "ĠAlain": 8083,
      "adio": 8084,
      "Ġfrau": 8085,
      "lymp": 8086,
      "Ġdispositifs": 8087,
      "Ġmagasins": 8088,
      "tilis": 8089,
      "Ġbureaux": 8090,
      "veiller": 8091,
      "ĠinvitÃ©": 8092,
      "ĠÃ©larg": 8093,
      "ĠintitulÃ©": 8094,
      "Bas": 8095,
      "Ã¨vre": 8096,
      "ĠconsidÃ©rer": 8097,
      "ĠlimitÃ©e": 8098,
      "rale": 8099,
      "Ġsalut": 8100,
      "Ġretirer": 8101,
      "ĠIV": 8102,
      "ĠFR": 8103,
      "Ġfranc": 8104,
      "ĠrÃ©fÃ©r": 8105,
      "Ġcomplexes": 8106,
      "prÃ©sident": 8107,
      "Ġdizaines": 8108,
      "Ã©vÃ©nement": 8109,
      "kin": 8110,
      "amÃ©nagement": 8111,
      "entis": 8112,
      "Ġprofession": 8113,
      "Ġnaturellement": 8114,
      "Ġmusulmans": 8115,
      "ĠPic": 8116,
      "Ġphysiques": 8117,
      "Ġterritoriales": 8118,
      "Ġâ": 8119,
      "ĠmÃ©dicale": 8120,
      "Ġcapitaine": 8121,
      "Ġdescend": 8122,
      "entreprises": 8123,
      "Ġvuln": 8124,
      "roi": 8125,
      "mann": 8126,
      "Ġfameux": 8127,
      "Ġarbres": 8128,
      "Ġimpact": 8129,
      "Ġmix": 8130,
      "ĠfondÃ©e": 8131,
      "ĠDaniel": 8132,
      "housias": 8133,
      "Ġsentir": 8134,
      "laud": 8135,
      "Ġdisques": 8136,
      "ĠrÃ©gler": 8137,
      "ĠspÃ©cialistes": 8138,
      "ĠGren": 8139,
      "ĠrÃ©glementation": 8140,
      "Ġeffort": 8141,
      "ĠrÃ©gionale": 8142,
      "ĠNintendo": 8143,
      "ĠstabilitÃ©": 8144,
      "ĠprÃ©sentent": 8145,
      "euses": 8146,
      "Ġnoire": 8147,
      "Ġattaque": 8148,
      "Ġsatisfaction": 8149,
      "ĠdÃ©chets": 8150,
      "42": 8151,
      "Son": 8152,
      "itage": 8153,
      "cient": 8154,
      "acÃ©s": 8155,
      "amin": 8156,
      "ĠJames": 8157,
      "Ġsoup": 8158,
      "ĠrÃ©gi": 8159,
      "ĠpÃ©nale": 8160,
      "Ġvoudrais": 8161,
      "43": 8162,
      "rue": 8163,
      "lez": 8164,
      "Ġboute": 8165,
      "agi": 8166,
      "ĠMis": 8167,
      "ĠAv": 8168,
      "ĠGR": 8169,
      "ctur": 8170,
      "ardins": 8171,
      "Ġrire": 8172,
      "Ġpouvaient": 8173,
      "78": 8174,
      "Ã©mission": 8175,
      "Ġproducteurs": 8176,
      "Ġoffrant": 8177,
      "Ġsecours": 8178,
      "Ġrobe": 8179,
      "Ġprochaines": 8180,
      "Ġhiver": 8181,
      "ints": 8182,
      "aite": 8183,
      "Ġchante": 8184,
      "Ġrusse": 8185,
      "ĠForm": 8186,
      "Ġriz": 8187,
      "Ġscolaires": 8188,
      "ĠRichard": 8189,
      "itt": 8190,
      "alie": 8191,
      "aure": 8192,
      "ĠFA": 8193,
      "Ġcompens": 8194,
      "Ġattaques": 8195,
      "Ġsympt": 8196,
      "Ġforts": 8197,
      "sif": 8198,
      "ĠSP": 8199,
      "ĠGuy": 8200,
      "eck": 8201,
      "Ġclaire": 8202,
      "Ġdocteur": 8203,
      "undi": 8204,
      "Ġavenir": 8205,
      "Ġbrevet": 8206,
      "________": 8207,
      "Ġdiscuter": 8208,
      "Qui": 8209,
      "Ġache": 8210,
      "ĠMali": 8211,
      "ĠOpen": 8212,
      "Ġdivis": 8213,
      "Ġvenue": 8214,
      "Ġdessous": 8215,
      "Ġoriginale": 8216,
      "Ã¤": 8217,
      "Ġcant": 8218,
      "Ġconvers": 8219,
      "ĠdÃ©clin": 8220,
      "ĠchargÃ©e": 8221,
      "atell": 8222,
      "Ġconsole": 8223,
      "oriser": 8224,
      "Ġconstituer": 8225,
      "Ġvenus": 8226,
      "Ġexamen": 8227,
      "arrive": 8228,
      "toine": 8229,
      "Ġparlementaire": 8230,
      "Ġmanquer": 8231,
      "associ": 8232,
      "Ġtrimestre": 8233,
      "Histoire": 8234,
      "SC": 8235,
      "Ġparl": 8236,
      "ignant": 8237,
      "Ġrapporte": 8238,
      "ĠÃ©conomies": 8239,
      "jection": 8240,
      "ĠthÃ©or": 8241,
      "ĠopÃ©rateurs": 8242,
      "ordeaux": 8243,
      "Ġplant": 8244,
      "Ġterra": 8245,
      "Ġbasse": 8246,
      "ĠÃ©nergie": 8247,
      "ĠBook": 8248,
      "ĠÃ©tablir": 8249,
      "Ġsouvenirs": 8250,
      "Ġtension": 8251,
      "ÙĬ": 8252,
      "Ġpassagers": 8253,
      "Ġsusceptibles": 8254,
      "olis": 8255,
      "ĠBri": 8256,
      "aper": 8257,
      "ĠadÃ©qu": 8258,
      "Ġmontrent": 8259,
      "Ġouvre": 8260,
      "ĠdÃ©placement": 8261,
      "ĠlittÃ©": 8262,
      "ĠMalgrÃ©": 8263,
      "Ġtours": 8264,
      "Ġsurvi": 8265,
      "ĠEtat": 8266,
      "ĠprÃ©server": 8267,
      "Ġcharme": 8268,
      "Ġtarif": 8269,
      "Ã©lectricitÃ©": 8270,
      "Ġarabe": 8271,
      "Ġopportun": 8272,
      "ĠSainte": 8273,
      "entir": 8274,
      "ĠmÃ©tiers": 8275,
      "ĠrÃ©pondu": 8276,
      "Ġrepris": 8277,
      "ashington": 8278,
      "Ġendroits": 8279,
      "ĠFondation": 8280,
      ")|": 8281,
      "arts": 8282,
      "Ġnutri": 8283,
      "Ġhommage": 8284,
      "ĠlÃ©ger": 8285,
      "ĠExp": 8286,
      "ĠToulouse": 8287,
      "VoilÃł": 8288,
      "Ð¾": 8289,
      "rables": 8290,
      "Ġ38": 8291,
      "ĠrÃ©public": 8292,
      "Chaque": 8293,
      "ĠÃ©clai": 8294,
      "oient": 8295,
      "ĠAnne": 8296,
      "ĠhÃ©s": 8297,
      "ĠBo": 8298,
      "angle": 8299,
      "Ġmalheureusement": 8300,
      "Ġsuperbe": 8301,
      "Ġdizaine": 8302,
      "Ġannuel": 8303,
      "ĠantÃ©ri": 8304,
      "ĠprÃ©sidentielle": 8305,
      "ĠaccompagnÃ©": 8306,
      "Ġfasse": 8307,
      "active": 8308,
      "ĠBrun": 8309,
      "aventure": 8310,
      "apprÃ©": 8311,
      "ĠdÃ©mons": 8312,
      "ĠÃ©lÃ©g": 8313,
      "Marie": 8314,
      "DC": 8315,
      "quie": 8316,
      "Ġgend": 8317,
      "geant": 8318,
      "Ġtraduit": 8319,
      "ĠgÃ©nÃ©raux": 8320,
      "ĠsouhaitÃ©": 8321,
      "ĠdÃ©clarations": 8322,
      "Ġinstrument": 8323,
      "Ġfamiliale": 8324,
      "adapter": 8325,
      "df": 8326,
      "agissant": 8327,
      "Ġrappro": 8328,
      "ĠbasÃ©": 8329,
      "ĠempÃªcher": 8330,
      "ribution": 8331,
      "Ġessais": 8332,
      "Ġcrime": 8333,
      "ĠfixÃ©": 8334,
      "Ġprotocole": 8335,
      "Ġjaponais": 8336,
      "Ġconclusions": 8337,
      "Puis": 8338,
      "idation": 8339,
      "ĠpersonnalitÃ©": 8340,
      "ĠXIX": 8341,
      "Ġpoissons": 8342,
      "ĠToronto": 8343,
      "ttes": 8344,
      "lÃ¨vement": 8345,
      "ĠPalais": 8346,
      "Ġvocation": 8347,
      "aph": 8348,
      "ĠArt": 8349,
      "Ġvoulons": 8350,
      "Ġcorri": 8351,
      "Ġdommages": 8352,
      "ommaire": 8353,
      "2008": 8354,
      "peau": 8355,
      "ĠUnivers": 8356,
      "Ġdeviennent": 8357,
      "ĠprÃ©sentÃ©e": 8358,
      "oints": 8359,
      "ĠengagÃ©": 8360,
      "ĠbudgÃ©taire": 8361,
      "Ġvoisins": 8362,
      "Ġchansons": 8363,
      "ÃĪ": 8364,
      "untu": 8365,
      "ags": 8366,
      "acts": 8367,
      "Ã¢t": 8368,
      "Ġimprim": 8369,
      "ĠparallÃ¨le": 8370,
      "ĠdestinÃ©e": 8371,
      "Ġmodernes": 8372,
      "ĠSo": 8373,
      "Ġtox": 8374,
      "Ġconnecter": 8375,
      "Ġcircuit": 8376,
      "68": 8377,
      "mond": 8378,
      "onf": 8379,
      "ĠÃ©pr": 8380,
      "ativitÃ©": 8381,
      "Ġviolences": 8382,
      "Ġtablette": 8383,
      "ĠMÃ©d": 8384,
      "ĠDub": 8385,
      "Ġsubs": 8386,
      "ĠpropriÃ©tÃ©s": 8387,
      "ĠcomplÃ©mentaires": 8388,
      "HE": 8389,
      "ĠCre": 8390,
      "ĠAU": 8391,
      "Ġrentrer": 8392,
      "Ġ250": 8393,
      "ĠprÃ©venir": 8394,
      "Ġ33": 8395,
      "ĠgÃ©nÃ©rations": 8396,
      "ĠAll": 8397,
      "Ġcerveau": 8398,
      "Ġpluie": 8399,
      "Tu": 8400,
      "quante": 8401,
      "Ġcart": 8402,
      "appliquer": 8403,
      "ĠmenÃ©e": 8404,
      "Ġparfum": 8405,
      "fiÃ©": 8406,
      "offrir": 8407,
      "ĠachetÃ©": 8408,
      "Ġretrait": 8409,
      "Pendant": 8410,
      "ling": 8411,
      "arque": 8412,
      "Ġsurf": 8413,
      "Ġconnus": 8414,
      "ĠgagnÃ©": 8415,
      "ĠDer": 8416,
      "Ġout": 8417,
      "Ġstress": 8418,
      "session": 8419,
      "ĠrÃ©ductions": 8420,
      "OUS": 8421,
      "ena": 8422,
      "ted": 8423,
      "Ġabus": 8424,
      "Ġdangereux": 8425,
      "Ġsitue": 8426,
      "iki": 8427,
      "ĠCÃ´te": 8428,
      "Ġgagne": 8429,
      "agon": 8430,
      "Ġrepar": 8431,
      "ĠMath": 8432,
      "Ġ55": 8433,
      "oiff": 8434,
      "ago": 8435,
      "Ġportent": 8436,
      "Ġtuer": 8437,
      "ĠCamp": 8438,
      "Ġarts": 8439,
      "Ġprogressivement": 8440,
      "Homme": 8441,
      "cf": 8442,
      "ĠSil": 8443,
      "Ġrand": 8444,
      "Ġpublier": 8445,
      "Ġfonctionner": 8446,
      "ĠrÃ©ussir": 8447,
      "itch": 8448,
      "rict": 8449,
      "enda": 8450,
      "outh": 8451,
      "interro": 8452,
      "tÃ©ph": 8453,
      "ĠJava": 8454,
      "autorisation": 8455,
      "ustralie": 8456,
      "Ġaccueill": 8457,
      "gie": 8458,
      "Ġpin": 8459,
      "quettes": 8460,
      "orÃ©e": 8461,
      "ĠLigue": 8462,
      "Ġalg": 8463,
      "Ġcrimes": 8464,
      "Ġclavier": 8465,
      "fond": 8466,
      "tario": 8467,
      "ĠCC": 8468,
      "ĠItalie": 8469,
      "ĠJoseph": 8470,
      "Ã©rard": 8471,
      "Ġcapables": 8472,
      "ĠdÃ©couvre": 8473,
      "Ġremercie": 8474,
      "yright": 8475,
      "ĠWest": 8476,
      "ĠpÃ©trole": 8477,
      "Ã©ti": 8478,
      "ĠÃ©ti": 8479,
      "Ġplainte": 8480,
      "Ġhon": 8481,
      "Ġexposition": 8482,
      "Ġactifs": 8483,
      "Ã¢ts": 8484,
      "ĠrÃ©partition": 8485,
      "Ġcoul": 8486,
      "ĠCO": 8487,
      "agissait": 8488,
      "Ġproposons": 8489,
      "oxy": 8490,
      "ĠdiffÃ©rences": 8491,
      "Ġagir": 8492,
      "Ġcourte": 8493,
      "ĠÃ©pisode": 8494,
      "Ġateliers": 8495,
      "Ġannonc": 8496,
      "Ġchronique": 8497,
      "Ġclass": 8498,
      "Ġfranch": 8499,
      "Ġappartient": 8500,
      "Ġsouris": 8501,
      "ĠisraÃ©li": 8502,
      "Ġtoile": 8503,
      "Ġdiagnostic": 8504,
      "Ġtrait": 8505,
      "Ġcontraintes": 8506,
      "ĠcomplÃ©ter": 8507,
      "ĠCity": 8508,
      "ĠrÃ©formes": 8509,
      "viendra": 8510,
      "accent": 8511,
      "ĠchaÃ®nes": 8512,
      "enez": 8513,
      "Ġtom": 8514,
      "Ãªque": 8515,
      "mber": 8516,
      "Ġencad": 8517,
      "grÃ©dients": 8518,
      "oureuse": 8519,
      "64": 8520,
      "Ġ@": 8521,
      "oni": 8522,
      "Ġquart": 8523,
      "ĠCat": 8524,
      "ĠintÃ©rieure": 8525,
      "Ġavance": 8526,
      "ĠVe": 8527,
      "Ã¨nements": 8528,
      "Ġlaboratoire": 8529,
      "bie": 8530,
      "agnies": 8531,
      "tenues": 8532,
      "Ġcroit": 8533,
      "Ġvoulais": 8534,
      "Ġrevendic": 8535,
      "ĠMex": 8536,
      "ĠOli": 8537,
      "ĠprÃ©sidence": 8538,
      "Ġintellectuelle": 8539,
      "ĠprÃ©sentÃ©s": 8540,
      "Ġexcellente": 8541,
      "haus": 8542,
      "Ġlente": 8543,
      "onction": 8544,
      "texte": 8545,
      "Ġsond": 8546,
      "ubliÃ©": 8547,
      "alcool": 8548,
      "ases": 8549,
      "Ġrelatifs": 8550,
      "ĠpassÃ©e": 8551,
      "ĠBerlin": 8552,
      "Ġcookies": 8553,
      "non": 8554,
      "deurs": 8555,
      "ĠAlle": 8556,
      "arder": 8557,
      "Ġbijou": 8558,
      "utilise": 8559,
      "Ġmidi": 8560,
      "ĠproposÃ©es": 8561,
      "Ġpalais": 8562,
      "Ġrelever": 8563,
      "Rec": 8564,
      "oble": 8565,
      "ĠbasÃ©e": 8566,
      "Ġnaturels": 8567,
      "Ġsauce": 8568,
      "Ġoptim": 8569,
      "mique": 8570,
      "Ġbap": 8571,
      "ĠexpÃ©": 8572,
      "autonomie": 8573,
      "Ġaccessibles": 8574,
      "sible": 8575,
      "acquisition": 8576,
      "amine": 8577,
      "Ġdiss": 8578,
      "Ġfoule": 8579,
      "ĠMay": 8580,
      "ĠEspagne": 8581,
      "ĠOS": 8582,
      "Ġvieille": 8583,
      "ĠÃ©norm": 8584,
      "Ġmorale": 8585,
      "Ġfonctionnaires": 8586,
      "Ġpaquet": 8587,
      "Ġaccueillir": 8588,
      "ĠscÃ©nario": 8589,
      "RÃ©p": 8590,
      "Ġremet": 8591,
      "ĠmÃ©tÃ©": 8592,
      "ĠrÃ©cit": 8593,
      "Ġexclusivement": 8594,
      "Ġdisant": 8595,
      "Ġsouhaitent": 8596,
      "Ġactiv": 8597,
      "liste": 8598,
      "ĠQuelques": 8599,
      "ĠObama": 8600,
      "ĠPD": 8601,
      "ĠPÃ¨re": 8602,
      "ĠtotalitÃ©": 8603,
      "Ġtraditionnelle": 8604,
      "ĠdÃ©clare": 8605,
      "EF": 8606,
      "ĠassurÃ©": 8607,
      "cieuse": 8608,
      "Ġpermanent": 8609,
      "ĠprÃ©cÃ©dente": 8610,
      "Ġvan": 8611,
      "ĠVers": 8612,
      "Ġinterventions": 8613,
      "ĠWashington": 8614,
      "ĠprÃ©voir": 8615,
      "Ġroutes": 8616,
      "ĠprivÃ©es": 8617,
      "orientation": 8618,
      "adaptation": 8619,
      "accÃ©der": 8620,
      "Ġlogements": 8621,
      "67": 8622,
      "Ġchim": 8623,
      "ĠJui": 8624,
      "ĠconstituÃ©": 8625,
      "Ġcuir": 8626,
      "ĠSta": 8627,
      "irurg": 8628,
      "Ġcomport": 8629,
      "Ġamoureux": 8630,
      "ĠÃ©levÃ©s": 8631,
      "atrices": 8632,
      "Ġconstitution": 8633,
      "ĠGeorge": 8634,
      "ĠSous": 8635,
      "Ġinterro": 8636,
      "ĠrÃ©putation": 8637,
      "ancienne": 8638,
      "ĠguÃ¨re": 8639,
      "DÃ©couvrez": 8640,
      "ĠCanadiens": 8641,
      "ower": 8642,
      "Ġprofessionnelles": 8643,
      "ĠÂ©": 8644,
      "Ġactif": 8645,
      "ĠFrancis": 8646,
      "Ġphotographie": 8647,
      "Ġrestaurants": 8648,
      "Ġence": 8649,
      "ĠAfric": 8650,
      "Ġcaus": 8651,
      "Ġtourne": 8652,
      "ĠbÃ©nÃ©fice": 8653,
      "cript": 8654,
      "ĠPlusieurs": 8655,
      "Ġblancs": 8656,
      "Ġfasc": 8657,
      "ĠBref": 8658,
      "ĠTrip": 8659,
      "Ġwill": 8660,
      "quin": 8661,
      "Ġtur": 8662,
      "riÃ¨res": 8663,
      "ĠrÃ©jou": 8664,
      "ssant": 8665,
      "ĠThÃ©": 8666,
      "Ġtendances": 8667,
      "Ġmatchs": 8668,
      "Office": 8669,
      "bar": 8670,
      "ĠunitÃ©s": 8671,
      "agrÃ©": 8672,
      "ĠdestinÃ©s": 8673,
      "Ġcuisson": 8674,
      "ĠÃ©voluer": 8675,
      "ico": 8676,
      "ottes": 8677,
      "Ġramen": 8678,
      "Ġcompli": 8679,
      "ext": 8680,
      "indÃ©pendance": 8681,
      "Ġcontrairement": 8682,
      "ĠHy": 8683,
      "Ġstage": 8684,
      "Ġfinancer": 8685,
      "blog": 8686,
      "Ġsatisfaire": 8687,
      "Ġcrain": 8688,
      "sive": 8689,
      "ĠGab": 8690,
      "Ġdomes": 8691,
      "Ġressorti": 8692,
      "Ġfaim": 8693,
      "bri": 8694,
      "ander": 8695,
      "oliques": 8696,
      "'t": 8697,
      "ding": 8698,
      "ualitÃ©": 8699,
      "Ġpath": 8700,
      "Ã©matique": 8701,
      "journ": 8702,
      "ÄĤ": 8703,
      "acÃ©e": 8704,
      "ĠTR": 8705,
      "Ã©tablir": 8706,
      "ologues": 8707,
      "ED": 8708,
      "Saint": 8709,
      "dite": 8710,
      "Ġredev": 8711,
      "Ġintervention": 8712,
      "ĠParce": 8713,
      "Cependant": 8714,
      "Ġquotidienne": 8715,
      "ĠcÃ©rÃ©monie": 8716,
      "Ġennemis": 8717,
      "Ġdeg": 8718,
      "tÃ©n": 8719,
      "Ġplats": 8720,
      "Ġorganiser": 8721,
      "Ġorganisme": 8722,
      "Ġindustriels": 8723,
      "sa": 8724,
      "Ġhistoires": 8725,
      "Ca": 8726,
      "Ġspati": 8727,
      "ĠprÃ©fÃ©rÃ©": 8728,
      "Ġsympa": 8729,
      "Quelques": 8730,
      "Ġmagn": 8731,
      "Ġfol": 8732,
      "seau": 8733,
      "Ġhu": 8734,
      "ĠFe": 8735,
      "Ġpert": 8736,
      "ĠconfÃ©rences": 8737,
      "Ġexprim": 8738,
      "Ġatteinte": 8739,
      "Toutes": 8740,
      "ĠNor": 8741,
      "inÃ©a": 8742,
      "OCDE": 8743,
      "Ġperspectives": 8744,
      "ĠGÃ©nÃ©ral": 8745,
      "Ġges": 8746,
      "divers": 8747,
      "ĠhÃ©r": 8748,
      "ĠÃ©crite": 8749,
      "acheter": 8750,
      "Ġdessins": 8751,
      "ĠnÃ©cessairement": 8752,
      "ĠrÃ©servÃ©": 8753,
      "Ġfruit": 8754,
      "Ġexceptionnelle": 8755,
      "OI": 8756,
      "ĠextÃ©rieure": 8757,
      "auto": 8758,
      "Ġ800": 8759,
      "animation": 8760,
      "For": 8761,
      "SP": 8762,
      "Ġlaissant": 8763,
      "ĠrentrÃ©e": 8764,
      "Ġpreuves": 8765,
      "Ġ2015": 8766,
      "Ġanciennes": 8767,
      "ĠDirection": 8768,
      "Ġcatholique": 8769,
      "bien": 8770,
      "ouvent": 8771,
      "Ġnez": 8772,
      "ĠQuelle": 8773,
      "ĠrÃ©gionaux": 8774,
      "Ġexistent": 8775,
      "Ġcouvert": 8776,
      "Op": 8777,
      "Ġdite": 8778,
      "Ġcampagnes": 8779,
      "ĠJournal": 8780,
      "den": 8781,
      "oui": 8782,
      "ouch": 8783,
      "Ġbris": 8784,
      "Ġcompagnies": 8785,
      "Ġtaxes": 8786,
      "Der": 8787,
      "VE": 8788,
      "ip": 8789,
      "Ġsable": 8790,
      "parole": 8791,
      "ribuer": 8792,
      "Ã©ricains": 8793,
      "Ġculturels": 8794,
      "sans": 8795,
      "tiles": 8796,
      "Ġeth": 8797,
      "Ġnews": 8798,
      "Ġprogression": 8799,
      "ispon": 8800,
      "irent": 8801,
      "ĠprÃªte": 8802,
      "antill": 8803,
      "ĠrÃ©gionales": 8804,
      "Ġconclure": 8805,
      "ulletin": 8806,
      "Ã¨vres": 8807,
      "dict": 8808,
      "tera": 8809,
      "Ġprud": 8810,
      "ĠnÃ©gociation": 8811,
      "Ġconfirme": 8812,
      "envoi": 8813,
      "nam": 8814,
      "Ġom": 8815,
      "Ġup": 8816,
      "Ġdates": 8817,
      "erte": 8818,
      "ĠintÃ©ri": 8819,
      "Ġappels": 8820,
      "ĠThier": 8821,
      "Ġgratuits": 8822,
      "ĠUSA": 8823,
      "ĠidentitÃ©": 8824,
      "obligation": 8825,
      "artis": 8826,
      "Ġdescription": 8827,
      "ĠPen": 8828,
      "Ġmotif": 8829,
      "inon": 8830,
      "inves": 8831,
      "ĠEv": 8832,
      "Ġrecul": 8833,
      "Ġclubs": 8834,
      "aa": 8835,
      "Ġast": 8836,
      "Ġremplis": 8837,
      "ĠdÃ©partements": 8838,
      "ĠtÃ©moignage": 8839,
      "ĠGenÃ¨ve": 8840,
      "tume": 8841,
      "ulteurs": 8842,
      "Ġconnaissent": 8843,
      "Ġentrepren": 8844,
      "69": 8845,
      "Mont": 8846,
      "sier": 8847,
      "Ġgro": 8848,
      "Ġnew": 8849,
      "Ã©coute": 8850,
      "Ġimmense": 8851,
      "ĠessayÃ©": 8852,
      "acÃ©es": 8853,
      "Ġquelconque": 8854,
      "Inter": 8855,
      "Ġfacteur": 8856,
      "ĠMichael": 8857,
      "aris": 8858,
      "lish": 8859,
      "ople": 8860,
      "Ġloisirs": 8861,
      "adore": 8862,
      "Ġtherm": 8863,
      "Ġ600": 8864,
      "Ġrembours": 8865,
      "Ġgrossesse": 8866,
      "automne": 8867,
      "seu": 8868,
      "uf": 8869,
      "Ġvague": 8870,
      "ĠBat": 8871,
      "bÃ©": 8872,
      "ool": 8873,
      "geois": 8874,
      "quide": 8875,
      "Ġtonnes": 8876,
      "Ġner": 8877,
      "Ġdestruction": 8878,
      "aspect": 8879,
      "sign": 8880,
      "Ġconsent": 8881,
      "organisme": 8882,
      "aura": 8883,
      "Ġprimaire": 8884,
      "so": 8885,
      "utes": 8886,
      "Ġmeme": 8887,
      "Ġcomposants": 8888,
      "Ġessentielle": 8889,
      "dÃ©e": 8890,
      "Ġdat": 8891,
      "Ġdites": 8892,
      "ĠCeux": 8893,
      "Ġchirurg": 8894,
      "ĠSE": 8895,
      "Ġrarement": 8896,
      "ĠperpÃ©": 8897,
      "lisme": 8898,
      "ther": 8899,
      "ĠAndrÃ©": 8900,
      "Ġperfection": 8901,
      "wn": 8902,
      "outs": 8903,
      "ouvrage": 8904,
      "iciel": 8905,
      "tisation": 8906,
      "images": 8907,
      "mil": 8908,
      "ĠSom": 8909,
      "Ġanimal": 8910,
      "Ġdimensions": 8911,
      "Ġremboursement": 8912,
      "aga": 8913,
      "ĠPDF": 8914,
      "ockey": 8915,
      "Ġmarge": 8916,
      "ĠmontÃ©e": 8917,
      "ĠpensÃ©": 8918,
      "Ġrecev": 8919,
      "ĠÃ©loign": 8920,
      "ĠrÃ©serves": 8921,
      "59": 8922,
      "Ã©re": 8923,
      "tige": 8924,
      "Ġ37": 8925,
      "Ġjuges": 8926,
      "Ġvoile": 8927,
      "ild": 8928,
      "ĠperÃ§": 8929,
      "ĠprÃ©fÃ¨re": 8930,
      "ĠMondi": 8931,
      "ĠcomposÃ©e": 8932,
      "Ġrecommande": 8933,
      "Ġauxquelles": 8934,
      "oivent": 8935,
      "ĠTr": 8936,
      "Ġfortes": 8937,
      "ba": 8938,
      "Ġrond": 8939,
      "ĠvariÃ©tÃ©": 8940,
      "UNESCO": 8941,
      "Ġcontribue": 8942,
      "Ġmusulman": 8943,
      "hÃ©rence": 8944,
      "Ġsatell": 8945,
      "ĠlibÃ©ration": 8946,
      "Ġfeuille": 8947,
      "ereur": 8948,
      "Ġfarine": 8949,
      "ĠdÃ©tec": 8950,
      "Ġlanc": 8951,
      "ĠquÃ©bÃ©cois": 8952,
      "Ġparois": 8953,
      "ĠBos": 8954,
      "adÃ©mie": 8955,
      "Ġdissi": 8956,
      "Ġ39": 8957,
      "ĠposÃ©": 8958,
      "Ġkg": 8959,
      "Ġcombats": 8960,
      "Ġvoient": 8961,
      "Ġbuts": 8962,
      "Ġveiller": 8963,
      "ĠLac": 8964,
      "ĠPol": 8965,
      "Ġappliquer": 8966,
      "ĠprÃ©sentant": 8967,
      "Ġfrancs": 8968,
      "ĠdÃ©fend": 8969,
      "ĠÃ©ventuellement": 8970,
      "ĠenregistrÃ©": 8971,
      "Ġquinze": 8972,
      "Ħ¢": 8973,
      "charger": 8974,
      "ĠCelle": 8975,
      "ĠHaute": 8976,
      "Ġarchives": 8977,
      "Ġrouges": 8978,
      "Ġhauts": 8979,
      "(*": 8980,
      "vence": 8981,
      "ciation": 8982,
      "Ġvenait": 8983,
      "Ġindustrielle": 8984,
      "Ø§ÙĦ": 8985,
      "eront": 8986,
      "aro": 8987,
      "ĠgÃª": 8988,
      "ĠPME": 8989,
      "Ġcontro": 8990,
      "Ġ1992": 8991,
      "Ġbatterie": 8992,
      "ĠlÃ©gitime": 8993,
      "Imp": 8994,
      "ĠFree": 8995,
      "Ġmenaces": 8996,
      "Ġrock": 8997,
      "interface": 8998,
      "ĠapparaÃ®tre": 8999,
      "ĠappelÃ©e": 9000,
      "fa": 9001,
      "jeu": 9002,
      "Ġtoit": 9003,
      "ĠfÃªtes": 9004,
      "Ġtroupe": 9005,
      "ocal": 9006,
      "Ġ34": 9007,
      "Ġfiche": 9008,
      "ĠespÃ¨ce": 9009,
      "Ġjolie": 9010,
      "Ġdoigts": 9011,
      "riment": 9012,
      "ĠgarÃ§on": 9013,
      "ĠdÃ©tente": 9014,
      "ĠbÃ©nÃ©ficie": 9015,
      "Ġsavons": 9016,
      "Ġfiscal": 9017,
      "atherine": 9018,
      "MÃªme": 9019,
      "lot": 9020,
      "Ġvag": 9021,
      "Ġore": 9022,
      "endredi": 9023,
      "Ġmesurer": 9024,
      "tionnaires": 9025,
      "AFP": 9026,
      "armer": 9027,
      "Ġsoutenu": 9028,
      "Ã©mique": 9029,
      "ANS": 9030,
      "Ġreligieuse": 9031,
      "fghan": 9032,
      "Ġdeb": 9033,
      "activ": 9034,
      "ĠgrÃ¨ve": 9035,
      "Ġferont": 9036,
      "Ġsolaire": 9037,
      "ĠdÃ©placer": 9038,
      "Ġrendent": 9039,
      "Ġcadeaux": 9040,
      "Ġofficiellement": 9041,
      "FC": 9042,
      "dd": 9043,
      "Ġfoyer": 9044,
      "ĠMoh": 9045,
      "ĠAR": 9046,
      "ĠproposÃ©e": 9047,
      "Ġcouper": 9048,
      "employ": 9049,
      "hÃ´pital": 9050,
      "ero": 9051,
      "entend": 9052,
      "inq": 9053,
      "hÃ©tique": 9054,
      "ual": 9055,
      "ete": 9056,
      "ĠrÃ©actions": 9057,
      "ĠrÃ©pand": 9058,
      "Ġhyper": 9059,
      "gÃ¨ne": 9060,
      "itÃ´t": 9061,
      "Ġpositions": 9062,
      "Ġaides": 9063,
      "ttawa": 9064,
      "Ġpack": 9065,
      "Ġpape": 9066,
      "Ġstar": 9067,
      "ĠtournÃ©e": 9068,
      "CD": 9069,
      "ortÃ©e": 9070,
      "Ġroul": 9071,
      "Ġjusque": 9072,
      "Ġrestri": 9073,
      "Ġ1993": 9074,
      "ĠaugmentÃ©": 9075,
      "Ġtranquille": 9076,
      "tt": 9077,
      "ĠlaÃ¯": 9078,
      "ĠSar": 9079,
      "aband": 9080,
      "ĠEsp": 9081,
      "ĠEng": 9082,
      "Ġafficher": 9083,
      "ombie": 9084,
[...]
